[PAD]	0
[UNK]	0
[BOS]	0
[EOS]	0
[SEP]	0
[MASK]	0
<0x00>	0
<0x01>	0
<0x02>	0
<0x03>	0
<0x04>	0
<0x05>	0
<0x06>	0
<0x07>	0
<0x08>	0
<0x09>	0
<0x0A>	0
<0x0B>	0
<0x0C>	0
<0x0D>	0
<0x0E>	0
<0x0F>	0
<0x10>	0
<0x11>	0
<0x12>	0
<0x13>	0
<0x14>	0
<0x15>	0
<0x16>	0
<0x17>	0
<0x18>	0
<0x19>	0
<0x1A>	0
<0x1B>	0
<0x1C>	0
<0x1D>	0
<0x1E>	0
<0x1F>	0
<0x20>	0
<0x21>	0
<0x22>	0
<0x23>	0
<0x24>	0
<0x25>	0
<0x26>	0
<0x27>	0
<0x28>	0
<0x29>	0
<0x2A>	0
<0x2B>	0
<0x2C>	0
<0x2D>	0
<0x2E>	0
<0x2F>	0
<0x30>	0
<0x31>	0
<0x32>	0
<0x33>	0
<0x34>	0
<0x35>	0
<0x36>	0
<0x37>	0
<0x38>	0
<0x39>	0
<0x3A>	0
<0x3B>	0
<0x3C>	0
<0x3D>	0
<0x3E>	0
<0x3F>	0
<0x40>	0
<0x41>	0
<0x42>	0
<0x43>	0
<0x44>	0
<0x45>	0
<0x46>	0
<0x47>	0
<0x48>	0
<0x49>	0
<0x4A>	0
<0x4B>	0
<0x4C>	0
<0x4D>	0
<0x4E>	0
<0x4F>	0
<0x50>	0
<0x51>	0
<0x52>	0
<0x53>	0
<0x54>	0
<0x55>	0
<0x56>	0
<0x57>	0
<0x58>	0
<0x59>	0
<0x5A>	0
<0x5B>	0
<0x5C>	0
<0x5D>	0
<0x5E>	0
<0x5F>	0
<0x60>	0
<0x61>	0
<0x62>	0
<0x63>	0
<0x64>	0
<0x65>	0
<0x66>	0
<0x67>	0
<0x68>	0
<0x69>	0
<0x6A>	0
<0x6B>	0
<0x6C>	0
<0x6D>	0
<0x6E>	0
<0x6F>	0
<0x70>	0
<0x71>	0
<0x72>	0
<0x73>	0
<0x74>	0
<0x75>	0
<0x76>	0
<0x77>	0
<0x78>	0
<0x79>	0
<0x7A>	0
<0x7B>	0
<0x7C>	0
<0x7D>	0
<0x7E>	0
<0x7F>	0
<0x80>	0
<0x81>	0
<0x82>	0
<0x83>	0
<0x84>	0
<0x85>	0
<0x86>	0
<0x87>	0
<0x88>	0
<0x89>	0
<0x8A>	0
<0x8B>	0
<0x8C>	0
<0x8D>	0
<0x8E>	0
<0x8F>	0
<0x90>	0
<0x91>	0
<0x92>	0
<0x93>	0
<0x94>	0
<0x95>	0
<0x96>	0
<0x97>	0
<0x98>	0
<0x99>	0
<0x9A>	0
<0x9B>	0
<0x9C>	0
<0x9D>	0
<0x9E>	0
<0x9F>	0
<0xA0>	0
<0xA1>	0
<0xA2>	0
<0xA3>	0
<0xA4>	0
<0xA5>	0
<0xA6>	0
<0xA7>	0
<0xA8>	0
<0xA9>	0
<0xAA>	0
<0xAB>	0
<0xAC>	0
<0xAD>	0
<0xAE>	0
<0xAF>	0
<0xB0>	0
<0xB1>	0
<0xB2>	0
<0xB3>	0
<0xB4>	0
<0xB5>	0
<0xB6>	0
<0xB7>	0
<0xB8>	0
<0xB9>	0
<0xBA>	0
<0xBB>	0
<0xBC>	0
<0xBD>	0
<0xBE>	0
<0xBF>	0
<0xC0>	0
<0xC1>	0
<0xC2>	0
<0xC3>	0
<0xC4>	0
<0xC5>	0
<0xC6>	0
<0xC7>	0
<0xC8>	0
<0xC9>	0
<0xCA>	0
<0xCB>	0
<0xCC>	0
<0xCD>	0
<0xCE>	0
<0xCF>	0
<0xD0>	0
<0xD1>	0
<0xD2>	0
<0xD3>	0
<0xD4>	0
<0xD5>	0
<0xD6>	0
<0xD7>	0
<0xD8>	0
<0xD9>	0
<0xDA>	0
<0xDB>	0
<0xDC>	0
<0xDD>	0
<0xDE>	0
<0xDF>	0
<0xE0>	0
<0xE1>	0
<0xE2>	0
<0xE3>	0
<0xE4>	0
<0xE5>	0
<0xE6>	0
<0xE7>	0
<0xE8>	0
<0xE9>	0
<0xEA>	0
<0xEB>	0
<0xEC>	0
<0xED>	0
<0xEE>	0
<0xEF>	0
<0xF0>	0
<0xF1>	0
<0xF2>	0
<0xF3>	0
<0xF4>	0
<0xF5>	0
<0xF6>	0
<0xF7>	0
<0xF8>	0
<0xF9>	0
<0xFA>	0
<0xFB>	0
<0xFC>	0
<0xFD>	0
<0xFE>	0
<0xFF>	0
▁이	-0
▁.	-1
▁다	-2
▁는	-3
▁에	-4
▁을	-5
▁의	-6
▁하	-7
▁,	-8
▁고	-9
▁가	-10
▁은	-11
▁한	-12
▁를	-13
▁지	-14
▁1	-15
▁기	-16
▁대	-17
▁t	-18
▁있	-19
▁으	-20
▁도	-21
▁2	-22
▁으로	-23
▁사	-24
▁했	-25
▁인	-26
▁시	-27
▁a	-28
▁수	-29
▁로	-30
he	-31
▁에서	-32
in	-33
▁일	-34
▁전	-35
▁해	-36
▁과	-37
▁그	-38
▁들	-39
▁(	-40
▁아	-41
▁)	-42
▁어	-43
▁자	-44
▁보	-45
▁적	-46
▁것	-47
re	-48
▁부	-49
▁정	-50
▁만	-51
▁주	-52
on	-53
▁위	-54
▁등	-55
▁라	-56
▁the	-57
▁s	-58
▁공	-59
▁“	-60
▁”	-61
▁경	-62
▁나	-63
er	-64
▁’	-65
▁3	-66
▁면	-67
▁'	-68
▁제	-69
▁중	-70
at	-71
▁와	-72
▁o	-73
▁게	-74
▁‘	-75
▁개	-76
▁상	-77
▁년	-78
▁20	-79
▁할	-80
▁c	-81
▁조	-82
en	-83
▁여	-84
▁원	-85
▁되	-86
▁"	-87
▁관	-88
▁국	-89
es	-90
▁w	-91
▁된	-92
▁성	-93
an	-94
is	-95
▁었	-96
▁-	-97
▁선	-98
it	-99
▁한다	-100
or	-101
▁내	-102
▁연	-103
▁p	-104
▁소	-105
▁마	-106
▁유	-107
▁오	-108
▁4	-109
▁서	-110
▁b	-111
▁5	-112
al	-113
▁f	-114
▁·	-115
▁비	-116
▁an	-117
▁모	-118
▁며	-119
▁신	-120
ing	-121
▁거	-122
00	-123
▁m	-124
ed	-125
ou	-126
▁미	-127
▁구	-128
▁of	-129
▁세	-130
▁の	-131
ar	-132
▁명	-133
▁안	-134
▁말	-135
▁in	-136
▁월	-137
▁최	-138
▁통	-139
▁、	-140
▁방	-141
▁예	-142
▁발	-143
▁우	-144
▁분	-145
▁생	-146
▁to	-147
▁교	-148
▁%	-149
▁and	-150
ic	-151
▁않	-152
▁스	-153
▁동	-154
▁d	-155
▁19	-156
▁문	-157
▁진	-158
▁없	-159
▁장	-160
▁회	-161
▁화	-162
▁강	-163
ion	-164
▁차	-165
▁계	-166
▁현	-167
▁당	-168
▁6	-169
▁실	-170
▁때	-171
▁。	-172
▁영	-173
le	-174
▁재	-175
▁까	-176
▁바	-177
▁무	-178
▁T	-179
▁S	-180
ro	-181
▁까지	-182
▁지난	-183
▁A	-184
▁학	-185
▁김	-186
▁더	-187
▁7	-188
▁단	-189
▁던	-190
▁확	-191
as	-192
▁받	-193
▁감	-194
▁노	-195
▁결	-196
▁h	-197
▁건	-198
▁8	-199
▁추	-200
▁に	-201
▁라고	-202
▁후	-203
▁th	-204
ent	-205
▁특	-206
▁올	-207
▁반	-208
▁면서	-209
▁따	-210
▁불	-211
▁에게	-212
▁C	-213
▁았	-214
▁지만	-215
▁입	-216
▁201	-217
▁매	-218
▁됐	-219
▁대한	-220
▁같	-221
▁e	-222
▁배	-223
▁9	-224
il	-225
▁달	-226
ct	-227
▁된다	-228
▁또	-229
▁I	-230
▁사업	-231
▁re	-232
▁출	-233
▁年	-234
▁l	-235
om	-236
▁남	-237
▁금	-238
▁10	-239
▁위해	-240
▁포	-241
▁다는	-242
▁겠	-243
▁억	-244
▁설	-245
ve	-246
▁투	-247
▁처	-248
▁행	-249
니다	-250
▁권	-251
▁운	-252
▁지역	-253
▁n	-254
▁역	-255
▁함	-256
▁다고	-257
▁산	-258
▁?	-259
▁~	-260
▁요	-261
▁평	-262
▁청	-263
us	-264
▁많	-265
▁부터	-266
▁활	-267
▁간	-268
▁한국	-269
▁물	-270
▁박	-271
▁저	-272
▁M	-273
▁밝	-274
▁점	-275
▁코	-276
▁민	-277
▁참	-278
ol	-279
▁작	-280
▁프	-281
et	-282
▁알	-283
▁협	-284
▁증	-285
▁두	-286
▁직	-287
▁を	-288
▁is	-289
▁g	-290
▁업	-291
▁체	-292
▁통해	-293
▁파	-294
▁집	-295
▁열	-296
▁지원	-297
ly	-298
▁:	-299
▁사람	-300
▁법	-301
▁라는	-302
▁총	-303
▁피	-304
▁아니	-305
▁B	-306
▁P	-307
▁외	-308
▁데	-309
▁기업	-310
▁및	-311
▁앞	-312
▁）	-313
▁초	-314
▁리	-315
▁시장	-316
▁우리	-317
▁본	-318
▁be	-319
▁형	-320
▁임	-321
st	-322
▁씨	-323
▁검	-324
id	-325
▁양	-326
ation	-327
▁판	-328
▁는데	-329
▁は	-330
▁호	-331
▁（	-332
▁치	-333
im	-334
▁될	-335
▁200	-336
▁L	-337
▁때문	-338
▁대표	-339
▁밝혔	-340
ut	-341
▁보다	-342
▁심	-343
ow	-344
ch	-345
▁종	-346
ur	-347
▁번	-348
ce	-349
▁で	-350
▁새	-351
▁못	-352
▁y	-353
ot	-354
▁타	-355
▁환	-356
ra	-357
▁정부	-358
▁D	-359
▁교육	-360
▁야	-361
▁높	-362
▁위원	-363
▁경기	-364
ig	-365
▁서울	-366
▁대해	-367
▁규	-368
▁필	-369
▁이번	-370
▁드	-371
▁변	-372
▁for	-373
▁천	-374
▁st	-375
▁함께	-376
▁군	-377
▁し	-378
▁The	-379
▁12	-380
▁각	-381
▁F	-382
▁광	-383
▁관계	-384
▁맞	-385
▁on	-386
▁と	-387
▁습	-388
▁가능	-389
▁좋	-390
▁E	-391
▁K	-392
▁살	-393
▁그러	-394
▁11	-395
▁음	-396
▁경우	-397
▁목	-398
ver	-399
▁합	-400
▁시간	-401
▁미국	-402
▁that	-403
el	-404
▁0	-405
▁G	-406
▁약	-407
ir	-408
▁였	-409
▁도록	-410
▁문제	-411
▁이상	-412
▁사회	-413
▁W	-414
▁위한	-415
ay	-416
un	-417
am	-418
▁관련	-419
▁복	-420
▁삼	-421
▁日	-422
▁が	-423
▁카	-424
▁네	-425
▁용	-426
▁생각	-427
▁H	-428
▁계획	-429
ul	-430
통령	-431
▁you	-432
▁근	-433
▁경제	-434
▁해야	-435
▁대통령	-436
▁준	-437
▁농	-438
▁N	-439
▁돼	-440
▁취	-441
▁진행	-442
▁속	-443
▁…	-444
▁충	-445
▁채	-446
▁따라	-447
▁프로	-448
▁창	-449
▁의원	-450
000	-451
▁습니다	-452
▁연구	-453
se	-454
▁손	-455
▁are	-456
▁이후	-457
▁개발	-458
▁세계	-459
ith	-460
▁투자	-461
▁R	-462
ad	-463
▁크	-464
▁온	-465
▁승	-466
▁순	-467
▁북	-468
▁줄	-469
▁니	-470
▁국민	-471
▁pro	-472
▁지난해	-473
▁식	-474
▁편	-475
▁15	-476
▁as	-477
▁202	-478
▁표	-479
▁뒤	-480
▁30	-481
▁올해	-482
▁이나	-483
▁18	-484
her	-485
▁or	-486
▁기술	-487
▁돌	-488
▁상황	-489
▁트	-490
▁잘	-491
▁문화	-492
▁시작	-493
▁필요	-494
▁아이	-495
▁누	-496
▁담	-497
▁중국	-498
▁토	-499
▁이날	-500
▁후보	-501
▁운영	-502
▁with	-503
if	-504
▁con	-505
▁대상	-506
▁백	-507
▁it	-508
▁별	-509
od	-510
▁산업	-511
▁국내	-512
▁언	-513
▁메	-514
▁조사	-515
ter	-516
▁가장	-517
▁팀	-518
▁힘	-519
▁자신	-520
▁al	-521
▁완	-522
▁디	-523
▁버	-524
▁학교	-525
▁wh	-526
▁다른	-527
▁/	-528
▁곳	-529
▁月	-530
▁사용	-531
▁축	-532
▁독	-533
ge	-534
▁걸	-535
▁병	-536
▁예정	-537
▁라며	-538
ㅋㅋ	-539
▁항	-540
▁대학	-541
▁현재	-542
▁논	-543
▁최근	-544
▁추진	-545
▁찾	-546
▁질	-547
▁친	-548
▁급	-549
▁사실	-550
▁일본	-551
▁만들	-552
▁O	-553
▁접	-554
▁늘	-555
▁관리	-556
ment	-557
▁절	-558
▁센	-559
▁그런	-560
op	-561
▁국가	-562
▁활동	-563
▁민주	-564
비스	-565
▁책	-566
▁결과	-567
▁특히	-568
ill	-569
▁넘	-570
▁지금	-571
▁다양	-572
▁태	-573
▁느	-574
▁브	-575
▁금융	-576
▁모두	-577
▁큰	-578
▁글	-579
▁com	-580
▁플	-581
▁도시	-582
ess	-583
▁는다	-584
▁전문	-585
▁관계자	-586
로나	-587
ate	-588
ers	-589
▁정책	-590
▁de	-591
▁学	-592
▁he	-593
▁향	-594
▁하나	-595
▁효	-596
▁k	-597
▁서비스	-598
▁평가	-599
▁선수	-600
ore	-601
th	-602
▁길	-603
ts	-604
▁코로나	-605
▁!	-606
ies	-607
ab	-608
▁날	-609
▁16	-610
▁그리	-611
▁따르	-612
▁13	-613
um	-614
▁이용	-615
▁가지	-616
▁ex	-617
▁기록	-618
▁폭	-619
레이	-620
▁정도	-621
▁기관	-622
▁이런	-623
▁안전	-624
ect	-625
▁大	-626
▁기준	-627
▁v	-628
▁참여	-629
ac	-630
스트	-631
▁U	-632
▁패	-633
▁홍	-634
▁려	-635
▁윤	-636
▁14	-637
▁철	-638
▁눈	-639
▁허	-640
ity	-641
▁정보	-642
▁17	-643
▁측	-644
▁we	-645
▁애	-646
ure	-647
oun	-648
ive	-649
▁환경	-650
▁199	-651
▁센터	-652
▁다시	-653
▁25	-654
ak	-655
▁첫	-656
▁너	-657
▁골	-658
▁시설	-659
▁경찰	-660
▁테	-661
▁%)	-662
▁으며	-663
렇게	-664
▁さ	-665
▁can	-666
▁규모	-667
ld	-668
てい	-669
▁엔	-670
▁갖	-671
▁커	-672
▁처럼	-673
지만	-674
os	-675
▁과정	-676
▁설명	-677
▁정치	-678
▁으면	-679
▁시민	-680
est	-681
▁들어	-682
▁해서	-683
▁학생	-684
▁△	-685
rom	-686
▁발생	-687
and	-688
ist	-689
igh	-690
▁사이	-691
▁베	-692
▁」	-693
em	-694
▁ha	-695
ud	-696
▁제공	-697
▁부산	-698
qu	-699
▁하지만	-700
▁성장	-701
시아	-702
▁위원회	-703
▁막	-704
▁영화	-705
ain	-706
▁그래	-707
▁at	-708
▁먹	-709
▁ch	-710
▁거나	-711
▁J	-712
iv	-713
▁r	-714
pp	-715
▁ㆍ	-716
▁확대	-717
▁키	-718
▁by	-719
▁피해	-720
▁볼	-721
▁증가	-722
▁us	-723
▁제품	-724
▁그러나	-725
▁이어	-726
▁100	-727
▁벌	-728
▁업체	-729
▁많이	-730
▁뿐	-731
▁기대	-732
▁In	-733
oc	-734
▁싶	-735
▁발전	-736
▁발표	-737
▁ne	-738
▁국제	-739
▁결정	-740
▁이제	-741
▁국회	-742
▁삼성	-743
랜드	-744
▁최고	-745
▁새로	-746
▁다음	-747
▁선거	-748
▁from	-749
▁생활	-750
▁끝	-751
▁잡	-752
▁「	-753
▁모든	-754
▁su	-755
▁전국	-756
▁확인	-757
▁판매	-758
▁범	-759
▁감독	-760
▁마련	-761
▁갈	-762
▁내용	-763
▁가격	-764
▁강화	-765
▁대회	-766
▁21	-767
운데	-768
▁얼	-769
▁쓰	-770
▁최대	-771
▁당시	-772
▁나타	-773
▁뭐	-774
▁행사	-775
▁활용	-776
▁50	-777
▁le	-778
▁회사	-779
▁동안	-780
▁가운데	-781
▁se	-782
▁주민	-783
▁방송	-784
ren	-785
▁24	-786
ial	-787
▁그리고	-788
▁지방	-789
▁현대	-790
▁공개	-791
▁생산	-792
ant	-793
▁기간	-794
▁회장	-795
res	-796
▁다가	-797
▁され	-798
▁극	-799
▁대비	-800
▁・	-801
▁또한	-802
▁률	-803
▁중요	-804
▁레	-805
▁か	-806
▁빠	-807
ort	-808
인다	-809
▁모습	-810
▁이유	-811
▁주장	-812
▁대구	-813
▁한다는	-814
▁경쟁	-815
▁님	-816
▁민주당	-817
▁어요	-818
▁분석	-819
▁여성	-820
▁す	-821
▁주택	-822
og	-823
▁만큼	-824
▁프로그	-825
▁마음	-826
▁전망	-827
▁좀	-828
▁22	-829
▁어려	-830
▁째	-831
▁공동	-832
▁육	-833
▁러	-834
▁처음	-835
▁분야	-836
▁클	-837
▁한편	-838
▁have	-839
▁ア	-840
▁was	-841
▁포함	-842
▁중심	-843
▁존	-844
▁어서	-845
▁울	-846
▁人	-847
▁회의	-848
▁수준	-849
った	-850
▁왔	-851
▁프로그램	-852
▁en	-853
▁준비	-854
▁구성	-855
ある	-856
▁사건	-857
▁송	-858
▁단체	-859
▁은행	-860
▁교수	-861
▁추가	-862
▁고객	-863
▁개선	-864
▁밖	-865
▁sh	-866
ical	-867
▁자리	-868
▁페	-869
▁い	-870
▁강조	-871
▁직접	-872
▁』	-873
▁현장	-874
▁협력	-875
▁sp	-876
부터	-877
art	-878
▁거래	-879
▁어떤	-880
▁23	-881
▁탄	-882
▁した	-883
▁혁	-884
▁지속	-885
▁폐	-886
▁이미	-887
▁상품	-888
▁긴	-889
▁놓	-890
▁행정	-891
▁보이	-892
▁새로운	-893
▁없이	-894
▁북한	-895
▁죠	-896
ri	-897
▁not	-898
▁난	-899
▁달러	-900
▁광주	-901
▁な	-902
▁관광	-903
▁소비	-904
▁여러	-905
▁바이	-906
▁핵	-907
▁国	-908
▁스타	-909
▁wor	-910
▁특별	-911
▁황	-912
▁일부	-913
▁알려	-914
▁장관	-915
▁un	-916
▁지적	-917
▁경영	-918
▁수사	-919
▁엄	-920
▁응	-921
▁상승	-922
▁V	-923
▁관심	-924
▁노력	-925
▁미래	-926
▁오후	-927
▁이야	-928
▁운동	-929
▁ab	-930
▁선정	-931
▁나라	-932
대로	-933
▁40	-934
▁『	-935
ap	-936
▁뉴	-937
▁인천	-938
▁전체	-939
▁198	-940
라고	-941
▁효과	-942
▁this	-943
▁입장	-944
all	-945
으며	-946
▁휴	-947
▁조성	-948
▁사랑	-949
▁그룹	-950
▁홈	-951
▁듯	-952
▁자동	-953
니까	-954
our	-955
▁몰	-956
▁상태	-957
▁희	-958
▁your	-959
▁위원장	-960
▁개인	-961
▁27	-962
▁시즌	-963
▁26	-964
▁먼	-965
ine	-966
▁건설	-967
▁요구	-968
▁28	-969
▁머	-970
▁콘	-971
▁실시	-972
▁병원	-973
ome	-974
▁터	-975
▁해당	-976
▁出	-977
▁시스	-978
▁する	-979
▁이야기	-980
▁글로	-981
▁가족	-982
▁기존	-983
▁낮	-984
▁는지	-985
▁검찰	-986
ost	-987
▁같이	-988
▁케	-989
▁계속	-990
▁침	-991
▁이렇게	-992
out	-993
▁예상	-994
▁란	-995
▁석	-996
▁中	-997
ag	-998
▁블	-999
▁방문	-1000
▁밀	-1001
▁의미	-1002
ている	-1003
▁적극	-1004
ust	-1005
▁떠	-1006
▁노동	-1007
▁pl	-1008
ard	-1009
▁한다고	-1010
▁상대	-1011
▁건강	-1012
▁주요	-1013
▁잠	-1014
ell	-1015
▁업무	-1016
▁im	-1017
▁글로벌	-1018
▁층	-1019
▁日本	-1020
ight	-1021
▁해외	-1022
▁영향	-1023
▁Th	-1024
▁会	-1025
라인	-1026
마트	-1027
ich	-1028
▁떨	-1029
gh	-1030
ions	-1031
▁봉	-1032
▁일반	-1033
ide	-1034
▁성공	-1035
red	-1036
▁공사	-1037
▁공급	-1038
▁제도	-1039
▁적용	-1040
▁나오	-1041
▁시스템	-1042
▁역사	-1043
ould	-1044
▁확보	-1045
▁>	-1046
▁중앙	-1047
▁개월	-1048
▁왕	-1049
▁시키	-1050
▁예산	-1051
▁사고	-1052
▁인터	-1053
▁변화	-1054
▁물론	-1055
▁방안	-1056
ear	-1057
▁|	-1058
▁<	-1059
▁책임	-1060
▁개최	-1061
▁내년	-1062
▁인사	-1063
▁열린	-1064
▁전략	-1065
▁악	-1066
▁계약	-1067
▁돈	-1068
ther	-1069
▁방식	-1070
▁보험	-1071
▁부분	-1072
age	-1073
▁一	-1074
ff	-1075
▁대응	-1076
▁캐	-1077
▁설치	-1078
▁신청	-1079
▁너무	-1080
▁못하	-1081
▁their	-1082
▁루	-1083
▁구조	-1084
▁귀	-1085
▁29	-1086
▁작품	-1087
act	-1088
▁어떻	-1089
너지	-1090
어나	-1091
ated	-1092
▁죽	-1093
ound	-1094
▁더욱	-1095
▁혐	-1096
du	-1097
▁게임	-1098
▁역시	-1099
▁보여	-1100
▁냐	-1101
리아	-1102
▁시대	-1103
▁유지	-1104
▁든	-1105
ood	-1106
▁여기	-1107
▁그렇	-1108
▁검사	-1109
▁교통	-1110
▁돌아	-1111
▁대해서	-1112
▁앞서	-1113
▁실제	-1114
ast	-1115
▁비롯	-1116
▁탈	-1117
▁능	-1118
▁율	-1119
▁복지	-1120
▁왜	-1121
▁다면	-1122
▁역할	-1123
▁그래서	-1124
▁대책	-1125
ip	-1126
▁보인다	-1127
▁의료	-1128
▁방법	-1129
▁매출	-1130
▁：	-1131
▁아닌	-1132
▁int	-1133
▁정상	-1134
▁위기	-1135
▁]	-1136
▁십	-1137
▁목표	-1138
ough	-1139
▁市	-1140
per	-1141
▁공간	-1142
▁몸	-1143
▁will	-1144
▁아파	-1145
▁맡	-1146
▁입니다	-1147
ec	-1148
▁팔	-1149
▁▲	-1150
▁혁신	-1151
▁얘	-1152
▁가치	-1153
▁바로	-1154
ans	-1155
▁감사	-1156
▁치료	-1157
▁얻	-1158
▁시행	-1159
▁배우	-1160
▁whe	-1161
▁직원	-1162
▁혼	-1163
▁기자	-1164
▁통합	-1165
▁이름	-1166
▁보호	-1167
▁자유	-1168
iz	-1169
▁they	-1170
▁외국	-1171
▁풀	-1172
▁조선	-1173
der	-1174
▁comp	-1175
▁혐의	-1176
▁격	-1177
이터	-1178
▁우려	-1179
▁Y	-1180
▁떨어	-1181
▁구축	-1182
pt	-1183
▁풍	-1184
ia	-1185
▁수출	-1186
▁답	-1187
▁[	-1188
▁more	-1189
▁티	-1190
▁집중	-1191
▁から	-1192
▁지난달	-1193
▁inc	-1194
▁안정	-1195
▁부담	-1196
▁리그	-1197
▁31	-1198
민국	-1199
▁아파트	-1200
▁이라고	-1201
▁나온	-1202
ous	-1203
▁공공	-1204
▁품	-1205
ong	-1206
▁단계	-1207
▁ad	-1208
▁의견	-1209
▁오늘	-1210
▁제작	-1211
ew	-1212
▁St	-1213
▁브랜드	-1214
▁자체	-1215
▁dis	-1216
▁대한민국	-1217
▁all	-1218
▁스마트	-1219
▁LG	-1220
▁마을	-1221
ib	-1222
▁자기	-1223
▁자동차	-1224
▁어린	-1225
▁아직	-1226
▁즐	-1227
vel	-1228
▁고려	-1229
▁전했	-1230
ok	-1231
▁어야	-1232
▁ま	-1233
▁기능	-1234
ru	-1235
cc	-1236
▁이전	-1237
▁뜻	-1238
▁분기	-1239
▁공연	-1240
▁조직	-1241
▁나가	-1242
▁각각	-1243
▁which	-1244
▁얘기	-1245
▁또는	-1246
▁197	-1247
▁대전	-1248
▁do	-1249
▁쇼	-1250
▁cont	-1251
▁이뤄	-1252
주의	-1253
▁과학	-1254
이스	-1255
ild	-1256
▁&	-1257
▁조치	-1258
▁영업	-1259
▁해결	-1260
▁종합	-1261
이트	-1262
▁협의	-1263
▁가구	-1264
▁대출	-1265
▁따른	-1266
▁평균	-1267
▁둘	-1268
▁여자	-1269
▁has	-1270
ater	-1271
▁판단	-1272
▁통신	-1273
▁처리	-1274
▁감소	-1275
진다	-1276
자리	-1277
▁res	-1278
▁어떻게	-1279
▁오전	-1280
▁기반	-1281
▁환자	-1282
▁ar	-1283
▁조정	-1284
orm	-1285
▁착	-1286
▁生	-1287
▁자연	-1288
▁기회	-1289
▁펼	-1290
▁인지	-1291
▁에너지	-1292
▁인정	-1293
▁선택	-1294
▁te	-1295
▁업계	-1296
▁60	-1297
ik	-1298
▁뛰	-1299
▁쉽	-1300
▁..	-1301
▁그것	-1302
러스	-1303
▁청년	-1304
▁전문가	-1305
▁금리	-1306
▁컨	-1307
▁참석	-1308
▁이사	-1309
end	-1310
▁캠	-1311
pl	-1312
▁기본	-1313
▁라면	-1314
▁논의	-1315
▁전기	-1316
▁단지	-1317
so	-1318
전자	-1319
▁만나	-1320
▁자금	-1321
▁씩	-1322
▁県	-1323
▁경험	-1324
▁경기도	-1325
ry	-1326
▁SK	-1327
▁예술	-1328
▁수요	-1329
▁cl	-1330
▁도입	-1331
して	-1332
▁중소	-1333
▁압	-1334
▁결국	-1335
▁차량	-1336
▁아무	-1337
▁’,	-1338
▁놀	-1339
▁본부	-1340
▁로서	-1341
▁축구	-1342
up	-1343
▁대부	-1344
ations	-1345
▁장애	-1346
▁거리	-1347
▁즉	-1348
▁더라	-1349
▁위해서	-1350
▁음악	-1351
▁합니다	-1352
▁%,	-1353
▁전시	-1354
ary	-1355
▁능력	-1356
ep	-1357
▁출시	-1358
able	-1359
▁이해	-1360
▁온라인	-1361
BS	-1362
ence	-1363
▁도움	-1364
ents	-1365
▁롯	-1366
▁인데	-1367
▁man	-1368
▁2020	-1369
▁확진	-1370
ind	-1371
▁이러	-1372
▁자료	-1373
▁훈	-1374
반기	-1375
ake	-1376
ult	-1377
▁하루	-1378
▁퍼	-1379
▁수익	-1380
인트	-1381
▁me	-1382
▁워	-1383
▁밖에	-1384
▁사진	-1385
▁東	-1386
▁삶	-1387
▁반대	-1388
▁선보	-1389
▁인간	-1390
こと	-1391
▁체험	-1392
▁이익	-1393
▁행위	-1394
▁현지	-1395
▁모델	-1396
▁최초	-1397
▁팬	-1398
▁제주	-1399
▁우수	-1400
▁사무	-1401
ual	-1402
ack	-1403
▁친구	-1404
▁카드	-1405
ach	-1406
▁끌	-1407
▁여행	-1408
▁징	-1409
▁수도	-1410
▁공격	-1411
▁j	-1412
▁드러	-1413
▁감염	-1414
▁활성	-1415
▁롯데	-1416
▁지도	-1417
린다	-1418
▁기획	-1419
old	-1420
▁의회	-1421
▁장기	-1422
▁other	-1423
▁맛	-1424
▁대부분	-1425
▁어느	-1426
▁유치	-1427
▁지급	-1428
▁비용	-1429
▁2019	-1430
ame	-1431
▁소비자	-1432
▁인상	-1433
▁전자	-1434
▁영상	-1435
▁유럽	-1436
▁차지	-1437
▁지지	-1438
▁부문	-1439
▁곡	-1440
▁but	-1441
▁imp	-1442
▁로부터	-1443
▁비판	-1444
▁소속	-1445
거리	-1446
▁상당	-1447
▁견	-1448
▁출신	-1449
머니	-1450
▁핵심	-1451
リー	-1452
▁남자	-1453
▁먼저	-1454
▁부동	-1455
ass	-1456
▁증권	-1457
▁위험	-1458
▁also	-1459
▁사례	-1460
▁드라	-1461
ㅋㅋㅋㅋ	-1462
▁2000	-1463
▁해도	-1464
reat	-1465
▁에선	-1466
▁2018	-1467
▁자산	-1468
▁작업	-1469
ance	-1470
▁청소	-1471
▁지구	-1472
▁제기	-1473
▁개정	-1474
ase	-1475
▁참가	-1476
▁地	-1477
▁다만	-1478
▁촉	-1479
▁재판	-1480
▁stud	-1481
▁one	-1482
▁It	-1483
▁검토	-1484
▁per	-1485
전히	-1486
▁보도	-1487
ign	-1488
av	-1489
▁;	-1490
▁꾸	-1491
▁께	-1492
▁세대	-1493
소리	-1494
▁암	-1495
▁이하	-1496
▁위치	-1497
▁ス	-1498
▁체계	-1499
▁時	-1500
▁마다	-1501
기업	-1502
▁TV	-1503
▁196	-1504
▁우선	-1505
▁전환	-1506
▁作	-1507
▁공식	-1508
▁규제	-1509
으나	-1510
▁몇	-1511
▁확산	-1512
▁니까	-1513
▁올라	-1514
한다	-1515
▁지정	-1516
▁꿈	-1517
one	-1518
ice	-1519
▁마지	-1520
▁本	-1521
▁공정	-1522
▁무엇	-1523
▁예방	-1524
▁so	-1525
▁㎡	-1526
▁퇴	-1527
▁공장	-1528
▁이동	-1529
▁포인트	-1530
▁out	-1531
▁about	-1532
▁녹	-1533
ール	-1534
▁반영	-1535
▁찾아	-1536
ace	-1537
▁액	-1538
ose	-1539
▁솔	-1540
이지	-1541
very	-1542
▁부동산	-1543
▁헌	-1544
▁정신	-1545
▁제한	-1546
▁못했	-1547
▁우승	-1548
▁부족	-1549
▁경남	-1550
ime	-1551
▁70	-1552
▁도로	-1553
▁수상	-1554
aus	-1555
▁최종	-1556
▁This	-1557
▁山	-1558
ress	-1559
▁울산	-1560
▁그런데	-1561
▁현실	-1562
▁봤	-1563
▁사장	-1564
▁자원	-1565
▁언론	-1566
▁동시	-1567
▁러시아	-1568
▁제시	-1569
▁社	-1570
▁마지막	-1571
▁신규	-1572
▁인기	-1573
▁펀	-1574
▁소재	-1575
▁재정	-1576
▁Ch	-1577
▁겨	-1578
ub	-1579
▁디자	-1580
▁나왔	-1581
어난	-1582
▁대로	-1583
▁논란	-1584
▁시청	-1585
▁더불	-1586
무원	-1587
▁2015	-1588
▁選	-1589
▁고용	-1590
▁sc	-1591
▁표현	-1592
▁차례	-1593
▁주변	-1594
▁35	-1595
▁소득	-1596
▁나타났	-1597
▁である	-1598
스크	-1599
▁항공	-1600
▁일정	-1601
▁봐	-1602
▁하락	-1603
▁슈	-1604
ction	-1605
▁쪽	-1606
ite	-1607
▁등장	-1608
ition	-1609
▁pe	-1610
▁본격	-1611
▁방침	-1612
▁2017	-1613
▁회복	-1614
▁주식	-1615
▁전화	-1616
▁작가	-1617
▁성과	-1618
ber	-1619
ang	-1620
▁진출	-1621
▁そ	-1622
▁설립	-1623
▁第	-1624
▁=	-1625
▁데이터	-1626
▁영국	-1627
▁사망	-1628
▁출연	-1629
▁웃	-1630
▁신고	-1631
▁フ	-1632
ory	-1633
▁も	-1634
▁An	-1635
ks	-1636
fe	-1637
▁校	-1638
▁일자리	-1639
▁높이	-1640
▁연구원	-1641
▁존재	-1642
▁숨	-1643
▁보고	-1644
▁여부	-1645
▁り	-1646
▁2010	-1647
▁의사	-1648
▁道	-1649
▁반면	-1650
▁그렇게	-1651
▁こ	-1652
are	-1653
▁누구	-1654
▁얼마	-1655
ens	-1656
▁2012	-1657
▁과거	-1658
▁헤	-1659
▁지나	-1660
▁합의	-1661
▁덧	-1662
▁모르	-1663
▁2014	-1664
▁매우	-1665
▁文	-1666
▁정말	-1667
▁inf	-1668
디어	-1669
▁された	-1670
▁2016	-1671
▁シ	-1672
▁인해	-1673
ie	-1674
ish	-1675
▁잔	-1676
ike	-1677
▁체육	-1678
▁스포	-1679
ue	-1680
▁発	-1681
▁として	-1682
▁高	-1683
ook	-1684
▁app	-1685
▁희망	-1686
▁행복	-1687
▁등록	-1688
▁구매	-1689
▁달리	-1690
▁어렵	-1691
▁行	-1692
▁전쟁	-1693
▁소리	-1694
▁전달	-1695
▁분위	-1696
버지	-1697
▁빌	-1698
▁関	-1699
▁실적	-1700
▁민간	-1701
▁갑	-1702
▁혜	-1703
▁up	-1704
동안	-1705
▁어린이	-1706
▁담당	-1707
▁공원	-1708
▁ev	-1709
▁분양	-1710
▁식품	-1711
▁경북	-1712
▁인가	-1713
▁방향	-1714
▁숙	-1715
▁라이	-1716
▁움	-1717
붙였	-1718
ック	-1719
▁각종	-1720
▁’(	-1721
▁대형	-1722
▁조금	-1723
▁보유	-1724
▁빈	-1725
▁전남	-1726
▁sy	-1727
ire	-1728
▁겪	-1729
▁쿠	-1730
▁대신	-1731
▁사항	-1732
▁밤	-1733
▁were	-1734
▁요청	-1735
▁망	-1736
▁비교	-1737
▁year	-1738
▁시험	-1739
▁싸	-1740
▁음식	-1741
ors	-1742
▁규정	-1743
▁이루	-1744
now	-1745
▁심사	-1746
▁대선	-1747
▁버스	-1748
▁의혹	-1749
▁분위기	-1750
▁낙	-1751
▁택	-1752
라이	-1753
▁선발	-1754
운드	-1755
▁올림	-1756
▁푸	-1757
▁누리	-1758
▁後	-1759
▁연기	-1760
▁가입	-1761
って	-1762
▁リ	-1763
ング	-1764
olog	-1765
▁훈련	-1766
ount	-1767
▁홍보	-1768
▁田	-1769
▁2013	-1770
▁80	-1771
▁인구	-1772
▁연속	-1773
▁홀	-1774
▁소개	-1775
▁목소리	-1776
▁comm	-1777
▁기념	-1778
ター	-1779
▁them	-1780
▁∼	-1781
▁향후	-1782
ays	-1783
ric	-1784
ree	-1785
▁발견	-1786
▁아야	-1787
▁외국인	-1788
▁차이	-1789
▁–	-1790
▁who	-1791
텐츠	-1792
▁인력	-1793
▁관한	-1794
▁펀드	-1795
▁느냐	-1796
▁小	-1797
▁qu	-1798
▁시기	-1799
▁범죄	-1800
▁외부	-1801
▁드라마	-1802
▁라도	-1803
▁알려졌	-1804
▁세상	-1805
▁디자인	-1806
▁2021	-1807
▁지사	-1808
ile	-1809
▁주목	-1810
▁500	-1811
ord	-1812
▁자치	-1813
▁合	-1814
▁내려	-1815
▁스포츠	-1816
▁보였	-1817
low	-1818
▁절차	-1819
▁했으며	-1820
ople	-1821
▁2011	-1822
▁아시아	-1823
▁전통	-1824
▁벤	-1825
▁者	-1826
▁서로	-1827
▁프리	-1828
▁제외	-1829
▁go	-1830
▁무대	-1831
▁보건	-1832
▁디지	-1833
ces	-1834
▁공무원	-1835
▁축제	-1836
▁붙	-1837
▁청와	-1838
▁을까	-1839
▁제조	-1840
▁청와대	-1841
▁깨	-1842
▁pre	-1843
ラン	-1844
した	-1845
▁청소년	-1846
▁협회	-1847
▁사전	-1848
▁올림픽	-1849
▁려는	-1850
▁코스	-1851
BC	-1852
▁가까	-1853
▁인터넷	-1854
▁슬	-1855
▁히	-1856
▁전년	-1857
▁투표	-1858
▁으로서	-1859
▁흐	-1860
▁同	-1861
다는	-1862
▁좌	-1863
▁당국	-1864
▁部	-1865
▁제대로	-1866
▁깊	-1867
▁통한	-1868
▁디지털	-1869
▁비해	-1870
▁인식	-1871
▁덧붙였	-1872
▁2009	-1873
리스	-1874
▁き	-1875
▁新	-1876
▁창업	-1877
▁than	-1878
▁점검	-1879
▁콘텐츠	-1880
▁넣	-1881
▁류	-1882
▁연결	-1883
▁bec	-1884
▁part	-1885
▁목적	-1886
▁may	-1887
▁중소기업	-1888
▁2008	-1889
▁흥	-1890
▁졸	-1891
▁불법	-1892
▁195	-1893
▁제안	-1894
▁근로	-1895
▁빨	-1896
▁고자	-1897
▁え	-1898
ail	-1899
▁내부	-1900
▁찬	-1901
mer	-1902
▁AI	-1903
▁32	-1904
vers	-1905
▁프랑	-1906
▁론	-1907
▁방역	-1908
▁ro	-1909
▁町	-1910
은행	-1911
▁납	-1912
▁イ	-1913
▁주제	-1914
▁바람	-1915
▁%),	-1916
▁수원	-1917
▁생명	-1918
▁사태	-1919
▁강원	-1920
▁rec	-1921
▁제출	-1922
▁승리	-1923
スト	-1924
▁Un	-1925
▁連	-1926
▁인도	-1927
▁보내	-1928
▁려고	-1929
▁섬	-1930
▁결혼	-1931
▁지수	-1932
▁플랫	-1933
▁how	-1934
▁더라도	-1935
▁가정	-1936
▁삼성전자	-1937
▁its	-1938
▁Wh	-1939
▁지하	-1940
▁수입	-1941
▁주인	-1942
▁000	-1943
▁や	-1944
▁으나	-1945
▁아들	-1946
▁흔	-1947
▁유통	-1948
▁when	-1949
▁공항	-1950
ings	-1951
스터	-1952
▁　	-1953
▁믿	-1954
▁거쳐	-1955
te	-1956
▁아요	-1957
▁some	-1958
▁독일	-1959
▁time	-1960
▁건축	-1961
▁플랫폼	-1962
▁2022	-1963
▁1000	-1964
▁싱	-1965
▁36	-1966
▁링	-1967
▁画	-1968
▁덕	-1969
▁근데	-1970
▁+	-1971
▁上	-1972
이션	-1973
▁시켜	-1974
▁戦	-1975
▁최소	-1976
▁듣	-1977
▁비율	-1978
▁川	-1979
▁く	-1980
▁어려운	-1981
rent	-1982
▁나온다	-1983
▁국정	-1984
▁협약	-1985
▁노래	-1986
▁행동	-1987
▁work	-1988
▁people	-1989
▁술	-1990
▁확정	-1991
▁like	-1992
▁45	-1993
alth	-1994
ove	-1995
▁서울시	-1996
▁33	-1997
▁중단	-1998
▁||	-1999
▁만든	-2000
ない	-2001
▁법인	-2002
▁임대	-2003
▁교사	-2004
▁부모	-2005
▁셨	-2006
▁수행	-2007
▁월드	-2008
▁형태	-2009
▁충분	-2010
▁그녀	-2011
▁대학교	-2012
▁위반	-2013
므로	-2014
▁tra	-2015
▁외교	-2016
▁sa	-2017
▁col	-2018
▁잇	-2019
▁색	-2020
▁으로써	-2021
▁연합	-2022
▁보장	-2023
▁家	-2024
▁노조	-2025
▁총리	-2026
디오	-2027
▁경쟁력	-2028
▁이르	-2029
▁our	-2030
▁정당	-2031
▁대화	-2032
▁には	-2033
rit	-2034
▁질문	-2035
▁め	-2036
▁소통	-2037
▁구체	-2038
les	-2039
▁コ	-2040
▁use	-2041
ph	-2042
▁이것	-2043
▁혹	-2044
▁194	-2045
▁파악	-2046
스로	-2047
▁공모	-2048
▁읽	-2049
▁サ	-2050
▁名	-2051
▁변호	-2052
▁취업	-2053
▁그동안	-2054
▁아서	-2055
▁開	-2056
▁염	-2057
▁못한	-2058
▁自	-2059
▁낸	-2060
▁평화	-2061
▁Al	-2062
▁진단	-2063
ian	-2064
▁아버지	-2065
▁거의	-2066
▁기억	-2067
없이	-2068
▁잖	-2069
▁hel	-2070
ates	-2071
▁外	-2072
▁人物	-2073
▁체결	-2074
▁변경	-2075
▁bl	-2076
▁공유	-2077
▁into	-2078
▁there	-2079
▁갔	-2080
▁어디	-2081
▁시절	-2082
lud	-2083
▁프랑스	-2084
▁궁	-2085
▁教	-2086
▁over	-2087
▁고민	-2088
row	-2089
▁학습	-2090
ob	-2091
▁ra	-2092
▁조건	-2093
ning	-2094
▁公	-2095
られ	-2096
▁차원	-2097
▁졌	-2098
▁임금	-2099
▁know	-2100
▁では	-2101
▁들어가	-2102
▁움직	-2103
▁によ	-2104
ys	-2105
레스	-2106
▁금지	-2107
tern	-2108
▁300	-2109
▁하이	-2110
▁been	-2111
▁》	-2112
▁dif	-2113
▁개혁	-2114
ュー	-2115
페인	-2116
erv	-2117
▁젊	-2118
▁백신	-2119
▁《	-2120
▁건물	-2121
▁그냥	-2122
▁투입	-2123
▁얼굴	-2124
▁농업	-2125
rough	-2126
▁스스로	-2127
▁설계	-2128
▁new	-2129
▁ag	-2130
▁반응	-2131
▁익	-2132
▁법원	-2133
ause	-2134
▁tr	-2135
▁타이	-2136
▁연계	-2137
▁전해	-2138
▁마이	-2139
▁주도	-2140
▁피해자	-2141
▁이달	-2142
▁남성	-2143
▁회원	-2144
▁반도	-2145
▁5000	-2146
▁인근	-2147
▁과제	-2148
▁이끌	-2149
ons	-2150
▁오른	-2151
▁주가	-2152
▁광고	-2153
▁달성	-2154
▁help	-2155
▁꼽	-2156
▁프로젝	-2157
▁He	-2158
ally	-2159
▁these	-2160
▁인물	-2161
▁초등	-2162
▁원인	-2163
▁벗	-2164
▁재단	-2165
▁딸	-2166
▁고등	-2167
▁교육청	-2168
▁구속	-2169
스코	-2170
ット	-2171
▁child	-2172
ms	-2173
▁need	-2174
▁立	-2175
▁발언	-2176
▁언급	-2177
▁앞두	-2178
▁유명	-2179
▁통과	-2180
▁맥	-2181
▁わ	-2182
▁동물	-2183
▁혜택	-2184
▁토론	-2185
▁옥	-2186
▁상담	-2187
▁34	-2188
lic	-2189
▁금액	-2190
▁프로젝트	-2191
▁け	-2192
▁2007	-2193
▁아동	-2194
▁칼	-2195
환경	-2196
▁기초	-2197
lect	-2198
▁넘어	-2199
▁바라	-2200
▁가진	-2201
▁학년	-2202
▁부정	-2203
▁근무	-2204
▁most	-2205
▁컴	-2206
▁ind	-2207
▁기사	-2208
▁보수	-2209
▁オ	-2210
▁所	-2211
▁his	-2212
▁비중	-2213
ool	-2214
▁국토	-2215
▁다르	-2216
▁act	-2217
▁육성	-2218
▁스럽	-2219
▁인수	-2220
velop	-2221
▁엄마	-2222
▁는가	-2223
▁할인	-2224
▁당선	-2225
▁힘들	-2226
▁스러	-2227
▁끼	-2228
▁균	-2229
▁bet	-2230
▁とな	-2231
▁内	-2232
▁속도	-2233
▁나서	-2234
▁2023	-2235
▁반도체	-2236
▁의해	-2237
ject	-2238
▁cons	-2239
벤트	-2240
ities	-2241
▁北	-2242
▁채용	-2243
ific	-2244
▁전용	-2245
▁나선	-2246
▁역량	-2247
▁둔	-2248
▁바탕	-2249
▁정확	-2250
▁곧	-2251
▁원장	-2252
▁이벤트	-2253
▁충남	-2254
▁엘	-2255
▁선물	-2256
▁KT	-2257
▁거든	-2258
▁長	-2259
▁代	-2260
▁여름	-2261
▁시도	-2262
▁골프	-2263
irst	-2264
▁총장	-2265
▁선생	-2266
페이지	-2267
▁그대로	-2268
▁홈페이지	-2269
▁나섰	-2270
▁탐	-2271
▁올랐	-2272
나라	-2273
ational	-2274
▁under	-2275
▁includ	-2276
ond	-2277
▁작년	-2278
▁오히	-2279
stem	-2280
▁인증	-2281
▁전날	-2282
▁조합	-2283
▁따라서	-2284
▁이재	-2285
▁오히려	-2286
▁事	-2287
▁acc	-2288
▁if	-2289
▁선언	-2290
▁강력	-2291
▁욕	-2292
▁최선	-2293
▁쇼핑	-2294
▁레이	-2295
▁세요	-2296
▁모집	-2297
▁독립	-2298
▁신용	-2299
▁野	-2300
▁접종	-2301
▁효율	-2302
▁平	-2303
▁子	-2304
▁인한	-2305
▁협상	-2306
▁머리	-2307
▁90	-2308
▁어려움	-2309
▁뮤	-2310
▁지켜	-2311
▁열리	-2312
▁꽃	-2313
▁연장	-2314
▁으로부터	-2315
▁des	-2316
▁촬	-2317
▁정비	-2318
ments	-2319
ient	-2320
▁혈	-2321
▁現	-2322
▁촬영	-2323
▁말씀	-2324
▁첨	-2325
▁의장	-2326
▁자세	-2327
ていた	-2328
▁fe	-2329
▁た	-2330
▁비슷	-2331
▁世	-2332
we	-2333
▁불과	-2334
▁나이	-2335
란다	-2336
▁前	-2337
▁して	-2338
무리	-2339
▁현상	-2340
▁봉사	-2341
▁인제	-2342
▁땅	-2343
▁성적	-2344
▁의지	-2345
▁콜	-2346
▁バ	-2347
▁갈등	-2348
▁문재	-2349
30	-2350
▁묻	-2351
▁カ	-2352
ark	-2353
어들	-2354
▁공부	-2355
▁호텔	-2356
▁38	-2357
▁빛	-2358
▁차별	-2359
▁냉	-2360
▁집행	-2361
▁여론	-2362
▁what	-2363
▁시리	-2364
서관	-2365
▁ph	-2366
▁그림	-2367
▁eff	-2368
▁tw	-2369
▁選手	-2370
▁We	-2371
▁등급	-2372
▁37	-2373
▁야구	-2374
▁such	-2375
▁テ	-2376
▁여전히	-2377
▁재산	-2378
ov	-2379
▁gen	-2380
▁소송	-2381
▁As	-2382
▁노인	-2383
▁득	-2384
uc	-2385
▁마무리	-2386
▁分	-2387
프트	-2388
▁전북	-2389
▁전력	-2390
ink	-2391
▁주로	-2392
ート	-2393
▁잘못	-2394
▁탑	-2395
ple	-2396
가지	-2397
▁기여	-2398
▁본인	-2399
▁계기	-2400
▁가량	-2401
▁マ	-2402
▁부장	-2403
▁약속	-2404
▁맨	-2405
▁친환경	-2406
▁철도	-2407
▁발굴	-2408
▁집단	-2409
▁三	-2410
▁원내	-2411
▁졸업	-2412
▁내놓	-2413
▁쉬	-2414
▁정권	-2415
▁찍	-2416
▁향상	-2417
▁미술	-2418
▁used	-2419
yp	-2420
른다	-2421
▁的	-2422
▁실제로	-2423
▁전반	-2424
▁rel	-2425
▁대중	-2426
주시	-2427
▁완화	-2428
ious	-2429
▁순간	-2430
▁창출	-2431
▁2006	-2432
ating	-2433
▁gr	-2434
▁생태	-2435
▁主	-2436
아가	-2437
▁방지	-2438
▁区	-2439
▁의식	-2440
▁소방	-2441
▁プ	-2442
ics	-2443
▁produ	-2444
▁rep	-2445
▁대체	-2446
▁언제	-2447
▁지자	-2448
의원	-2449
▁줬	-2450
▁복합	-2451
▁꼭	-2452
▁many	-2453
▁사상	-2454
▁신문	-2455
▁수업	-2456
▁투자자	-2457
▁입주	-2458
▁앤	-2459
▁진짜	-2460
▁멀	-2461
▁잃	-2462
아들	-2463
hen	-2464
▁駅	-2465
▁시리즈	-2466
▁끊	-2467
▁체제	-2468
▁지식	-2469
▁pr	-2470
▁확실	-2471
▁특성	-2472
▁변호사	-2473
▁any	-2474
▁도전	-2475
▁develop	-2476
▁부지	-2477
▁◆	-2478
▁법률	-2479
▁바이오	-2480
▁어머니	-2481
▁뜨	-2482
▁국립	-2483
▁女	-2484
▁추천	-2485
▁수술	-2486
▁웨	-2487
▁아주	-2488
▁빼	-2489
cess	-2490
▁올리	-2491
▁매년	-2492
▁예비	-2493
▁나갈	-2494
▁En	-2495
▁would	-2496
▁스트	-2497
ディ	-2498
▁앱	-2499
▁무역	-2500
▁문학	-2501
▁바란다	-2502
▁am	-2503
▁오르	-2504
▁특정	-2505
▁심리	-2506
▁마케	-2507
바일	-2508
▁걱	-2509
▁장비	-2510
ative	-2511
▁곤	-2512
▁脚	-2513
▁co	-2514
▁걱정	-2515
▁만족	-2516
ティ	-2517
▁냈	-2518
▁55	-2519
▁그때	-2520
ne	-2521
▁일상	-2522
▁당신	-2523
▁모바일	-2524
▁through	-2525
▁빅	-2526
▁주거	-2527
산물	-2528
▁준다	-2529
▁prov	-2530
▁42	-2531
▁마치	-2532
▁아름	-2533
▁X	-2534
ise	-2535
▁di	-2536
hed	-2537
▁해소	-2538
▁노선	-2539
▁접수	-2540
▁안타	-2541
erm	-2542
▁신뢰	-2543
▁em	-2544
▁39	-2545
ンク	-2546
▁지자체	-2547
▁편의	-2548
▁국방	-2549
▁이게	-2550
이드	-2551
ath	-2552
▁가져	-2553
▁화학	-2554
▁단순	-2555
eth	-2556
▁영어	-2557
▁쯤	-2558
▁전혀	-2559
▁その	-2560
▁마케팅	-2561
▁폴	-2562
▁피부	-2563
▁자본	-2564
▁플레이	-2565
▁소식	-2566
▁통화	-2567
ular	-2568
▁first	-2569
▁회담	-2570
▁구역	-2571
▁정의	-2572
▁분명	-2573
▁넓	-2574
▁`	-2575
▁해양	-2576
▁옮	-2577
▁48	-2578
▁뉴스	-2579
▁짜	-2580
▁여야	-2581
▁해석	-2582
iss	-2583
▁当	-2584
▁스토	-2585
▁spec	-2586
▁만드	-2587
▁Re	-2588
▁bold	-2589
▁島	-2590
▁off	-2591
▁셈	-2592
▁ac	-2593
▁일단	-2594
▁村	-2595
▁자격	-2596
▁한테	-2597
▁美	-2598
▁쌓	-2599
▁융	-2600
▁보상	-2601
▁など	-2602
▁health	-2603
▁뇌	-2604
▁기다	-2605
▁다니	-2606
oss	-2607
▁only	-2608
드시	-2609
▁반드시	-2610
▁남북	-2611
▁아래	-2612
▁형성	-2613
▁no	-2614
▁수석	-2615
▁대변	-2616
▁케이	-2617
▁아울	-2618
▁歴	-2619
▁잖아	-2620
▁실장	-2621
▁号	-2622
▁운용	-2623
▁요즘	-2624
▁water	-2625
▁텔	-2626
ced	-2627
▁エ	-2628
▁겨울	-2629
▁불안	-2630
ife	-2631
int	-2632
▁채널	-2633
▁획	-2634
수록	-2635
▁했으나	-2636
니스	-2637
▁강남	-2638
NS	-2639
▁인권	-2640
▁기부	-2641
▁스마트폰	-2642
▁통일	-2643
▁라인	-2644
▁65	-2645
▁출전	-2646
▁이미지	-2647
▁全	-2648
▁특수	-2649
▁오픈	-2650
▁컬	-2651
ful	-2652
▁접근	-2653
공사	-2654
▁바이러스	-2655
▁明	-2656
▁부부	-2657
럼프	-2658
ange	-2659
ick	-2660
▁had	-2661
▁体	-2662
▁늦	-2663
우스	-2664
▁물질	-2665
▁얼마나	-2666
▁diffe	-2667
ント	-2668
▁매장	-2669
▁시각	-2670
▁이어지	-2671
▁심각	-2672
▁완성	-2673
als	-2674
rop	-2675
▁KB	-2676
▁그린	-2677
▁꾸준	-2678
▁Q	-2679
fter	-2680
▁最	-2681
▁75	-2682
▁쏟	-2683
▁語	-2684
▁느낌	-2685
ため	-2686
▁양성	-2687
ライ	-2688
▁원칙	-2689
ten	-2690
카오	-2691
ram	-2692
▁스타일	-2693
▁군사	-2694
▁대사	-2695
▁사과	-2696
▁특징	-2697
▁add	-2698
uring	-2699
▁종목	-2700
▁exp	-2701
▁나와	-2702
▁국회의원	-2703
▁41	-2704
▁재난	-2705
▁아마	-2706
▁빠르	-2707
▁헬	-2708
▁메이	-2709
▁㎞	-2710
▁감정	-2711
▁2005	-2712
▁If	-2713
▁fl	-2714
▁박근	-2715
▁자녀	-2716
▁역대	-2717
▁메시	-2718
ble	-2719
▁通	-2720
▁배치	-2721
▁롭	-2722
▁흑	-2723
▁이곳	-2724
▁다며	-2725
▁인터뷰	-2726
▁불편	-2727
▁실천	-2728
▁거주	-2729
arch	-2730
▁system	-2731
▁sur	-2732
▁ジ	-2733
▁순위	-2734
▁실패	-2735
▁reg	-2736
요일	-2737
▁학부	-2738
▁유일	-2739
▁멤	-2740
▁비상	-2741
▁그럼	-2742
▁get	-2743
▁사라	-2744
▁으면서	-2745
▁rese	-2746
▁남편	-2747
ーム	-2748
프라	-2749
▁세기	-2750
▁two	-2751
▁金	-2752
▁앨	-2753
▁트럼프	-2754
▁장소	-2755
▁부상	-2756
▁김정	-2757
ます	-2758
▁回	-2759
▁メ	-2760
▁맞춰	-2761
▁옛	-2762
own	-2763
▁려면	-2764
oth	-2765
ature	-2766
▁충북	-2767
▁자율	-2768
▁직장	-2769
▁상반기	-2770
▁화장	-2771
▁以	-2772
▁연구소	-2773
▁계열	-2774
▁sm	-2775
▁확장	-2776
▁굉	-2777
▁出身	-2778
▁보고서	-2779
ility	-2780
▁괴	-2781
▁완료	-2782
▁요금	-2783
▁달라	-2784
▁신경	-2785
▁공약	-2786
▁가수	-2787
▁거부	-2788
▁사업자	-2789
▁짓	-2790
▁44	-2791
▁지키	-2792
▁박근혜	-2793
▁経	-2794
▁#	-2795
▁楽	-2796
▁KBS	-2797
▁소설	-2798
▁영역	-2799
▁벌어	-2800
▁상장	-2801
ョン	-2802
▁주차	-2803
▁무슨	-2804
▁예요	-2805
▁청구	-2806
▁入	-2807
▁한다면	-2808
▁동의	-2809
▁→	-2810
▁선고	-2811
▁교체	-2812
▁윤석	-2813
▁西	-2814
▁ass	-2815
▁脚注	-2816
▁겸	-2817
▁시점	-2818
▁神	-2819
▁시켰	-2820
chool	-2821
▁組	-2822
▁192	-2823
▁틀	-2824
▁총선	-2825
▁거든요	-2826
▁수립	-2827
▁캐릭	-2828
▁km	-2829
▁칠	-2830
▁시킨	-2831
▁아울러	-2832
▁노동자	-2833
▁거기	-2834
▁펼쳐	-2835
▁맞춤	-2836
▁받아들	-2837
▁촉구	-2838
▁주문	-2839
ower	-2840
▁Pro	-2841
▁52	-2842
▁굉장	-2843
▁배출	-2844
▁우주	-2845
▁lear	-2846
▁하반기	-2847
▁make	-2848
▁오래	-2849
▁무료	-2850
▁정리	-2851
▁ロ	-2852
▁죄	-2853
▁흘	-2854
▁살펴	-2855
▁43	-2856
ible	-2857
▁그만	-2858
▁初	-2859
▁캐릭터	-2860
▁나무	-2861
▁멤버	-2862
ert	-2863
▁안보	-2864
▁네트	-2865
▁긍	-2866
▁카카오	-2867
▁기소	-2868
▁신설	-2869
▁근거	-2870
ience	-2871
▁場	-2872
▁should	-2873
▁창원	-2874
▁well	-2875
▁판결	-2876
▁ㅎ	-2877
▁문재인	-2878
▁years	-2879
▁3000	-2880
▁dec	-2881
chn	-2882
▁극복	-2883
▁ド	-2884
▁소유	-2885
▁처분	-2886
▁추정	-2887
▁기구	-2888
▁동기	-2889
▁보증	-2890
ased	-2891
▁매일	-2892
▁자주	-2893
▁출마	-2894
▁미디어	-2895
▁맺	-2896
▁최저	-2897
▁나타나	-2898
▁구간	-2899
▁IT	-2900
▁뽑	-2901
よう	-2902
▁見	-2903
▁처벌	-2904
▁high	-2905
▁po	-2906
▁느끼	-2907
▁바다	-2908
화점	-2909
▁갤	-2910
▁46	-2911
▁신속	-2912
▁줘	-2913
▁연간	-2914
▁れ	-2915
▁書	-2916
학교	-2917
▁밥	-2918
터리	-2919
▁네요	-2920
▁척	-2921
ting	-2922
▁인공	-2923
▁야당	-2924
▁다이	-2925
대표	-2926
▁봄	-2927
▁알리	-2928
▁ob	-2929
▁데뷔	-2930
▁출발	-2931
▁작성	-2932
▁교류	-2933
▁대법	-2934
▁原	-2935
▁불리	-2936
▁아내	-2937
▁떠나	-2938
▁초기	-2939
▁배경	-2940
▁부여	-2941
▁휘	-2942
▁균형	-2943
▁인프라	-2944
ract	-2945
▁코리아	-2946
あり	-2947
▁강한	-2948
▁굉장히	-2949
▁47	-2950
▁과장	-2951
▁bu	-2952
▁193	-2953
▁参	-2954
▁ク	-2955
▁인생	-2956
▁마리	-2957
▁어도	-2958
▁긴급	-2959
rib	-2960
ology	-2961
▁rem	-2962
xt	-2963
hes	-2964
▁써	-2965
ード	-2966
▁국무	-2967
▁출범	-2968
▁토지	-2969
▁보조	-2970
▁마찬	-2971
▁이탈	-2972
▁랑	-2973
▁개편	-2974
▁2004	-2975
▁How	-2976
어났	-2977
▁아침	-2978
wn	-2979
▁회견	-2980
▁응답	-2981
▁뒷	-2982
▁르	-2983
▁could	-2984
cy	-2985
▁개념	-2986
▁南	-2987
▁불구	-2988
▁부품	-2989
▁数	-2990
▁마찬가지	-2991
▁철저	-2992
▁측면	-2993
▁る	-2994
▁법무	-2995
▁supp	-2996
fore	-2997
▁目	-2998
▁실현	-2999
▁법안	-3000
its	-3001
▁att	-3002
▁투어	-3003
▁inv	-3004
gan	-3005
▁요소	-3006
▁프리미	-3007
▁사이트	-3008
▁49	-3009
▁둘러	-3010
▁주년	-3011
▁허용	-3012
▁진정	-3013
▁값	-3014
▁줄이	-3015
▁근로자	-3016
▁この	-3017
▁무기	-3018
ade	-3019
▁포항	-3020
▁공감	-3021
▁범위	-3022
▁국장	-3023
▁부인	-3024
▁작용	-3025
▁だ	-3026
▁물가	-3027
▁긍정	-3028
▁つ	-3029
▁You	-3030
▁밝혀	-3031
▁일으	-3032
▁쓴	-3033
▁드리	-3034
▁텔레	-3035
▁옆	-3036
▁番	-3037
▁아프	-3038
いう	-3039
▁요인	-3040
▁승인	-3041
▁している	-3042
▁취약	-3043
▁안내	-3044
▁外部	-3045
▁한화	-3046
▁ed	-3047
▁현대차	-3048
▁リンク	-3049
▁공단	-3050
▁유리	-3051
▁모양	-3052
▁채권	-3053
▁뉴욕	-3054
▁로운	-3055
▁윤석열	-3056
ft	-3057
▁시티	-3058
▁학원	-3059
워크	-3060
▁exam	-3061
▁의무	-3062
▁폐지	-3063
▁월드컵	-3064
▁앉	-3065
담회	-3066
▁조기	-3067
▁For	-3068
▁へ	-3069
ivers	-3070
▁별도	-3071
▁정기	-3072
▁51	-3073
ily	-3074
▁동일	-3075
▁메시지	-3076
▁아름다	-3077
▁매력	-3078
▁엑	-3079
리카	-3080
▁제일	-3081
▁물량	-3082
▁취지	-3083
▁탄소	-3084
▁세트	-3085
▁where	-3086
▁재미	-3087
▁Com	-3088
▁네이	-3089
▁ear	-3090
▁import	-3091
meric	-3092
▁활약	-3093
▁연출	-3094
▁FC	-3095
▁나머	-3096
erg	-3097
▁발행	-3098
▁주의	-3099
▁묘	-3100
▁多	-3101
▁리더	-3102
▁昭	-3103
▁장치	-3104
▁나머지	-3105
▁記	-3106
ween	-3107
▁취임	-3108
▁집계	-3109
▁훨	-3110
▁질환	-3111
▁대변인	-3112
▁반발	-3113
ural	-3114
▁버리	-3115
▁수용	-3116
▁첨단	-3117
▁car	-3118
▁pres	-3119
▁돕	-3120
▁셔	-3121
▁옷	-3122
▁史	-3123
ormation	-3124
▁셀	-3125
▁베이	-3126
▁ト	-3127
▁원내대표	-3128
▁元	-3129
▁광역	-3130
▁연대	-3131
▁간담회	-3132
リカ	-3133
▁베트	-3134
▁映	-3135
レビ	-3136
▁보통	-3137
▁협의회	-3138
ck	-3139
▁world	-3140
▁pers	-3141
ata	-3142
▁허가	-3143
▁pol	-3144
▁텍	-3145
▁내리	-3146
▁포기	-3147
▁본다	-3148
▁져	-3149
▁法	-3150
▁취소	-3151
▁결제	-3152
▁훨씬	-3153
ンド	-3154
▁주인공	-3155
▁패션	-3156
▁sub	-3157
▁당부	-3158
▁빚	-3159
▁실질	-3160
▁숲	-3161
▁헌법	-3162
ron	-3163
▁SNS	-3164
▁브라	-3165
▁통계	-3166
▁ㅋㅋ	-3167
▁권리	-3168
▁스러운	-3169
▁191	-3170
▁Americ	-3171
플레이	-3172
▁수수	-3173
▁진흥	-3174
▁관광객	-3175
▁품질	-3176
▁객	-3177
▁도서관	-3178
▁Sp	-3179
▁54	-3180
▁지분	-3181
▁임시	-3182
▁MBC	-3183
▁자는	-3184
▁절반	-3185
▁線	-3186
▁inst	-3187
▁형사	-3188
▁걸쳐	-3189
ants	-3190
▁機	-3191
▁2002	-3192
▁꼬	-3193
▁부대	-3194
ines	-3195
니아	-3196
▁불러	-3197
▁챔	-3198
▁통상	-3199
▁long	-3200
▁実	-3201
▁교회	-3202
▁불가	-3203
iet	-3204
▁対	-3205
▁지배	-3206
▁그게	-3207
▁sk	-3208
▁her	-3209
▁전형	-3210
▁건립	-3211
▁비대	-3212
▁애플	-3213
ース	-3214
▁between	-3215
aw	-3216
▁고요	-3217
▁늘어나	-3218
▁당연	-3219
oy	-3220
ds	-3221
▁정규	-3222
▁ke	-3223
▁전세	-3224
▁Z	-3225
▁은데	-3226
▁백화점	-3227
▁see	-3228
사자	-3229
▁조차	-3230
▁부처	-3231
▁—	-3232
▁◇	-3233
▁동아	-3234
▁연금	-3235
회장	-3236
CT	-3237
▁조례	-3238
스타	-3239
거운	-3240
▁車	-3241
▁う	-3242
▁設	-3243
▁disc	-3244
▁found	-3245
▁하늘	-3246
▁전면	-3247
▁said	-3248
▁way	-3249
▁미사	-3250
▁업종	-3251
▁인하	-3252
▁베트남	-3253
▁just	-3254
ict	-3255
▁med	-3256
▁trans	-3257
▁파트	-3258
ution	-3259
▁2003	-3260
▁공인	-3261
リア	-3262
▁주관	-3263
▁공직	-3264
▁걷	-3265
▁해요	-3266
▁fun	-3267
ever	-3268
▁운행	-3269
▁고양	-3270
uch	-3271
▁소장	-3272
▁개국	-3273
aking	-3274
▁관람	-3275
▁태양	-3276
▁form	-3277
▁휴대	-3278
▁앨범	-3279
▁군수	-3280
▁400	-3281
▁청장	-3282
▁typ	-3283
▁쌍	-3284
▁클럽	-3285
ied	-3286
다고	-3287
▁폭력	-3288
▁로봇	-3289
▁바뀌	-3290
▁세력	-3291
▁벨	-3292
▁구입	-3293
▁설정	-3294
▁성격	-3295
▁num	-3296
ins	-3297
▁런	-3298
▁○	-3299
▁exper	-3300
▁59	-3301
▁부르	-3302
▁CE	-3303
▁パ	-3304
▁벽	-3305
▁혼자	-3306
▁미치	-3307
▁56	-3308
▁주말	-3309
학생	-3310
▁수소	-3311
▁흐름	-3312
▁꺼	-3313
▁보안	-3314
▁뿌	-3315
ists	-3316
▁昭和	-3317
▁different	-3318
▁チ	-3319
▁가스	-3320
▁曲	-3321
▁구청	-3322
▁민족	-3323
▁キ	-3324
▁가슴	-3325
▁계층	-3326
▁링크	-3327
▁네트워크	-3328
▁장면	-3329
▁우크	-3330
land	-3331
▁원전	-3332
▁강제	-3333
▁카페	-3334
▁면적	-3335
▁지상	-3336
▁編	-3337
▁직업	-3338
▁검증	-3339
▁쓸	-3340
ll	-3341
▁科	-3342
▁챙	-3343
▁춘	-3344
▁단위	-3345
▁중간	-3346
▁위협	-3347
▁상호	-3348
▁돌파	-3349
ident	-3350
▁Ar	-3351
▁올렸	-3352
▁개정안	-3353
▁평소	-3354
▁',	-3355
▁예측	-3356
▁벤처	-3357
▁来	-3358
▁통제	-3359
▁된다는	-3360
▁충분히	-3361
▁기계	-3362
ually	-3363
▁므로	-3364
▁예고	-3365
▁더니	-3366
▁매각	-3367
▁お	-3368
▁나누	-3369
▁レ	-3370
▁권력	-3371
▁受	-3372
▁cent	-3373
▁새롭	-3374
직원	-3375
▁った	-3376
▁단독	-3377
▁화재	-3378
▁라운드	-3379
▁even	-3380
▁혁명	-3381
▁소프트	-3382
▁%(	-3383
get	-3384
▁원자	-3385
▁children	-3386
▁시킬	-3387
▁농가	-3388
▁very	-3389
▁이른	-3390
▁Con	-3391
▁교과	-3392
▁모임	-3393
▁량	-3394
▁관객	-3395
▁고통	-3396
▁자랑	-3397
▁흡	-3398
▁録	-3399
▁항상	-3400
▁세종	-3401
▁mod	-3402
▁만약	-3403
▁effect	-3404
▁손해	-3405
▁位	-3406
▁放	-3407
▁정원	-3408
▁저희	-3409
▁every	-3410
▁절대	-3411
▁53	-3412
▁으니	-3413
▁빨리	-3414
▁students	-3415
▁에요	-3416
▁돼야	-3417
▁ㅋㅋㅋㅋ	-3418
ited	-3419
▁sim	-3420
▁그러니까	-3421
ST	-3422
▁because	-3423
▁꾸준히	-3424
▁57	-3425
▁즈	-3426
cer	-3427
▁58	-3428
▁지시	-3429
자기	-3430
▁다수	-3431
튜브	-3432
▁表	-3433
반도	-3434
▁_	-3435
▁王	-3436
버스	-3437
▁み	-3438
▁엄청	-3439
▁매수	-3440
▁칭	-3441
▁득점	-3442
▁여러분	-3443
vent	-3444
▁count	-3445
▁성남	-3446
▁삭	-3447
▁향해	-3448
▁명예	-3449
▁유가	-3450
io	-3451
▁진입	-3452
▁커피	-3453
▁운전	-3454
▁웹	-3455
▁언어	-3456
▁name	-3457
▁후원	-3458
▁생기	-3459
▁inter	-3460
▁겁	-3461
▁기울	-3462
▁水	-3463
▁짧	-3464
urn	-3465
▁84	-3466
▁습니까	-3467
▁샤	-3468
▁lar	-3469
▁모아	-3470
▁제재	-3471
▁기타	-3472
▁후반	-3473
▁부회장	-3474
▁손실	-3475
▁탓	-3476
▁Sc	-3477
▁신한	-3478
▁天	-3479
▁이거	-3480
elf	-3481
▁공천	-3482
▁김영	-3483
iron	-3484
▁박사	-3485
▁下	-3486
▁한계	-3487
▁不	-3488
▁캠프	-3489
▁충격	-3490
총리	-3491
iew	-3492
▁이뤄지	-3493
▁知	-3494
▁이행	-3495
▁주주	-3496
▁인원	-3497
▁거듭	-3498
▁대기	-3499
▁인재	-3500
▁실험	-3501
▁슈퍼	-3502
▁incre	-3503
▁64	-3504
▁마스크	-3505
▁after	-3506
▁150	-3507
▁det	-3508
▁고속	-3509
▁点	-3510
▁에스	-3511
▁85	-3512
▁바꾸	-3513
▁증거	-3514
▁테크	-3515
▁food	-3516
▁밝히	-3517
▁챔피	-3518
ork	-3519
▁What	-3520
arm	-3521
▁혹은	-3522
▁힐	-3523
▁There	-3524
▁then	-3525
▁포스코	-3526
▁투수	-3527
▁techn	-3528
▁二	-3529
▁떨어지	-3530
▁물류	-3531
▁빠져	-3532
▁이사장	-3533
▁加	-3534
▁천만	-3535
▁また	-3536
▁New	-3537
▁72	-3538
심히	-3539
▁오랜	-3540
▁밑	-3541
▁캠페인	-3542
▁prog	-3543
▁편성	-3544
▁페이스	-3545
▁デ	-3546
▁州	-3547
▁여건	-3548
회사	-3549
▁진료	-3550
▁굴	-3551
▁call	-3552
▁共	-3553
▁똑	-3554
▁特	-3555
▁세월	-3556
▁민원	-3557
ock	-3558
▁制	-3559
▁여당	-3560
▁가동	-3561
メリカ	-3562
루션	-3563
ody	-3564
▁일어나	-3565
▁비행	-3566
あった	-3567
▁농협	-3568
ps	-3569
▁빠른	-3570
▁표준	-3571
▁발사	-3572
▁じ	-3573
▁징역	-3574
▁으려	-3575
▁기기	-3576
▁De	-3577
▁pub	-3578
▁They	-3579
▁고위	-3580
▁원래	-3581
ives	-3582
▁my	-3583
▁hum	-3584
▁요리	-3585
▁전투	-3586
▁var	-3587
▁life	-3588
もの	-3589
▁기후	-3590
▁반복	-3591
▁점수	-3592
ros	-3593
▁설비	-3594
▁학부모	-3595
▁분리	-3596
ures	-3597
▁커지	-3598
tle	-3599
▁들여	-3600
▁분류	-3601
▁블랙	-3602
▁배터리	-3603
SG	-3604
▁필수	-3605
▁누적	-3606
ER	-3607
より	-3608
▁study	-3609
▁살아	-3610
▁복귀	-3611
▁私	-3612
▁완전히	-3613
▁적절	-3614
▁62	-3615
티브	-3616
▁important	-3617
▁구단	-3618
▁art	-3619
▁개소	-3620
▁맹	-3621
▁명령	-3622
▁악화	-3623
▁잊	-3624
▁연말	-3625
라스	-3626
▁郡	-3627
▁저녁	-3628
▁mon	-3629
란드	-3630
▁cre	-3631
▁sign	-3632
▁2001	-3633
▁상생	-3634
▁gra	-3635
▁그래도	-3636
▁read	-3637
▁컴퓨	-3638
나무	-3639
▁딱	-3640
▁만난	-3641
▁감안	-3642
▁한반도	-3643
▁비전	-3644
▁비즈	-3645
▁개막	-3646
▁의심	-3647
▁직후	-3648
▁증시	-3649
▁grow	-3650
▁을지	-3651
▁process	-3652
▁取	-3653
메달	-3654
ました	-3655
hers	-3656
▁셋	-3657
ases	-3658
▁부진	-3659
▁청약	-3660
▁임명	-3661
▁선진	-3662
ション	-3663
▁鉄	-3664
▁resp	-3665
▁재생	-3666
イン	-3667
から	-3668
▁項	-3669
▁수학	-3670
▁information	-3671
▁께서	-3672
▁가을	-3673
▁트리	-3674
▁유도	-3675
▁fol	-3676
▁대우	-3677
▁제약	-3678
▁each	-3679
산시	-3680
▁사기	-3681
▁PC	-3682
▁pat	-3683
▁밝힌	-3684
▁도와	-3685
▁매입	-3686
▁gener	-3687
TA	-3688
ages	-3689
▁낼	-3690
ues	-3691
▁오염	-3692
▁사법	-3693
▁솔루션	-3694
▁アメリカ	-3695
▁표시	-3696
▁고령	-3697
▁back	-3698
▁気	-3699
▁굳	-3700
▁가르	-3701
▁売	-3702
▁方	-3703
▁세금	-3704
ness	-3705
▁참고	-3706
▁海	-3707
▁수단	-3708
▁수비	-3709
▁상징	-3710
▁당초	-3711
▁ブ	-3712
▁시위	-3713
▁ve	-3714
▁단일	-3715
▁유튜브	-3716
▁약간	-3717
▁´	-3718
▁접촉	-3719
▁력	-3720
▁플러스	-3721
▁being	-3722
▁school	-3723
▁미사일	-3724
▁가상	-3725
▁갖춘	-3726
▁현안	-3727
ism	-3728
▁축소	-3729
▁종료	-3730
▁돌아가	-3731
▁부과	-3732
▁間	-3733
ene	-3734
▁다소	-3735
▁창조	-3736
▁find	-3737
▁경선	-3738
ically	-3739
▁level	-3740
▁まで	-3741
▁도착	-3742
▁But	-3743
▁텐	-3744
▁those	-3745
▁テレビ	-3746
ED	-3747
▁라면서	-3748
▁의한	-3749
▁使	-3750
▁천안	-3751
▁중학교	-3752
▁경력	-3753
▁fam	-3754
▁音	-3755
▁예약	-3756
▁투명	-3757
▁증상	-3758
▁태도	-3759
▁부서	-3760
▁物	-3761
▁파크	-3762
▁판사	-3763
▁she	-3764
ップ	-3765
▁ext	-3766
▁도심	-3767
▁차단	-3768
▁ち	-3769
▁手	-3770
▁홈런	-3771
▁61	-3772
▁미리	-3773
세대	-3774
▁66	-3775
▁政	-3776
▁ラ	-3777
▁good	-3778
ward	-3779
물관	-3780
▁듯이	-3781
▁브리	-3782
▁열심히	-3783
50	-3784
imes	-3785
▁쌀	-3786
▁化	-3787
▁99	-3788
▁덜	-3789
▁끌어	-3790
▁집회	-3791
▁할지	-3792
▁される	-3793
▁研	-3794
▁미만	-3795
▁택시	-3796
▁대만	-3797
서트	-3798
▁실력	-3799
▁ハ	-3800
▁판정	-3801
▁뭔	-3802
tt	-3803
▁gl	-3804
▁당장	-3805
▁늘어난	-3806
▁긴장	-3807
▁팀장	-3808
▁lead	-3809
▁commun	-3810
▁매매	-3811
▁成	-3812
▁수정	-3813
▁털	-3814
▁fact	-3815
▁카메	-3816
▁대법원	-3817
form	-3818
▁현금	-3819
▁day	-3820
▁시범	-3821
▁1990	-3822
gg	-3823
▁전부	-3824
▁신종	-3825
▁京	-3826
▁much	-3827
▁스테	-3828
▁연습	-3829
▁네이버	-3830
▁갑자기	-3831
viron	-3832
IA	-3833
いて	-3834
▁sec	-3835
▁주행	-3836
▁즐길	-3837
▁응원	-3838
ix	-3839
▁심의	-3840
▁4000	-3841
ruct	-3842
▁부채	-3843
▁식당	-3844
▁loc	-3845
▁주력	-3846
▁che	-3847
▁뱅	-3848
▁누가	-3849
▁동원	-3850
▁190	-3851
▁경고	-3852
--	-3853
▁넷	-3854
▁사정	-3855
▁63	-3856
▁일대	-3857
▁멘	-3858
ーク	-3859
other	-3860
▁괜	-3861
▁갖추	-3862
▁交	-3863
▁IS	-3864
っている	-3865
▁침체	-3866
▁상공	-3867
▁제정	-3868
▁뮤지	-3869
▁탁	-3870
▁강의	-3871
▁▷	-3872
ergy	-3873
▁タ	-3874
▁言	-3875
▁벌이	-3876
▁합리	-3877
▁soc	-3878
▁저축	-3879
▁렌	-3880
▁횡	-3881
▁철학	-3882
▁proble	-3883
▁가까이	-3884
▁래	-3885
▁학과	-3886
▁따뜻	-3887
▁석유	-3888
▁프리미엄	-3889
▁て	-3890
▁엠	-3891
▁プロ	-3892
▁된다고	-3893
▁폐기	-3894
▁주일	-3895
▁키우	-3896
▁추세	-3897
▁aut	-3898
▁지휘	-3899
▁Se	-3900
▁장점	-3901
▁Sh	-3902
▁평생	-3903
▁흔들	-3904
▁선박	-3905
ices	-3906
ize	-3907
▁오프	-3908
▁00	-3909
▁죽음	-3910
▁団	-3911
▁cur	-3912
▁연주	-3913
▁ら	-3914
간다	-3915
▁포럼	-3916
▁look	-3917
▁톤	-3918
▁눈길	-3919
▁종교	-3920
▁동반	-3921
▁지원금	-3922
▁dep	-3923
▁연수	-3924
▁공시	-3925
▁미세	-3926
any	-3927
iversity	-3928
▁考	-3929
▁현황	-3930
▁단속	-3931
▁파이	-3932
▁가까운	-3933
led	-3934
▁비밀	-3935
▁회계	-3936
▁박물관	-3937
▁이외	-3938
▁지점	-3939
ーズ	-3940
▁급증	-3941
▁매체	-3942
▁전해졌	-3943
▁軍	-3944
▁av	-3945
▁강원도	-3946
▁사실상	-3947
▁희생	-3948
피스	-3949
▁min	-3950
▁그거	-3951
れる	-3952
▁법무부	-3953
▁項目	-3954
▁컴퓨터	-3955
▁does	-3956
__	-3957
▁이탈리아	-3958
▁대리	-3959
▁person	-3960
▁징계	-3961
▁sol	-3962
▁data	-3963
▁관측	-3964
▁스타트	-3965
▁웃음	-3966
▁개방	-3967
▁requ	-3968
▁동료	-3969
▁放送	-3970
▁和	-3971
▁전개	-3972
▁협업	-3973
▁グ	-3974
▁벗어나	-3975
ection	-3976
▁during	-3977
▁즐기	-3978
▁공기	-3979
▁콘서트	-3980
▁partic	-3981
▁이명	-3982
▁챔피언	-3983
▁농촌	-3984
▁木	-3985
▁주간	-3986
▁가졌	-3987
▁직무	-3988
▁승부	-3989
▁㈜	-3990
▁set	-3991
▁東京	-3992
▁이용자	-3993
▁用	-3994
▁변동	-3995
▁On	-3996
▁디스	-3997
▁기금	-3998
▁ins	-3999
▁이웃	-4000
▁순환	-4001
▁own	-4002
▁섭	-4003
▁취득	-4004
▁■	-4005
▁형식	-4006
▁br	-4007
▁台	-4008
▁수주	-4009
▁이란	-4010
▁str	-4011
▁결승	-4012
▁상임	-4013
뮤니	-4014
천시	-4015
▁홍콩	-4016
▁이재명	-4017
▁선보이	-4018
▁커뮤니	-4019
▁문자	-4020
▁알아	-4021
▁유니	-4022
orn	-4023
▁指	-4024
▁수급	-4025
▁일제	-4026
▁단기	-4027
ale	-4028
▁호소	-4029
▁대안	-4030
▁대장	-4031
▁눈물	-4032
▁의도	-4033
다가	-4034
▁충청	-4035
▁초반	-4036
▁NH	-4037
▁research	-4038
▁났	-4039
です	-4040
▁개별	-4041
▁폭발	-4042
▁비난	-4043
▁넥	-4044
▁상당히	-4045
▁컵	-4046
▁유사	-4047
▁마저	-4048
▁남부	-4049
▁자전	-4050
イト	-4051
▁협조	-4052
▁나눠	-4053
▁歌	-4054
▁융합	-4055
▁클래	-4056
▁属	-4057
▁정체	-4058
▁호주	-4059
▁궁금	-4060
▁초청	-4061
▁서울대	-4062
▁유기	-4063
▁중대	-4064
▁선호	-4065
▁이론	-4066
▁면은	-4067
▁달하	-4068
어날	-4069
▁대폭	-4070
▁식사	-4071
▁카메라	-4072
▁아름다운	-4073
▁완전	-4074
▁ent	-4075
▁움직임	-4076
▁재개	-4077
▁공동체	-4078
▁고급	-4079
▁최대한	-4080
▁using	-4081
▁ウ	-4082
▁나올	-4083
▁アル	-4084
▁서류	-4085
▁made	-4086
▁기아	-4087
▁고교	-4088
▁입학	-4089
▁지표	-4090
▁봐야	-4091
▁충전	-4092
▁잉	-4093
▁힘든	-4094
▁경주	-4095
▁대상자	-4096
▁Te	-4097
▁って	-4098
▁압박	-4099
▁권한	-4100
stand	-4101
▁잇따	-4102
▁재판부	-4103
▁오리	-4104
▁펼치	-4105
▁1999	-4106
▁가득	-4107
▁67	-4108
▁용역	-4109
▁結	-4110
▁선임	-4111
▁show	-4112
▁총회	-4113
▁small	-4114
▁잖아요	-4115
▁정해	-4116
▁수능	-4117
▁95	-4118
▁상위	-4119
▁아르	-4120
▁正	-4121
▁도민	-4122
▁성능	-4123
▁68	-4124
▁대구시	-4125
▁질병	-4126
▁end	-4127
▁セ	-4128
▁연락	-4129
▁특허	-4130
▁活	-4131
cent	-4132
▁理	-4133
고기	-4134
▁탄생	-4135
▁dise	-4136
▁다리	-4137
▁결합	-4138
▁상상	-4139
▁究	-4140
▁두산	-4141
▁제거	-4142
▁법정	-4143
나라당	-4144
▁한나라당	-4145
우드	-4146
일보	-4147
▁ris	-4148
▁느껴	-4149
지능	-4150
▁마감	-4151
▁収	-4152
▁특화	-4153
▁발매	-4154
▁임상	-4155
▁Ind	-4156
▁인공지능	-4157
vironment	-4158
리오	-4159
▁내렸	-4160
ージ	-4161
▁And	-4162
▁곳곳	-4163
ww	-4164
▁less	-4165
oh	-4166
▁follow	-4167
▁여수	-4168
▁소화	-4169
▁출생	-4170
▁활발	-4171
▁크리스	-4172
▁덕분	-4173
▁인정받	-4174
▁비즈니스	-4175
▁기분	-4176
akes	-4177
▁낭	-4178
▁재무	-4179
▁고향	-4180
▁화제	-4181
▁To	-4182
▁배달	-4183
▁www	-4184
iel	-4185
iqu	-4186
▁늘리	-4187
▁가리	-4188
▁ミ	-4189
ted	-4190
▁국내외	-4191
▁임원	-4192
▁꾼	-4193
▁1998	-4194
▁prot	-4195
▁建	-4196
▁고발	-4197
▁作品	-4198
▁전공	-4199
▁GS	-4200
▁밴	-4201
▁expl	-4202
▁'(	-4203
▁점유	-4204
▁6000	-4205
▁정지	-4206
ger	-4207
▁획득	-4208
▁구분	-4209
▁）、	-4210
▁타임	-4211
れた	-4212
▁down	-4213
▁74	-4214
▁take	-4215
▁CEO	-4216
▁存	-4217
ather	-4218
▁단장	-4219
▁마트	-4220
▁는데요	-4221
▁dist	-4222
▁要	-4223
▁추석	-4224
▁def	-4225
▁강하	-4226
▁전주	-4227
▁위안	-4228
ars	-4229
▁When	-4230
▁vis	-4231
▁されている	-4232
▁集	-4233
con	-4234
▁before	-4235
▁이때	-4236
cept	-4237
▁아이디어	-4238
▁연령	-4239
▁컨설	-4240
▁경찰서	-4241
▁멈	-4242
▁지하철	-4243
▁아도	-4244
▁나아가	-4245
▁class	-4246
▁더라고	-4247
▁교육부	-4248
▁77	-4249
▁』（	-4250
▁적자	-4251
▁600	-4252
▁독자	-4253
▁살펴보	-4254
▁often	-4255
▁입법	-4256
▁됩	-4257
▁－	-4258
rain	-4259
▁용인	-4260
▁役	-4261
▁됨	-4262
▁이스	-4263
▁hist	-4264
▁아트	-4265
▁97	-4266
ized	-4267
가스	-4268
▁진실	-4269
▁실내	-4270
▁통해서	-4271
▁합격	-4272
ute	-4273
▁나눔	-4274
▁Le	-4275
ax	-4276
▁comple	-4277
▁데이	-4278
ier	-4279
▁싫	-4280
▁무리	-4281
▁ref	-4282
▁족	-4283
▁팩	-4284
read	-4285
▁재료	-4286
▁71	-4287
▁전원	-4288
▁around	-4289
▁Be	-4290
▁treat	-4291
▁짐	-4292
▁페이스북	-4293
▁음성	-4294
▁유엔	-4295
▁유형	-4296
▁시선	-4297
ality	-4298
▁완벽	-4299
▁太	-4300
▁아빠	-4301
▁차관	-4302
▁사업장	-4303
▁임직원	-4304
▁했었	-4305
▁際	-4306
▁경찰청	-4307
▁pop	-4308
▁Ex	-4309
▁사유	-4310
▁가로	-4311
▁수수료	-4312
조합	-4313
▁경계	-4314
▁보완	-4315
▁썼	-4316
▁保	-4317
▁69	-4318
▁사퇴	-4319
▁박람	-4320
ere	-4321
▁영장	-4322
▁줄어들	-4323
▁男	-4324
hip	-4325
▁양국	-4326
▁부탁	-4327
▁내세	-4328
▁공화	-4329
▁치열	-4330
▁출입	-4331
▁body	-4332
▁전하	-4333
리어	-4334
▁사업비	-4335
니어	-4336
▁시내	-4337
▁이자	-4338
비아	-4339
NA	-4340
▁기다리	-4341
어진	-4342
▁고도	-4343
▁경상	-4344
▁주최	-4345
▁마시	-4346
▁답변	-4347
▁부산시	-4348
▁진보	-4349
▁스토리	-4350
day	-4351
▁電	-4352
▁76	-4353
▁にな	-4354
▁는다는	-4355
리트	-4356
▁Pl	-4357
▁자전거	-4358
▁테마	-4359
▁same	-4360
▁클라	-4361
ved	-4362
▁품목	-4363
ium	-4364
▁개입	-4365
ah	-4366
▁멋	-4367
▁초과	-4368
▁CJ	-4369
▁서구	-4370
▁모여	-4371
▁議	-4372
▁동부	-4373
▁당하	-4374
ential	-4375
ected	-4376
▁時代	-4377
▁진다	-4378
▁위주	-4379
▁運	-4380
▁IP	-4381
▁보급	-4382
▁now	-4383
▁올려	-4384
▁해제	-4385
▁실무	-4386
▁자문	-4387
▁総	-4388
▁측정	-4389
omen	-4390
▁while	-4391
▁교육감	-4392
▁1997	-4393
▁조달	-4394
ital	-4395
▁본사	-4396
리티	-4397
▁뷰	-4398
▁최우	-4399
▁工	-4400
항공	-4401
▁번호	-4402
▁보관	-4403
▁제목	-4404
ien	-4405
▁광주시	-4406
▁今	-4407
▁Res	-4408
▁초대	-4409
▁称	-4410
▁스페인	-4411
▁물건	-4412
▁전기차	-4413
▁Cl	-4414
▁hand	-4415
▁main	-4416
▁이내	-4417
▁파트너	-4418
▁으니까	-4419
vern	-4420
▁놀라	-4421
▁73	-4422
▁잠시	-4423
▁lit	-4424
▁松	-4425
▁몽	-4426
▁물리	-4427
▁SBS	-4428
▁신세	-4429
▁思	-4430
▁임기	-4431
▁8000	-4432
▁福	-4433
▁US	-4434
▁民	-4435
▁院	-4436
▁들어갔	-4437
▁할머니	-4438
▁국방부	-4439
▁매출액	-4440
▁より	-4441
▁both	-4442
▁일까	-4443
ことが	-4444
▁ん	-4445
▁広	-4446
▁생존	-4447
▁거론	-4448
EC	-4449
ides	-4450
▁괜찮	-4451
▁감시	-4452
▁cell	-4453
▁계열사	-4454
▁엑스	-4455
reen	-4456
▁종류	-4457
▁有	-4458
▁These	-4459
▁Ad	-4460
▁i	-4461
▁선사	-4462
▁크기	-4463
▁계산	-4464
건설	-4465
imate	-4466
웨이	-4467
▁돌려	-4468
▁지요	-4469
▁바라보	-4470
▁토대	-4471
훼손	-4472
▁기대감	-4473
▁이정	-4474
▁결론	-4475
▁내일	-4476
▁블록	-4477
▁한데	-4478
▁실수	-4479
어지	-4480
ince	-4481
▁井	-4482
▁합병	-4483
▁호흡	-4484
▁par	-4485
ets	-4486
rol	-4487
▁총괄	-4488
▁EU	-4489
inal	-4490
▁낳	-4491
▁사안	-4492
▁창의	-4493
▁민주주의	-4494
▁近	-4495
▁지주	-4496
다른	-4497
▁머물	-4498
웨어	-4499
▁추구	-4500
ids	-4501
dition	-4502
▁그러면	-4503
▁냐는	-4504
バー	-4505
▁조작	-4506
▁1980	-4507
▁개설	-4508
▁라디오	-4509
▁이틀	-4510
▁밸	-4511
▁타격	-4512
▁이슈	-4513
▁plan	-4514
▁安	-4515
▁김종	-4516
▁수많	-4517
▁합동	-4518
▁예전	-4519
▁그랬	-4520
▁elect	-4521
▁널	-4522
▁침해	-4523
▁grou	-4524
▁문화재	-4525
▁design	-4526
▁찾아가	-4527
▁화물	-4528
▁모니	-4529
▁김해	-4530
라도	-4531
▁광장	-4532
▁구현	-4533
▁変	-4534
▁부당	-4535
▁박람회	-4536
▁놀이	-4537
▁방어	-4538
▁이승	-4539
..	-4540
ull	-4541
▁University	-4542
▁藤	-4543
▁平成	-4544
▁현행	-4545
▁지도자	-4546
나다	-4547
▁새벽	-4548
ters	-4549
▁7000	-4550
▁78	-4551
▁됩니다	-4552
▁부가	-4553
▁無	-4554
▁common	-4555
▁팝	-4556
▁도쿄	-4557
▁노후	-4558
iving	-4559
air	-4560
▁redu	-4561
▁유입	-4562
NG	-4563
▁서민	-4564
▁改	-4565
▁배당	-4566
▁달려	-4567
▁열린다	-4568
▁몬	-4569
▁화성	-4570
レー	-4571
준다	-4572
▁영양	-4573
カー	-4574
▁부실	-4575
▁120	-4576
▁펜	-4577
▁청사	-4578
▁이래	-4579
▁촌	-4580
▁유출	-4581
▁트렌	-4582
▁쳐	-4583
공업	-4584
▁state	-4585
▁88	-4586
▁び	-4587
▁activ	-4588
▁現在	-4589
▁진술	-4590
▁자극	-4591
▁노출	-4592
iety	-4593
▁연극	-4594
▁칸	-4595
▁대하	-4596
▁산림	-4597
▁면접	-4598
▁경기장	-4599
▁나요	-4600
▁점점	-4601
▁확충	-4602
▁상업	-4603
▁장학	-4604
ave	-4605
▁영입	-4606
▁優	-4607
▁띄	-4608
▁learn	-4609
▁똑같	-4610
▁직전	-4611
▁각주	-4612
▁dr	-4613
▁including	-4614
▁주차장	-4615
▁성명	-4616
▁82	-4617
▁바닥	-4618
▁무상	-4619
▁절감	-4620
▁편리	-4621
▁맛있	-4622
▁ベ	-4623
▁검색	-4624
▁寺	-4625
▁대학생	-4626
▁아쉬	-4627
▁강사	-4628
▁되게	-4629
▁Eng	-4630
▁館	-4631
els	-4632
▁신호	-4633
▁Ph	-4634
▁끈	-4635
FA	-4636
▁항목	-4637
▁전담	-4638
▁우크라	-4639
ral	-4640
▁키워	-4641
▁킹	-4642
▁격리	-4643
▁훌	-4644
▁해상	-4645
▁살인	-4646
irect	-4647
▁폭행	-4648
▁한국인	-4649
▁컨설팅	-4650
▁石	-4651
▁조명	-4652
▁にお	-4653
anc	-4654
▁organ	-4655
ash	-4656
▁care	-4657
▁occ	-4658
▁다운	-4659
▁number	-4660
▁증명	-4661
▁신체	-4662
▁노사	-4663
러리	-4664
▁続	-4665
카드	-4666
▁연맹	-4667
▁mem	-4668
ished	-4669
▁이명박	-4670
▁해운	-4671
▁실행	-4672
▁1995	-4673
▁녹색	-4674
▁해졌	-4675
▁育	-4676
▁example	-4677
▁기지	-4678
▁주체	-4679
▁엔진	-4680
▁英	-4681
▁급여	-4682
▁사무실	-4683
▁핀	-4684
▁start	-4685
▁제주도	-4686
▁poss	-4687
▁발휘	-4688
ivid	-4689
▁val	-4690
▁あ	-4691
▁again	-4692
▁性	-4693
▁시인	-4694
▁촉진	-4695
▁시가	-4696
▁think	-4697
▁cap	-4698
▁시청자	-4699
▁수시	-4700
레이드	-4701
▁power	-4702
▁준공	-4703
▁청문	-4704
▁의결	-4705
▁시정	-4706
▁동력	-4707
▁못해	-4708
▁정착	-4709
아지	-4710
▁뛰어	-4711
▁serv	-4712
▁보냈	-4713
▁스타트업	-4714
▁튀	-4715
▁당했	-4716
▁ホ	-4717
▁논리	-4718
▁취재	-4719
▁뭔가	-4720
▁岡	-4721
ouse	-4722
GA	-4723
▁쟁	-4724
▁愛	-4725
▁상처	-4726
▁허위	-4727
▁mus	-4728
▁범행	-4729
▁출판	-4730
▁방해	-4731
▁연료	-4732
▁モ	-4733
▁op	-4734
▁불만	-4735
▁과연	-4736
▁모니터	-4737
▁이닝	-4738
▁표정	-4739
▁뿌리	-4740
ープ	-4741
▁미군	-4742
▁김성	-4743
▁묵	-4744
▁전지	-4745
line	-4746
▁계좌	-4747
▁저지	-4748
▁가계	-4749
▁쓰레	-4750
▁생긴	-4751
▁작전	-4752
▁による	-4753
▁800	-4754
▁権	-4755
▁세포	-4756
▁understand	-4757
▁갤럭	-4758
▁char	-4759
▁거짓	-4760
▁착용	-4761
▁이른바	-4762
▁수영	-4763
▁일원	-4764
▁엔터	-4765
▁쾌	-4766
▁81	-4767
▁무시	-4768
▁캐나다	-4769
▁조언	-4770
▁test	-4771
▁1996	-4772
▁189	-4773
▁키로	-4774
▁移	-4775
bs	-4776
▁소녀	-4777
▁cle	-4778
▁뮤지컬	-4779
위원	-4780
▁갤럭시	-4781
▁세우	-4782
▁、「	-4783
▁드린다	-4784
▁중구	-4785
▁환율	-4786
▁쓰레기	-4787
▁배제	-4788
▁명확	-4789
▁배상	-4790
▁동네	-4791
▁화면	-4792
▁선출	-4793
▁대북	-4794
▁known	-4795
▁Bl	-4796
▁조절	-4797
aterial	-4798
▁energy	-4799
▁동해	-4800
▁떨어졌	-4801
▁build	-4802
de	-4803
▁som	-4804
ves	-4805
▁상관	-4806
▁채택	-4807
▁educ	-4808
uss	-4809
▁局	-4810
ank	-4811
▁CO	-4812
▁信	-4813
▁writ	-4814
▁정식	-4815
▁주자	-4816
ven	-4817
▁김태	-4818
▁페이	-4819
▁でも	-4820
▁86	-4821
au	-4822
▁큐	-4823
▁시상	-4824
▁연예	-4825
▁don	-4826
▁체육관	-4827
소득	-4828
▁ニ	-4829
▁폐쇄	-4830
▁모색	-4831
▁그리스	-4832
▁이기	-4833
▁화려	-4834
▁유동	-4835
이너	-4836
▁호남	-4837
lish	-4838
▁선두	-4839
▁예능	-4840
▁실시간	-4841
ross	-4842
▁끝나	-4843
▁떨어진	-4844
▁왼	-4845
CC	-4846
▁three	-4847
▁기상	-4848
▁그럴	-4849
▁대처	-4850
▁비리	-4851
▁제고	-4852
alk	-4853
▁남녀	-4854
▁떠올	-4855
ains	-4856
▁eas	-4857
▁입지	-4858
▁연휴	-4859
▁건의	-4860
▁朝	-4861
▁aw	-4862
▁안심	-4863
▁파괴	-4864
▁소상	-4865
▁그려	-4866
사장	-4867
▁살리	-4868
ury	-4869
▁중립	-4870
ional	-4871
▁대학원	-4872
▁소중	-4873
▁통보	-4874
▁당선인	-4875
▁가공	-4876
▁근본	-4877
▁유행	-4878
▁aff	-4879
▁좁	-4880
▁싸움	-4881
▁깔	-4882
▁나선다	-4883
ty	-4884
▁세부	-4885
▁called	-4886
▁重	-4887
▁폰	-4888
▁담보	-4889
▁대행	-4890
する	-4891
▁나중	-4892
▁based	-4893
▁듀	-4894
▁want	-4895
▁79	-4896
▁met	-4897
▁지연	-4898
▁）。	-4899
▁식물	-4900
스티	-4901
▁풍부	-4902
▁구나	-4903
▁북부	-4904
▁home	-4905
aj	-4906
▁의약	-4907
▁격차	-4908
▁따로	-4909
▁휴가	-4910
▁알려진	-4911
▁거래소	-4912
▁어르	-4913
▁지출	-4914
▁마켓	-4915
▁京都	-4916
▁施	-4917
▁공학	-4918
▁한정	-4919
▁아닌가	-4920
▁선제	-4921
▁파리	-4922
▁바꿔	-4923
oms	-4924
ving	-4925
▁bo	-4926
▁ポ	-4927
▁공고	-4928
かった	-4929
AS	-4930
▁윤리	-4931
▁*	-4932
▁賞	-4933
▁출산	-4934
▁뚜	-4935
▁충돌	-4936
남도	-4937
▁book	-4938
▁줄어	-4939
▁ser	-4940
▁기원	-4941
▁저렴	-4942
▁타자	-4943
▁bel	-4944
▁Is	-4945
▁불가피	-4946
▁하우스	-4947
▁미니	-4948
ulation	-4949
▁製	-4950
おり	-4951
▁Col	-4952
||	-4953
raph	-4954
산업	-4955
▁▶	-4956
▁98	-4957
철수	-4958
▁구상	-4959
▁87	-4960
▁々	-4961
▁문서	-4962
▁착수	-4963
▁개통	-4964
▁청주	-4965
▁상환	-4966
▁基	-4967
▁겁니다	-4968
▁디스플레이	-4969
▁명품	-4970
▁human	-4971
▁츠	-4972
▁투쟁	-4973
▁아무리	-4974
▁창작	-4975
▁밟	-4976
▁경향	-4977
▁브라질	-4978
▁allow	-4979
▁戸	-4980
▁1994	-4981
gin	-4982
▁화장품	-4983
▁他	-4984
▁파업	-4985
▁샌	-4986
OU	-4987
▁어려워	-4988
▁산하	-4989
▁동참	-4990
▁뛰어난	-4991
▁environment	-4992
▁높였	-4993
▁業	-4994
▁담긴	-4995
▁핑	-4996
▁성인	-4997
▁연방	-4998
▁애니	-4999
▁바이든	-5000
▁깜	-5001
▁분쟁	-5002
▁성향	-5003
▁파견	-5004
▁발달	-5005
▁참가자	-5006
▁옵	-5007
▁소형	-5008
▁프레	-5009
▁이어졌	-5010
▁스위	-5011
▁동생	-5012
이브	-5013
▁지침	-5014
▁포장	-5015
▁교실	-5016
▁메뉴	-5017
ries	-5018
▁great	-5019
ンス	-5020
▁동남	-5021
ined	-5022
▁코스피	-5023
▁실업	-5024
▁날씨	-5025
▁城	-5026
▁점차	-5027
▁믹	-5028
▁01	-5029
▁구미	-5030
▁勝	-5031
▁est	-5032
▁그간	-5033
▁합류	-5034
arc	-5035
▁고개	-5036
▁large	-5037
▁심판	-5038
▁체포	-5039
▁により	-5040
me	-5041
gen	-5042
▁그만큼	-5043
▁나설	-5044
로스	-5045
▁상무	-5046
AR	-5047
▁선배	-5048
▁形	-5049
▁거점	-5050
▁어울	-5051
▁케어	-5052
▁알려져	-5053
▁先	-5054
친다	-5055
▁공포	-5056
▁adv	-5057
▁그걸	-5058
▁쏠	-5059
ults	-5060
▁support	-5061
iver	-5062
▁흉	-5063
힌다	-5064
▁옮겨	-5065
▁지명	-5066
▁행보	-5067
▁경로	-5068
orts	-5069
▁という	-5070
▁라이브	-5071
▁度	-5072
▁동구	-5073
▁전당	-5074
▁열정	-5075
▁説	-5076
▁83	-5077
▁해명	-5078
▁어르신	-5079
▁만남	-5080
ランド	-5081
▁beh	-5082
▁쏘	-5083
▁92	-5084
▁보낸	-5085
▁아예	-5086
▁적합	-5087
IC	-5088
▁American	-5089
▁누군	-5090
▁스카	-5091
▁앞장	-5092
단지	-5093
▁상승세	-5094
▁아카	-5095
▁quest	-5096
▁아우	-5097
▁고정	-5098
▁와서	-5099
▁株	-5100
▁land	-5101
▁prof	-5102
▁宮	-5103
▁중점	-5104
acter	-5105
▁시사	-5106
▁짜리	-5107
▁務	-5108
▁spe	-5109
▁맞추	-5110
▁caus	-5111
バム	-5112
▁contin	-5113
▁700	-5114
▁민생	-5115
▁학기	-5116
▁must	-5117
▁풀이	-5118
▁금메달	-5119
▁스트레스	-5120
▁화폐	-5121
▁bre	-5122
▁잠재	-5123
▁play	-5124
▁점포	-5125
▁대답	-5126
▁로써	-5127
▁성분	-5128
▁right	-5129
▁혼란	-5130
▁협정	-5131
▁극장	-5132
▁퇴직	-5133
▁움직이	-5134
▁change	-5135
▁대결	-5136
▁음반	-5137
▁떠오	-5138
바로	-5139
▁트위	-5140
▁impro	-5141
▁드러났	-5142
▁물러	-5143
▁중공업	-5144
▁gu	-5145
▁컬러	-5146
▁아이템	-5147
itions	-5148
▁cor	-5149
▁CD	-5150
▁世界	-5151
▁서부	-5152
▁최적	-5153
ights	-5154
▁지검	-5155
▁어제	-5156
▁付	-5157
▁모으	-5158
conom	-5159
▁02	-5160
▁91	-5161
▁監	-5162
▁논문	-5163
▁브리핑	-5164
▁유치원	-5165
▁복잡	-5166
▁입증	-5167
▁증진	-5168
▁공헌	-5169
▁still	-5170
▁콩	-5171
ources	-5172
▁복원	-5173
▁됐으며	-5174
▁권고	-5175
▁즉시	-5176
▁project	-5177
▁상인	-5178
▁代表	-5179
▁운송	-5180
▁So	-5181
▁ダ	-5182
▁여의	-5183
angu	-5184
outh	-5185
▁농산물	-5186
▁감동	-5187
▁동맹	-5188
▁pract	-5189
▁188	-5190
▁토론회	-5191
난다	-5192
▁결의	-5193
▁지도부	-5194
▁話	-5195
관리	-5196
▁구글	-5197
▁김민	-5198
▁営	-5199
▁올린	-5200
▁테이	-5201
ャン	-5202
oci	-5203
▁96	-5204
▁선보인다	-5205
▁光	-5206
▁수십	-5207
▁읍	-5208
영상	-5209
▁IC	-5210
agn	-5211
▁노무	-5212
▁아시	-5213
▁material	-5214
erc	-5215
AT	-5216
▁eng	-5217
▁붕	-5218
▁차질	-5219
▁컸	-5220
회의	-5221
▁댄	-5222
퍼스	-5223
▁단어	-5224
▁아웃	-5225
▁개성	-5226
교육	-5227
드러	-5228
▁수집	-5229
▁참사	-5230
▁묶	-5231
▁cour	-5232
▁생물	-5233
▁들어오	-5234
▁사단	-5235
▁ソ	-5236
▁춤	-5237
ially	-5238
▁랩	-5239
▁빙	-5240
▁분노	-5241
▁유로	-5242
▁기온	-5243
▁무려	-5244
▁쥐	-5245
▁문의	-5246
▁뱅크	-5247
▁아닐	-5248
▁소년	-5249
▁tem	-5250
▁概	-5251
▁수치	-5252
▁air	-5253
▁간부	-5254
▁꺾	-5255
▁당일	-5256
▁탑재	-5257
ared	-5258
▁상가	-5259
▁系	-5260
▁disease	-5261
▁만났	-5262
▁반려	-5263
▁용품	-5264
az	-5265
▁로드	-5266
▁찬성	-5267
▁though	-5268
▁수리	-5269
IS	-5270
▁하고	-5271
▁트렌드	-5272
▁03	-5273
▁sym	-5274
▁그쳤	-5275
▁저장	-5276
▁제조업	-5277
ering	-5278
▁마쳤	-5279
itive	-5280
▁정치인	-5281
▁old	-5282
▁재배	-5283
▁보조금	-5284
▁신분	-5285
▁김동	-5286
▁게시	-5287
▁안철수	-5288
▁few	-5289
▁product	-5290
▁다섯	-5291
▁진화	-5292
케이션	-5293
▁持	-5294
▁내린	-5295
iness	-5296
▁All	-5297
▁place	-5298
▁편지	-5299
▁문제점	-5300
▁risk	-5301
▁뮤직	-5302
▁베스트	-5303
▁public	-5304
▁登	-5305
▁유발	-5306
▁종시	-5307
illion	-5308
▁축하	-5309
ording	-5310
▁真	-5311
リン	-5312
▁공제	-5313
▁든다	-5314
▁요건	-5315
▁생겼	-5316
▁ide	-5317
▁해진	-5318
▁がある	-5319
▁신세계	-5320
▁支	-5321
▁맞이	-5322
▁마이크	-5323
ーン	-5324
▁트위터	-5325
▁양산	-5326
▁급식	-5327
▁아프리카	-5328
▁마친	-5329
▁에이	-5330
▁군민	-5331
▁彼	-5332
▁납부	-5333
▁평택	-5334
▁메이저	-5335
▁pain	-5336
▁소환	-5337
▁여유	-5338
▁전시회	-5339
▁られ	-5340
▁사령	-5341
▁となる	-5342
▁느낄	-5343
▁x	-5344
▁당원	-5345
▁94	-5346
▁chang	-5347
▁위탁	-5348
▁이어질	-5349
▁학회	-5350
▁치료제	-5351
▁심장	-5352
▁입찰	-5353
▁이건	-5354
▁거대	-5355
▁든지	-5356
▁보존	-5357
▁의약품	-5358
▁파워	-5359
▁회관	-5360
man	-5361
ills	-5362
▁커뮤니티	-5363
▁mat	-5364
▁did	-5365
▁〜	-5366
▁진로	-5367
▁LH	-5368
▁블루	-5369
▁급격	-5370
▁비서	-5371
▁수록	-5372
▁기조	-5373
▁대단	-5374
▁안팎	-5375
리드	-5376
▁구요	-5377
▁자아	-5378
▁의문	-5379
▁랭	-5380
▁응급	-5381
ton	-5382
디션	-5383
▁보험료	-5384
▁谷	-5385
▁次	-5386
▁발전소	-5387
▁주기	-5388
▁govern	-5389
▁분명히	-5390
▁싱글	-5391
▁ボ	-5392
▁ㅠ	-5393
▁conf	-5394
▁간단	-5395
▁관점	-5396
▁스피	-5397
▁떼	-5398
▁고소	-5399
▁과목	-5400
▁타당	-5401
▁定	-5402
ason	-5403
▁best	-5404
▁스케	-5405
▁89	-5406
▁뜨거운	-5407
rence	-5408
▁개봉	-5409
▁도약	-5410
▁Me	-5411
▁맥주	-5412
▁돌입	-5413
▁종이	-5414
▁감염증	-5415
▁규칙	-5416
▁밴드	-5417
cl	-5418
▁둘째	-5419
ug	-5420
총장	-5421
▁못한다	-5422
▁교환	-5423
▁노트	-5424
▁정하	-5425
▁건조	-5426
▁설득	-5427
▁랜드	-5428
▁phys	-5429
▁델	-5430
▁대가	-5431
▁앙	-5432
▁However	-5433
란히	-5434
eng	-5435
▁용산	-5436
リス	-5437
▁equ	-5438
▁선도	-5439
▁에어	-5440
▁위하	-5441
▁비디오	-5442
▁이성	-5443
▁일시	-5444
▁세워	-5445
문화	-5446
▁어린이집	-5447
▁저자	-5448
▁might	-5449
▁にある	-5450
▁전파	-5451
▁2030	-5452
▁평창	-5453
▁학술	-5454
▁향한	-5455
▁ret	-5456
▁献	-5457
▁伝	-5458
▁흘러	-5459
▁learning	-5460
ired	-5461
▁결코	-5462
▁1992	-5463
▁stand	-5464
▁코치	-5465
▁감축	-5466
▁독서	-5467
▁텔레콤	-5468
▁동영상	-5469
▁development	-5470
▁相	-5471
▁당연히	-5472
▁better	-5473
▁환경부	-5474
▁매주	-5475
▁1970	-5476
▁pot	-5477
시장	-5478
▁Or	-5479
▁영화제	-5480
▁At	-5481
▁김정은	-5482
▁올라가	-5483
▁include	-5484
▁都	-5485
▁決	-5486
리스트	-5487
ンター	-5488
▁마약	-5489
▁Can	-5490
다보	-5491
▁의존	-5492
▁김치	-5493
▁버렸	-5494
증권	-5495
▁江	-5496
▁감각	-5497
▁iss	-5498
▁어떠	-5499
▁바르	-5500
▁9000	-5501
▁간호	-5502
▁교통부	-5503
ior	-5504
▁훼손	-5505
▁武	-5506
▁의하	-5507
▁입국	-5508
먼지	-5509
▁오피스	-5510
▁평등	-5511
▁당한	-5512
▁태풍	-5513
▁포스트	-5514
atural	-5515
▁취하	-5516
▁keep	-5517
▁발급	-5518
ように	-5519
▁오프라인	-5520
▁利	-5521
ner	-5522
▁스페	-5523
▁이스라	-5524
▁캠퍼스	-5525
osed	-5526
▁운전자	-5527
▁인천시	-5528
▁1993	-5529
▁미술관	-5530
▁의뢰	-5531
▁인민	-5532
▁김포	-5533
▁스튜	-5534
▁appro	-5535
▁協	-5536
▁사망자	-5537
▁pur	-5538
북도	-5539
フィ	-5540
gr	-5541
▁공략	-5542
▁박정	-5543
▁한도	-5544
▁古	-5545
▁휴식	-5546
ense	-5547
iod	-5548
▁PD	-5549
▁ESG	-5550
▁내달	-5551
▁실태	-5552
▁이스라엘	-5553
ination	-5554
ょう	-5555
▁top	-5556
iven	-5557
▁light	-5558
▁일각	-5559
▁혹시	-5560
▁경비	-5561
▁곽	-5562
▁구하	-5563
せん	-5564
▁존중	-5565
▁열렸	-5566
▁자고	-5567
▁공통	-5568
▁One	-5569
▁클라우드	-5570
▁물품	-5571
▁ess	-5572
▁인용	-5573
ource	-5574
▁멜	-5575
▁원하	-5576
▁ビ	-5577
▁피아	-5578
▁Wor	-5579
▁구성원	-5580
▁강릉	-5581
▁건수	-5582
▁벌써	-5583
▁숫	-5584
▁93	-5585
▁자살	-5586
▁강점	-5587
▁상금	-5588
▁의학	-5589
▁다행	-5590
▁푸드	-5591
▁투기	-5592
ividual	-5593
▁충족	-5594
ator	-5595
▁대해선	-5596
ption	-5597
▁두려	-5598
▁학대	-5599
▁소프트웨어	-5600
▁이뤄졌	-5601
▁미세먼지	-5602
▁다녀	-5603
▁となった	-5604
▁ET	-5605
ization	-5606
마스	-5607
▁これ	-5608
▁안양	-5609
말로	-5610
▁고문	-5611
▁一覧	-5612
▁빠지	-5613
▁작곡	-5614
▁강연	-5615
▁농구	-5616
▁급등	-5617
▁추억	-5618
가락	-5619
▁빗	-5620
▁転	-5621
▁돼지	-5622
▁していた	-5623
▁깊이	-5624
▁report	-5625
▁FA	-5626
▁채무	-5627
▁편안	-5628
▁180	-5629
▁누군가	-5630
▁const	-5631
▁試	-5632
▁FI	-5633
▁상하	-5634
▁앞둔	-5635
▁blood	-5636
▁유력	-5637
▁흥미	-5638
▁용기	-5639
▁별로	-5640
▁area	-5641
▁少	-5642
▁시급	-5643
▁명회	-5644
▁추경	-5645
▁present	-5646
▁각자	-5647
▁보전	-5648
▁선보였	-5649
▁1991	-5650
▁차세대	-5651
▁사우	-5652
▁げ	-5653
▁라이프	-5654
▁방사	-5655
▁피하	-5656
▁부총리	-5657
▁외환	-5658
메이션	-5659
▁sl	-5660
▁배송	-5661
▁約	-5662
▁패배	-5663
▁윈	-5664
▁태양광	-5665
▁할까	-5666
▁해수	-5667
▁닥	-5668
▁cm	-5669
▁NC	-5670
▁걸리	-5671
▁회수	-5672
▁sit	-5673
▁박지	-5674
권자	-5675
ek	-5676
▁게다가	-5677
▁엉	-5678
▁동문	-5679
▁피고	-5680
▁줘야	-5681
▁높여	-5682
▁之	-5683
▁再	-5684
▁명단	-5685
▁국비	-5686
sp	-5687
▁신입	-5688
▁심지	-5689
▁without	-5690
▁期	-5691
▁거두	-5692
▁인류	-5693
▁무게	-5694
▁Cent	-5695
▁死	-5696
▁強	-5697
▁어깨	-5698
▁지진	-5699
▁조합원	-5700
▁演	-5701
ラー	-5702
▁아시안	-5703
▁재건	-5704
ats	-5705
▁anim	-5706
▁헬스	-5707
▁meth	-5708
▁만화	-5709
▁천연	-5710
amp	-5711
▁관내	-5712
▁션	-5713
▁연설	-5714
▁終	-5715
▁숙박	-5716
▁돋	-5717
▁지내	-5718
bers	-5719
▁명절	-5720
▁서명	-5721
의자	-5722
▁최다	-5723
▁꼼	-5724
▁고기	-5725
▁free	-5726
▁kr	-5727
▁청문회	-5728
▁간다	-5729
▁벌금	-5730
▁야권	-5731
▁한층	-5732
▁明治	-5733
▁보육	-5734
▁program	-5735
▁崎	-5736
▁모았	-5737
▁last	-5738
▁역전	-5739
▁제국	-5740
▁kg	-5741
ield	-5742
▁리스크	-5743
▁자식	-5744
▁떨어져	-5745
40	-5746
▁와인	-5747
▁끝난	-5748
▁bas	-5749
▁자회사	-5750
mon	-5751
▁bene	-5752
▁숫자	-5753
키지	-5754
▁土	-5755
지사	-5756
▁進	-5757
▁es	-5758
br	-5759
▁런던	-5760
▁명칭	-5761
ental	-5762
▁women	-5763
▁구제	-5764
▁출석	-5765
▁치매	-5766
▁direct	-5767
▁편집	-5768
ke	-5769
▁된다면	-5770
▁판매량	-5771
▁부자	-5772
르트	-5773
▁신임	-5774
▁250	-5775
▁다루	-5776
머스	-5777
▁기에	-5778
▁좋아	-5779
▁조용	-5780
und	-5781
▁옹	-5782
▁지법	-5783
▁초점	-5784
▁패키지	-5785
▁감성	-5786
▁착공	-5787
▁social	-5788
▁톱	-5789
▁압수	-5790
▁질서	-5791
▁부작	-5792
▁ident	-5793
▁모른다	-5794
ングル	-5795
▁엄청난	-5796
▁白	-5797
▁언니	-5798
▁KIA	-5799
▁적발	-5800
▁지향	-5801
▁부사장	-5802
▁橋	-5803
▁mark	-5804
▁웅	-5805
▁meas	-5806
▁空	-5807
▁북미	-5808
▁장르	-5809
▁AP	-5810
▁김현	-5811
▁입원	-5812
▁중도	-5813
▁within	-5814
닉스	-5815
▁통하	-5816
▁pos	-5817
바이	-5818
▁예금	-5819
▁즉각	-5820
▁못할	-5821
▁취급	-5822
▁단순히	-5823
▁테스트	-5824
▁과세	-5825
▁온도	-5826
▁지대	-5827
▁은퇴	-5828
▁지위	-5829
ining	-5830
▁달한다	-5831
▁사이버	-5832
▁매달	-5833
AN	-5834
▁유아	-5835
▁result	-5836
▁바른	-5837
▁연봉	-5838
▁지인	-5839
▁비례	-5840
▁거치	-5841
▁차기	-5842
▁학자	-5843
▁성폭	-5844
▁변수	-5845
▁고서	-5846
▁대거	-5847
▁해군	-5848
▁cause	-5849
▁만날	-5850
▁빵	-5851
ograph	-5852
▁조항	-5853
▁imm	-5854
▁쫓	-5855
OR	-5856
▁댓	-5857
▁형제	-5858
▁지닌	-5859
▁too	-5860
ider	-5861
▁가속	-5862
▁증권사	-5863
▁htt	-5864
▁直	-5865
▁각국	-5866
▁원리	-5867
▁become	-5868
▁소외	-5869
▁individual	-5870
▁//	-5871
▁위축	-5872
ify	-5873
ッド	-5874
▁원자력	-5875
▁解	-5876
▁競	-5877
▁상향	-5878
▁과도	-5879
▁철저히	-5880
▁사내	-5881
▁여파	-5882
▁연합회	-5883
▁진영	-5884
▁으므로	-5885
▁틈	-5886
▁코드	-5887
▁폐기물	-5888
ards	-5889
▁당사자	-5890
▁드러내	-5891
▁일환	-5892
▁전라	-5893
▁철강	-5894
▁anal	-5895
▁소감	-5896
▁scient	-5897
▁특례	-5898
▁재해	-5899
▁low	-5900
▁심화	-5901
▁ 	-5902
▁作曲	-5903
erest	-5904
▁깨끗	-5905
▁심지어	-5906
▁원활	-5907
▁담배	-5908
그룹	-5909
view	-5910
▁비트	-5911
도로	-5912
▁2024	-5913
▁체력	-5914
▁공직자	-5915
▁워크	-5916
▁면역	-5917
▁연관	-5918
ways	-5919
▁시중	-5920
▁able	-5921
▁던지	-5922
▁마르	-5923
▁say	-5924
ccess	-5925
▁두기	-5926
▁건전	-5927
▁드림	-5928
▁기재	-5929
rap	-5930
▁〉	-5931
▁early	-5932
흥민	-5933
▁mar	-5934
▁feel	-5935
▁면세	-5936
▁습관	-5937
▁반박	-5938
▁손흥민	-5939
▁극단	-5940
포르	-5941
▁사무소	-5942
▁타이틀	-5943
▁move	-5944
▁provide	-5945
▁보일	-5946
▁안녕	-5947
ID	-5948
▁이주	-5949
▁percent	-5950
▁pass	-5951
▁타워	-5952
▁나타내	-5953
▁신라	-5954
▁아기	-5955
▁규명	-5956
▁유해	-5957
▁복구	-5958
▁후속	-5959
▁일종	-5960
ina	-5961
▁引	-5962
▁드러나	-5963
▁廃	-5964
▁고시	-5965
aren	-5966
▁종사자	-5967
▁another	-5968
▁리더십	-5969
fic	-5970
▁실점	-5971
▁배려	-5972
▁교과서	-5973
▁here	-5974
스티벌	-5975
▁가전	-5976
▁일방	-5977
▁happ	-5978
▁전제	-5979
▁수렴	-5980
▁적응	-5981
▁ant	-5982
▁받아들이	-5983
▁사로	-5984
▁한지	-5985
▁페스티벌	-5986
ertain	-5987
▁진주	-5988
▁食	-5989
▁입시	-5990
eral	-5991
▁mean	-5992
▁그건	-5993
▁압도	-5994
▁덮	-5995
▁허리	-5996
▁吉	-5997
▁interest	-5998
▁끌어올	-5999
▁企	-6000
▁econom	-6001
▁says	-6002
디아	-6003
▁중계	-6004
비전	-6005
▁곧바로	-6006
▁langu	-6007
▁신선	-6008
미널	-6009
레인	-6010
▁원정	-6011
▁중동	-6012
▁가입자	-6013
ability	-6014
▁테러	-6015
ern	-6016
▁요양	-6017
▁여객	-6018
▁Sy	-6019
▁미소	-6020
▁사원	-6021
▁1988	-6022
▁김기	-6023
▁국정원	-6024
orth	-6025
▁National	-6026
▁운명	-6027
▁그니까	-6028
▁완공	-6029
▁이마트	-6030
▁05	-6031
▁株式	-6032
▁들려	-6033
▁모자	-6034
▁더라고요	-6035
▁소요	-6036
▁history	-6037
▁고성	-6038
▁아까	-6039
▁운항	-6040
▁意	-6041
▁넘겨	-6042
▁설문	-6043
▁〈	-6044
サー	-6045
▁노하	-6046
▁박스	-6047
▁주재	-6048
▁탄핵	-6049
▁태국	-6050
icle	-6051
▁록	-6052
▁김대	-6053
▁FTA	-6054
▁냄	-6055
▁cult	-6056
ajor	-6057
▁아무런	-6058
▁치러	-6059
▁내내	-6060
▁大阪	-6061
▁는다고	-6062
▁㎏	-6063
▁끊임	-6064
▁복수	-6065
▁섬유	-6066
here	-6067
로그	-6068
aper	-6069
▁sever	-6070
▁신인	-6071
▁스키	-6072
▁員	-6073
▁～	-6074
ーマ	-6075
▁장사	-6076
▁control	-6077
▁스파	-6078
광역	-6079
▁187	-6080
▁bus	-6081
▁周	-6082
▁family	-6083
▁한강	-6084
▁가해	-6085
▁차트	-6086
ので	-6087
▁노무현	-6088
OC	-6089
▁변신	-6090
▁―	-6091
▁음주	-6092
릭스	-6093
▁With	-6094
▁붉	-6095
▁왜냐	-6096
▁高等	-6097
▁여의도	-6098
▁억제	-6099
▁드러냈	-6100
AM	-6101
▁통증	-6102
져야	-6103
▁です	-6104
60	-6105
▁fin	-6106
▁1989	-6107
▁means	-6108
▁소수	-6109
▁체크	-6110
less	-6111
▁겹	-6112
▁士	-6113
▁마크	-6114
▁それ	-6115
▁기술력	-6116
ニア	-6117
▁Dr	-6118
ently	-6119
▁예선	-6120
▁opp	-6121
▁avail	-6122
▁마침	-6123
▁수지	-6124
▁중개	-6125
▁him	-6126
▁행정부	-6127
▁であった	-6128
▁무너	-6129
▁발의	-6130
▁세웠	-6131
▁조각	-6132
▁second	-6133
ON	-6134
▁정성	-6135
▁rest	-6136
▁plant	-6137
▁대금	-6138
▁佐	-6139
▁롤	-6140
▁추적	-6141
▁목숨	-6142
▁타운	-6143
▁Inst	-6144
ision	-6145
▁proper	-6146
▁유산	-6147
▁ele	-6148
▁마주	-6149
가포르	-6150
▁의정	-6151
ological	-6152
▁마당	-6153
▁정밀	-6154
▁real	-6155
▁집권	-6156
▁가이드	-6157
▁재정부	-6158
▁둘러싼	-6159
▁ば	-6160
▁month	-6161
▁산업단지	-6162
▁시공	-6163
▁오바	-6164
▁진심	-6165
▁공산	-6166
▁증대	-6167
▁馬	-6168
▁dev	-6169
▁정서	-6170
▁스크	-6171
▁싱가포르	-6172
▁1987	-6173
lished	-6174
▁四	-6175
▁웰	-6176
TE	-6177
▁fore	-6178
▁지리	-6179
▁Go	-6180
▁필리	-6181
TS	-6182
▁관찰	-6183
▁method	-6184
▁드론	-6185
▁가맹	-6186
▁줄어든	-6187
▁생겨	-6188
oid	-6189
▁터미널	-6190
▁편의점	-6191
80	-6192
▁건축물	-6193
▁펴	-6194
▁様	-6195
ヴァ	-6196
▁구청장	-6197
▁핸	-6198
▁셰	-6199
▁솔직	-6200
▁정수	-6201
▁주석	-6202
▁との	-6203
▁농민	-6204
▁occur	-6205
▁섞	-6206
▁군인	-6207
▁near	-6208
▁몰랐	-6209
▁이렇	-6210
ients	-6211
▁살아가	-6212
▁ワ	-6213
▁노하우	-6214
▁늘려	-6215
▁닭	-6216
▁근대	-6217
▁살해	-6218
▁톡	-6219
▁도덕	-6220
▁룸	-6221
▁수당	-6222
rodu	-6223
▁국당	-6224
▁벌어지	-6225
ling	-6226
▁원주	-6227
▁prevent	-6228
네시아	-6229
▁호응	-6230
DP	-6231
なく	-6232
▁매니	-6233
▁쪼	-6234
▁서해	-6235
▁격려	-6236
▁cal	-6237
▁클래식	-6238
▁面	-6239
▁belie	-6240
▁메타	-6241
▁실종	-6242
▁건너	-6243
▁공익	-6244
▁재미있	-6245
▁겨냥	-6246
▁코스닥	-6247
ories	-6248
ルト	-6249
▁신중	-6250
▁商	-6251
▁들어간	-6252
▁っ	-6253
▁비정	-6254
▁세미	-6255
▁딜	-6256
ission	-6257
▁동향	-6258
▁저소득	-6259
▁千	-6260
▁mil	-6261
▁애니메이션	-6262
▁레드	-6263
▁호기	-6264
▁活動	-6265
▁스튜디오	-6266
▁극대	-6267
▁things	-6268
その	-6269
센트	-6270
▁이태	-6271
▁making	-6272
▁자국	-6273
▁비서관	-6274
▁사로잡	-6275
▁官	-6276
▁순수	-6277
▁텐데	-6278
평균	-6279
▁유족	-6280
▁철거	-6281
▁SM	-6282
ived	-6283
▁승진	-6284
▁햇	-6285
inc	-6286
▁돌아오	-6287
▁집안	-6288
▁추모	-6289
▁구도	-6290
▁실정	-6291
▁패턴	-6292
▁動	-6293
atic	-6294
▁조심	-6295
▁文化	-6296
▁대강	-6297
▁시원	-6298
▁이수	-6299
▁베이징	-6300
▁군대	-6301
▁버전	-6302
▁항소	-6303
という	-6304
▁leg	-6305
조건	-6306
▁授	-6307
▁음료	-6308
▁open	-6309
hor	-6310
▁재원	-6311
▁녀	-6312
▁공주	-6313
▁출장	-6314
▁당내	-6315
▁줄여	-6316
▁呼	-6317
▁areas	-6318
ots	-6319
▁출근	-6320
▁벼	-6321
▁지부	-6322
▁순천	-6323
▁치유	-6324
▁패스	-6325
▁府	-6326
▁mm	-6327
▁김재	-6328
▁current	-6329
▁フラン	-6330
ote	-6331
ung	-6332
▁門	-6333
▁김진	-6334
▁잇따라	-6335
▁영광	-6336
ヴィ	-6337
마자	-6338
▁춘천	-6339
▁찌	-6340
▁Ear	-6341
▁전역	-6342
▁point	-6343
▁대외	-6344
▁●	-6345
▁개척	-6346
▁마법	-6347
▁적정	-6348
ane	-6349
▁ノ	-6350
▁끝내	-6351
데미	-6352
▁쇼핑몰	-6353
▁축산	-6354
ified	-6355
ames	-6356
▁이민	-6357
▁타이어	-6358
▁인도네시아	-6359
▁활력	-6360
▁모니터링	-6361
▁계절	-6362
▁term	-6363
▁SU	-6364
▁댓글	-6365
▁영남	-6366
소년	-6367
▁oper	-6368
▁아카데미	-6369
▁어른	-6370
tain	-6371
PS	-6372
▁이라	-6373
osp	-6374
▁황제	-6375
▁들어서	-6376
▁피고인	-6377
▁근처	-6378
▁플랜	-6379
▁일자	-6380
▁몰려	-6381
▁소셜	-6382
▁관세	-6383
▁list	-6384
▁옛날	-6385
▁cr	-6386
▁고유	-6387
광역시	-6388
ンジ	-6389
▁cost	-6390
▁엘리	-6391
▁조국	-6392
▁특검	-6393
▁강세	-6394
▁닫	-6395
▁war	-6396
▁$	-6397
▁젠	-6398
▁에게서	-6399
▁しい	-6400
▁교장	-6401
스탄	-6402
▁진상	-6403
▁선진국	-6404
▁United	-6405
▁監督	-6406
▁이혼	-6407
▁order	-6408
IN	-6409
▁근육	-6410
▁금속	-6411
▁선거구	-6412
에도	-6413
▁목사	-6414
▁소음	-6415
▁오바마	-6416
▁땐	-6417
▁species	-6418
▁즐거	-6419
▁덴	-6420
▁부활	-6421
▁사용자	-6422
▁달했	-6423
▁최신	-6424
▁医	-6425
▁포트	-6426
▁infl	-6427
▁갖춰	-6428
▁신화	-6429
▁"(	-6430
▁붕괴	-6431
▁경영자	-6432
▁perform	-6433
▁철회	-6434
▁Fr	-6435
▁훌륭	-6436
▁인문	-6437
▁run	-6438
ole	-6439
▁메모	-6440
▁addition	-6441
ックス	-6442
▁순이	-6443
▁리조	-6444
▁원료	-6445
▁빠진	-6446
ration	-6447
▁several	-6448
▁광양	-6449
▁...	-6450
▁멕	-6451
▁깜짝	-6452
cle	-6453
ends	-6454
▁골목	-6455
▁개시	-6456
▁major	-6457
▁상용	-6458
▁type	-6459
▁Med	-6460
▁natural	-6461
▁World	-6462
▁ライ	-6463
▁중견	-6464
obal	-6465
▁치르	-6466
▁group	-6467
▁Some	-6468
▁쇠	-6469
▁creat	-6470
ogn	-6471
▁윌	-6472
▁권역	-6473
▁금감	-6474
▁z	-6475
시코	-6476
▁수여	-6477
▁멸	-6478
▁양식	-6479
▁師	-6480
ocus	-6481
▁그치	-6482
▁재능	-6483
▁조화	-6484
▁하위	-6485
▁뒤집	-6486
▁매치	-6487
▁流	-6488
▁age	-6489
▁ナ	-6490
▁invol	-6491
▁기독	-6492
▁자사	-6493
▁떡	-6494
▁뭘	-6495
▁탄력	-6496
OS	-6497
▁주소	-6498
▁어쩌	-6499
▁장학금	-6500
urop	-6501
▁達	-6502
▁위로	-6503
▁ㅋㅋㅋ	-6504
▁possible	-6505
▁によって	-6506
▁맞서	-6507
▁전월	-6508
▁린	-6509
ones	-6510
pr	-6511
▁times	-6512
▁시세	-6513
▁파일	-6514
▁항만	-6515
▁상대방	-6516
ng	-6517
▁researc	-6518
▁調	-6519
▁로마	-6520
시마	-6521
▁배정	-6522
▁유권자	-6523
▁그곳	-6524
▁후배	-6525
▁영웅	-6526
シア	-6527
▁산단	-6528
▁몰아	-6529
▁No	-6530
▁소위	-6531
▁1960	-6532
▁comput	-6533
▁屋	-6534
▁지지율	-6535
▁거뒀	-6536
ered	-6537
▁환영	-6538
▁정확히	-6539
▁독특	-6540
▁flow	-6541
으면	-6542
▁야간	-6543
▁비정규	-6544
▁el	-6545
▁여권	-6546
▁IB	-6547
▁걸어	-6548
▁bir	-6549
▁임신	-6550
▁국무총리	-6551
▁오브	-6552
▁중고	-6553
로드	-6554
▁뚫	-6555
▁모터	-6556
▁면제	-6557
▁む	-6558
▁안동	-6559
▁지역구	-6560
▁리조트	-6561
▁MB	-6562
▁였으며	-6563
▁での	-6564
너스	-6565
ope	-6566
▁아티	-6567
▁head	-6568
▁cancer	-6569
▁꽤	-6570
▁LP	-6571
▁국산	-6572
▁전후	-6573
▁비정규직	-6574
▁국세	-6575
▁바람직	-6576
▁유학	-6577
▁벌였	-6578
▁선전	-6579
▁청정	-6580
▁편입	-6581
▁vol	-6582
▁몫	-6583
▁desc	-6584
▁available	-6585
DI	-6586
▁일찍	-6587
▁맘	-6588
▁본선	-6589
▁돌봄	-6590
▁뼈	-6591
▁IM	-6592
▁경매	-6593
なかった	-6594
▁Do	-6595
▁につ	-6596
▁첫째	-6597
▁이랑	-6598
▁자영	-6599
ナー	-6600
▁別	-6601
▁가게	-6602
かし	-6603
▁韓	-6604
uture	-6605
▁텔레비전	-6606
천군	-6607
▁Ne	-6608
▁객관	-6609
▁멀리	-6610
▁hig	-6611
▁번역	-6612
▁남기	-6613
런스	-6614
▁진학	-6615
▁모빌	-6616
▁이종	-6617
ians	-6618
▁合衆	-6619
ateg	-6620
▁자라	-6621
뜨리	-6622
▁저항	-6623
▁ユ	-6624
▁서초	-6625
▁인연	-6626
20	-6627
▁자마자	-6628
▁끄	-6629
▁fac	-6630
▁남양	-6631
▁무조건	-6632
▁access	-6633
▁シングル	-6634
▁GM	-6635
▁흡수	-6636
▁against	-6637
▁Tr	-6638
▁단체장	-6639
▁관광지	-6640
▁특별법	-6641
▁꼴	-6642
▁메달	-6643
▁요원	-6644
▁にも	-6645
▁납품	-6646
▁에서부터	-6647
▁시너지	-6648
ternational	-6649
▁넘치	-6650
▁period	-6651
▁예산안	-6652
▁목포	-6653
▁샷	-6654
▁ル	-6655
▁위상	-6656
▁포스	-6657
▁unt	-6658
▁since	-6659
사고	-6660
▁유연	-6661
▁가사	-6662
▁무한	-6663
▁발주	-6664
▁외교부	-6665
▁풍경	-6666
▁country	-6667
▁government	-6668
▁느낀	-6669
▁도발	-6670
리지	-6671
▁めた	-6672
ention	-6673
▁원유	-6674
▁向	-6675
▁부위	-6676
▁농장	-6677
▁플래	-6678
▁나갔	-6679
▁메르	-6680
▁いた	-6681
▁단축	-6682
▁心	-6683
▁동양	-6684
▁상권	-6685
▁バス	-6686
▁박수	-6687
▁내수	-6688
ae	-6689
▁태평	-6690
▁부작용	-6691
▁병행	-6692
▁problems	-6693
▁1500	-6694
▁come	-6695
▁교원	-6696
▁무릎	-6697
▁팽	-6698
▁del	-6699
아버지	-6700
work	-6701
▁그럼에도	-6702
▁양도	-6703
▁준수	-6704
ファ	-6705
▁MC	-6706
▁업자	-6707
▁2025	-6708
다면	-6709
▁둔화	-6710
▁ey	-6711
▁야외	-6712
▁일으키	-6713
ething	-6714
▁旧	-6715
▁이중	-6716
▁世紀	-6717
▁기도	-6718
▁뚜렷	-6719
▁particular	-6720
▁사무총장	-6721
▁problem	-6722
▁出演	-6723
▁승점	-6724
▁유전자	-6725
ラマ	-6726
▁다짐	-6727
▁構	-6728
▁위생	-6729
세요	-6730
▁육군	-6731
▁impact	-6732
공항	-6733
스토	-6734
▁수산	-6735
ortun	-6736
▁최상	-6737
생활	-6738
▁김경	-6739
▁treatment	-6740
▁버린	-6741
▁hard	-6742
▁닷	-6743
▁起	-6744
▁위성	-6745
▁펼쳤	-6746
▁광명	-6747
▁섭취	-6748
▁수백	-6749
▁氏	-6750
▁오토	-6751
▁틱	-6752
▁표명	-6753
로운	-6754
▁지켜보	-6755
▁앞세	-6756
▁학력	-6757
▁차장	-6758
omm	-6759
▁널리	-6760
연금	-6761
▁김상	-6762
▁본질	-6763
cing	-6764
▁북구	-6765
▁주위	-6766
▁부각	-6767
▁목록	-6768
센터	-6769
▁삭제	-6770
▁나쁜	-6771
▁であり	-6772
▁갤러리	-6773
▁prom	-6774
ステ	-6775
싱턴	-6776
▁コン	-6777
▁부패	-6778
▁津	-6779
▁bi	-6780
▁그램	-6781
▁늘어났	-6782
▁감염병	-6783
▁쇄	-6784
▁산불	-6785
▁여사	-6786
▁non	-6787
▁청원	-6788
▁04	-6789
▁공수	-6790
▁금호	-6791
▁ter	-6792
▁플라스	-6793
▁소문	-6794
▁원가	-6795
▁열차	-6796
▁관람객	-6797
▁최소한	-6798
▁어려울	-6799
▁자발	-6800
▁중기	-6801
▁탈락	-6802
rist	-6803
으로	-6804
▁没	-6805
▁130	-6806
▁휩	-6807
▁더블	-6808
ox	-6809
▁손상	-6810
▁당분	-6811
ised	-6812
▁시상식	-6813
▁김용	-6814
▁낮추	-6815
omes	-6816
▁항공기	-6817
▁자면	-6818
▁1986	-6819
▁兵	-6820
스턴	-6821
▁brain	-6822
FC	-6823
▁Am	-6824
▁青	-6825
ret	-6826
하면	-6827
aring	-6828
▁Im	-6829
▁아닙	-6830
▁주류	-6831
▁골프장	-6832
▁사라지	-6833
▁両	-6834
▁put	-6835
▁tre	-6836
▁감면	-6837
▁갈수록	-6838
▁방치	-6839
▁지니	-6840
▁専	-6841
ring	-6842
▁보좌	-6843
▁휴대폰	-6844
▁four	-6845
▁없애	-6846
▁양상	-6847
▁황금	-6848
▁강도	-6849
▁情	-6850
▁마스터	-6851
▁住	-6852
▁드래	-6853
▁곁	-6854
▁orig	-6855
ests	-6856
▁될지	-6857
▁이적	-6858
▁可	-6859
▁끼리	-6860
▁let	-6861
▁신사	-6862
▁케이블	-6863
▁킬	-6864
▁도청	-6865
▁119	-6866
현진	-6867
▁式	-6868
▁II	-6869
▁せ	-6870
▁전설	-6871
▁잉글	-6872
▁900	-6873
▁대립	-6874
▁오랫	-6875
▁개장	-6876
▁통장	-6877
▁levels	-6878
▁지난주	-6879
▁By	-6880
▁무인	-6881
▁올바	-6882
▁무용	-6883
▁트랙	-6884
▁엇	-6885
atch	-6886
agement	-6887
▁hy	-6888
▁탑승	-6889
▁자제	-6890
▁종로	-6891
▁post	-6892
イル	-6893
▁아끼	-6894
나이	-6895
▁선별	-6896
▁금감원	-6897
フォ	-6898
▁반성	-6899
▁리얼	-6900
버그	-6901
▁적립	-6902
▁중증	-6903
▁불거	-6904
▁사물	-6905
sy	-6906
▁fre	-6907
ことを	-6908
▁focus	-6909
▁새해	-6910
▁코너	-6911
▁挙	-6912
▁크루	-6913
▁law	-6914
▁작동	-6915
▁That	-6916
▁용지	-6917
▁little	-6918
▁참조	-6919
▁총력	-6920
▁결심	-6921
▁전수	-6922
▁생애	-6923
▁陸	-6924
▁八	-6925
▁매도	-6926
▁신장	-6927
▁왼쪽	-6928
ann	-6929
▁승객	-6930
▁신축	-6931
▁행진	-6932
▁연패	-6933
▁委	-6934
▁Af	-6935
▁재고	-6936
▁省	-6937
▁포르	-6938
▁가시	-6939
▁증정	-6940
▁해고	-6941
▁담겨	-6942
▁워싱턴	-6943
▁ガ	-6944
▁花	-6945
▁방위	-6946
▁signific	-6947
DA	-6948
▁others	-6949
▁총재	-6950
▁状	-6951
다리	-6952
▁conn	-6953
▁순이익	-6954
70	-6955
▁五	-6956
▁統	-6957
MC	-6958
▁스님	-6959
▁돌아온	-6960
▁net	-6961
▁오랫동안	-6962
▁쏟아	-6963
▁아이폰	-6964
▁한국어	-6965
▁SP	-6966
▁멕시코	-6967
▁管	-6968
でき	-6969
▁보건소	-6970
▁간접	-6971
▁이준	-6972
▁technology	-6973
▁cond	-6974
으니	-6975
▁면허	-6976
▁뷰티	-6977
▁反	-6978
▁司	-6979
▁久	-6980
▁rad	-6981
▁sw	-6982
▁모은	-6983
▁늘어날	-6984
▁용어	-6985
▁천억	-6986
이즈	-6987
▁Stud	-6988
▁확률	-6989
▁create	-6990
▁出典	-6991
▁스탠	-6992
▁vir	-6993
▁等	-6994
▁各	-6995
▁내놨	-6996
▁상당수	-6997
▁歳	-6998
▁Car	-6999
▁ゲ	-7000
▁덩	-7001
▁냄새	-7002
▁観	-7003
▁Europ	-7004
▁교통사고	-7005
シャ	-7006
▁강행	-7007
▁엑스포	-7008
▁出場	-7009
▁연애	-7010
▁LED	-7011
▁소지	-7012
▁기독교	-7013
▁담당자	-7014
▁지나치	-7015
▁著	-7016
연히	-7017
▁UN	-7018
▁공정위	-7019
▁양자	-7020
▁대대	-7021
▁남구	-7022
▁오빠	-7023
ours	-7024
▁아이돌	-7025
▁something	-7026
▁견해	-7027
▁修	-7028
▁둥	-7029
▁흥행	-7030
▁路	-7031
▁최악	-7032
である	-7033
▁！	-7034
▁스티	-7035
▁파티	-7036
교통	-7037
▁현역	-7038
▁조리	-7039
▁주한	-7040
▁탈출	-7041
▁110	-7042
스트라	-7043
▁압력	-7044
▁점심	-7045
シュ	-7046
ンタ	-7047
▁English	-7048
▁沢	-7049
▁세미나	-7050
▁local	-7051
▁먹거리	-7052
▁06	-7053
ッカー	-7054
▁장식	-7055
▁중반	-7056
▁비록	-7057
▁유망	-7058
▁꼽힌다	-7059
▁teac	-7060
▁장군	-7061
▁이른다	-7062
▁화장실	-7063
▁너무나	-7064
▁플라	-7065
isc	-7066
▁수상자	-7067
▁million	-7068
▁각오	-7069
▁아라	-7070
▁河	-7071
▁굿	-7072
▁오늘날	-7073
aster	-7074
▁낫	-7075
▁중부	-7076
▁cells	-7077
▁메인	-7078
▁무관	-7079
▁전액	-7080
▁앞장서	-7081
▁고가	-7082
ream	-7083
▁찰	-7084
▁택배	-7085
▁benef	-7086
▁enc	-7087
▁당분간	-7088
플레이션	-7089
RA	-7090
▁한전	-7091
▁works	-7092
ape	-7093
▁살려	-7094
▁플라스틱	-7095
▁군요	-7096
▁consum	-7097
▁동계	-7098
ique	-7099
oad	-7100
▁여서	-7101
▁관할	-7102
▁밀려	-7103
시스	-7104
▁et	-7105
▁사연	-7106
▁동아리	-7107
▁고대	-7108
idence	-7109
▁언더	-7110
▁가끔	-7111
▁임무	-7112
▁강경	-7113
▁Joh	-7114
▁흐르	-7115
▁홀로	-7116
▁KBO	-7117
▁미칠	-7118
위원회	-7119
▁える	-7120
▁필리핀	-7121
▁days	-7122
▁분당	-7123
▁민선	-7124
▁안건	-7125
▁추락	-7126
オン	-7127
▁연승	-7128
▁Europe	-7129
▁配	-7130
▁샘	-7131
▁education	-7132
▁today	-7133
▁lim	-7134
▁놈	-7135
hem	-7136
▁본회의	-7137
yle	-7138
▁엄격	-7139
▁アルバム	-7140
다니	-7141
▁186	-7142
▁1985	-7143
リーグ	-7144
▁卒	-7145
▁press	-7146
▁접속	-7147
▁following	-7148
▁교섭	-7149
▁일치	-7150
▁Comm	-7151
▁대량	-7152
▁스위스	-7153
▁핫	-7154
▁㎜	-7155
▁노동부	-7156
▁과일	-7157
▁TH	-7158
▁무선	-7159
▁집값	-7160
▁재활	-7161
▁국민연금	-7162
▁森	-7163
▁하나님	-7164
▁독도	-7165
▁党	-7166
▁생성	-7167
▁특유	-7168
▁왜곡	-7169
나마	-7170
▁team	-7171
▁heart	-7172
▁고지	-7173
▁되돌	-7174
▁싸우	-7175
abor	-7176
▁민감	-7177
라이나	-7178
▁힘입	-7179
pect	-7180
▁느꼈	-7181
▁아티스트	-7182
▁ㄱ	-7183
une	-7184
▁육아	-7185
▁profess	-7186
ません	-7187
▁분산	-7188
▁창원시	-7189
ES	-7190
끄러	-7191
▁멀티	-7192
▁나름	-7193
▁struct	-7194
ances	-7195
▁indust	-7196
▁language	-7197
▁면세점	-7198
▁합성	-7199
▁芸	-7200
▁cho	-7201
▁States	-7202
▁ETF	-7203
▁ファ	-7204
▁협동	-7205
▁ピ	-7206
▁그날	-7207
▁랜	-7208
▁뭉	-7209
▁스토어	-7210
▁모빌리티	-7211
▁論	-7212
▁생계	-7213
▁흑자	-7214
▁dam	-7215
▁도중	-7216
▁무장	-7217
▁익숙	-7218
▁건데	-7219
▁그저	-7220
▁마사	-7221
▁부스	-7222
▁temper	-7223
ラス	-7224
▁학급	-7225
ended	-7226
▁수면	-7227
▁space	-7228
ptoms	-7229
▁Pr	-7230
▁중순	-7231
낸다	-7232
▁이끄	-7233
▁시달	-7234
▁확신	-7235
▁흰	-7236
▁수색	-7237
▁力	-7238
▁간편	-7239
▁시립	-7240
▁무산	-7241
▁포털	-7242
▁음식점	-7243
▁mult	-7244
▁＝	-7245
▁TF	-7246
▁fil	-7247
▁도구	-7248
▁수험	-7249
▁使用	-7250
▁Gr	-7251
▁과감	-7252
▁세탁	-7253
▁책임자	-7254
거래	-7255
▁처장	-7256
▁티켓	-7257
▁다채	-7258
▁명의	-7259
▁흔히	-7260
▁Mus	-7261
▁義	-7262
▁오해	-7263
▁への	-7264
▁번지	-7265
받침	-7266
▁에겐	-7267
▁락	-7268
▁富	-7269
▁뻔	-7270
제품	-7271
▁among	-7272
▁展	-7273
▁땀	-7274
アル	-7275
▁체인	-7276
▁쉬운	-7277
▁止	-7278
▁불교	-7279
▁在	-7280
▁연인	-7281
▁슬로	-7282
af	-7283
▁재밌	-7284
▁닿	-7285
ける	-7286
▁선수단	-7287
▁予	-7288
▁技	-7289
▁Ab	-7290
▁그라	-7291
▁성실	-7292
▁Man	-7293
▁時間	-7294
ode	-7295
▁親	-7296
ブル	-7297
▁店	-7298
▁why	-7299
▁view	-7300
▁한마	-7301
▁岩	-7302
▁초래	-7303
▁방학	-7304
▁정의당	-7305
▁success	-7306
▁맑	-7307
▁AS	-7308
▁고수	-7309
▁조속	-7310
▁특위	-7311
▁口	-7312
테크	-7313
▁등판	-7314
▁이뤄진	-7315
▁명시	-7316
ジオ	-7317
▁스코	-7318
oot	-7319
▁캘	-7320
▁송도	-7321
▁정작	-7322
▁men	-7323
▁behav	-7324
▁Fl	-7325
▁돌리	-7326
▁어우	-7327
▁博	-7328
▁실리	-7329
▁노동조합	-7330
바지	-7331
▁귀국	-7332
なった	-7333
▁父	-7334
▁쓰러	-7335
▁어찌	-7336
▁섹	-7337
▁동작	-7338
셉트	-7339
▁left	-7340
▁장수	-7341
▁bro	-7342
▁short	-7343
▁대목	-7344
▁일관	-7345
▁사각	-7346
다수	-7347
▁돼서	-7348
▁rele	-7349
▁associ	-7350
마크	-7351
▁는다면	-7352
▁words	-7353
▁댄스	-7354
aps	-7355
▁감상	-7356
▁이노	-7357
▁해안	-7358
▁면서도	-7359
▁미안	-7360
▁창립	-7361
▁case	-7362
▁앞선	-7363
▁版	-7364
▁とは	-7365
덜란드	-7366
ler	-7367
ilar	-7368
▁存命	-7369
▁장난	-7370
▁네덜란드	-7371
▁object	-7372
▁Mar	-7373
CTV	-7374
▁이뤄질	-7375
▁伊	-7376
▁변하	-7377
atory	-7378
▁future	-7379
▁먼지	-7380
▁감사원	-7381
▁始	-7382
▁타점	-7383
르크	-7384
oney	-7385
▁だった	-7386
▁Health	-7387
▁화합	-7388
ression	-7389
▁provid	-7390
▁継	-7391
▁주연	-7392
대문	-7393
▁고전	-7394
▁꺼내	-7395
▁하이브	-7396
▁부천	-7397
▁수원시	-7398
▁민심	-7399
▁현직	-7400
▁우울	-7401
▁turn	-7402
▁っている	-7403
▁국면	-7404
▁CCTV	-7405
▁남겨	-7406
▁line	-7407
port	-7408
▁AR	-7409
▁라서	-7410
▁학년도	-7411
▁likely	-7412
▁応	-7413
▁업소	-7414
olution	-7415
▁트레이	-7416
▁낯	-7417
▁노리	-7418
▁1984	-7419
▁far	-7420
▁왜냐하면	-7421
por	-7422
----	-7423
▁Comp	-7424
▁잉글랜드	-7425
▁Resear	-7426
▁개관	-7427
▁기울이	-7428
▁보여준다	-7429
▁빠졌	-7430
▁사후	-7431
▁뒷받침	-7432
▁past	-7433
▁남도	-7434
▁좌우	-7435
▁스웨	-7436
▁혈액	-7437
▁자꾸	-7438
▁가짜	-7439
▁언제나	-7440
over	-7441
though	-7442
▁創	-7443
▁거짓말	-7444
▁improve	-7445
▁Ge	-7446
▁구호	-7447
▁usually	-7448
구역	-7449
▁보행	-7450
▁패널	-7451
▁보인	-7452
▁자가	-7453
▁확실히	-7454
▁researchers	-7455
10	-7456
▁산책	-7457
▁제어	-7458
은이	-7459
▁이념	-7460
▁전무	-7461
▁힐링	-7462
▁rece	-7463
▁設立	-7464
▁온실	-7465
▁조만	-7466
▁친화	-7467
▁기아차	-7468
▁나타냈	-7469
▁済	-7470
▁try	-7471
▁가질	-7472
▁랭킹	-7473
▁게재	-7474
ploy	-7475
▁米	-7476
▁신기	-7477
▁along	-7478
▁용도	-7479
ーツ	-7480
▁오가	-7481
▁優勝	-7482
▁specific	-7483
▁영원	-7484
▁옳	-7485
irc	-7486
▁재학	-7487
▁김지	-7488
▁돋보	-7489
트리	-7490
▁ニュー	-7491
▁오른쪽	-7492
▁오피스텔	-7493
▁験	-7494
▁好	-7495
▁릴	-7496
▁공모전	-7497
▁궤	-7498
▁충실	-7499
▁’…	-7500
▁mot	-7501
▁빌려	-7502
▁동남아	-7503
▁potential	-7504
ont	-7505
▁가깝	-7506
▁무사	-7507
오프	-7508
▁무죄	-7509
▁course	-7510
▁높일	-7511
▁ICT	-7512
▁일반인	-7513
▁BM	-7514
▁끊임없이	-7515
AC	-7516
▁추첨	-7517
▁허브	-7518
▁My	-7519
▁until	-7520
▁빌딩	-7521
▁세운	-7522
▁young	-7523
▁일어난	-7524
▁수칙	-7525
이크	-7526
▁이영	-7527
▁턱	-7528
▁만기	-7529
시오	-7530
▁체감	-7531
▁토트	-7532
▁해질	-7533
ficult	-7534
▁㎝	-7535
▁비하	-7536
urther	-7537
▁function	-7538
▁고양이	-7539
▁꼽히	-7540
▁평양	-7541
▁due	-7542
▁種	-7543
▁의류	-7544
▁needs	-7545
▁거절	-7546
▁히트	-7547
▁퓨	-7548
▁캡	-7549
▁청렴	-7550
▁community	-7551
▁연예인	-7552
고리	-7553
▁万	-7554
▁걸려	-7555
▁견제	-7556
▁입구	-7557
ably	-7558
▁キャ	-7559
▁esp	-7560
▁장착	-7561
▁리스트	-7562
▁certain	-7563
▁results	-7564
▁여지	-7565
▁浜	-7566
ことに	-7567
▁로스	-7568
EN	-7569
▁도서	-7570
▁저작	-7571
▁피의자	-7572
▁동행	-7573
▁발효	-7574
▁수위	-7575
▁제휴	-7576
▁사립	-7577
▁대통령실	-7578
acc	-7579
▁상한	-7580
▁관해	-7581
▁입사	-7582
▁science	-7583
▁전선	-7584
▁dra	-7585
▁대원	-7586
▁멘토	-7587
▁프라	-7588
▁plants	-7589
rug	-7590
▁관절	-7591
▁give	-7592
▁긴밀	-7593
▁고생	-7594
▁기름	-7595
▁고백	-7596
ledge	-7597
▁권위	-7598
▁경관	-7599
ニー	-7600
▁닮	-7601
규모	-7602
▁temperature	-7603
▁任	-7604
▁쓰이	-7605
▁정무	-7606
▁室	-7607
▁공중	-7608
▁得	-7609
▁쿼	-7610
▁표창	-7611
▁Cal	-7612
▁공세	-7613
▁상실	-7614
▁장악	-7615
▁첫날	-7616
▁While	-7617
ウェ	-7618
yn	-7619
▁뉴딜	-7620
ately	-7621
▁において	-7622
▁always	-7623
▁乗	-7624
▁한때	-7625
▁next	-7626
▁클린	-7627
▁보증금	-7628
▁effective	-7629
▁たち	-7630
▁후쿠	-7631
face	-7632
▁무서	-7633
▁working	-7634
▁조만간	-7635
ecially	-7636
▁mov	-7637
▁significant	-7638
▁떠오르	-7639
▁기쁘	-7640
▁센서	-7641
▁John	-7642
▁systems	-7643
렉스	-7644
▁ill	-7645
▁국어	-7646
▁시나	-7647
▁140	-7648
▁픽	-7649
▁트로	-7650
워드	-7651
▁이슬	-7652
ush	-7653
ured	-7654
▁아메	-7655
▁웬	-7656
▁이걸	-7657
▁sugg	-7658
▁애초	-7659
ember	-7660
▁step	-7661
▁について	-7662
학자	-7663
든지	-7664
▁experience	-7665
この	-7666
▁개헌	-7667
▁워낙	-7668
▁꿈꾸	-7669
▁ケ	-7670
られた	-7671
90	-7672
sel	-7673
▁재직	-7674
▁쿠폰	-7675
▁연준	-7676
▁comb	-7677
▁느라	-7678
▁invest	-7679
▁wr	-7680
▁자신감	-7681
▁료	-7682
▁sing	-7683
▁조세	-7684
▁드릴	-7685
▁big	-7686
▁비행기	-7687
▁한글	-7688
▁재건축	-7689
▁육상	-7690
▁입점	-7691
etic	-7692
▁increase	-7693
▁1983	-7694
▁ways	-7695
▁開始	-7696
▁도모	-7697
▁공군	-7698
▁이루어	-7699
▁내정	-7700
▁붙잡	-7701
▁역임	-7702
▁토트넘	-7703
▁관여	-7704
▁화상	-7705
레이션	-7706
피아	-7707
▁countries	-7708
▁べ	-7709
▁토크	-7710
▁스프	-7711
워서	-7712
▁치킨	-7713
▁연동	-7714
▁Ass	-7715
▁key	-7716
▁奈	-7717
▁소규모	-7718
▁걸음	-7719
▁difficult	-7720
▁級	-7721
이어	-7722
▁편하	-7723
▁？	-7724
▁세무	-7725
▁제작진	-7726
▁単	-7727
▁뇌물	-7728
▁×	-7729
▁거친	-7730
なる	-7731
▁160	-7732
▁받아들여	-7733
▁내외	-7734
▁Gen	-7735
▁資	-7736
▁안타까	-7737
▁무력	-7738
▁접목	-7739
▁프라이	-7740
▁농어	-7741
▁출자	-7742
ication	-7743
▁강남구	-7744
▁도내	-7745
oph	-7746
▁백악	-7747
▁모범	-7748
ending	-7749
▁골드	-7750
▁측근	-7751
▁고리	-7752
▁1982	-7753
▁Afric	-7754
▁류현진	-7755
sc	-7756
▁마산	-7757
▁약자	-7758
▁인접	-7759
▁에다	-7760
▁금강	-7761
▁원천	-7762
▁Cont	-7763
▁計	-7764
ators	-7765
▁母	-7766
▁更	-7767
▁정세	-7768
▁protect	-7769
▁선보일	-7770
IT	-7771
▁徳	-7772
▁担	-7773
▁将	-7774
▁風	-7775
▁어쨌	-7776
▁away	-7777
▁탕	-7778
let	-7779
▁임차	-7780
▁터널	-7781
▁화이트	-7782
▁across	-7783
모션	-7784
▁분할	-7785
▁아베	-7786
▁변이	-7787
▁아나	-7788
먼스	-7789
▁발간	-7790
ott	-7791
▁띠	-7792
____	-7793
▁就	-7794
ために	-7795
▁園	-7796
▁春	-7797
▁Su	-7798
▁수성	-7799
▁MS	-7800
▁女子	-7801
▁한마디	-7802
▁연다	-7803
▁101	-7804
▁business	-7805
▁우리나라	-7806
▁李	-7807
▁강요	-7808
▁냉장	-7809
▁related	-7810
▁determ	-7811
▁colle	-7812
▁인플레이션	-7813
▁공방	-7814
▁국경	-7815
▁投	-7816
▁사격	-7817
スタ	-7818
ipp	-7819
▁んで	-7820
▁눈치	-7821
▁상영	-7822
▁contain	-7823
とも	-7824
イツ	-7825
▁er	-7826
▁산정	-7827
▁지목	-7828
▁예외	-7829
▁special	-7830
ロー	-7831
▁공화국	-7832
▁death	-7833
▁vs	-7834
▁동서	-7835
▁ギ	-7836
▁공영	-7837
▁넘어가	-7838
▁항공사	-7839
▁아스	-7840
▁약물	-7841
▁友	-7842
▁당첨	-7843
▁막대	-7844
▁경유	-7845
▁공기업	-7846
ounds	-7847
▁ペ	-7848
ナル	-7849
▁begin	-7850
▁paper	-7851
▁skills	-7852
▁conditions	-7853
▁면담	-7854
▁태평양	-7855
▁우크라이나	-7856
▁cy	-7857
IV	-7858
▁남겼	-7859
▁事業	-7860
▁빼앗	-7861
▁대전시	-7862
▁대중교통	-7863
▁횟	-7864
▁出版	-7865
▁다름	-7866
▁부적	-7867
▁반전	-7868
ourn	-7869
▁동화	-7870
▁공업	-7871
▁법조	-7872
▁ST	-7873
マン	-7874
▁卒業	-7875
▁図	-7876
▁몰라	-7877
ems	-7878
▁멈추	-7879
▁통행	-7880
aves	-7881
▁포착	-7882
asing	-7883
▁더해	-7884
▁지능	-7885
▁해체	-7886
▁side	-7887
▁toget	-7888
par	-7889
▁퍼포	-7890
▁콘셉트	-7891
▁퍼센트	-7892
▁퍼포먼스	-7893
▁especially	-7894
▁젖	-7895
▁박차	-7896
▁프로모션	-7897
▁together	-7898
▁•	-7899
▁짚	-7900
▁symptoms	-7901
be	-7902
▁가볍	-7903
▁문장	-7904
▁최우선	-7905
▁아산	-7906
▁단행	-7907
▁이은	-7908
▁장례	-7909
▁完	-7910
▁굳이	-7911
▁며칠	-7912
▁sens	-7913
aut	-7914
aken	-7915
▁페이지	-7916
▁종전	-7917
▁곰	-7918
aces	-7919
시다	-7920
▁기한	-7921
▁作詞	-7922
▁챙겨	-7923
▁CN	-7924
▁연상	-7925
▁대륙	-7926
▁응시	-7927
▁성우	-7928
▁War	-7929
유산	-7930
▁노총	-7931
▁신부	-7932
▁칭찬	-7933
sw	-7934
▁심하	-7935
셔널	-7936
▁김연	-7937
▁사드	-7938
▁She	-7939
▁올바른	-7940
▁live	-7941
▁tool	-7942
어도	-7943
▁tv	-7944
아내	-7945
▁삼진	-7946
▁한번	-7947
▁フランス	-7948
▁가요	-7949
▁enough	-7950
▁CC	-7951
▁캔	-7952
▁쌍용	-7953
▁액션	-7954
▁1981	-7955
▁걸렸	-7956
▁하천	-7957
▁조지	-7958
▁짝	-7959
▁골든	-7960
▁lot	-7961
안군	-7962
▁매월	-7963
▁램	-7964
▁text	-7965
▁LA	-7966
▁세제	-7967
▁챙기	-7968
▁After	-7969
▁going	-7970
▁방영	-7971
▁夫	-7972
화문	-7973
▁장려	-7974
▁청산	-7975
▁fri	-7976
▁임대료	-7977
까요	-7978
▁Co	-7979
▁시계	-7980
▁공백	-7981
▁아니면	-7982
▁SC	-7983
▁관장	-7984
▁예수	-7985
▁given	-7986
▁",	-7987
▁MOU	-7988
▁기쁨	-7989
▁선대	-7990
▁스쿨	-7991
▁마라	-7992
▁앓	-7993
▁횡령	-7994
▁Pe	-7995
▁실망	-7996
▁커졌	-7997
▁경찰관	-7998
▁http	-7999
▁몰리	-8000
▁repres	-8001
▁법령	-8002
▁정황	-8003
▁chem	-8004
▁보강	-8005
▁過	-8006
fer	-8007
운전	-8008
▁내게	-8009
▁Gu	-8010
▁학위	-8011
▁출동	-8012
▁GDP	-8013
▁학문	-8014
aching	-8015
▁보복	-8016
▁산학	-8017
▁author	-8018
▁주유	-8019
▁sure	-8020
▁유효	-8021
▁평범	-8022
▁清	-8023
▁crit	-8024
▁appear	-8025
れている	-8026
▁씻	-8027
▁음원	-8028
vious	-8029
▁부양	-8030
▁dig	-8031
▁良	-8032
데이	-8033
▁시킨다	-8034
▁논쟁	-8035
▁보편	-8036
▁이겨	-8037
▁특구	-8038
▁同年	-8039
▁sun	-8040
bon	-8041
▁유관	-8042
▁정통	-8043
▁한국은행	-8044
▁complete	-8045
idd	-8046
▁계정	-8047
▁난다	-8048
duct	-8049
▁그나마	-8050
▁郎	-8051
▁관행	-8052
▁잠깐	-8053
▁촛	-8054
ored	-8055
▁도망	-8056
▁위대	-8057
▁소독	-8058
▁창고	-8059
oint	-8060
▁record	-8061
▁ㅠㅠ	-8062
▁인테	-8063
▁装	-8064
▁딩	-8065
app	-8066
▁여겨	-8067
ley	-8068
▁대다수	-8069
▁1950	-8070
▁型	-8071
▁색깔	-8072
▁strong	-8073
▁나타난	-8074
▁세일	-8075
▁EP	-8076
▁프린	-8077
▁스카이	-8078
▁wind	-8079
▁협박	-8080
▁가중	-8081
▁word	-8082
구나	-8083
▁横	-8084
▁백악관	-8085
▁委員	-8086
▁full	-8087
BN	-8088
직자	-8089
▁도달	-8090
▁재벌	-8091
▁헤어	-8092
지대	-8093
▁정규직	-8094
▁changes	-8095
▁생산량	-8096
수산	-8097
▁타인	-8098
▁되찾	-8099
▁상주	-8100
▁검진	-8101
▁ask	-8102
▁CP	-8103
IP	-8104
▁지냈	-8105
▁푸른	-8106
▁Pre	-8107
▁동북	-8108
▁제보	-8109
고속	-8110
▁ジャ	-8111
▁외면	-8112
▁교차	-8113
▁상자	-8114
▁잦	-8115
IST	-8116
▁およ	-8117
thing	-8118
▁방탄	-8119
▁절실	-8120
▁十	-8121
래도	-8122
▁삽	-8123
파크	-8124
▁フィ	-8125
▁회전	-8126
▁계단	-8127
▁nut	-8128
▁Christ	-8129
▁sal	-8130
▁원격	-8131
▁실습	-8132
▁선거법	-8133
▁독점	-8134
▁어쩔	-8135
▁호수	-8136
▁la	-8137
▁感	-8138
▁아쉽	-8139
▁하이닉스	-8140
▁情報	-8141
▁기법	-8142
▁しかし	-8143
▁Pol	-8144
▁해진다	-8145
▁쟁점	-8146
▁red	-8147
▁문구	-8148
▁상식	-8149
リーズ	-8150
▁콤	-8151
▁서양	-8152
▁흔적	-8153
▁갚	-8154
베이	-8155
▁="	-8156
▁비타	-8157
▁오페	-8158
▁later	-8159
▁김수	-8160
▁특혜	-8161
▁quality	-8162
▁types	-8163
매김	-8164
iation	-8165
▁자리매김	-8166
▁century	-8167
▁처방	-8168
▁故	-8169
ラブ	-8170
▁기각	-8171
▁넘기	-8172
OP	-8173
ilities	-8174
▁スタ	-8175
▁고맙	-8176
▁최강	-8177
려야	-8178
▁감지	-8179
▁개그	-8180
▁least	-8181
▁가난	-8182
▁ヒ	-8183
▁젤	-8184
▁순서	-8185
ables	-8186
ead	-8187
▁꼼꼼	-8188
▁믿음	-8189
▁건설사	-8190
▁유용	-8191
▁病	-8192
▁God	-8193
철도	-8194
▁applic	-8195
ジャ	-8196
▁고마	-8197
▁패러	-8198
▁선보인	-8199
▁phot	-8200
▁원고	-8201
▁1979	-8202
▁辺	-8203
▁명소	-8204
▁칩	-8205
▁구리	-8206
▁patients	-8207
슬라	-8208
▁실용	-8209
▁지혜	-8210
▁하수	-8211
▁진행할	-8212
▁할아버지	-8213
핵화	-8214
▁로맨	-8215
▁묘사	-8216
▁털어	-8217
▁스웨덴	-8218
▁discuss	-8219
▁자립	-8220
▁다이어	-8221
▁아쉬움	-8222
▁고인	-8223
▁유의	-8224
▁관중	-8225
▁위법	-8226
ai	-8227
▁돌아왔	-8228
▁비핵화	-8229
▁Brit	-8230
▁ぶ	-8231
▁企業	-8232
▁내비	-8233
▁증인	-8234
▁숭	-8235
▁전사	-8236
▁표기	-8237
▁항의	-8238
▁various	-8239
LL	-8240
▁월세	-8241
▁유예	-8242
▁める	-8243
▁해법	-8244
acy	-8245
▁신한은행	-8246
▁施設	-8247
▁성장세	-8248
▁가벼	-8249
▁저감	-8250
ery	-8251
ither	-8252
▁떠났	-8253
▁week	-8254
▁治	-8255
▁나노	-8256
▁당해	-8257
▁애정	-8258
▁통산	-8259
드라	-8260
▁레저	-8261
▁붙여	-8262
▁유대	-8263
▁전직	-8264
ET	-8265
▁무더	-8266
▁성남시	-8267
▁永	-8268
▁단백	-8269
▁인턴	-8270
▁着	-8271
▁국채	-8272
▁장성	-8273
▁들어갈	-8274
▁소득세	-8275
▁실효	-8276
ried	-8277
▁들이	-8278
▁치솟	-8279
▁원작	-8280
머리	-8281
▁수강	-8282
▁--	-8283
alf	-8284
▁안성	-8285
▁healthy	-8286
▁makes	-8287
iting	-8288
▁地域	-8289
▁および	-8290
▁공조	-8291
▁배포	-8292
▁skin	-8293
▁Des	-8294
걸음	-8295
▁でき	-8296
▁자책	-8297
▁지낸	-8298
▁obs	-8299
▁립	-8300
▁레벨	-8301
▁really	-8302
▁봐도	-8303
스키	-8304
▁어울리	-8305
▁촛불	-8306
▁higher	-8307
▁용량	-8308
▁유공	-8309
▁sum	-8310
▁시신	-8311
▁원은	-8312
연합	-8313
ips	-8314
▁만족도	-8315
▁탱	-8316
▁스크린	-8317
▁맞대	-8318
▁玉	-8319
▁당뇨	-8320
▁여주	-8321
▁디자이너	-8322
▁Earth	-8323
ダー	-8324
▁웨이	-8325
▁何	-8326
▁중독	-8327
▁인센	-8328
▁respons	-8329
amm	-8330
▁사찰	-8331
▁해방	-8332
ands	-8333
▁인센티브	-8334
▁벅	-8335
ison	-8336
리에	-8337
▁存在	-8338
▁수령	-8339
▁非	-8340
▁핸드	-8341
▁아무래도	-8342
관계	-8343
타르	-8344
트로	-8345
▁상시	-8346
▁알아보	-8347
▁부딪	-8348
▁청취	-8349
▁우즈	-8350
▁kind	-8351
여금	-8352
▁gre	-8353
ising	-8354
▁clear	-8355
▁단원	-8356
▁병상	-8357
▁賀	-8358
▁열기	-8359
▁중재	-8360
▁온실가스	-8361
▁오직	-8362
oring	-8363
▁産	-8364
▁발목	-8365
enn	-8366
▁라인업	-8367
▁시흥	-8368
▁이룬	-8369
▁폭염	-8370
▁議員	-8371
▁dem	-8372
▁주사	-8373
▁신발	-8374
▁未	-8375
▁수천	-8376
▁opt	-8377
▁resources	-8378
▁＂	-8379
ruction	-8380
▁effects	-8381
들이	-8382
▁남동	-8383
▁ㅋㅋㅋㅋㅋㅋㅋㅋ	-8384
▁당당	-8385
▁수습	-8386
▁과태	-8387
▁타율	-8388
▁태어나	-8389
▁시나리오	-8390
▁女性	-8391
▁옵션	-8392
토리	-8393
oon	-8394
로지	-8395
▁신약	-8396
▁베이스	-8397
▁송파	-8398
▁증언	-8399
EA	-8400
▁site	-8401
▁オー	-8402
▁냐고	-8403
▁태어난	-8404
▁소매	-8405
▁우대	-8406
▁과태료	-8407
▁巻	-8408
▁좋아하	-8409
▁인테리어	-8410
▁겨우	-8411
▁어우러	-8412
▁require	-8413
▁09	-8414
▁similar	-8415
▁Qu	-8416
ument	-8417
▁바뀐	-8418
▁강좌	-8419
▁중국인	-8420
▁帰	-8421
용차	-8422
icro	-8423
▁独	-8424
▁Gl	-8425
▁07	-8426
▁심한	-8427
▁などの	-8428
ribut	-8429
▁자이	-8430
▁사인	-8431
▁開催	-8432
▁交通	-8433
▁셔서	-8434
eds	-8435
▁쾌적	-8436
▁체납	-8437
▁피로	-8438
▁일선	-8439
▁amount	-8440
▁러브	-8441
▁저하	-8442
▁수확	-8443
▁우유	-8444
▁조종	-8445
▁오페라	-8446
▁뒤늦	-8447
▁무효	-8448
▁알렸	-8449
▁08	-8450
▁회동	-8451
ループ	-8452
러스터	-8453
▁불안감	-8454
ged	-8455
▁콜라	-8456
▁룩	-8457
▁재발	-8458
▁자격증	-8459
arents	-8460
▁にて	-8461
apan	-8462
▁suff	-8463
▁係	-8464
▁Fe	-8465
지니어	-8466
▁클래스	-8467
▁박성	-8468
▁합쳐	-8469
▁norm	-8470
▁population	-8471
▁연내	-8472
▁트럭	-8473
포구	-8474
▁仕	-8475
▁카운	-8476
▁퀴	-8477
▁공판	-8478
レス	-8479
▁철수	-8480
▁갱	-8481
▁고조	-8482
▁상사	-8483
leep	-8484
▁撃	-8485
어내	-8486
▁도는	-8487
▁reduce	-8488
▁우위	-8489
▁확립	-8490
▁급락	-8491
▁野球	-8492
▁선행	-8493
▁깎	-8494
▁chall	-8495
▁명백	-8496
▁한진	-8497
▁클러스터	-8498
ウン	-8499
동강	-8500
▁부착	-8501
▁一部	-8502
▁반환	-8503
▁수산물	-8504
▁쉼	-8505
▁삭감	-8506
▁내역	-8507
▁데려	-8508
▁웹툰	-8509
▁한우	-8510
ysis	-8511
▁設置	-8512
▁배구	-8513
▁소폭	-8514
▁에이스	-8515
▁black	-8516
▁잠실	-8517
▁탄탄	-8518
▁들어온	-8519
▁응답자	-8520
▁마땅	-8521
▁병사	-8522
▁FIFA	-8523
▁豊	-8524
▁서장	-8525
▁소멸	-8526
▁살아남	-8527
▁김병	-8528
▁인명	-8529
▁커머스	-8530
▁국악	-8531
▁정면	-8532
られる	-8533
side	-8534
▁즐거움	-8535
っと	-8536
▁果	-8537
▁미친	-8538
▁physical	-8539
▁宗	-8540
mit	-8541
▁주부	-8542
▁연세대	-8543
▁medical	-8544
▁ens	-8545
▁葉	-8546
イド	-8547
▁모드	-8548
▁프리미어	-8549
어넣	-8550
▁욕구	-8551
▁표면	-8552
▁뛰어넘	-8553
▁테이블	-8554
▁경위	-8555
▁제자	-8556
▁DNA	-8557
▁ll	-8558
▁단백질	-8559
▁대체로	-8560
▁character	-8561
▁플로	-8562
▁적어도	-8563
▁대국	-8564
▁house	-8565
▁급속	-8566
▁公式	-8567
▁농림	-8568
▁몬스터	-8569
▁身	-8570
▁mind	-8571
▁条	-8572
▁HD	-8573
▁불렀	-8574
▁above	-8575
▁及	-8576
▁CS	-8577
ilt	-8578
▁복무	-8579
HO	-8580
▁Soc	-8581
▁메모리	-8582
▁声	-8583
▁대검	-8584
▁185	-8585
▁range	-8586
▁어쨌든	-8587
▁대한항공	-8588
▁銀	-8589
のは	-8590
▁외모	-8591
▁낚	-8592
ーズン	-8593
▁울산시	-8594
▁activities	-8595
▁추산	-8596
▁특강	-8597
chie	-8598
▁打	-8599
イス	-8600
▁Em	-8601
▁국도	-8602
▁source	-8603
チャ	-8604
▁products	-8605
▁심해	-8606
▁내년도	-8607
▁Your	-8608
▁below	-8609
ソン	-8610
▁ann	-8611
▁置	-8612
▁테일	-8613
▁never	-8614
▁試合	-8615
▁돼요	-8616
▁채워	-8617
ils	-8618
▁財	-8619
▁김광	-8620
그레이드	-8621
▁업그레이드	-8622
▁student	-8623
▁①	-8624
▁실증	-8625
▁story	-8626
▁남쪽	-8627
れば	-8628
▁고사	-8629
▁코트	-8630
▁폭탄	-8631
▁홍성	-8632
▁국적	-8633
▁신상	-8634
▁죽이	-8635
▁가방	-8636
▁나아	-8637
다란	-8638
▁코미	-8639
▁비타민	-8640
▁Hist	-8641
▁loss	-8642
▁죄송	-8643
most	-8644
주군	-8645
▁ドイツ	-8646
테이너	-8647
▁나간	-8648
▁승강	-8649
▁시설물	-8650
▁키트	-8651
▁매니저	-8652
▁수혜	-8653
▁야생	-8654
▁affect	-8655
▁黒	-8656
ples	-8657
▁lower	-8658
▁강동	-8659
ビュー	-8660
▁시행령	-8661
▁circ	-8662
▁이모	-8663
▁성폭력	-8664
▁self	-8665
▁以下	-8666
▁권익	-8667
hern	-8668
▁영동	-8669
▁ver	-8670
▁견인	-8671
▁끓	-8672
▁ゴ	-8673
▁햄	-8674
ibr	-8675
▁밸리	-8676
▁행태	-8677
▁하이브리드	-8678
▁겉	-8679
▁종종	-8680
▁necess	-8681
▁엿	-8682
▁오를	-8683
▁歩	-8684
▁정유	-8685
▁크림	-8686
소시	-8687
▁생길	-8688
▁Acc	-8689
금리	-8690
▁광산	-8691
▁대피	-8692
lement	-8693
ites	-8694
▁크리스마스	-8695
▁감찰	-8696
▁May	-8697
▁토요일	-8698
▁サッカー	-8699
▁남용	-8700
ires	-8701
▁캠핑	-8702
구요	-8703
▁道路	-8704
▁진지	-8705
▁questions	-8706
▁나란히	-8707
▁타입	-8708
▁green	-8709
▁수송	-8710
▁떠난	-8711
▁수질	-8712
▁帯	-8713
▁거제	-8714
AP	-8715
▁ISBN	-8716
▁밀리	-8717
▁백성	-8718
▁한류	-8719
▁광화문	-8720
긴다	-8721
▁subject	-8722
▁112	-8723
▁파주	-8724
서치	-8725
체인	-8726
▁whether	-8727
oura	-8728
▁들어선	-8729
▁손가락	-8730
▁스페셜	-8731
verage	-8732
▁NHK	-8733
▁climate	-8734
▁隊	-8735
▁결성	-8736
▁농도	-8737
▁합작	-8738
▁泉	-8739
▁ネ	-8740
▁벌어졌	-8741
▁渡	-8742
BA	-8743
▁봅	-8744
▁석탄	-8745
▁터키	-8746
▁growth	-8747
▁발령	-8748
ety	-8749
▁관료	-8750
▁였으나	-8751
▁SS	-8752
▁비치	-8753
▁having	-8754
▁상속	-8755
▁횟수	-8756
▁고려대	-8757
▁길이	-8758
▁기상청	-8759
▁exist	-8760
▁슛	-8761
▁광부	-8762
▁사모	-8763
ournal	-8764
amin	-8765
▁한창	-8766
▁fat	-8767
▁building	-8768
▁향하	-8769
▁tru	-8770
▁white	-8771
ges	-8772
▁이강	-8773
▁위안부	-8774
▁해운대	-8775
▁according	-8776
▁밀집	-8777
▁출간	-8778
▁地方	-8779
▁구장	-8780
▁아무것	-8781
보드	-8782
▁170	-8783
▁drug	-8784
▁강서	-8785
▁size	-8786
▁매진	-8787
▁즐겁	-8788
▁한가	-8789
▁与	-8790
▁deg	-8791
▁오케	-8792
カル	-8793
▁성사	-8794
▁일어났	-8795
▁School	-8796
▁옮기	-8797
타인	-8798
▁명성	-8799
▁1973	-8800
▁1978	-8801
리포	-8802
▁갖췄	-8803
▁넘어섰	-8804
리케이션	-8805
▁容	-8806
▁농사	-8807
overed	-8808
▁여인	-8809
▁연이	-8810
sych	-8811
▁영혼	-8812
▁Japan	-8813
▁cases	-8814
▁생생	-8815
저스	-8816
▁Dep	-8817
▁@	-8818
▁크다	-8819
etimes	-8820
▁벨트	-8821
▁由	-8822
▁방문객	-8823
▁App	-8824
▁운동장	-8825
▁knowledge	-8826
TV	-8827
▁경보	-8828
▁핑크	-8829
▁pred	-8830
▁studies	-8831
▁이력	-8832
▁polit	-8833
しま	-8834
▁리스	-8835
▁출국	-8836
augh	-8837
▁注	-8838
▁도출	-8839
▁가하	-8840
▁조율	-8841
▁沿	-8842
▁시트	-8843
ival	-8844
▁목격	-8845
▁식량	-8846
▁장애인	-8847
▁지불	-8848
▁시술	-8849
▁ディ	-8850
▁리서치	-8851
▁결혼식	-8852
▁派	-8853
▁이치	-8854
▁Act	-8855
▁Per	-8856
▁신혼	-8857
▁engine	-8858
ird	-8859
▁대주	-8860
▁dog	-8861
▁個	-8862
▁럭	-8863
▁受賞	-8864
▁SUV	-8865
▁従	-8866
▁비싸	-8867
self	-8868
▁prim	-8869
▁서식	-8870
▁등산	-8871
▁정례	-8872
▁describ	-8873
▁②	-8874
▁롱	-8875
지부	-8876
▁残	-8877
▁스틸	-8878
드로	-8879
▁five	-8880
▁America	-8881
ask	-8882
▁問	-8883
▁줄일	-8884
수색	-8885
▁서버	-8886
▁저소득층	-8887
▁박영	-8888
▁오류	-8889
▁위해선	-8890
▁분열	-8891
▁比	-8892
▁팜	-8893
▁걸로	-8894
▁여섯	-8895
rams	-8896
▁토로	-8897
▁Sm	-8898
▁부드러	-8899
▁타임스	-8900
▁건국	-8901
▁비싼	-8902
▁령	-8903
▁KA	-8904
▁의정부	-8905
▁御	-8906
인물	-8907
▁신동	-8908
▁정한	-8909
▁이슬람	-8910
ready	-8911
▁자칫	-8912
▁셋째	-8913
クト	-8914
▁무렵	-8915
▁의료진	-8916
▁fall	-8917
▁South	-8918
▁CM	-8919
▁직면	-8920
ray	-8921
▁증가세	-8922
▁의자	-8923
▁350	-8924
▁분과	-8925
▁별다른	-8926
ference	-8927
▁Science	-8928
▁고장	-8929
▁developed	-8930
버리	-8931
▁global	-8932
▁컨테이너	-8933
▁recomm	-8934
▁読	-8935
▁연도	-8936
selves	-8937
▁舞	-8938
▁색상	-8939
▁청춘	-8940
▁외식	-8941
osis	-8942
▁さん	-8943
▁시군	-8944
▁異	-8945
▁축적	-8946
▁足	-8947
かけ	-8948
▁채소	-8949
▁수목	-8950
ym	-8951
▁답답	-8952
퍼런스	-8953
▁とした	-8954
▁거래일	-8955
▁sent	-8956
▁앵	-8957
▁압수수색	-8958
▁めて	-8959
▁펠	-8960
▁상정	-8961
▁1972	-8962
▁소집	-8963
▁role	-8964
▁林	-8965
▁휠	-8966
ジア	-8967
▁재현	-8968
▁낙동강	-8969
널드	-8970
▁젊은이	-8971
IG	-8972
▁공작	-8973
▁article	-8974
▁주방	-8975
wards	-8976
▁訳	-8977
▁배우자	-8978
▁국제공항	-8979
▁activity	-8980
LS	-8981
▁고르	-8982
▁이뤄지지	-8983
▁event	-8984
▁흙	-8985
▁Ke	-8986
▁하향	-8987
▁기업인	-8988
▁미국인	-8989
▁다룬	-8990
▁폼	-8991
▁매립	-8992
▁테슬라	-8993
▁뛰어나	-8994
▁간판	-8995
▁警	-8996
협회	-8997
▁여신	-8998
▁사각지대	-8999
▁however	-9000
▁聖	-9001
▁org	-9002
▁帝	-9003
▁선착	-9004
▁ヘ	-9005
▁튼	-9006
▁中央	-9007
▁인치	-9008
▁켜	-9009
▁기증	-9010
▁키움	-9011
▁경영진	-9012
▁stress	-9013
▁함유	-9014
▁잠정	-9015
▁남아	-9016
▁호평	-9017
▁materials	-9018
▁production	-9019
저우	-9020
▁조회	-9021
워하	-9022
▁본래	-9023
▁그러므로	-9024
▁争	-9025
パー	-9026
▁Germ	-9027
욕장	-9028
▁분담	-9029
▁艦	-9030
▁flu	-9031
フト	-9032
ows	-9033
▁英語	-9034
▁월급	-9035
▁講	-9036
たい	-9037
▁紀	-9038
▁녹음	-9039
▁doct	-9040
▁증세	-9041
▁대사관	-9042
▁고스	-9043
▁併	-9044
▁秋	-9045
이도	-9046
▁놓치	-9047
▁재계	-9048
▁마침내	-9049
▁んだ	-9050
▁스리	-9051
▁done	-9052
▁question	-9053
▁독재	-9054
▁일요일	-9055
▁防	-9056
▁당기	-9057
▁cut	-9058
관위	-9059
티나	-9060
▁提	-9061
▁검거	-9062
▁자부	-9063
▁국세청	-9064
▁라이트	-9065
ベル	-9066
▁당황	-9067
▁사면	-9068
▁탁월	-9069
▁어려웠	-9070
▁Research	-9071
▁오스트	-9072
▁군산	-9073
▁九	-9074
ints	-9075
▁요금제	-9076
▁코미디	-9077
フェ	-9078
▁North	-9079
▁させ	-9080
▁일산	-9081
ding	-9082
▁탐구	-9083
▁gas	-9084
▁シーズン	-9085
▁튜	-9086
더스	-9087
▁落	-9088
▁字	-9089
▁수분	-9090
▁Many	-9091
▁tell	-9092
▁issues	-9093
ese	-9094
▁내각	-9095
ware	-9096
▁introdu	-9097
まで	-9098
▁유세	-9099
▁간호사	-9100
ibility	-9101
▁특이	-9102
▁환상	-9103
▁ど	-9104
▁>(	-9105
▁내다	-9106
▁폴란드	-9107
▁이지	-9108
んな	-9109
▁깨달	-9110
아리	-9111
▁문명	-9112
▁유료	-9113
▁들어와	-9114
min	-9115
▁혈관	-9116
▁벌어진	-9117
▁already	-9118
ls	-9119
▁이병	-9120
▁저기	-9121
▁혐오	-9122
▁전철	-9123
▁Aust	-9124
▁하드	-9125
▁하원	-9126
▁1977	-9127
▁침묵	-9128
▁필드	-9129
▁자존	-9130
▁含	-9131
▁선포	-9132
　　	-9133
▁에어컨	-9134
▁단가	-9135
▁원자재	-9136
▁수거	-9137
▁직장인	-9138
▁흔들리	-9139
▁estab	-9140
▁computer	-9141
▁급격히	-9142
▁학업	-9143
ening	-9144
▁助	-9145
▁simple	-9146
▁공연장	-9147
▁유적	-9148
▁밀양	-9149
▁wide	-9150
▁명분	-9151
▁몽골	-9152
▁붙이	-9153
▁베르	-9154
▁보훈	-9155
▁휴양	-9156
oman	-9157
▁감독원	-9158
▁공감대	-9159
istic	-9160
▁원화	-9161
▁Rep	-9162
▁旅	-9163
▁프랜	-9164
차례	-9165
▁영토	-9166
▁1974	-9167
▁field	-9168
▁거세	-9169
▁숨진	-9170
▁quick	-9171
▁생일	-9172
▁억울	-9173
▁중복	-9174
일랜드	-9175
주얼	-9176
なり	-9177
▁u	-9178
▁소련	-9179
▁포괄	-9180
▁further	-9181
▁헌신	-9182
▁참석자	-9183
▁험	-9184
▁사흘	-9185
▁손잡	-9186
▁1975	-9187
▁city	-9188
▁김대중	-9189
▁다가오	-9190
▁훔	-9191
▁엔지니어	-9192
▁reason	-9193
▁책정	-9194
eter	-9195
▁팅	-9196
▁毎	-9197
▁LNG	-9198
▁writing	-9199
▁수년	-9200
▁추격	-9201
▁풍성	-9202
▁close	-9203
▁몇몇	-9204
▁미흡	-9205
▁KTX	-9206
▁데리	-9207
▁양육	-9208
▁홍준	-9209
▁국민은행	-9210
ules	-9211
▁승용차	-9212
▁피아노	-9213
▁achie	-9214
▁신탁	-9215
▁갓	-9216
▁制作	-9217
▁닦	-9218
▁particip	-9219
▁蔵	-9220
▁전교	-9221
▁opportun	-9222
▁북쪽	-9223
▁자영업	-9224
▁consider	-9225
▁적당	-9226
RI	-9227
▁소스	-9228
드리	-9229
▁꼬집	-9230
▁보험금	-9231
▁당진	-9232
▁양측	-9233
▁チーム	-9234
ee	-9235
▁側	-9236
▁아픔	-9237
▁農	-9238
ビー	-9239
▁SW	-9240
▁bat	-9241
▁detail	-9242
▁교정	-9243
▁중지	-9244
▁seen	-9245
▁회원국	-9246
ule	-9247
▁address	-9248
▁赤	-9249
▁맞춘	-9250
▁채우	-9251
▁엇갈	-9252
▁들어왔	-9253
▁における	-9254
▁ほ	-9255
▁책임지	-9256
▁Rec	-9257
▁ground	-9258
▁surface	-9259
iam	-9260
▁커다란	-9261
▁걸린	-9262
▁actually	-9263
uck	-9264
▁われた	-9265
▁공지	-9266
▁열릴	-9267
▁포지	-9268
▁과잉	-9269
▁유전	-9270
▁인건	-9271
▁한양	-9272
ボール	-9273
▁하락세	-9274
ex	-9275
ギリス	-9276
▁농어촌	-9277
▁미드	-9278
▁이어진	-9279
▁劇	-9280
▁그대	-9281
▁매물	-9282
▁입력	-9283
▁exerc	-9284
▁상원	-9285
▁concer	-9286
▁general	-9287
▁만만	-9288
▁즐거운	-9289
▁폴리	-9290
▁말레이	-9291
▁More	-9292
언스	-9293
▁都市	-9294
▁케이스	-9295
▁船	-9296
▁VR	-9297
▁recogn	-9298
▁能	-9299
바닥	-9300
▁쇄신	-9301
▁切	-9302
▁조약	-9303
▁침수	-9304
▁win	-9305
▁커플	-9306
▁보좌관	-9307
▁里	-9308
▁전방	-9309
▁버려	-9310
▁1976	-9311
▁created	-9312
▁once	-9313
▁강렬	-9314
▁태극	-9315
▁香	-9316
▁광복	-9317
▁다각	-9318
way	-9319
▁존경	-9320
▁프로세	-9321
▁published	-9322
▁불량	-9323
▁심정	-9324
▁오세	-9325
▁처지	-9326
▁체류	-9327
▁Par	-9328
▁Tra	-9329
▁退	-9330
▁소원	-9331
▁Here	-9332
▁model	-9333
▁略	-9334
▁턴	-9335
▁유승	-9336
▁메이크	-9337
▁ES	-9338
ールド	-9339
ency	-9340
▁소방서	-9341
▁등록금	-9342
▁ability	-9343
▁단점	-9344
▁역학	-9345
▁만일	-9346
▁저널	-9347
▁전술	-9348
▁추출	-9349
▁침대	-9350
▁퇴근	-9351
▁흥국	-9352
▁고속도	-9353
▁홍준표	-9354
▁남한	-9355
iple	-9356
ustain	-9357
해야	-9358
itute	-9359
▁cann	-9360
▁푼	-9361
▁ひ	-9362
▁잭	-9363
▁가려	-9364
▁막판	-9365
▁좌석	-9366
▁회피	-9367
▁規	-9368
▁눈앞	-9369
▁단식	-9370
▁빨간	-9371
▁value	-9372
▁캄	-9373
▁スポ	-9374
▁전장	-9375
▁JT	-9376
▁토록	-9377
▁해설	-9378
▁첼	-9379
▁webs	-9380
▁イギリス	-9381
▁김선	-9382
▁바위	-9383
icient	-9384
▁became	-9385
urs	-9386
▁살짝	-9387
▁전동	-9388
▁양극	-9389
▁희생자	-9390
▁초등학생	-9391
▁animals	-9392
edi	-9393
▁득표	-9394
▁멋진	-9395
rect	-9396
▁어두	-9397
처럼	-9398
▁휴게	-9399
▁날아	-9400
▁114	-9401
▁syn	-9402
▁인건비	-9403
▁교부	-9404
▁이젠	-9405
▁가맹점	-9406
▁볼넷	-9407
▁유가족	-9408
▁앞당	-9409
ような	-9410
OL	-9411
▁달아	-9412
▁인형	-9413
▁성취	-9414
▁수장	-9415
▁comes	-9416
▁collect	-9417
▁계시	-9418
▁크로스	-9419
▁児	-9420
▁pay	-9421
라리	-9422
pos	-9423
▁그야	-9424
▁태어났	-9425
▁living	-9426
▁자매	-9427
▁트레	-9428
ump	-9429
폴리오	-9430
▁고양시	-9431
ウス	-9432
▁とも	-9433
▁다큐	-9434
▁미션	-9435
▁얼음	-9436
▁가르치	-9437
▁Br	-9438
▁감수	-9439
▁수신	-9440
▁THE	-9441
▁ご	-9442
▁Part	-9443
▁mass	-9444
▁협동조합	-9445
▁포트폴리오	-9446
ECD	-9447
▁offic	-9448
▁과시	-9449
▁의상	-9450
▁고구	-9451
▁세이	-9452
▁둘러싸	-9453
▁波	-9454
fact	-9455
▁냉장고	-9456
▁노동당	-9457
▁influ	-9458
▁신재	-9459
▁치명	-9460
reme	-9461
▁커질	-9462
▁condition	-9463
▁을까요	-9464
▁배분	-9465
▁지나가	-9466
▁OECD	-9467
▁situ	-9468
▁neg	-9469
단체	-9470
▁一般	-9471
▁상해	-9472
▁와이	-9473
미터	-9474
▁상세	-9475
▁해임	-9476
▁online	-9477
TT	-9478
▁괴롭	-9479
▁love	-9480
ober	-9481
▁AD	-9482
▁동결	-9483
▁understanding	-9484
レイ	-9485
이자	-9486
▁모금	-9487
▁coll	-9488
▁色	-9489
▁doc	-9490
▁뒀	-9491
▁갑작	-9492
▁착한	-9493
ivity	-9494
▁눌	-9495
ーション	-9496
▁네티	-9497
▁창구	-9498
▁기운	-9499
▁폭로	-9500
▁polic	-9501
▁챌	-9502
▁우회	-9503
▁soil	-9504
▁민정	-9505
▁유감	-9506
키스탄	-9507
▁answ	-9508
▁우편	-9509
▁성립	-9510
▁넘어서	-9511
▁깃	-9512
▁딴	-9513
▁아픈	-9514
▁욕심	-9515
▁카타르	-9516
▁누릴	-9517
▁추후	-9518
aging	-9519
▁York	-9520
▁두드러	-9521
트라	-9522
ideo	-9523
▁reading	-9524
▁세입	-9525
▁제철	-9526
▁job	-9527
ney	-9528
▁Art	-9529
▁소유자	-9530
▁신청서	-9531
▁ur	-9532
▁도박	-9533
▁참모	-9534
artment	-9535
▁守	-9536
아이	-9537
▁봉쇄	-9538
▁즐겨	-9539
▁feed	-9540
▁입단	-9541
▁취향	-9542
▁represent	-9543
번에	-9544
▁배수	-9545
▁부도	-9546
▁parents	-9547
평가	-9548
▁그분	-9549
▁fish	-9550
▁184	-9551
저히	-9552
▁오사	-9553
▁1200	-9554
▁1971	-9555
▁feature	-9556
スター	-9557
▁보궐	-9558
▁이산	-9559
roll	-9560
▁oil	-9561
▁となり	-9562
▁멍	-9563
▁남긴	-9564
▁아리	-9565
▁블록체인	-9566
▁구독	-9567
▁내주	-9568
▁이례	-9569
▁네티즌	-9570
▁다이어트	-9571
▁부합	-9572
▁込	-9573
▁MV	-9574
▁욕망	-9575
▁우정	-9576
▁일지	-9577
▁tvN	-9578
▁수시로	-9579
▁모듈	-9580
▁발레	-9581
▁환승	-9582
▁早	-9583
gest	-9584
▁宇	-9585
▁한쪽	-9586
▁만성	-9587
yl	-9588
▁보여준	-9589
▁practice	-9590
▁Most	-9591
▁rate	-9592
▁곤란	-9593
▁택지	-9594
▁안타깝	-9595
▁으려고	-9596
▁테크노	-9597
▁safe	-9598
▁provides	-9599
▁불황	-9600
▁이목	-9601
▁지역민	-9602
▁해경	-9603
공단	-9604
▁다를	-9605
▁벤치	-9606
▁빛나	-9607
ニメ	-9608
▁대면	-9609
▁needed	-9610
▁명목	-9611
▁일기	-9612
▁tradition	-9613
▁결단	-9614
▁내려가	-9615
▁등장인물	-9616
ification	-9617
▁AC	-9618
▁앞세워	-9619
▁market	-9620
게요	-9621
OT	-9622
▁根	-9623
▁대법관	-9624
urity	-9625
▁전신	-9626
▁헬기	-9627
▁수차례	-9628
▁State	-9629
▁color	-9630
▁쿨	-9631
▁바둑	-9632
▁해수욕장	-9633
▁relations	-9634
▁문건	-9635
▁政治	-9636
리포니아	-9637
▁군부	-9638
▁밀접	-9639
▁거둔	-9640
▁캘리포니아	-9641
▁diet	-9642
▁pressure	-9643
▁십니까	-9644
▁編曲	-9645
▁궁금증	-9646
▁avoid	-9647
▁컷	-9648
▁마일	-9649
▁레이스	-9650
aim	-9651
▁박원	-9652
rown	-9653
OM	-9654
▁염두	-9655
▁보스	-9656
▁통영	-9657
リスト	-9658
▁플레이오프	-9659
▁列	-9660
xic	-9661
▁열악	-9662
▁댐	-9663
▁눈빛	-9664
▁그야말로	-9665
▁모래	-9666
▁출하	-9667
▁飛	-9668
본다	-9669
▁레인	-9670
▁속하	-9671
▁여고	-9672
▁탈당	-9673
▁single	-9674
▁중시	-9675
▁必	-9676
▁clean	-9677
▁적시	-9678
▁쳤	-9679
ンバー	-9680
▁누르	-9681
▁率	-9682
▁꿀	-9683
▁김승	-9684
▁주전	-9685
▁link	-9686
▁employ	-9687
▁붓	-9688
▁어업	-9689
▁천재	-9690
▁때로	-9691
▁BMW	-9692
▁尾	-9693
▁효력	-9694
▁장기간	-9695
▁remain	-9696
▁Our	-9697
▁코인	-9698
소시엄	-9699
▁닉	-9700
▁아닐까	-9701
▁frequ	-9702
▁숨겨	-9703
유예	-9704
▁Ag	-9705
▁고무	-9706
▁오미	-9707
▁이송	-9708
▁제이	-9709
▁창업자	-9710
▁컨소시엄	-9711
▁weight	-9712
▁associated	-9713
▁認	-9714
▁근절	-9715
▁따지	-9716
▁역세	-9717
플릭스	-9718
덩이	-9719
▁넷플릭스	-9720
▁hold	-9721
든가	-9722
▁결산	-9723
▁샀	-9724
▁도대	-9725
▁에피	-9726
▁유공자	-9727
▁いて	-9728
▁계급	-9729
▁주유소	-9730
astic	-9731
▁自動	-9732
ales	-9733
▁금품	-9734
▁보령	-9735
▁kids	-9736
lying	-9737
▁stat	-9738
▁뜬	-9739
▁블로그	-9740
ッチ	-9741
▁계곡	-9742
▁either	-9743
▁소모	-9744
▁외국어	-9745
트롤	-9746
▁급감	-9747
▁메디	-9748
▁이듬	-9749
▁김장	-9750
▁half	-9751
▁특별히	-9752
▁位置	-9753
▁한참	-9754
▁abs	-9755
▁정국	-9756
▁카이	-9757
▁플랜트	-9758
▁뽐	-9759
톨릭	-9760
▁끈다	-9761
▁Us	-9762
▁통치	-9763
▁prob	-9764
▁style	-9765
▁챌린	-9766
▁유니폼	-9767
▁Ac	-9768
▁유죄	-9769
▁말레이시아	-9770
rict	-9771
▁안산	-9772
▁遺	-9773
▁months	-9774
▁법제	-9775
▁시비	-9776
▁저런	-9777
▁전적	-9778
▁영등	-9779
▁뛰어들	-9780
▁groups	-9781
본부	-9782
▁구원	-9783
▁공로	-9784
▁탐방	-9785
크스	-9786
▁확고	-9787
▁won	-9788
▁indic	-9789
▁산소	-9790
▁lay	-9791
▁등지	-9792
▁포도	-9793
▁Ed	-9794
▁당선자	-9795
of	-9796
먼트	-9797
▁이원	-9798
ze	-9799
▁발판	-9800
▁증여	-9801
▁창단	-9802
▁102	-9803
▁ge	-9804
▁taken	-9805
いる	-9806
어붙	-9807
▁可能	-9808
▁시내버스	-9809
▁subst	-9810
アン	-9811
▁공문	-9812
▁유성	-9813
▁인디	-9814
소년단	-9815
ores	-9816
▁후기	-9817
▁연일	-9818
{{	-9819
▁계승	-9820
▁기숙	-9821
▁유인	-9822
▁1968	-9823
▁money	-9824
▁写	-9825
▁meet	-9826
▁명문	-9827
▁sleep	-9828
▁중화	-9829
▁하도	-9830
▁Of	-9831
▁Not	-9832
▁例	-9833
▁교도	-9834
▁상수	-9835
▁essential	-9836
▁징수	-9837
erve	-9838
▁えた	-9839
▁안방	-9840
▁기장	-9841
▁육박	-9842
▁미지	-9843
▁부러	-9844
▁약세	-9845
▁이대	-9846
▁기적	-9847
▁빨라	-9848
▁medic	-9849
둘러	-9850
▁파격	-9851
▁짙	-9852
デル	-9853
▁줄기	-9854
▁Sec	-9855
▁Tw	-9856
▁자진	-9857
▁포토	-9858
▁증액	-9859
▁이듬해	-9860
▁越	-9861
▁LC	-9862
징금	-9863
▁대여	-9864
▁외치	-9865
▁파운드	-9866
▁志	-9867
▁히로	-9868
소드	-9869
▁사운드	-9870
▁のみ	-9871
▁Har	-9872
▁관리자	-9873
▁whole	-9874
▁날개	-9875
▁Day	-9876
▁방탄소년단	-9877
▁坂	-9878
▁무단	-9879
▁famil	-9880
▁고추	-9881
▁열풍	-9882
▁init	-9883
▁Inf	-9884
▁보낼	-9885
▁위장	-9886
RE	-9887
▁산지	-9888
utes	-9889
▁형상	-9890
▁재차	-9891
iction	-9892
▁교황	-9893
▁Count	-9894
uel	-9895
▁parts	-9896
▁produce	-9897
▁체육회	-9898
▁Lear	-9899
▁talk	-9900
▁vers	-9901
▁게이	-9902
▁가해자	-9903
▁national	-9904
▁스킬	-9905
▁통신사	-9906
▁page	-9907
▁北海	-9908
▁다중	-9909
▁모이	-9910
▁실체	-9911
▁유물	-9912
▁입건	-9913
▁참전	-9914
▁식민	-9915
▁2500	-9916
▁scientists	-9917
▁미쳤	-9918
▁아랍	-9919
▁형편	-9920
▁IMF	-9921
▁port	-9922
▁통일부	-9923
생명	-9924
▁발송	-9925
▁시책	-9926
▁아이스	-9927
▁停	-9928
▁1945	-9929
▁GT	-9930
▁감자	-9931
▁stop	-9932
コン	-9933
35	-9934
▁푸틴	-9935
▁사라졌	-9936
▁고스란히	-9937
▁Will	-9938
▁tot	-9939
▁여름철	-9940
▁AT	-9941
▁대지	-9942
▁올릴	-9943
▁흘리	-9944
▁ヨ	-9945
립니다	-9946
▁밭	-9947
▁낭비	-9948
▁병역	-9949
▁쿠팡	-9950
▁eat	-9951
▁어릴	-9952
▁전격	-9953
▁|-	-9954
▁다행히	-9955
▁management	-9956
▁experien	-9957
▁International	-9958
▁術	-9959
▁경연	-9960
▁도대체	-9961
가운	-9962
▁주어	-9963
▁풍력	-9964
▁그래요	-9965
▁담겼	-9966
▁그랜드	-9967
▁Center	-9968
▁半	-9969
▁더욱이	-9970
▁스피드	-9971
by	-9972
연구	-9973
▁암호	-9974
▁105	-9975
▁Pub	-9976
▁여전	-9977
▁흡연	-9978
▁inj	-9979
▁heat	-9980
코인	-9981
▁간격	-9982
▁rather	-9983
▁評	-9984
▁봐요	-9985
▁해지	-9986
▁드렸	-9987
ued	-9988
▁建築	-9989
▁버티	-9990
▁어선	-9991
▁けた	-9992
▁검출	-9993
▁간사	-9994
▁공매	-9995
▁報	-9996
ront	-9997
▁프랜차	-9998
▁내다봤	-9999
▁크루즈	-10000
▁判	-10001
▁공격수	-10002
▁ever	-10003
▁룰	-10004
벤션	-10005
▁Pres	-10006
▁idea	-10007
▁강진	-10008
▁바깥	-10009
▁영리	-10010
▁제로	-10011
▁주고	-10012
リング	-10013
▁スペ	-10014
▁닷컴	-10015
▁방한	-10016
▁애플리케이션	-10017
▁消	-10018
▁김주	-10019
▁이태원	-10020
▁구별	-10021
▁나쁘	-10022
▁약화	-10023
▁변호인	-10024
▁넌	-10025
인드	-10026
LED	-10027
▁내보	-10028
▁프랜차이즈	-10029
duc	-10030
ises	-10031
キー	-10032
▁버디	-10033
▁세븐	-10034
▁임용	-10035
▁課	-10036
クター	-10037
▁굽	-10038
▁personal	-10039
▁張	-10040
▁보컬	-10041
▁순차	-10042
▁공소	-10043
▁발탁	-10044
▁일본인	-10045
ネル	-10046
▁repl	-10047
oT	-10048
▁골자	-10049
▁대유	-10050
▁홀딩	-10051
▁아마존	-10052
▁soft	-10053
▁모의	-10054
▁바닷	-10055
▁lab	-10056
▁break	-10057
▁충주	-10058
span	-10059
▁check	-10060
▁祭	-10061
▁인체	-10062
▁진전	-10063
▁Canad	-10064
▁진도	-10065
▁藩	-10066
▁내륙	-10067
▁다스	-10068
▁수자	-10069
▁spread	-10070
IM	-10071
▁舎	-10072
▁따져	-10073
▁증설	-10074
▁바꿀	-10075
▁수호	-10076
▁폭넓	-10077
▁지지자	-10078
▁1969	-10079
▁수료	-10080
▁미스터	-10081
▁마라톤	-10082
▁등교	-10083
▁부근	-10084
▁화력	-10085
▁아름답	-10086
▁루수	-10087
▁박상	-10088
▁성수	-10089
집트	-10090
▁안경	-10091
order	-10092
▁visit	-10093
▁성형	-10094
▁선관위	-10095
▁다면서	-10096
▁헝	-10097
ータ	-10098
▁컨벤션	-10099
▁메이크업	-10100
개발	-10101
운서	-10102
▁타수	-10103
▁비트코인	-10104
▁리버	-10105
▁수명	-10106
▁던졌	-10107
▁이집트	-10108
▁easy	-10109
▁으시	-10110
▁합계	-10111
▁자치구	-10112
평군	-10113
▁강수	-10114
▁결승전	-10115
▁super	-10116
▁²	-10117
▁인종	-10118
▁taking	-10119
lin	-10120
DS	-10121
▁제네	-10122
▁가톨릭	-10123
▁services	-10124
とき	-10125
▁전임	-10126
▁아나운서	-10127
랑이	-10128
▁슈팅	-10129
▁지원자	-10130
▁湾	-10131
▁사냥	-10132
▁온갖	-10133
▁일으킨	-10134
▁states	-10135
사스	-10136
▁통계청	-10137
▁react	-10138
▁아세	-10139
▁일제히	-10140
▁판로	-10141
▁과학자	-10142
▁chemical	-10143
▁넥센	-10144
▁리드	-10145
▁environmental	-10146
▁헐	-10147
▁파라	-10148
▁サン	-10149
▁기념식	-10150
▁아닙니다	-10151
경기	-10152
▁낙찰	-10153
idered	-10154
▁커뮤니케이션	-10155
bo	-10156
▁週	-10157
▁페르	-10158
▁표지	-10159
ジェ	-10160
영향	-10161
▁비극	-10162
▁입소	-10163
anced	-10164
▁덤	-10165
▁단말	-10166
▁이뤘	-10167
gar	-10168
▁火	-10169
▁興	-10170
베이션	-10171
▁complex	-10172
ショ	-10173
▁클리	-10174
hing	-10175
▁histor	-10176
ervation	-10177
▁航	-10178
▁벌인	-10179
▁교직원	-10180
▁단단	-10181
▁안다	-10182
▁1967	-10183
▁登場	-10184
ivil	-10185
▁항소심	-10186
▁diagn	-10187
ume	-10188
oles	-10189
▁economic	-10190
▁꼬리	-10191
▁내면	-10192
▁hab	-10193
오스	-10194
▁자세히	-10195
▁감당	-10196
▁스펙	-10197
▁알파	-10198
일리	-10199
▁evidence	-10200
▁추측	-10201
▁오랜만	-10202
▁플레이어	-10203
LB	-10204
▁客	-10205
▁若	-10206
▁모인	-10207
▁travel	-10208
스레	-10209
▁오리지	-10210
▁cat	-10211
lease	-10212
▁사명	-10213
▁suggest	-10214
▁낸다	-10215
▁이노베이션	-10216
▁常	-10217
aff	-10218
▁부리	-10219
▁에피소드	-10220
▁almost	-10221
▁検	-10222
▁최우수	-10223
▁믹스	-10224
▁양보	-10225
▁언젠	-10226
▁emer	-10227
▁prote	-10228
▁모를	-10229
▁약국	-10230
▁녀석	-10231
▁긴장감	-10232
▁가만	-10233
▁싹	-10234
마다	-10235
▁시그	-10236
▁엄중	-10237
▁コー	-10238
▁대조	-10239
▁방류	-10240
aily	-10241
▁헛	-10242
▁㎡)	-10243
▁이식	-10244
자치	-10245
▁두루	-10246
▁치안	-10247
▁활기	-10248
▁문화유산	-10249
ma	-10250
가요	-10251
▁머무	-10252
▁electric	-10253
피탈	-10254
▁노란	-10255
▁소극	-10256
▁일체	-10257
ronic	-10258
▁부재	-10259
▁꾀	-10260
▁도널드	-10261
▁아일랜드	-10262
▁로켓	-10263
▁쏟아지	-10264
▁힘쓰	-10265
▁주고받	-10266
▁fail	-10267
▁ㅜ	-10268
▁星	-10269
경북	-10270
▁잔액	-10271
▁드래곤	-10272
▁미용	-10273
▁홀딩스	-10274
▁company	-10275
▁내릴	-10276
▁캐스	-10277
▁increased	-10278
▁개교	-10279
▁があり	-10280
▁노르	-10281
▁원조	-10282
▁리라	-10283
▁dom	-10284
▁hours	-10285
▁music	-10286
▁무척	-10287
▁甲	-10288
▁노벨	-10289
▁郷	-10290
▁carbon	-10291
▁復	-10292
▁경과	-10293
▁중심지	-10294
▁夏	-10295
▁평론	-10296
▁얽	-10297
▁기성	-10298
▁모시	-10299
iol	-10300
▁깨닫	-10301
▁유래	-10302
▁considered	-10303
▁신년	-10304
▁크로	-10305
▁그렇지만	-10306
어로	-10307
▁키즈	-10308
▁path	-10309
▁오케스트라	-10310
▁になる	-10311
▁品	-10312
▁소홀	-10313
▁마운드	-10314
▁보고회	-10315
▁곱	-10316
▁먹이	-10317
▁cop	-10318
▁키워드	-10319
▁増	-10320
▁대개	-10321
▁비결	-10322
▁달라지	-10323
▁연평균	-10324
▁텍사스	-10325
▁펼쳐진다	-10326
ned	-10327
▁오스	-10328
mber	-10329
ラム	-10330
▁극심	-10331
▁수요자	-10332
▁JTBC	-10333
OD	-10334
▁街	-10335
▁박진	-10336
▁ｍ	-10337
▁소아	-10338
▁봉사자	-10339
시설	-10340
풀이	-10341
▁rights	-10342
▁성숙	-10343
▁컨트롤	-10344
▁推	-10345
▁각별	-10346
▁차익	-10347
▁factors	-10348
▁숙소	-10349
▁획기	-10350
emic	-10351
밀리	-10352
いた	-10353
바람	-10354
▁시골	-10355
▁정화	-10356
ています	-10357
▁보물	-10358
▁총액	-10359
▁照	-10360
▁中心	-10361
▁갈라	-10362
▁Read	-10363
▁전송	-10364
▁Min	-10365
▁短	-10366
▁골라	-10367
▁부하	-10368
ケット	-10369
▁required	-10370
▁...)	-10371
▁느냐는	-10372
▁건지	-10373
▁dest	-10374
▁causes	-10375
▁thought	-10376
가루	-10377
▁ut	-10378
니스트	-10379
▁샵	-10380
▁fru	-10381
▁attack	-10382
▁ce	-10383
▁도지사	-10384
▁히어로	-10385
▁모양새	-10386
▁부의	-10387
▁전염	-10388
세포	-10389
▁Mon	-10390
▁강해	-10391
▁잠수	-10392
▁잠재력	-10393
▁damage	-10394
▁benefits	-10395
▁못지	-10396
▁신성	-10397
헨티나	-10398
▁members	-10399
▁배운	-10400
▁친절	-10401
ster	-10402
▁쉴	-10403
▁recent	-10404
▁誌	-10405
▁페어	-10406
▁찾아보	-10407
▁섰	-10408
버트	-10409
▁권유	-10410
▁bar	-10411
▁아르헨티나	-10412
▁어리	-10413
illed	-10414
▁동호	-10415
ensive	-10416
▁entire	-10417
뜨렸	-10418
▁장터	-10419
▁命	-10420
▁El	-10421
▁대치	-10422
▁소금	-10423
비드	-10424
▁IoT	-10425
▁helps	-10426
▁まれ	-10427
▁구멍	-10428
▁포상	-10429
▁예술가	-10430
▁부를	-10431
ュージ	-10432
▁내세우	-10433
▁측은	-10434
▁arch	-10435
▁굵	-10436
▁에프	-10437
▁청탁	-10438
▁드디어	-10439
▁throughout	-10440
▁堂	-10441
ロン	-10442
tic	-10443
▁글자	-10444
▁상하이	-10445
▁vacc	-10446
▁우호	-10447
▁strateg	-10448
▁深	-10449
▁自分	-10450
▁1963	-10451
▁face	-10452
▁mach	-10453
▁つの	-10454
▁김준	-10455
▁신비	-10456
▁실전	-10457
▁오리지널	-10458
utions	-10459
▁群	-10460
컨대	-10461
▁원금	-10462
▁國	-10463
▁意味	-10464
▁박주	-10465
▁승격	-10466
바이트	-10467
▁サイト	-10468
▁Educ	-10469
▁경신	-10470
▁성추	-10471
▁이어진다	-10472
▁CF	-10473
▁터치	-10474
11	-10475
▁양쪽	-10476
▁폭스	-10477
▁います	-10478
▁겨울철	-10479
▁빠져나	-10480
こう	-10481
▁가파	-10482
▁양사	-10483
▁박정희	-10484
▁measure	-10485
▁領	-10486
▁자택	-10487
▁DJ	-10488
▁바꾼	-10489
▁전이	-10490
▁ㅋ	-10491
▁민중	-10492
▁％	-10493
▁shows	-10494
▁맥락	-10495
▁타선	-10496
▁contact	-10497
양군	-10498
▁우세	-10499
▁자재	-10500
▁밝혀졌	-10501
▁솔직히	-10502
▁잎	-10503
둥이	-10504
▁십시오	-10505
▁技術	-10506
▁공존	-10507
▁최순	-10508
총액	-10509
▁高校	-10510
▁analysis	-10511
▁귀농	-10512
▁유포	-10513
▁재판소	-10514
att	-10515
▁붐	-10516
멘트	-10517
▁시가총액	-10518
▁대세	-10519
▁신형	-10520
▁커버	-10521
ened	-10522
▁합창	-10523
▁According	-10524
거나	-10525
▁취미	-10526
▁보이스	-10527
▁성추행	-10528
▁서기	-10529
umb	-10530
▁대교	-10531
▁여왕	-10532
▁영세	-10533
▁워터	-10534
▁lives	-10535
▁therap	-10536
▁価	-10537
▁세련	-10538
▁liter	-10539
▁선착순	-10540
▁meaning	-10541
son	-10542
▁뜨겁	-10543
ころ	-10544
▁머니	-10545
▁오버	-10546
▁혼합	-10547
▁사우디	-10548
▁외신	-10549
▁인성	-10550
▁톡톡	-10551
▁후회	-10552
▁ラジオ	-10553
asc	-10554
▁농지	-10555
▁가까워	-10556
▁흠	-10557
▁걸친	-10558
▁집합	-10559
▁Child	-10560
▁雄	-10561
▁PM	-10562
▁누나	-10563
▁접하	-10564
▁쿼터	-10565
▁追	-10566
▁전산	-10567
▁’)	-10568
▁감추	-10569
▁독려	-10570
▁열려	-10571
▁장병	-10572
▁주역	-10573
▁면밀	-10574
▁일간	-10575
abet	-10576
▁宝	-10577
가리	-10578
▁간주	-10579
▁assess	-10580
▁themselves	-10581
go	-10582
▁논술	-10583
▁満	-10584
▁맞물	-10585
▁점령	-10586
▁販	-10587
rie	-10588
▁날짜	-10589
▁외곽	-10590
▁전일	-10591
▁lif	-10592
▁1930	-10593
▁정류	-10594
▁From	-10595
▁return	-10596
ヴェ	-10597
▁소주	-10598
▁포지션	-10599
▁될까	-10600
▁CG	-10601
▁남해	-10602
▁문경	-10603
▁메일	-10604
▁박종	-10605
▁배후	-10606
▁연체	-10607
▁이경	-10608
▁정시	-10609
▁포스터	-10610
▁＞	-10611
▁Cons	-10612
▁popular	-10613
무성	-10614
▁당사	-10615
▁하남	-10616
▁Other	-10617
▁연초	-10618
▁training	-10619
put	-10620
▁시달리	-10621
▁운동가	-10622
▁렀	-10623
いい	-10624
▁사자	-10625
ging	-10626
▁125	-10627
데이트	-10628
▁供	-10629
▁利用	-10630
▁달랐	-10631
▁포르투	-10632
▁farm	-10633
EM	-10634
▁현수	-10635
lex	-10636
▁百	-10637
꺼번에	-10638
▁한꺼번에	-10639
▁③	-10640
▁공예	-10641
▁伴	-10642
▁아저	-10643
▁싼	-10644
▁심상	-10645
▁회의소	-10646
▁잡지	-10647
타운	-10648
▁태권	-10649
▁업데이트	-10650
▁이를	-10651
▁이윤	-10652
▁마이너스	-10653
▁契	-10654
야마	-10655
▁温	-10656
▁includes	-10657
▁응용	-10658
▁푸르	-10659
▁두려움	-10660
▁작곡가	-10661
▁pattern	-10662
기술	-10663
ternet	-10664
▁content	-10665
▁首	-10666
어버	-10667
itud	-10668
▁쉐	-10669
▁악재	-10670
▁수비수	-10671
▁사양	-10672
▁낡	-10673
▁미얀	-10674
▁한숨	-10675
▁집행유예	-10676
▁タイ	-10677
▁미뤄	-10678
▁배럴	-10679
▁놀라운	-10680
▁左	-10681
▁총수	-10682
▁깔끔	-10683
▁사형	-10684
▁sat	-10685
▁就任	-10686
▁대본	-10687
▁account	-10688
izing	-10689
▁1964	-10690
▁보건복	-10691
▁approach	-10692
str	-10693
▁헤드	-10694
ections	-10695
▁記念	-10696
▁든든	-10697
▁급성	-10698
▁내걸	-10699
iddle	-10700
▁닥터	-10701
▁용서	-10702
▁아저씨	-10703
▁region	-10704
▁랄	-10705
▁선교	-10706
▁장인	-10707
▁회생	-10708
▁emot	-10709
▁대항	-10710
▁이럴	-10711
▁SSG	-10712
▁foods	-10713
▁regular	-10714
▁범인	-10715
▁직권	-10716
▁전라남도	-10717
▁새끼	-10718
▁장벽	-10719
ming	-10720
▁veget	-10721
▁positive	-10722
▁限	-10723
erous	-10724
ulations	-10725
▁이메	-10726
▁조류	-10727
▁질의	-10728
▁모씨	-10729
▁이순	-10730
▁계약서	-10731
ピック	-10732
▁브로	-10733
▁industry	-10734
▁頃	-10735
▁頭	-10736
외선	-10737
▁객실	-10738
▁리모	-10739
퍼니	-10740
ences	-10741
▁영구	-10742
room	-10743
▁action	-10744
▁獲	-10745
▁》(	-10746
▁Inc	-10747
▁薬	-10748
▁몰래	-10749
▁게이트	-10750
▁pict	-10751
88	-10752
▁기량	-10753
▁분포	-10754
▁쉼터	-10755
▁펼칠	-10756
▁interact	-10757
▁threat	-10758
oll	-10759
▁테니스	-10760
urch	-10761
▁tar	-10762
▁자본주의	-10763
▁챌린지	-10764
▁nature	-10765
▁静	-10766
▁가벼운	-10767
▁들어간다	-10768
▁GP	-10769
▁calc	-10770
メント	-10771
▁바퀴	-10772
▁백제	-10773
▁일행	-10774
▁displ	-10775
▁사료	-10776
▁신생	-10777
▁파산	-10778
▁언젠가	-10779
놀이	-10780
▁분량	-10781
▁올레	-10782
▁유상	-10783
▁bab	-10784
▁※	-10785
온다	-10786
▁구름	-10787
▁단절	-10788
レン	-10789
ius	-10790
▁특집	-10791
▁Her	-10792
▁동성	-10793
▁마비	-10794
▁came	-10795
렉션	-10796
▁AM	-10797
▁비대위	-10798
▁실리콘	-10799
▁1962	-10800
▁increasing	-10801
ply	-10802
▁동쪽	-10803
▁등기	-10804
▁외출	-10805
▁불어넣	-10806
▁선점	-10807
▁최후	-10808
▁학계	-10809
▁グループ	-10810
▁美術	-10811
▁실감	-10812
▁체중	-10813
▁NAS	-10814
▁금요일	-10815
▁불꽃	-10816
▁star	-10817
▁ヶ	-10818
▁DM	-10819
▁영농	-10820
▁시리아	-10821
▁cannot	-10822
ches	-10823
▁くの	-10824
▁비만	-10825
▁손님	-10826
▁슬픔	-10827
▁어둠	-10828
▁터지	-10829
book	-10830
▁법인세	-10831
arent	-10832
▁뻗	-10833
▁틴	-10834
▁살피	-10835
▁Now	-10836
▁사령관	-10837
▁㎡(	-10838
▁서서	-10839
▁오일	-10840
▁Fed	-10841
▁음주운전	-10842
▁컴퍼니	-10843
icles	-10844
▁개원	-10845
▁들리	-10846
▁growing	-10847
▁어치	-10848
oor	-10849
▁규탄	-10850
aving	-10851
▁중앙은행	-10852
▁볼거리	-10853
▁されていた	-10854
▁働	-10855
▁브레이	-10856
태프	-10857
apt	-10858
aged	-10859
▁간절	-10860
▁민영	-10861
▁세액	-10862
vere	-10863
▁built	-10864
▁판타	-10865
▁prep	-10866
▁違	-10867
▁ける	-10868
▁김희	-10869
▁분해	-10870
▁경사	-10871
▁던져	-10872
▁키스	-10873
▁팬데	-10874
▁池	-10875
▁봇	-10876
▁발명	-10877
▁경제학	-10878
▁상임위	-10879
▁아름다움	-10880
무실	-10881
▁해져	-10882
▁sam	-10883
▁designed	-10884
▁평일	-10885
▁의해서	-10886
▁챔피언십	-10887
elling	-10888
▁북측	-10889
플러스	-10890
▁からの	-10891
▁ある	-10892
▁攻	-10893
▁궁극	-10894
さん	-10895
▁여가	-10896
▁とする	-10897
▁봉투	-10898
▁fig	-10899
▁behavior	-10900
▁倉	-10901
▁악기	-10902
▁합격자	-10903
▁thing	-10904
▁／	-10905
▁기하	-10906
▁필름	-10907
▁이메일	-10908
▁1965	-10909
배우	-10910
▁보드	-10911
▁anc	-10912
rences	-10913
▁Although	-10914
데스	-10915
▁어떨	-10916
▁이낙	-10917
hood	-10918
▁Bar	-10919
▁사이클	-10920
▁priv	-10921
▁caused	-10922
val	-10923
▁메르스	-10924
▁만료	-10925
▁절약	-10926
▁서초구	-10927
▁조선일보	-10928
▁review	-10929
32	-10930
▁킨	-10931
▁다지	-10932
▁돌아보	-10933
▁뚝	-10934
▁그릇	-10935
▁메리	-10936
▁유흥	-10937
▁재택	-10938
▁아마도	-10939
▁프레임	-10940
▁이견	-10941
물산	-10942
▁website	-10943
▁불행	-10944
병원	-10945
▁피할	-10946
▁해결책	-10947
▁bur	-10948
▁나타난다	-10949
istics	-10950
▁공립	-10951
▁소각	-10952
▁구경	-10953
▁bacter	-10954
▁운반	-10955
▁재선	-10956
▁necessary	-10957
▁하계	-10958
▁sometimes	-10959
▁정교	-10960
▁職	-10961
ンガ	-10962
일으	-10963
▁미터	-10964
▁벌여	-10965
▁비자	-10966
▁유독	-10967
▁six	-10968
▁불러일으	-10969
▁메가	-10970
▁mor	-10971
박스	-10972
임스	-10973
전력	-10974
▁일괄	-10975
스토랑	-10976
▁夜	-10977
oud	-10978
▁』,	-10979
▁넘겼	-10980
▁윌리	-10981
▁His	-10982
▁레스토랑	-10983
▁maintain	-10984
AE	-10985
▁미팅	-10986
▁장미	-10987
▁deep	-10988
▁modern	-10989
▁봅니다	-10990
15	-10991
▁ジェ	-10992
▁병력	-10993
▁취재진	-10994
▁wild	-10995
▁언론사	-10996
▁uses	-10997
ても	-10998
▁신차	-10999
▁허락	-11000
▁드라이	-11001
▁earth	-11002
▁포항시	-11003
▁대입	-11004
ことも	-11005
▁접어들	-11006
▁bring	-11007
루스	-11008
▁われ	-11009
▁버튼	-11010
▁장단	-11011
▁워크숍	-11012
▁삼성물산	-11013
VD	-11014
▁기차	-11015
aced	-11016
▁이낙연	-11017
▁카카오톡	-11018
▁longer	-11019
▁좌절	-11020
▁eye	-11021
▁퀴즈	-11022
▁360	-11023
▁맵	-11024
▁더러	-11025
▁종로구	-11026
している	-11027
▁원단	-11028
▁etc	-11029
▁이라크	-11030
▁면모	-11031
▁LTE	-11032
▁DB	-11033
▁제치	-11034
▁채취	-11035
chan	-11036
▁나눴	-11037
▁미얀마	-11038
▁보건복지부	-11039
▁오사카	-11040
▁나뉘	-11041
▁저질	-11042
▁ren	-11043
▁variety	-11044
▁relationship	-11045
▁앤드	-11046
▁지났	-11047
▁출력	-11048
▁조별	-11049
▁encoura	-11050
▁延	-11051
▁스승	-11052
▁시속	-11053
▁다녔	-11054
onse	-11055
▁어쩌면	-11056
▁밀착	-11057
▁비로	-11058
▁펼쳐지	-11059
▁부드러운	-11060
▁광범	-11061
▁took	-11062
▁약식	-11063
▁すると	-11064
▁1966	-11065
▁경상북도	-11066
▁센트	-11067
▁丁	-11068
▁근접	-11069
▁떠올랐	-11070
▁LS	-11071
▁마디	-11072
▁부임	-11073
▁닝	-11074
봐야	-11075
▁금연	-11076
▁부평	-11077
▁대수	-11078
▁삼국	-11079
▁써야	-11080
▁포부	-11081
▁域	-11082
▁비스	-11083
▁news	-11084
▁불신	-11085
▁Char	-11086
▁programs	-11087
여행	-11088
▁산출	-11089
itation	-11090
▁皇	-11091
▁르노	-11092
▁のため	-11093
fully	-11094
▁떨어진다	-11095
▁도당	-11096
▁복용	-11097
▁천천	-11098
▁역설	-11099
▁향기	-11100
▁saf	-11101
TI	-11102
スク	-11103
▁백만	-11104
▁서쪽	-11105
▁필자	-11106
▁スポーツ	-11107
소연	-11108
▁박찬	-11109
▁컴백	-11110
▁한자	-11111
▁Bec	-11112
▁부른다	-11113
▁1948	-11114
▁conduct	-11115
▁115	-11116
▁looking	-11117
▁기울여	-11118
▁림	-11119
▁경품	-11120
▁의제	-11121
▁doesn	-11122
▁image	-11123
▁가이드라인	-11124
▁なお	-11125
▁군청	-11126
▁출제	-11127
▁자존심	-11128
▁座	-11129
ana	-11130
▁오디션	-11131
▁average	-11132
▁민관	-11133
▁fire	-11134
!!	-11135
▁토끼	-11136
▁지형	-11137
▁광역시	-11138
▁송금	-11139
▁doing	-11140
ography	-11141
▁발병	-11142
reng	-11143
▁Off	-11144
▁yet	-11145
aling	-11146
▁연루	-11147
▁イン	-11148
▁김천	-11149
▁신앙	-11150
▁First	-11151
▁System	-11152
▁이득	-11153
idge	-11154
▁관심사	-11155
급식	-11156
use	-11157
▁君	-11158
hib	-11159
▁유나이	-11160
▁DS	-11161
▁유나이티	-11162
▁schools	-11163
12	-11164
pts	-11165
▁전시장	-11166
▁individuals	-11167
▁ジョ	-11168
▁미루	-11169
▁아가	-11170
▁연안	-11171
▁데이트	-11172
epend	-11173
전지	-11174
▁약정	-11175
▁바꿨	-11176
▁주먹	-11177
▁BS	-11178
▁러닝	-11179
▁이어져	-11180
▁킥	-11181
▁컨디션	-11182
▁넉	-11183
▁걸릴	-11184
▁양해	-11185
▁출판사	-11186
AA	-11187
▁동국	-11188
▁인삼	-11189
▁explain	-11190
▁諸	-11191
하나	-11192
▁King	-11193
リンピック	-11194
▁Institute	-11195
▁敗	-11196
▁かつ	-11197
▁까닭	-11198
▁이화	-11199
▁정해진	-11200
▁績	-11201
▁나타날	-11202
▁植	-11203
▁準	-11204
▁행사장	-11205
▁British	-11206
호텔	-11207
▁MD	-11208
▁India	-11209
▁指定	-11210
▁무상급식	-11211
▁Austral	-11212
▁한은	-11213
▁182	-11214
▁관념	-11215
▁정산	-11216
▁항암	-11217
タリア	-11218
▁108	-11219
▁bal	-11220
▁접촉자	-11221
▁김은	-11222
▁맡기	-11223
▁부추	-11224
▁영주	-11225
▁베를	-11226
▁야마	-11227
▁されて	-11228
▁인데요	-11229
▁대구경북	-11230
▁개조	-11231
▁관건	-11232
▁일곱	-11233
느리	-11234
uge	-11235
▁구로	-11236
▁거래량	-11237
▁송치	-11238
▁experim	-11239
▁벅스	-11240
▁천천히	-11241
▁고집	-11242
▁치즈	-11243
▁Aut	-11244
▁獲得	-11245
▁게시판	-11246
▁1920	-11247
▁環	-11248
▁Red	-11249
▁virus	-11250
▁시집	-11251
▁놨	-11252
▁장마	-11253
hel	-11254
▁Bo	-11255
▁れる	-11256
▁세수	-11257
ched	-11258
▁기호	-11259
▁변형	-11260
▁품종	-11261
▁호조	-11262
▁arr	-11263
구리	-11264
▁걸맞	-11265
▁설사	-11266
▁알렉	-11267
▁slow	-11268
▁힙	-11269
▁사직	-11270
▁제임스	-11271
릿수	-11272
▁가축	-11273
▁신곡	-11274
▁홈플러스	-11275
▁written	-11276
▁일가	-11277
▁surv	-11278
▁Vol	-11279
oming	-11280
▁반기	-11281
▁모델링	-11282
▁began	-11283
어리	-11284
크론	-11285
▁ヤ	-11286
▁흑인	-11287
▁103	-11288
▁기부금	-11289
▁부의장	-11290
▁normal	-11291
▁pp	-11292
▁학사	-11293
▁대장동	-11294
▁청주시	-11295
▁보석	-11296
▁똑같이	-11297
▁시켜야	-11298
▁자책점	-11299
▁떨어질	-11300
▁getting	-11301
TO	-11302
▁그라운드	-11303
▁JR	-11304
▁共和	-11305
▁불참	-11306
▁漫	-11307
▁빌리	-11308
▁의외	-11309
▁던데	-11310
▁중형	-11311
▁해킹	-11312
▁sustain	-11313
높이	-11314
▁월요일	-11315
수지	-11316
pid	-11317
▁公園	-11318
▁고의	-11319
▁リーグ	-11320
▁방송사	-11321
▁1961	-11322
▁꾸며	-11323
부르크	-11324
▁전시관	-11325
▁La	-11326
▁검정	-11327
usion	-11328
▁basic	-11329
▁주저	-11330
▁養	-11331
▁以降	-11332
▁엄정	-11333
▁해변	-11334
▁강아지	-11335
▁previous	-11336
▁ツ	-11337
▁NY	-11338
▁れた	-11339
▁製作	-11340
▁모형	-11341
▁인쇄	-11342
▁적금	-11343
ns	-11344
▁失	-11345
▁EC	-11346
▁놓여	-11347
▁표결	-11348
▁Why	-11349
LE	-11350
▁수련	-11351
▁이리	-11352
▁니스	-11353
▁위촉	-11354
▁matter	-11355
▁갇	-11356
うち	-11357
アー	-11358
▁sex	-11359
▁人口	-11360
▁매트	-11361
▁출구	-11362
▁계신	-11363
▁날카	-11364
▁판교	-11365
▁빈곤	-11366
▁혼인	-11367
▁이뤄지고	-11368
▁양질	-11369
▁휩싸	-11370
면적	-11371
▁침공	-11372
ners	-11373
▁られる	-11374
▁국고	-11375
질랜드	-11376
▁로맨스	-11377
▁tree	-11378
▁손쉽	-11379
▁정진	-11380
▁캐스팅	-11381
▁대박	-11382
▁마드	-11383
▁새겨	-11384
▁약한	-11385
▁됐으나	-11386
▁스러워	-11387
light	-11388
▁별명	-11389
▁시당	-11390
▁104	-11391
▁속성	-11392
▁온천	-11393
▁창문	-11394
▁휘발	-11395
▁Int	-11396
▁night	-11397
아웃	-11398
▁정동	-11399
▁대주주	-11400
▁習	-11401
디움	-11402
vey	-11403
▁led	-11404
▁heav	-11405
▁絵	-11406
▁쥬	-11407
▁녹지	-11408
▁내지	-11409
▁별개	-11410
▁정점	-11411
▁アン	-11412
▁까다	-11413
▁법칙	-11414
▁예보	-11415
▁ago	-11416
▁놀랐	-11417
▁연소	-11418
▁광범위	-11419
ufact	-11420
▁뉴질랜드	-11421
▁Techn	-11422
▁귀여	-11423
▁너희	-11424
▁이창	-11425
▁제압	-11426
▁냐면	-11427
▁쏠리	-11428
▁람	-11429
ino	-11430
▁발동	-11431
▁arg	-11432
▁Calif	-11433
▁교역	-11434
▁신흥	-11435
▁떠올리	-11436
▁幸	-11437
▁接	-11438
▁켄	-11439
시간	-11440
▁끌려	-11441
▁왕국	-11442
▁무주	-11443
▁신학	-11444
▁자수	-11445
▁시공사	-11446
▁탄압	-11447
▁問題	-11448
▁契約	-11449
▁福岡	-11450
▁블라	-11451
▁펄	-11452
▁구석	-11453
▁마늘	-11454
▁무지	-11455
▁숨지	-11456
▁지붕	-11457
▁사회주의	-11458
▁동북아	-11459
▁포르투갈	-11460
▁sense	-11461
ーター	-11462
▁休	-11463
▁해산	-11464
eum	-11465
▁방통	-11466
▁スト	-11467
▁벤츠	-11468
▁에코	-11469
▁탐사	-11470
▁롯데마트	-11471
▁재편	-11472
▁침입	-11473
▁난민	-11474
▁조현	-11475
▁Prog	-11476
▁폐업	-11477
▁무너지	-11478
▁service	-11479
▁Don	-11480
▁瀬	-11481
▁서방	-11482
▁맛집	-11483
▁척추	-11484
▁CBS	-11485
▁itself	-11486
▁금방	-11487
▁해선	-11488
▁solar	-11489
▁write	-11490
다임	-11491
▁소액	-11492
▁양호	-11493
▁패러다임	-11494
▁確	-11495
なが	-11496
rad	-11497
▁강구	-11498
▁김일	-11499
▁단편	-11500
▁도우	-11501
▁聞	-11502
에이	-11503
▁파고	-11504
▁도시락	-11505
▁기숙사	-11506
▁후쿠시마	-11507
▁발라	-11508
▁feet	-11509
▁structure	-11510
▁貴	-11511
チェ	-11512
ricult	-11513
▁렉	-11514
▁Sw	-11515
▁김형	-11516
それ	-11517
イク	-11518
シー	-11519
▁실사	-11520
▁High	-11521
▁스프링	-11522
▁gard	-11523
▁correct	-11524
▁닛	-11525
▁윗	-11526
▁김혜	-11527
lands	-11528
▁＜	-11529
nov	-11530
▁가문	-11531
▁Sun	-11532
▁print	-11533
ことができ	-11534
▁이준석	-11535
▁찾아오	-11536
▁foot	-11537
▁relig	-11538
▁developing	-11539
ister	-11540
▁고품	-11541
▁파란	-11542
▁poll	-11543
▁국감	-11544
▁보충	-11545
▁통로	-11546
▁사거리	-11547
▁그루	-11548
▁산재	-11549
▁ec	-11550
▁석사	-11551
▁승계	-11552
▁홍수	-11553
▁bit	-11554
▁건설업	-11555
▁副	-11556
▁워킹	-11557
▁슬로건	-11558
▁仁	-11559
▁양심	-11560
▁한두	-11561
▁safety	-11562
▁EV	-11563
▁울릉	-11564
▁정했	-11565
▁치아	-11566
▁퀸	-11567
▁합산	-11568
▁감기	-11569
▁TBS	-11570
▁은행장	-11571
▁Black	-11572
▁불펜	-11573
▁유재	-11574
raft	-11575
▁으려는	-11576
▁conc	-11577
▁꾸려	-11578
▁막내	-11579
▁비닐	-11580
▁진압	-11581
▁포드	-11582
▁MVP	-11583
▁명확히	-11584
▁솜	-11585
▁엽	-11586
▁유저	-11587
▁video	-11588
▁料	-11589
▁드물	-11590
しょう	-11591
▁inte	-11592
▁갯	-11593
▁아사	-11594
▁진리	-11595
▁ゲーム	-11596
▁마이클	-11597
▁identify	-11598
▁돌아와	-11599
▁파장	-11600
▁断	-11601
▁라스	-11602
▁응모	-11603
▁파생	-11604
▁したが	-11605
키퍼	-11606
▁교대	-11607
▁천문	-11608
▁피트	-11609
▁OLED	-11610
어져	-11611
▁그림자	-11612
▁Serv	-11613
▁share	-11614
▁翌	-11615
▁Ju	-11616
▁以上	-11617
▁예매	-11618
▁Let	-11619
▁exc	-11620
エル	-11621
▁BC	-11622
▁believe	-11623
▁운임	-11624
▁호르	-11625
▁われる	-11626
▁wood	-11627
▁일어날	-11628
ていない	-11629
▁China	-11630
▁시일	-11631
▁흉기	-11632
▁조속히	-11633
▁얇	-11634
▁해볼	-11635
▁환급	-11636
▁鳥	-11637
▁기동	-11638
▁약점	-11639
▁컬렉션	-11640
▁prop	-11641
▁타석	-11642
▁골키퍼	-11643
▁아르바이트	-11644
▁センター	-11645
▁체질	-11646
ades	-11647
34	-11648
퇴근	-11649
▁악취	-11650
바다	-11651
▁바쁜	-11652
▁106	-11653
▁調査	-11654
▁행안	-11655
▁Over	-11656
▁서점	-11657
▁lo	-11658
▁事務	-11659
▁서술	-11660
▁사교육	-11661
▁sound	-11662
▁teachers	-11663
▁과실	-11664
ropri	-11665
▁普	-11666
▁탈퇴	-11667
▁ste	-11668
▁모험	-11669
▁주무	-11670
▁FM	-11671
▁PB	-11672
▁tur	-11673
▁서서히	-11674
reg	-11675
▁하얀	-11676
sequ	-11677
FT	-11678
US	-11679
▁속속	-11680
▁호기심	-11681
▁ensure	-11682
uk	-11683
▁드러난	-11684
▁ox	-11685
▁단호	-11686
▁호재	-11687
ucle	-11688
▁coun	-11689
▁드라이브	-11690
▁증폭	-11691
▁머물렀	-11692
itary	-11693
overy	-11694
▁시진	-11695
▁자부심	-11696
リース	-11697
▁poor	-11698
ground	-11699
▁관제	-11700
▁반등	-11701
▁전락	-11702
▁찾아내	-11703
▁가뭄	-11704
▁동점	-11705
▁extreme	-11706
▁횡단	-11707
▁warm	-11708
▁나눈	-11709
amed	-11710
▁total	-11711
▁Californ	-11712
공원	-11713
▁운수	-11714
▁GB	-11715
모토	-11716
▁지경	-11717
▁vit	-11718
▁신속히	-11719
▁동아시아	-11720
▁essay	-11721
▁active	-11722
▁鹿	-11723
▁해피	-11724
▁詩	-11725
듀서	-11726
▁긴축	-11727
▁문체	-11728
▁조상	-11729
베이터	-11730
▁separ	-11731
▁첩	-11732
テン	-11733
▁오름	-11734
▁events	-11735
▁누리집	-11736
▁continue	-11737
▁선원	-11738
▁이인	-11739
▁camp	-11740
▁political	-11741
▁달콤	-11742
▁박탈	-11743
▁처한	-11744
▁프로듀서	-11745
minist	-11746
▁나주	-11747
▁임의	-11748
▁물고기	-11749
▁末	-11750
▁몰입	-11751
▁반해	-11752
▁맞대결	-11753
▁풋	-11754
▁존재감	-11755
▁농성	-11756
▁신도	-11757
ことで	-11758
▁아메리카	-11759
▁寄	-11760
▁꽂	-11761
bol	-11762
▁논평	-11763
▁정우	-11764
▁취업자	-11765
▁psych	-11766
▁serious	-11767
▁펌	-11768
▁반납	-11769
▁takes	-11770
RO	-11771
▁함정	-11772
▁UE	-11773
▁달라진	-11774
▁OS	-11775
▁지상파	-11776
ustom	-11777
기금	-11778
▁끊이	-11779
▁trees	-11780
▁SH	-11781
▁서정	-11782
▁스킨	-11783
▁庁	-11784
출산	-11785
▁경호	-11786
など	-11787
▁김정일	-11788
aches	-11789
▁놔	-11790
▁코레	-11791
오르	-11792
▁입체	-11793
위원장	-11794
▁右	-11795
병대	-11796
▁거울	-11797
▁스런	-11798
▁기념관	-11799
36	-11800
▁、『	-11801
▁管理	-11802
▁영감	-11803
▁그래픽	-11804
▁자릿수	-11805
ancial	-11806
▁ㅋㅋㅋㅋㅋㅋ	-11807
▁텍스	-11808
▁1955	-11809
▁movement	-11810
▁勉	-11811
▁군포	-11812
▁때리	-11813
▁치과	-11814
▁성폭행	-11815
▁지지층	-11816
ッツ	-11817
▁위헌	-11818
▁forest	-11819
려서	-11820
▁금산	-11821
▁streng	-11822
▁樹	-11823
▁送	-11824
코올	-11825
▁과천	-11826
▁낚시	-11827
▁한국전력	-11828
▁발길	-11829
▁저지른	-11830
▁outside	-11831
▁六	-11832
▁忠	-11833
▁恋	-11834
gn	-11835
▁고창	-11836
▁살림	-11837
▁신천	-11838
▁과징금	-11839
▁shown	-11840
▁민속	-11841
▁직구	-11842
▁차라리	-11843
▁애국	-11844
▁축사	-11845
▁rev	-11846
▁로이터	-11847
▁History	-11848
▁methods	-11849
▁성동	-11850
▁조짐	-11851
▁challeng	-11852
▁구두	-11853
▁hot	-11854
75	-11855
なら	-11856
▁민사	-11857
▁블룸	-11858
▁179	-11859
▁기술원	-11860
▁issue	-11861
제철	-11862
▁정답	-11863
▁郵	-11864
▁log	-11865
▁핏	-11866
estern	-11867
▁daily	-11868
▁assist	-11869
만금	-11870
보험	-11871
▁이진	-11872
▁健	-11873
▁悪	-11874
▁입양	-11875
▁․	-11876
▁와중	-11877
▁효성	-11878
resh	-11879
▁물러나	-11880
▁simply	-11881
▁왕자	-11882
▁자아냈	-11883
▁となっている	-11884
LP	-11885
▁慶	-11886
▁裁	-11887
▁뱀	-11888
for	-11889
▁ID	-11890
▁임대차	-11891
▁지방세	-11892
▁공론	-11893
▁미스	-11894
ternal	-11895
▁Trans	-11896
▁NE	-11897
▁나와서	-11898
▁안드로	-11899
ulate	-11900
▁위조	-11901
▁잇달	-11902
▁Kore	-11903
▁prec	-11904
issions	-11905
▁단말기	-11906
▁証	-11907
기구	-11908
▁부위원장	-11909
▁California	-11910
▁也	-11911
▁염려	-11912
▁compon	-11913
▁teeth	-11914
▁observ	-11915
▁무언	-11916
▁arm	-11917
▁walk	-11918
▁ウィ	-11919
▁농축	-11920
▁역동	-11921
▁덱	-11922
리즘	-11923
▁새만금	-11924
끄럽	-11925
▁실물	-11926
▁정주	-11927
▁などを	-11928
irm	-11929
▁서둘러	-11930
▁micro	-11931
▁society	-11932
▁特別	-11933
▁culture	-11934
▁diseases	-11935
▁궤도	-11936
▁피자	-11937
▁影	-11938
▁position	-11939
▁えて	-11940
▁입맛	-11941
▁헌재	-11942
법인	-11943
▁NS	-11944
▁느낀다	-11945
▁사육	-11946
▁으론	-11947
▁European	-11948
▁居	-11949
▁증자	-11950
▁Reg	-11951
▁stay	-11952
▁シリーズ	-11953
19	-11954
▁썰	-11955
사관	-11956
▁175	-11957
verse	-11958
▁magn	-11959
▁animal	-11960
▁inside	-11961
▁承	-11962
▁미성	-11963
▁전진	-11964
▁무거운	-11965
무기	-11966
▁충당	-11967
▁lack	-11968
▁チャ	-11969
▁유혹	-11970
▁주축	-11971
▁involved	-11972
ーロ	-11973
14	-11974
ルス	-11975
▁가산	-11976
▁해남	-11977
imin	-11978
▁연구자	-11979
▁올라오	-11980
▁harm	-11981
▁이뤄지는	-11982
▁450	-11983
▁회의실	-11984
▁フェ	-11985
▁디즈	-11986
ials	-11987
▁스페이스	-11988
▁여력	-11989
▁今日	-11990
▁개발자	-11991
▁target	-11992
▁비로소	-11993
▁사업단	-11994
▁浦	-11995
▁일일	-11996
▁ideas	-11997
몬드	-11998
▁분배	-11999
▁순찰	-12000
▁트래	-12001
▁そして	-12002
▁베를린	-12003
재단	-12004
▁낯선	-12005
▁細	-12006
コー	-12007
▁regard	-12008
▁템	-12009
파이	-12010
▁서산	-12011
▁트라	-12012
▁origin	-12013
▁남다른	-12014
▁마력	-12015
itor	-12016
▁defin	-12017
▁^	-12018
▁흩	-12019
운동	-12020
▁상회	-12021
ube	-12022
▁상고	-12023
▁hyd	-12024
▁compan	-12025
77	-12026
▁서면	-12027
ellow	-12028
▁books	-12029
▁빌라	-12030
cean	-12031
▁평론가	-12032
▁response	-12033
▁헨	-12034
▁성금	-12035
네스코	-12036
▁WHO	-12037
▁부시장	-12038
▁洋	-12039
▁사외	-12040
▁이온	-12041
プロ	-12042
▁환원	-12043
▁사령부	-12044
▁someone	-12045
デン	-12046
ony	-12047
▁코오	-12048
▁Val	-12049
▁그레이	-12050
▁예컨대	-12051
33	-12052
▁岐	-12053
▁章	-12054
▁온다	-12055
▁전성	-12056
▁초월	-12057
▁패스트	-12058
▁호흡기	-12059
▁easily	-12060
▁기세	-12061
▁인수위	-12062
▁중년	-12063
▁진해	-12064
▁차종	-12065
▁1940	-12066
▁사설	-12067
▁의대	-12068
▁신작	-12069
▁음식물	-12070
▁음악회	-12071
▁배추	-12072
▁스톱	-12073
▁융자	-12074
▁Sch	-12075
▁lat	-12076
▁출퇴근	-12077
▁事件	-12078
▁인플	-12079
▁bad	-12080
▁프로세스	-12081
▁이현	-12082
▁provided	-12083
▁강호	-12084
▁내장	-12085
▁생리	-12086
▁넘어선	-12087
▁유네스코	-12088
atives	-12089
▁과열	-12090
デュー	-12091
▁109	-12092
▁CNN	-12093
▁Even	-12094
▁지회	-12095
▁造	-12096
▁사이즈	-12097
ength	-12098
▁典	-12099
▁바지	-12100
▁Are	-12101
▁우연히	-12102
▁true	-12103
▁media	-12104
▁doctor	-12105
▁구민	-12106
▁진이	-12107
▁최장	-12108
▁포수	-12109
▁ast	-12110
▁하여금	-12111
▁resist	-12112
▁너지	-12113
▁신원	-12114
▁윌리엄	-12115
▁유승민	-12116
두르	-12117
▁알뜰	-12118
▁억지	-12119
▁위력	-12120
▁육체	-12121
▁화두	-12122
▁아세안	-12123
▁unique	-12124
▁sea	-12125
▁ロシア	-12126
▁으려면	-12127
▁ザ	-12128
▁더군	-12129
クション	-12130
▁오미크론	-12131
▁일으켰	-12132
▁series	-12133
▁주권	-12134
ともに	-12135
▁drink	-12136
▁ふ	-12137
▁방출	-12138
▁178	-12139
▁Cor	-12140
▁박원순	-12141
▁패밀리	-12142
▁현수막	-12143
▁類	-12144
▁Aug	-12145
▁network	-12146
▁냉동	-12147
lies	-12148
▁よ	-12149
▁돔	-12150
▁NASA	-12151
▁마루	-12152
▁ホーム	-12153
▁용인시	-12154
▁건네	-12155
▁계란	-12156
▁으신	-12157
▁탐색	-12158
られている	-12159
▁거창	-12160
▁달렸	-12161
▁모른	-12162
▁アニメ	-12163
▁주어진	-12164
▁토스	-12165
▁임시회	-12166
▁언스	-12167
▁화보	-12168
적으로	-12169
▁claim	-12170
ha	-12171
▁톰	-12172
▁기업체	-12173
▁돋보이	-12174
▁펼친다	-12175
▁憲	-12176
▁구급	-12177
▁덴마크	-12178
▁princ	-12179
imately	-12180
▁IN	-12181
▁노예	-12182
▁제조사	-12183
gency	-12184
18	-12185
▁結果	-12186
▁강변	-12187
▁성질	-12188
▁quickly	-12189
테랑	-12190
호영	-12191
▁시카	-12192
▁fem	-12193
▁Department	-12194
야구	-12195
축구	-12196
▁표본	-12197
▁釈	-12198
▁절망	-12199
▁熊	-12200
▁늙	-12201
▁모순	-12202
▁행장	-12203
▁尹	-12204
▁싸이	-12205
▁정관	-12206
▁started	-12207
▁。（	-12208
▁위임	-12209
▁태세	-12210
▁놀이터	-12211
▁물려	-12212
▁인조	-12213
||||	-12214
▁탱크	-12215
▁알코올	-12216
▁UEFA	-12217
▁humans	-12218
▁볶	-12219
드럽	-12220
▁동상	-12221
▁뜻한다	-12222
▁오로지	-12223
▁뜯	-12224
▁다저스	-12225
▁바이어	-12226
▁영화관	-12227
▁dang	-12228
古屋	-12229
▁동포	-12230
▁유진	-12231
▁증후	-12232
▁draw	-12233
▁補	-12234
▁제작사	-12235
▁코오롱	-12236
▁상의	-12237
포트	-12238
▁염증	-12239
▁예배	-12240
▁sources	-12241
けど	-12242
▁휴일	-12243
▁220	-12244
▁기다려	-12245
▁기탁	-12246
▁동월	-12247
rior	-12248
aries	-12249
▁경상남도	-12250
▁離	-12251
▁지켰	-12252
▁유럽연합	-12253
▁더구나	-12254
abetes	-12255
▁cover	-12256
▁階	-12257
요타	-12258
▁대단히	-12259
▁워치	-12260
▁지친	-12261
▁최경	-12262
▁투구	-12263
▁조용히	-12264
▁produced	-12265
joy	-12266
▁샌드	-12267
pose	-12268
▁남양주	-12269
▁쇼트	-12270
▁부드럽	-12271
▁입주민	-12272
▁丸	-12273
▁배울	-12274
▁정선	-12275
▁名古屋	-12276
▁강력히	-12277
▁terms	-12278
셀러	-12279
십자	-12280
▁결실	-12281
레이터	-12282
▁끌어올리	-12283
▁국외	-12284
▁시한	-12285
▁근원	-12286
▁전주시	-12287
▁꽉	-12288
▁리듬	-12289
▁환수	-12290
ーナ	-12291
▁예쁘	-12292
▁외화	-12293
▁퇴임	-12294
▁offer	-12295
▁넓히	-12296
▁만점	-12297
▁야기	-12298
▁이룰	-12299
▁항구	-12300
랍니다	-12301
▁メンバー	-12302
▁동선	-12303
▁법사	-12304
뉴얼	-12305
▁원심	-12306
▁스타디움	-12307
▁ㅋㅋㅋㅋㅋ	-12308
▁イタリア	-12309
▁현대건설	-12310
▁가라	-12311
▁Che	-12312
▁DVD	-12313
▁둘러보	-12314
▁승강장	-12315
▁MZ	-12316
▁리바	-12317
▁전도	-12318
ステム	-12319
PA	-12320
성군	-12321
유럽	-12322
▁인격	-12323
▁정립	-12324
▁사라진	-12325
▁시진핑	-12326
▁배웠	-12327
▁용이	-12328
▁원대	-12329
▁TE	-12330
▁전작	-12331
▁주름	-12332
▁피스	-12333
▁필터	-12334
▁대리점	-12335
▁따라가	-12336
▁漢	-12337
구니	-12338
▁remov	-12339
현실	-12340
▁통지	-12341
▁마드리드	-12342
▁합법	-12343
アルバム	-12344
テル	-12345
▁책상	-12346
▁dry	-12347
eration	-12348
▁standard	-12349
16	-12350
▁Sk	-12351
▁전경	-12352
▁경감	-12353
▁교감	-12354
▁만주	-12355
▁터져	-12356
▁해역	-12357
▁できる	-12358
▁상습	-12359
▁쓴다	-12360
▁조합장	-12361
OV	-12362
▁뮌	-12363
리안	-12364
iot	-12365
▁습지	-12366
▁중학생	-12367
코드	-12368
▁교재	-12369
▁녹화	-12370
▁눈높이	-12371
▁일일이	-12372
▁邦	-12373
▁등재	-12374
▁약품	-12375
▁열매	-12376
▁요새	-12377
▁잡아	-12378
▁갈아	-12379
▁다툼	-12380
▁목욕	-12381
▁치른	-12382
yr	-12383
では	-12384
らに	-12385
anks	-12386
▁Mod	-12387
▁썩	-12388
▁힌	-12389
▁로비	-12390
▁부담금	-12391
▁천안시	-12392
▁관계없이	-12393
▁ir	-12394
▁オリ	-12395
▁원형	-12396
itis	-12397
▁deb	-12398
▁upon	-12399
▁allows	-12400
▁구제역	-12401
ille	-12402
▁seem	-12403
▁compet	-12404
▁attention	-12405
▁디젤	-12406
▁스터	-12407
▁아닌데	-12408
▁1800	-12409
▁added	-12410
▁greater	-12411
▁경인	-12412
▁특색	-12413
37	-12414
▁宿	-12415
▁반짝	-12416
▁속초	-12417
▁1947	-12418
▁찔	-12419
▁한겨	-12420
▁김민재	-12421
▁동대문	-12422
▁numbers	-12423
▁옴	-12424
▁本人	-12425
▁세르	-12426
▁신념	-12427
▁진동	-12428
fect	-12429
▁particularly	-12430
▁배신	-12431
▁闘	-12432
▁px	-12433
▁납치	-12434
▁편한	-12435
▁취해	-12436
▁Colle	-12437
▁manufact	-12438
▁상표	-12439
▁시드	-12440
▁추위	-12441
きた	-12442
▁업적	-12443
▁1958	-12444
▁路線	-12445
▁풀리	-12446
▁240	-12447
▁산업은행	-12448
44	-12449
▁고부	-12450
▁하청	-12451
▁비유	-12452
▁어차	-12453
▁1959	-12454
▁더하	-12455
고속도로	-12456
▁降	-12457
▁특보	-12458
▁정류장	-12459
▁pack	-12460
▁forms	-12461
▁우아	-12462
▁창당	-12463
▁Geor	-12464
▁Develop	-12465
▁텃	-12466
▁되살	-12467
▁tri	-12468
▁構成	-12469
▁할리	-12470
▁Associ	-12471
▁Bu	-12472
▁박용	-12473
▁액수	-12474
▁조경	-12475
▁fed	-12476
기에	-12477
▁사막	-12478
▁인선	-12479
▁Just	-12480
▁사범	-12481
▁조형	-12482
▁cit	-12483
▁infection	-12484
블릿	-12485
▁移籍	-12486
▁만전	-12487
▁지옥	-12488
▁카르	-12489
▁증후군	-12490
퀘어	-12491
▁베네	-12492
▁짐작	-12493
▁ドラマ	-12494
▁한겨레	-12495
▁龍	-12496
▁성별	-12497
▁UAE	-12498
▁가르쳐	-12499
▁바우	-12500
▁소용	-12501
ancy	-12502
▁무덤	-12503
▁산다	-12504
▁나이트	-12505
▁娘	-12506
방울	-12507
▁나빠	-12508
▁입자	-12509
▁초록	-12510
rench	-12511
▁사들	-12512
▁우드	-12513
▁하동	-12514
▁아키	-12515
▁저출산	-12516
▁백지	-12517
▁실명	-12518
▁어머	-12519
▁℃	-12520
▁整	-12521
▁구형	-12522
▁악성	-12523
ohol	-12524
▁감염자	-12525
▁어차피	-12526
▁입주자	-12527
▁참으로	-12528
to	-12529
▁공청	-12530
▁Use	-12531
▁Fin	-12532
▁road	-12533
ビア	-12534
필더	-12535
▁建設	-12536
▁관악	-12537
▁베테랑	-12538
▁미드필더	-12539
▁answer	-12540
17	-12541
▁備	-12542
▁물어	-12543
▁박재	-12544
▁고흥	-12545
▁대덕	-12546
▁유방	-12547
▁여정	-12548
▁질주	-12549
▁화가	-12550
▁EBS	-12551
▁°	-12552
▁공무	-12553
▁기리	-12554
▁문헌	-12555
▁135	-12556
▁をも	-12557
▁낮춰	-12558
▁jo	-12559
▁165	-12560
운다	-12561
훈련	-12562
▁오스트리아	-12563
▁年間	-12564
▁달린	-12565
▁Education	-12566
▁implement	-12567
범죄	-12568
▁고립	-12569
▁이야말로	-12570
▁서브	-12571
▁서원	-12572
▁종사	-12573
▁매뉴얼	-12574
▁소나무	-12575
...	-12576
▁동탄	-12577
▁훈장	-12578
iques	-12579
BM	-12580
▁탔	-12581
▁국책	-12582
▁색다른	-12583
▁1949	-12584
▁놓인	-12585
▁mess	-12586
▁っていた	-12587
▁왠	-12588
▁박병	-12589
▁여대	-12590
▁Jew	-12591
▁web	-12592
▁円	-12593
▁湖	-12594
감치	-12595
▁アー	-12596
▁보람	-12597
▁편견	-12598
찌감치	-12599
▁엘리베이터	-12600
▁107	-12601
▁emb	-12602
▁squ	-12603
▁우울증	-12604
cohol	-12605
▁dark	-12606
▁Park	-12607
▁令	-12608
관광	-12609
우리	-12610
omet	-12611
▁판타지	-12612
▁exercise	-12613
그러	-12614
▁기점	-12615
▁산악	-12616
▁이루어진	-12617
▁妻	-12618
동생	-12619
▁MA	-12620
▁체전	-12621
▁People	-12622
▁地理	-12623
▁사옥	-12624
▁1956	-12625
▁동지	-12626
셀로나	-12627
▁勢	-12628
oes	-12629
ops	-12630
▁PS	-12631
▁답했	-12632
▁피싱	-12633
▁찾아볼	-12634
rought	-12635
66	-12636
▁朝日	-12637
▁수직	-12638
▁대국민	-12639
▁바르셀로나	-12640
▁고는	-12641
▁急	-12642
▁組織	-12643
▁강서구	-12644
▁더라구요	-12645
▁場所	-12646
▁128	-12647
▁상황실	-12648
▁City	-12649
▁mechan	-12650
alu	-12651
▁약해	-12652
▁어라	-12653
▁함양	-12654
▁연면적	-12655
▁레이저	-12656
▁중고차	-12657
iable	-12658
▁tools	-12659
▁늘렸	-12660
▁들여다보	-12661
▁隣	-12662
ift	-12663
▁후임	-12664
▁분권	-12665
▁싱크	-12666
▁Jan	-12667
▁중위	-12668
▁159	-12669
▁과다	-12670
▁토마	-12671
ying	-12672
▁1900	-12673
▁づ	-12674
▁Rem	-12675
▁probably	-12676
▁텀	-12677
▁고심	-12678
▁김제	-12679
▁원산	-12680
▁與	-12681
ミー	-12682
▁연쇄	-12683
▁흥분	-12684
▁Dav	-12685
▁가만히	-12686
▁scientific	-12687
▁遠	-12688
▁구사	-12689
▁보류	-12690
カップ	-12691
▁dou	-12692
▁이재용	-12693
▁1954	-12694
▁late	-12695
▁Great	-12696
mb	-12697
조리	-12698
udd	-12699
▁조문	-12700
▁악마	-12701
▁인문학	-12702
icien	-12703
▁fund	-12704
▁images	-12705
▁이광	-12706
▁회로	-12707
▁analy	-12708
▁소망	-12709
▁태블릿	-12710
▁權	-12711
▁라니	-12712
▁978	-12713
▁안산시	-12714
▁후원금	-12715
▁teaching	-12716
▁衆	-12717
▁오산	-12718
▁제동	-12719
▁잇따르	-12720
▁描	-12721
기지	-12722
▁ap	-12723
▁대권	-12724
▁한옥	-12725
▁드레스	-12726
▁Prof	-12727
▁스트라이	-12728
▁demon	-12729
▁search	-12730
38	-12731
매매	-12732
치기	-12733
▁경희	-12734
イトル	-12735
▁Tod	-12736
▁손자	-12737
▁왕조	-12738
▁이분	-12739
▁효능	-12740
▁critical	-12741
▁tiss	-12742
▁thinking	-12743
운용	-12744
▁생긴다	-12745
▁프레스	-12746
▁핀테크	-12747
▁sil	-12748
▁tax	-12749
▁펫	-12750
ゅう	-12751
▁WS	-12752
▁神社	-12753
▁기피	-12754
▁유닛	-12755
▁잃어버	-12756
▁買	-12757
eks	-12758
▁울진	-12759
▁형평	-12760
▁이산화	-12761
▁viol	-12762
▁배워	-12763
▁patient	-12764
31	-12765
▁Web	-12766
▁올라왔	-12767
▁아냐	-12768
▁주시	-12769
▁일부러	-12770
▁입술	-12771
린다는	-12772
arily	-12773
▁양념	-12774
▁임진	-12775
▁Press	-12776
▁썸	-12777
▁강성	-12778
▁으리	-12779
▁티비	-12780
▁화해	-12781
▁직결	-12782
▁개인전	-12783
▁블룸버그	-12784
▁mental	-12785
▁original	-12786
▁김명	-12787
▁트랜	-12788
rast	-12789
▁Sol	-12790
▁퍼지	-12791
▁김건	-12792
▁뮌헨	-12793
inks	-12794
ろう	-12795
▁감싸	-12796
▁반사	-12797
▁사제	-12798
lebr	-12799
셔츠	-12800
잡이	-12801
▁기일	-12802
▁무형	-12803
▁알레	-12804
수산부	-12805
▁공산당	-12806
▁파도	-12807
▁（）	-12808
▁호랑이	-12809
▁후반기	-12810
▁고속도로	-12811
▁select	-12812
▁instead	-12813
aly	-12814
▁손꼽	-12815
▁보호법	-12816
▁회복세	-12817
▁과반	-12818
▁나스	-12819
테이션	-12820
▁안드로이드	-12821
▁eating	-12822
▁七	-12823
スコ	-12824
▁저조	-12825
▁일본어	-12826
▁盤	-12827
민주	-12828
▁ブラ	-12829
▁괴물	-12830
▁바보	-12831
▁양주	-12832
▁착각	-12833
▁유보	-12834
▁코어	-12835
▁폭락	-12836
▁장거리	-12837
▁scale	-12838
▁療	-12839
▁順	-12840
▁破	-12841
▁찢	-12842
▁전라북도	-12843
65	-12844
▁法人	-12845
▁연고	-12846
▁재킷	-12847
▁선명	-12848
▁일러	-12849
▁훌쩍	-12850
▁refer	-12851
▁reported	-12852
▁싣	-12853
▁강정	-12854
▁변함	-12855
▁상점	-12856
▁송파구	-12857
▁determine	-12858
▁羽	-12859
▁발족	-12860
▁원동	-12861
▁동메달	-12862
▁후보자	-12863
▁relative	-12864
▁DC	-12865
▁넓혀	-12866
▁세율	-12867
▁ℓ	-12868
▁강자	-12869
▁무언가	-12870
▁兼	-12871
▁휴직	-12872
▁Green	-12873
▁超	-12874
▁가져가	-12875
asons	-12876
멘터리	-12877
▁휘발유	-12878
ibrary	-12879
▁行政	-12880
▁종일	-12881
▁법관	-12882
▁난이도	-12883
▁traditional	-12884
▁펑	-12885
▁노트북	-12886
▁재임	-12887
▁괴산	-12888
▁솟	-12889
▁입대	-12890
▁留	-12891
▁삐	-12892
▁은지	-12893
▁강점기	-12894
▁다큐멘터리	-12895
itution	-12896
▁During	-12897
▁difference	-12898
▁rout	-12899
▁男子	-12900
▁번영	-12901
▁조처	-12902
▁출원	-12903
▁못지않	-12904
▁wall	-12905
▁"…	-12906
▁競技	-12907
▁고액	-12908
외과	-12909
▁작사	-12910
▁항체	-12911
▁ゆ	-12912
▁公開	-12913
▁장례식	-12914
▁각광	-12915
▁Hum	-12916
ctions	-12917
rition	-12918
▁강국	-12919
▁천하	-12920
▁Net	-12921
▁결과물	-12922
▁테마파크	-12923
▁behind	-12924
▁生活	-12925
▁정차	-12926
▁LCD	-12927
▁달라졌	-12928
▁벨기에	-12929
▁County	-12930
▁der	-12931
▁Every	-12932
▁간식	-12933
▁충성	-12934
▁좀처럼	-12935
▁월간	-12936
▁무서운	-12937
▁엮	-12938
ウィ	-12939
이치	-12940
▁투약	-12941
▁achieve	-12942
▁枚	-12943
サン	-12944
▁스미	-12945
▁이장	-12946
▁지장	-12947
▁전교조	-12948
▁1300	-12949
rs	-12950
▁精	-12951
かり	-12952
▁自治	-12953
▁당뇨병	-12954
▁디스크	-12955
▁gain	-12956
르기	-12957
▁납세	-12958
▁내신	-12959
▁Inter	-12960
▁루타	-12961
▁우스	-12962
▁타협	-12963
▁탄도	-12964
load	-12965
▁해양수산부	-12966
cil	-12967
itch	-12968
▁불린다	-12969
▁화성시	-12970
▁acid	-12971
▁弾	-12972
▁성당	-12973
ことは	-12974
▁기원전	-12975
▁season	-12976
▁멘토링	-12977
▁multiple	-12978
▁샐	-12979
oke	-12980
▁파기	-12981
▁어떨까	-12982
▁concept	-12983
25	-12984
▁僕	-12985
▁문단	-12986
▁살균	-12987
▁이시	-12988
▁cool	-12989
▁center	-12990
걸이	-12991
▁문항	-12992
▁여수시	-12993
▁공대	-12994
▁돌아갔	-12995
▁특산물	-12996
걸리	-12997
▁당정	-12998
▁서비스업	-12999
▁sugar	-13000
▁speed	-13001
▁유쾌	-13002
▁재즈	-13003
▁오세훈	-13004
▁appropri	-13005
▁퍼시	-13006
RT	-13007
연대	-13008
▁소진	-13009
▁altern	-13010
▁陽	-13011
▁international	-13012
45	-13013
▁가담	-13014
▁각지	-13015
▁딸기	-13016
▁연재	-13017
▁선보여	-13018
▁한눈	-13019
▁타이거	-13020
▁연비	-13021
▁대표단	-13022
▁정전	-13023
▁조업	-13024
▁전투기	-13025
▁generally	-13026
▁성희	-13027
▁당국자	-13028
▁보호자	-13029
▁팔리	-13030
ustr	-13031
▁communities	-13032
레나	-13033
▁155	-13034
▁막걸리	-13035
▁세입자	-13036
▁수영장	-13037
▁호르몬	-13038
▁必要	-13039
▁무안	-13040
▁치우	-13041
▁이용객	-13042
▁크리에	-13043
▁BN	-13044
▁미분	-13045
▁잡히	-13046
▁撮	-13047
▁地名	-13048
▁줄줄	-13049
▁인지도	-13050
▁労	-13051
▁最初	-13052
▁돌보	-13053
▁estim	-13054
지오	-13055
▁자네	-13056
▁Africa	-13057
39	-13058
▁夢	-13059
▁렌즈	-13060
▁잘라	-13061
▁조립	-13062
▁차선	-13063
▁third	-13064
LA	-13065
동원	-13066
▁불출	-13067
▁竹	-13068
▁무섭	-13069
▁수법	-13070
▁학점	-13071
▁KCC	-13072
▁終了	-13073
▁한시	-13074
▁되풀이	-13075
▁Since	-13076
▁performance	-13077
テレビ	-13078
바라	-13079
서리	-13080
▁도매	-13081
▁중산	-13082
ディング	-13083
근무	-13084
▁TO	-13085
▁우산	-13086
ティー	-13087
▁주니어	-13088
▁accept	-13089
ban	-13090
▁航空	-13091
▁리튬	-13092
▁leaders	-13093
▁공관	-13094
▁1600	-13095
▁일찌감치	-13096
ビス	-13097
체스터	-13098
▁계획서	-13099
▁다가가	-13100
▁1953	-13101
▁extra	-13102
na	-13103
▁매개	-13104
▁영하	-13105
▁低	-13106
arr	-13107
▁정년	-13108
▁일수록	-13109
▁발열	-13110
▁종가	-13111
ounts	-13112
▁息	-13113
▁친일	-13114
▁도저히	-13115
▁세이브	-13116
▁振	-13117
미애	-13118
▁반격	-13119
▁인텔	-13120
▁waste	-13121
의사	-13122
▁섬세	-13123
▁시동	-13124
▁왕복	-13125
▁울리	-13126
▁IPO	-13127
▁공청회	-13128
▁document	-13129
▁요약	-13130
▁집행부	-13131
▁March	-13132
▁弘	-13133
▁草	-13134
▁가결	-13135
▁우체	-13136
▁어두운	-13137
isions	-13138
▁Because	-13139
▁郵便	-13140
프리카	-13141
▁Vir	-13142
▁거듭나	-13143
▁관광공사	-13144
▁警察	-13145
내셔널	-13146
▁118	-13147
22	-13148
▁"|	-13149
▁집착	-13150
▁통학	-13151
▁하트	-13152
▁후손	-13153
▁127	-13154
uries	-13155
▁대우건설	-13156
▁인터내셔널	-13157
▁雑	-13158
▁".	-13159
▁CU	-13160
▁맞붙	-13161
▁김연아	-13162
▁뷔	-13163
▁UK	-13164
▁감옥	-13165
▁귀족	-13166
▁Sur	-13167
▁または	-13168
▁다시피	-13169
▁expos	-13170
▁대동	-13171
▁adults	-13172
▁minutes	-13173
▁스캔	-13174
▁정직	-13175
▁Sim	-13176
▁자이언	-13177
슬러	-13178
예산	-13179
▁평판	-13180
▁해라	-13181
▁어워드	-13182
▁game	-13183
▁그만두	-13184
▁내려놓	-13185
ゃん	-13186
▁감탄	-13187
▁교양	-13188
▁압축	-13189
▁어스	-13190
▁이길	-13191
ties	-13192
▁게스트	-13193
▁leading	-13194
まり	-13195
▁실버	-13196
▁BBC	-13197
▁트레이드	-13198
▁멈춰	-13199
ストラ	-13200
▁Hol	-13201
▁기관장	-13202
▁兄	-13203
시험	-13204
▁シャ	-13205
▁국군	-13206
▁날리	-13207
▁다크	-13208
▁대인	-13209
▁완주	-13210
▁최재	-13211
▁토양	-13212
▁デビュー	-13213
네스	-13214
▁수량	-13215
▁침몰	-13216
▁자산운용	-13217
▁enjoy	-13218
ief	-13219
▁공표	-13220
▁개막전	-13221
▁card	-13222
▁내밀	-13223
▁aim	-13224
▁West	-13225
▁球	-13226
▁납입	-13227
▁추이	-13228
oo	-13229
▁어촌	-13230
▁로드맵	-13231
▁minim	-13232
어스	-13233
▁수출입	-13234
▁quite	-13235
▁points	-13236
▁秀	-13237
▁로고	-13238
▁실은	-13239
▁최정	-13240
▁ばれる	-13241
▁born	-13242
▁eyes	-13243
▁fast	-13244
▁expect	-13245
식간	-13246
▁김윤	-13247
▁원안	-13248
▁정문	-13249
▁환호	-13250
내리	-13251
▁연임	-13252
▁Dis	-13253
▁꼼꼼히	-13254
▁EX	-13255
▁Pa	-13256
▁’.	-13257
▁모욕	-13258
▁회사채	-13259
▁난방	-13260
▁늘어	-13261
▁ice	-13262
▁cross	-13263
▁련	-13264
▁145	-13265
▁egg	-13266
RS	-13267
▁규범	-13268
▁이끈	-13269
드라마	-13270
▁브라운	-13271
연맹	-13272
ica	-13273
▁에버	-13274
▁욕설	-13275
▁hands	-13276
▁벡	-13277
▁最後	-13278
▁갱신	-13279
▁결집	-13280
▁경전	-13281
▁전문점	-13282
タル	-13283
날레	-13284
▁>,	-13285
▁フォ	-13286
▁잔치	-13287
▁included	-13288
▁곡선	-13289
▁수감	-13290
▁screen	-13291
▁대왕	-13292
▁재심	-13293
▁회화	-13294
▁퀄	-13295
▁OK	-13296
▁입수	-13297
고사	-13298
▁일당	-13299
▁한파	-13300
▁Cur	-13301
vention	-13302
▁severe	-13303
▁companies	-13304
13	-13305
MA	-13306
부인	-13307
▁늘릴	-13308
▁반란	-13309
▁법학	-13310
▁열람	-13311
▁force	-13312
월드	-13313
▁등극	-13314
▁휩쓸	-13315
▁관련자	-13316
▁front	-13317
しい	-13318
VID	-13319
▁wa	-13320
▁특급	-13321
▁파급	-13322
▁미성년	-13323
▁cold	-13324
▁birth	-13325
빨리	-13326
▁농담	-13327
▁팽팽	-13328
▁부끄러	-13329
▁港	-13330
▁主義	-13331
▁왠지	-13332
lied	-13333
▁아우르	-13334
▁thous	-13335
リオ	-13336
페이	-13337
bor	-13338
▁노원	-13339
▁인과	-13340
▁크라	-13341
▁결의안	-13342
▁준다는	-13343
▁summer	-13344
▁primary	-13345
▁CB	-13346
▁어지	-13347
▁이석	-13348
▁타결	-13349
▁시멘트	-13350
▁아쉬운	-13351
▁정말로	-13352
▁largest	-13353
▁걸림	-13354
▁김인	-13355
▁경기력	-13356
▁아시아나	-13357
▁千葉	-13358
▁존슨	-13359
▁텃밭	-13360
▁디즈니	-13361
▁숙제	-13362
▁스윙	-13363
どう	-13364
▁Bi	-13365
▁구해	-13366
▁작물	-13367
▁받아들일	-13368
▁아시아나항공	-13369
dom	-13370
▁절대로	-13371
▁결함	-13372
▁단정	-13373
▁veh	-13374
▁nation	-13375
▁器	-13376
oup	-13377
▁Mc	-13378
▁families	-13379
▁연중	-13380
▁온몸	-13381
▁유한	-13382
▁혈압	-13383
▁1946	-13384
▁아닙니까	-13385
yd	-13386
▁Oct	-13387
▁이스트	-13388
▁사이언스	-13389
oe	-13390
▁結婚	-13391
▁김남	-13392
▁브루	-13393
▁퇴출	-13394
rew	-13395
▁물결	-13396
▁장교	-13397
▁gir	-13398
▁하도급	-13399
erson	-13400
▁progress	-13401
▁替	-13402
▁角	-13403
▁숨졌	-13404
▁후유	-13405
▁William	-13406
▁껍	-13407
ディア	-13408
▁맥스	-13409
▁우연	-13410
▁이색	-13411
▁행운	-13412
▁Water	-13413
▁contains	-13414
▁기어	-13415
▁뜨거	-13416
▁유류	-13417
▁사용량	-13418
▁입니까	-13419
▁』(	-13420
▁계룡	-13421
▁김창	-13422
▁발음	-13423
▁부결	-13424
▁심포	-13425
▁줄였	-13426
▁둬	-13427
싸움	-13428
▁메이커	-13429
▁2026	-13430
니즘	-13431
▁けて	-13432
▁아미	-13433
される	-13434
▁아닌지	-13435
▁각계	-13436
▁생선	-13437
▁한방	-13438
▁har	-13439
▁돌아갈	-13440
▁サー	-13441
▁집중력	-13442
ama	-13443
▁大正	-13444
▁순회	-13445
▁오락	-13446
▁을수록	-13447
ologies	-13448
▁도래	-13449
▁1400	-13450
▁1957	-13451
▁‧	-13452
▁보답	-13453
▁익산	-13454
▁임하	-13455
▁speak	-13456
▁沿革	-13457
▁고래	-13458
▁불명	-13459
▁한결	-13460
cies	-13461
청사	-13462
▁。「	-13463
▁ラン	-13464
▁강북	-13465
▁조카	-13466
▁und	-13467
▁라이벌	-13468
▁철도역	-13469
▁financial	-13470
GC	-13471
▁개막식	-13472
▁殺	-13473
티아	-13474
▁개량	-13475
▁미생	-13476
라비아	-13477
▁habit	-13478
▁Commun	-13479
▁採	-13480
マー	-13481
▁유선	-13482
▁independ	-13483
ara	-13484
▁Op	-13485
▁주춤	-13486
▁주파	-13487
▁출처	-13488
▁트윈	-13489
edia	-13490
실험	-13491
▁퍼시픽	-13492
▁낭만	-13493
▁소명	-13494
▁으러	-13495
▁일어	-13496
▁출고	-13497
▁표했	-13498
▁쑥	-13499
▁ON	-13500
▁법상	-13501
▁부친	-13502
▁그래야	-13503
▁순식간	-13504
▁象	-13505
プリ	-13506
▁결선	-13507
▁신조	-13508
▁어긋	-13509
ドラマ	-13510
▁생태계	-13511
▁신사업	-13512
▁올스타	-13513
▁정형	-13514
▁クラブ	-13515
▁beaut	-13516
▁본관	-13517
▁본점	-13518
▁예쁜	-13519
▁종업	-13520
▁題	-13521
▁핀란드	-13522
조사	-13523
ided	-13524
▁Apr	-13525
추어	-13526
▁식민지	-13527
▁보름	-13528
▁핵무기	-13529
▁leaves	-13530
▁동명	-13531
▁에드	-13532
▁져야	-13533
▁찬반	-13534
▁태안	-13535
▁PGA	-13536
▁모터스	-13537
▁block	-13538
▁詳	-13539
업자	-13540
▁각기	-13541
▁요법	-13542
▁적성	-13543
▁昇	-13544
▁이마	-13545
▁지성	-13546
▁FDA	-13547
▁weeks	-13548
▁입금	-13549
▁介	-13550
▁미미	-13551
▁박경	-13552
▁폭우	-13553
▁내려오	-13554
▁시카고	-13555
▁base	-13556
▁이해관계	-13557
▁開業	-13558
▁경쟁사	-13559
▁teacher	-13560
테일	-13561
hold	-13562
▁Spec	-13563
▁rock	-13564
▁処	-13565
▁켈	-13566
▁예년	-13567
▁저서	-13568
▁임차인	-13569
▁명예훼손	-13570
▁additional	-13571
▁辞	-13572
ror	-13573
▁기생	-13574
▁옮겼	-13575
▁사우디아	-13576
ashing	-13577
오카	-13578
▁쌓여	-13579
▁양파	-13580
▁우상	-13581
▁종결	-13582
▁Canada	-13583
▁highly	-13584
▁가죽	-13585
▁겹치	-13586
▁직선	-13587
▁예술인	-13588
▁evalu	-13589
▁성희롱	-13590
▁신청자	-13591
▁breat	-13592
▁김하	-13593
▁스타일링	-13594
elt	-13595
▁던진	-13596
▁도마	-13597
▁어음	-13598
▁yourself	-13599
▁바쁘	-13600
▁fav	-13601
▁reflect	-13602
▁매번	-13603
▁모리	-13604
▁튼튼	-13605
olec	-13606
▁입성	-13607
▁초콜	-13608
▁tend	-13609
▁계양	-13610
▁다름없	-13611
▁다이아	-13612
eding	-13613
▁끔	-13614
▁카라	-13615
▁회상	-13616
▁모티브	-13617
▁버린다	-13618
▁nearly	-13619
▁내실	-13620
▁선동	-13621
▁지킬	-13622
idents	-13623
▁벚	-13624
▁ウェ	-13625
▁취할	-13626
▁지켜야	-13627
▁하나하나	-13628
━━	-13629
cks	-13630
ero	-13631
▁도정	-13632
▁양대	-13633
▁차분	-13634
▁가져오	-13635
oul	-13636
▁決定	-13637
▁견디	-13638
▁국지	-13639
▁1952	-13640
ension	-13641
▁줄곧	-13642
▁지문	-13643
▁끌어들	-13644
▁Journal	-13645
▁혀	-13646
▁도장	-13647
▁막상	-13648
▁보리	-13649
▁화순	-13650
▁Get	-13651
▁cred	-13652
▁bacteria	-13653
▁政府	-13654
▁사회관	-13655
▁LPGA	-13656
▁Love	-13657
루미	-13658
▁반지	-13659
▁소설가	-13660
▁negative	-13661
MS	-13662
▁これは	-13663
▁마인드	-13664
▁챗	-13665
▁미달	-13666
크리트	-13667
▁アジア	-13668
itude	-13669
▁삼각	-13670
▁이라도	-13671
▁사우디아라비아	-13672
엑스	-13673
▁나폴	-13674
▁송영	-13675
▁Once	-13676
▁インター	-13677
▁엔지니어링	-13678
베르	-13679
ech	-13680
▁나눌	-13681
▁도리	-13682
▁희귀	-13683
▁식구	-13684
▁포천	-13685
▁환기	-13686
iter	-13687
▁African	-13688
▁가세	-13689
▁곤충	-13690
▁석방	-13691
▁이관	-13692
▁출현	-13693
haps	-13694
▁여행객	-13695
ulated	-13696
▁consist	-13697
균관	-13698
▁CH	-13699
▁新聞	-13700
▁걸림돌	-13701
▁데이비드	-13702
ㅋㅋㅋㅋㅋㅋㅋㅋ	-13703
▁PF	-13704
▁TS	-13705
▁어렸	-13706
▁투여	-13707
▁특사	-13708
▁mom	-13709
▁감소세	-13710
▁soon	-13711
▁Americans	-13712
신문	-13713
▁protein	-13714
▁강전	-13715
▁세리	-13716
▁원서	-13717
▁교도소	-13718
▁고분	-13719
▁김한	-13720
▁아크	-13721
▁김해시	-13722
▁背	-13723
시경	-13724
▁개개	-13725
▁소신	-13726
스크림	-13727
iciency	-13728
▁Up	-13729
▁침략	-13730
▁BTS	-13731
▁케이크	-13732
▁털어놨	-13733
▁Then	-13734
▁French	-13735
▁NO	-13736
▁sn	-13737
▁きな	-13738
▁부원	-13739
▁포용	-13740
ニング	-13741
모비스	-13742
▁릴레이	-13743
▁exact	-13744
징어	-13745
▁황당	-13746
▁구조물	-13747
▁성균관	-13748
ンダ	-13749
▁자산관리	-13750
▁권장	-13751
▁납득	-13752
▁대성	-13753
▁약하	-13754
▁부적절	-13755
▁investig	-13756
▁fa	-13757
▁지우	-13758
▁になった	-13759
▁안쪽	-13760
▁티셔츠	-13761
▁https	-13762
▁현대모비스	-13763
),	-13764
▁소니	-13765
▁콘크리트	-13766
▁，	-13767
▁계망	-13768
▁옥상	-13769
▁아마추어	-13770
▁탈모	-13771
지노	-13772
▁악용	-13773
▁으셨	-13774
▁기르	-13775
▁외상	-13776
▁향수	-13777
▁관문	-13778
▁분별	-13779
▁celebr	-13780
▁express	-13781
▁넥슨	-13782
▁세션	-13783
▁포켓	-13784
▁文庫	-13785
▁기둥	-13786
▁활발히	-13787
▁후퇴	-13788
▁かつて	-13789
▁hope	-13790
▁충청남도	-13791
▁ね	-13792
▁徴	-13793
▁'.	-13794
▁工業	-13795
▁보태	-13796
▁세균	-13797
▁자정	-13798
▁퇴진	-13799
▁integr	-13800
▁"'	-13801
▁방산	-13802
▁効	-13803
▁自然	-13804
▁경부	-13805
▁우량	-13806
▁익스	-13807
▁언덕	-13808
▁display	-13809
▁Environment	-13810
▁파문	-13811
▁タイトル	-13812
▁custom	-13813
▁彦	-13814
▁발걸음	-13815
▁그까	-13816
▁다자	-13817
▁접전	-13818
▁천장	-13819
▁헤이	-13820
シャル	-13821
▁제의	-13822
▁주공	-13823
▁respect	-13824
▁compared	-13825
▁첼시	-13826
▁ful	-13827
▁mix	-13828
▁후보지	-13829
▁supply	-13830
48	-13831
▁부수	-13832
▁박지성	-13833
▁town	-13834
▁지체	-13835
▁하버	-13836
ached	-13837
▁동아일보	-13838
▁능동	-13839
▁덧붙	-13840
▁영문	-13841
▁theory	-13842
▁bul	-13843
▁소식통	-13844
▁정보원	-13845
▁Russ	-13846
▁Today	-13847
▁larger	-13848
▁friends	-13849
クセ	-13850
▁동굴	-13851
▁영재	-13852
▁스퀘어	-13853
▁한다며	-13854
undred	-13855
ザー	-13856
ING	-13857
▁Indian	-13858
▁directly	-13859
ula	-13860
▁점프	-13861
▁관리법	-13862
▁격상	-13863
▁박태	-13864
▁안무	-13865
▁종자	-13866
▁스트리	-13867
▁노르웨이	-13868
▁맨체스터	-13869
▁Under	-13870
▁digital	-13871
▁무겁	-13872
▁현명	-13873
かけて	-13874
▁運動	-13875
▁기득	-13876
▁레알	-13877
▁레오	-13878
▁좌파	-13879
▁useful	-13880
▁머릿	-13881
▁부른	-13882
▁수제	-13883
▁승차	-13884
▁내정자	-13885
▁수자원	-13886
▁tests	-13887
▁아이스크림	-13888
▁囲	-13889
▁중진	-13890
yond	-13891
▁Life	-13892
▁ー	-13893
▁示	-13894
▁배틀	-13895
ートル	-13896
hens	-13897
▁230	-13898
▁오른다	-13899
▁bott	-13900
▁reve	-13901
▁경진	-13902
▁공구	-13903
▁지각	-13904
▁치렀	-13905
▁필지	-13906
▁got	-13907
▁국무부	-13908
▁crop	-13909
▁오만	-13910
▁휴업	-13911
▁스태프	-13912
▁goal	-13913
▁accur	-13914
▁무실	-13915
▁케미	-13916
▁Gra	-13917
▁Book	-13918
▁transport	-13919
▁質	-13920
▁しく	-13921
▁매칭	-13922
▁캄보	-13923
▁선대위	-13924
▁attem	-13925
▁devices	-13926
▁상설	-13927
▁이별	-13928
▁차입	-13929
▁테라	-13930
▁주식회사	-13931
▁SF	-13932
▁남대	-13933
キング	-13934
▁종업원	-13935
▁말리	-13936
▁rob	-13937
▁야구장	-13938
istry	-13939
▁policy	-13940
**	-13941
▁사이드	-13942
▁통신부	-13943
▁핵실험	-13944
▁nucle	-13945
▁ㄴ	-13946
진구	-13947
▁레전	-13948
▁정자	-13949
▁122	-13950
▁mount	-13951
▁friend	-13952
EF	-13953
▁Program	-13954
▁Project	-13955
▁仏	-13956
▁スー	-13957
▁숨기	-13958
▁파손	-13959
▁헝가리	-13960
cell	-13961
▁aud	-13962
▁commit	-13963
ながら	-13964
fort	-13965
▁스코어	-13966
▁노스	-13967
▁미주	-13968
▁リリース	-13969
▁拠	-13970
▁quant	-13971
러드	-13972
비치	-13973
▁단기간	-13974
--------	-13975
▁고쳐	-13976
▁법규	-13977
▁사임	-13978
▁잔디	-13979
▁ball	-13980
▁creating	-13981
곡동	-13982
하이	-13983
▁역점	-13984
▁연산	-13985
▁오타	-13986
▁August	-13987
▁과기	-13988
▁김학	-13989
▁옹호	-13990
▁드립니다	-13991
▁死去	-13992
▁초고	-13993
▁Air	-13994
ondon	-13995
▁紹	-13996
▁누워	-13997
▁줍	-13998
back	-13999
▁나간다	-14000
▁베이비	-14001
▁보상금	-14002
▁rich	-14003
▁너스	-14004
▁table	-14005
▁취한	-14006
▁pet	-14007
▁방송인	-14008
▁초콜릿	-14009
▁River	-14010
▁複	-14011
▁SE	-14012
iece	-14013
▁방사선	-14014
▁techniques	-14015
▁찜	-14016
바꿈	-14017
▁Also	-14018
▁aspect	-14019
▁features	-14020
▁쭉	-14021
▁海軍	-14022
▁글씨	-14023
▁남미	-14024
▁심층	-14025
▁조망	-14026
▁직속	-14027
inary	-14028
▁365	-14029
▁스테이트	-14030
이팅	-14031
▁마찰	-14032
▁비춰	-14033
▁저해	-14034
킨다	-14035
▁기저	-14036
▁키웠	-14037
▁116	-14038
▁俳	-14039
세이	-14040
프리	-14041
▁마진	-14042
▁지갑	-14043
▁마음껏	-14044
▁바로잡	-14045
수수	-14046
▁교보	-14047
▁아홉	-14048
▁168	-14049
▁시니어	-14050
▁자외선	-14051
▁rare	-14052
▁주당	-14053
▁타깃	-14054
▁대리인	-14055
▁ones	-14056
▁自身	-14057
vant	-14058
▁바이올	-14059
▁전한다	-14060
▁중소형	-14061
▁塚	-14062
▁강소	-14063
▁대접	-14064
▁천주	-14065
▁빌보드	-14066
▁Wind	-14067
▁clin	-14068
▁문턱	-14069
rees	-14070
▁대유행	-14071
▁impl	-14072
▁software	-14073
▁공룡	-14074
▁안겨	-14075
▁전두	-14076
▁품격	-14077
▁대책위	-14078
▁쳐다보	-14079
▁broad	-14080
▁한복	-14081
▁경로당	-14082
▁피우	-14083
▁항로	-14084
▁집무실	-14085
▁track	-14086
▁immedi	-14087
▁install	-14088
▁伯	-14089
▁반찬	-14090
▁주점	-14091
▁공격력	-14092
atur	-14093
▁ancient	-14094
▁Mark	-14095
▁제네시스	-14096
▁거품	-14097
▁발부	-14098
▁발상	-14099
▁원로	-14100
▁할수록	-14101
▁稲	-14102
▁향했	-14103
where	-14104
▁캄보디아	-14105
▁九州	-14106
▁가드	-14107
▁해리	-14108
▁baby	-14109
▁디아	-14110
▁이겼	-14111
▁device	-14112
▁↑	-14113
▁遊	-14114
▁달서	-14115
▁일련	-14116
▁안착	-14117
▁외관	-14118
▁pregn	-14119
ribution	-14120
▁독감	-14121
▁익명	-14122
▁전대	-14123
pper	-14124
▁레전드	-14125
▁표출	-14126
▁들어올	-14127
▁concent	-14128
▁금고	-14129
▁시어	-14130
▁이선	-14131
▁호우	-14132
▁힙합	-14133
▁원한다	-14134
AL	-14135
▁宅	-14136
▁険	-14137
▁교복	-14138
▁부풀	-14139
▁양평	-14140
▁전복	-14141
▁코믹	-14142
▁특권	-14143
▁ang	-14144
▁고령자	-14145
▁length	-14146
cri	-14147
▁だけ	-14148
▁피곤	-14149
▁1941	-14150
▁띈	-14151
▁그해	-14152
▁사생활	-14153
co	-14154
▁뛴	-14155
ルー	-14156
▁自由	-14157
▁포크	-14158
▁갑작스	-14159
▁June	-14160
▁Phil	-14161
▁fight	-14162
▁존엄	-14163
▁페널	-14164
▁한인	-14165
vest	-14166
▁cra	-14167
▁성매매	-14168
▁순천시	-14169
▁차가운	-14170
▁weather	-14171
▁남원	-14172
▁실수요	-14173
▁fuel	-14174
▁阿	-14175
▁가늠	-14176
▁미네	-14177
▁민자	-14178
▁박지원	-14179
▁colspan	-14180
▁나흘	-14181
▁돌렸	-14182
▁화이자	-14183
osing	-14184
와이	-14185
▁부유	-14186
▁추신	-14187
▁모스크	-14188
▁대법원장	-14189
▁이만	-14190
▁標	-14191
사업	-14192
▁アナ	-14193
▁바디	-14194
▁210	-14195
▁swe	-14196
▁탈바꿈	-14197
▁planet	-14198
▁testing	-14199
▁protection	-14200
▁'…	-14201
▁맡겨	-14202
▁승소	-14203
▁이쪽	-14204
▁1944	-14205
▁London	-14206
▁고치	-14207
▁담임	-14208
▁미수	-14209
▁조원	-14210
▁여행사	-14211
▁추미애	-14212
orders	-14213
노총	-14214
▁완도	-14215
▁장갑	-14216
丁目	-14217
▁대략	-14218
▁여덟	-14219
▁cook	-14220
▁held	-14221
▁Children	-14222
▁정경	-14223
▁1951	-14224
▁記事	-14225
▁간직	-14226
▁구인	-14227
▁애요	-14228
▁려던	-14229
▁성원	-14230
▁재수	-14231
▁境	-14232
▁과자	-14233
▁학살	-14234
unch	-14235
▁증명서	-14236
▁刊	-14237
イズ	-14238
▁화살	-14239
▁MLB	-14240
▁hor	-14241
▁기다렸	-14242
▁금전	-14243
▁낙관	-14244
▁라기	-14245
▁며느리	-14246
▁ステ	-14247
▁노릇	-14248
▁부두	-14249
▁엄청나	-14250
▁찾아온	-14251
▁rain	-14252
▁뱃	-14253
▁정조	-14254
▁지질	-14255
iers	-14256
42	-14257
▁host	-14258
▁diabetes	-14259
▁군주	-14260
▁117	-14261
▁저수지	-14262
▁decre	-14263
▁세라	-14264
▁memory	-14265
▁病院	-14266
▁다닐	-14267
▁줘서	-14268
▁랜드마크	-14269
▁연료전지	-14270
▁女優	-14271
▁시연	-14272
▁ライブ	-14273
▁しており	-14274
▁reach	-14275
극장	-14276
로우	-14277
▁몰렸	-14278
▁열쇠	-14279
▁전례	-14280
▁영원히	-14281
ively	-14282
そう	-14283
▁우린	-14284
▁합치	-14285
pite	-14286
▁김종인	-14287
▁지리산	-14288
▁からは	-14289
▁마포구	-14290
▁미분양	-14291
▁date	-14292
▁푹	-14293
▁影響	-14294
▁대명	-14295
▁반장	-14296
▁외무	-14297
▁탐지	-14298
▁합당	-14299
hest	-14300
▁OTT	-14301
▁July	-14302
HD	-14303
▁라운	-14304
▁무궁	-14305
▁제천	-14306
▁카테	-14307
▁fit	-14308
그라	-14309
▁kn	-14310
▁오이	-14311
uary	-14312
▁천사	-14313
특별	-14314
▁넉넉	-14315
▁리츠	-14316
▁검사장	-14317
キャ	-14318
현동	-14319
▁指導	-14320
▁넘긴	-14321
▁대내	-14322
▁독보	-14323
▁줄어드	-14324
▁華	-14325
금자리	-14326
▁Ant	-14327
▁오징어	-14328
▁projects	-14329
란시	-14330
투스	-14331
ッシュ	-14332
▁교차로	-14333
▁기뻐	-14334
▁물음	-14335
ords	-14336
▁상수도	-14337
ellig	-14338
▁가꾸	-14339
▁div	-14340
▁유가증권	-14341
▁阜	-14342
화물	-14343
▁TK	-14344
▁급변	-14345
▁내세워	-14346
▁喜	-14347
▁총기	-14348
▁오리온	-14349
▁클린턴	-14350
▁보금자리	-14351
▁contribut	-14352
▁분자	-14353
라이트	-14354
▁경영학	-14355
거렸	-14356
▁버릴	-14357
▁고구려	-14358
란시스코	-14359
izations	-14360
▁욱	-14361
▁규격	-14362
▁퍼져	-14363
▁lost	-14364
▁배임	-14365
lier	-14366
▁고품질	-14367
▁demonstr	-14368
▁대두	-14369
▁영암	-14370
▁Sept	-14371
▁insp	-14372
▁alcohol	-14373
트랙	-14374
▁방면	-14375
▁sus	-14376
▁mill	-14377
▁towards	-14378
▁applications	-14379
▁源	-14380
▁끝날	-14381
▁GTX	-14382
▁보행자	-14383
▁알렉산	-14384
▁텍스트	-14385
▁브레이크	-14386
루엔	-14387
▁농단	-14388
▁단다	-14389
▁신지	-14390
▁신천지	-14391
▁Each	-14392
▁located	-14393
ッパ	-14394
iki	-14395
▁박인	-14396
▁웬만	-14397
▁커진	-14398
ネット	-14399
▁row	-14400
▁가리키	-14401
49	-14402
omp	-14403
▁키울	-14404
▁태백	-14405
▁줄줄이	-14406
▁沖	-14407
▁가칭	-14408
▁세로	-14409
▁웨딩	-14410
▁177	-14411
▁들어설	-14412
▁성경	-14413
▁야드	-14414
▁영예	-14415
▁창설	-14416
▁안타까운	-14417
▁㎢	-14418
▁April	-14419
▁고난	-14420
iber	-14421
▁158	-14422
▁unc	-14423
odies	-14424
▁트레이닝	-14425
▁負	-14426
ira	-14427
▁部分	-14428
▁헤지	-14429
▁오지	-14430
▁전차	-14431
▁틀림	-14432
▁펼친	-14433
▁ult	-14434
▁중국어	-14435
▁회의장	-14436
▁went	-14437
▁본능	-14438
▁승자	-14439
▁시야	-14440
▁유격	-14441
▁San	-14442
▁면밀히	-14443
TC	-14444
ields	-14445
▁할리우드	-14446
62	-14447
생산	-14448
▁としては	-14449
▁purpose	-14450
学校	-14451
▁OC	-14452
▁배움	-14453
▁양부	-14454
▁eth	-14455
▁때려	-14456
▁메카	-14457
▁경쟁자	-14458
▁상관없이	-14459
▁birds	-14460
▁civil	-14461
두리	-14462
▁beginning	-14463
▁communication	-14464
▁至	-14465
대교	-14466
▁방사능	-14467
▁추신수	-14468
▁capt	-14469
▁栄	-14470
▁겐	-14471
▁TP	-14472
▁cam	-14473
▁금강산	-14474
▁places	-14475
▁取得	-14476
▁기인	-14477
▁기용	-14478
▁code	-14479
▁central	-14480
잖아	-14481
▁동창	-14482
▁안전망	-14483
▁Plan	-14484
▁typically	-14485
▁정재	-14486
▁일으켜	-14487
▁stri	-14488
▁carry	-14489
도어	-14490
자유	-14491
▁AN	-14492
▁군데	-14493
▁appropriate	-14494
▁刑	-14495
▁배부	-14496
▁상륙	-14497
▁유정	-14498
▁비주얼	-14499
▁드린	-14500
▁렀다	-14501
▁생활비	-14502
▁김원	-14503
▁혼잡	-14504
▁162	-14505
▁기업가	-14506
▁Public	-14507
▁IR	-14508
▁치밀	-14509
▁stra	-14510
▁배드	-14511
▁속출	-14512
orthern	-14513
99	-14514
▁꿰	-14515
ルフ	-14516
▁노화	-14517
▁pan	-14518
▁게임즈	-14519
▁로버트	-14520
▁잼	-14521
사이	-14522
▁나비	-14523
▁되돌아	-14524
▁surr	-14525
lation	-14526
▁불복	-14527
▁전단	-14528
ogle	-14529
▁기체	-14530
▁전승	-14531
▁케인	-14532
rogen	-14533
▁서귀	-14534
▁털어놓	-14535
▁오토바이	-14536
ipment	-14537
uth	-14538
▁간섭	-14539
▁복제	-14540
▁순방	-14541
▁section	-14542
▁닌	-14543
▁경산	-14544
▁prior	-14545
▁얹	-14546
mosp	-14547
▁2050	-14548
티스	-14549
▁PP	-14550
▁수다	-14551
기술센터	-14552
▁German	-14553
▁everything	-14554
▁셰프	-14555
▁머스크	-14556
▁수요일	-14557
▁spir	-14558
▁覚	-14559
▁難	-14560
mar	-14561
▁누락	-14562
▁정몽	-14563
▁카지노	-14564
신저	-14565
▁남매	-14566
▁라임	-14567
▁실형	-14568
▁전념	-14569
▁초보	-14570
▁엘리트	-14571
▁proced	-14572
▁everyone	-14573
▁currently	-14574
기계	-14575
▁남산	-14576
▁도루	-14577
▁접한	-14578
▁solution	-14579
스테	-14580
토록	-14581
▁성주	-14582
▁셀프	-14583
▁recommend	-14584
▁옐	-14585
▁Ob	-14586
▁적혀	-14587
▁성범죄	-14588
▁여학생	-14589
▁이대로	-14590
▁농업기술센터	-14591
ux	-14592
▁わり	-14593
▁굶	-14594
パン	-14595
사태	-14596
▁나토	-14597
▁노숙	-14598
▁조연	-14599
▁폭풍	-14600
▁hundred	-14601
노스	-14602
▁국수	-14603
▁비단	-14604
▁세단	-14605
▁연평	-14606
▁330	-14607
▁김무성	-14608
▁연구회	-14609
▁이나마	-14610
▁Society	-14611
▁PO	-14612
▁반문	-14613
▁차등	-14614
▁가라앉	-14615
▁스테이지	-14616
어졌	-14617
티지	-14618
▁봐서	-14619
sect	-14620
▁NFT	-14621
▁장난감	-14622
커녕	-14623
▁마술	-14624
▁그리스도	-14625
▁반갑	-14626
▁의왕	-14627
▁첨가	-14628
▁피력	-14629
▁아모	-14630
▁클릭	-14631
▁전염병	-14632
▁삼성그룹	-14633
▁instru	-14634
▁순조	-14635
ford	-14636
▁임박	-14637
▁OST	-14638
▁㏊	-14639
▁宣	-14640
▁내세웠	-14641
▁候	-14642
bur	-14643
▁요령	-14644
▁코칭	-14645
▁Mich	-14646
▁choose	-14647
▁박준	-14648
▁자생	-14649
▁제발	-14650
▁서귀포	-14651
▁room	-14652
▁幼	-14653
▁格	-14654
▁경주시	-14655
▁older	-14656
▁established	-14657
▁opportunity	-14658
난히	-14659
▁니즈	-14660
enge	-14661
▁운영비	-14662
▁told	-14663
▁elements	-14664
▁埼	-14665
웍스	-14666
▁선비	-14667
▁이철	-14668
▁정정	-14669
▁security	-14670
▁走	-14671
▁드러낸	-14672
▁dead	-14673
▁COVID	-14674
▁BB	-14675
▁염색	-14676
▁지청	-14677
cles	-14678
▁watch	-14679
▁익히	-14680
▁토종	-14681
▁상거래	-14682
▁통신망	-14683
▁connect	-14684
▁although	-14685
타임	-14686
▁isn	-14687
▁컨퍼런스	-14688
▁symbol	-14689
상부	-14690
rick	-14691
▁사무국	-14692
▁導	-14693
▁부산대	-14694
▁조선소	-14695
apter	-14696
▁朴	-14697
▁심야	-14698
▁출품	-14699
▁탁구	-14700
▁풍요	-14701
▁슬라이	-14702
▁requires	-14703
▁capac	-14704
▁efforts	-14705
▁professional	-14706
▁駐	-14707
らい	-14708
▁신나	-14709
▁1100	-14710
커스	-14711
▁다방	-14712
▁침투	-14713
▁김일성	-14714
▁찾아와	-14715
▁酸	-14716
▁決勝	-14717
▁문인	-14718
▁주상	-14719
▁클로	-14720
ゲーム	-14721
▁blue	-14722
▁Oh	-14723
▁밀도	-14724
▁111	-14725
aught	-14726
▁最高	-14727
▁끝났	-14728
ouch	-14729
▁공통점	-14730
▁동반자	-14731
▁생산자	-14732
▁winter	-14733
▁劇場	-14734
▁同時	-14735
▁목재	-14736
▁입상	-14737
▁situation	-14738
▁現代	-14739
▁뒤따	-14740
▁전광	-14741
하여	-14742
▁製造	-14743
▁구직	-14744
▁부제	-14745
▁씨앗	-14746
▁제사	-14747
▁튜버	-14748
▁Internet	-14749
リエ	-14750
포터	-14751
uff	-14752
▁공법	-14753
▁복권	-14754
cial	-14755
▁costs	-14756
outhern	-14757
▁importance	-14758
▁김도	-14759
▁우체국	-14760
▁지나친	-14761
▁3500	-14762
▁㎡,	-14763
▁멸종	-14764
▁시크	-14765
▁직격	-14766
▁정세균	-14767
▁문화재청	-14768
▁素	-14769
▁돌풍	-14770
▁자질	-14771
▁파인	-14772
▁WSJ	-14773
64	-14774
▁거액	-14775
▁신영	-14776
▁Rel	-14777
▁후유증	-14778
▁recently	-14779
▁길거리	-14780
▁affected	-14781
▁본회	-14782
▁ten	-14783
▁트로피	-14784
▁雲	-14785
▁달라질	-14786
▁불거진	-14787
▁behavi	-14788
▁remains	-14789
67	-14790
▁개미	-14791
▁달래	-14792
▁서사	-14793
▁일조	-14794
▁lines	-14795
▁깡	-14796
▁황교	-14797
▁개개인	-14798
▁상상력	-14799
▁총생산	-14800
▁퍼스트	-14801
▁autom	-14802
▁Ⅱ	-14803
▁백인	-14804
▁적힌	-14805
스트리트	-14806
▁퀘	-14807
▁수돗	-14808
▁억압	-14809
▁사도	-14810
▁소관	-14811
▁청량	-14812
▁Out	-14813
▁Ste	-14814
▁트리플	-14815
GB	-14816
▁SA	-14817
▁딥	-14818
▁셔야	-14819
▁정복	-14820
▁피크	-14821
▁Pat	-14822
▁발표회	-14823
▁sold	-14824
▁purch	-14825
▁월스트리트	-14826
▁奥	-14827
퍼드	-14828
▁넘나	-14829
▁일회	-14830
▁유기농	-14831
▁math	-14832
▁benefit	-14833
▁귀신	-14834
▁부응	-14835
come	-14836
▁STX	-14837
▁酒	-14838
▁후지	-14839
▁血	-14840
ミュ	-14841
도르	-14842
▁간소	-14843
▁끔찍	-14844
▁내과	-14845
▁벚꽃	-14846
▁양형	-14847
▁절도	-14848
▁주머니	-14849
▁SD	-14850
▁고충	-14851
▁본연	-14852
▁새우	-14853
iful	-14854
▁공사비	-14855
▁Time	-14856
▁stru	-14857
셔리	-14858
▁김두	-14859
▁else	-14860
▁~~	-14861
▁손길	-14862
▁의의	-14863
▁hol	-14864
▁執	-14865
osa	-14866
▁뜻깊	-14867
▁백두	-14868
▁내비쳤	-14869
▁럭셔리	-14870
느님	-14871
▁이어서	-14872
▁최상위	-14873
▁deal	-14874
▁Class	-14875
▁miles	-14876
▁shape	-14877
▁康	-14878
ham	-14879
▁악영향	-14880
▁안보리	-14881
ことから	-14882
▁efficient	-14883
▁④	-14884
▁割	-14885
벌이	-14886
타리	-14887
▁KS	-14888
▁紹介	-14889
▁영덕	-14890
▁UC	-14891
▁구비	-14892
▁김유	-14893
▁으세요	-14894
▁치른다	-14895
▁잣	-14896
▁アイ	-14897
▁매직	-14898
▁분수	-14899
▁할당	-14900
루엔자	-14901
▁잠수함	-14902
69	-14903
년층	-14904
▁무작	-14905
head	-14906
▁Typ	-14907
▁거주자	-14908
▁모은다	-14909
▁인플루엔자	-14910
68	-14911
은색	-14912
일드	-14913
▁김세	-14914
▁꼽혔	-14915
▁돌연	-14916
▁신진	-14917
▁잔류	-14918
▁컨셉	-14919
베이스	-14920
tery	-14921
▁CA	-14922
▁교량	-14923
▁국왕	-14924
▁권영	-14925
▁농작	-14926
▁담합	-14927
▁루트	-14928
▁상단	-14929
▁이강인	-14930
▁examples	-14931
んだ	-14932
팩트	-14933
▁ヴァ	-14934
▁거둘	-14935
▁정제	-14936
▁132	-14937
▁fra	-14938
▁fram	-14939
▁抜	-14940
▁거실	-14941
▁재가	-14942
▁토너	-14943
▁Food	-14944
▁다투	-14945
▁마구	-14946
iant	-14947
▁티저	-14948
ザイン	-14949
iles	-14950
▁특별시	-14951
▁drugs	-14952
▁プロデュー	-14953
▁방제	-14954
▁멤버십	-14955
▁sites	-14956
oma	-14957
▁사죄	-14958
▁촉발	-14959
▁당첨자	-14960
▁becomes	-14961
나타	-14962
▁수월	-14963
▁싱어	-14964
▁은가	-14965
▁찬스	-14966
▁체코	-14967
▁개그맨	-14968
▁魔	-14969
のが	-14970
보기	-14971
▁교내	-14972
▁수돗물	-14973
▁주거지	-14974
▁MP	-14975
▁SOC	-14976
▁cultural	-14977
▁discovered	-14978
▁節	-14979
ほか	-14980
▁계파	-14981
▁유희	-14982
▁연주자	-14983
▁152	-14984
▁고위험	-14985
▁미생물	-14986
▁Found	-14987
일러	-14988
▁내포	-14989
▁성황	-14990
▁270	-14991
▁communic	-14992
▁NP	-14993
▁교훈	-14994
▁박민	-14995
▁추상	-14996
▁사라져	-14997
▁controll	-14998
▁뺏	-14999
▁Di	-15000
▁보살	-15001
▁아바	-15002
▁thus	-15003
방송	-15004
▁다목	-15005
▁모호	-15006
▁센스	-15007
▁하차	-15008
▁まれた	-15009
▁economy	-15010
▁Students	-15011
▁commonly	-15012
▁부속	-15013
▁영유	-15014
▁조영	-15015
▁센트럴	-15016
▁니다	-15017
▁집필	-15018
inct	-15019
estic	-15020
▁Arch	-15021
▁이루어지	-15022
▁surround	-15023
▁探	-15024
▁명동	-15025
▁질타	-15026
▁마음속	-15027
▁private	-15028
▁시뮬	-15029
▁Dig	-15030
▁返	-15031
▁관은	-15032
▁광물	-15033
▁만세	-15034
▁임종	-15035
▁수익금	-15036
▁stage	-15037
▁application	-15038
▁並	-15039
▁mo	-15040
▁던가	-15041
▁해수부	-15042
itect	-15043
▁1939	-15044
▁密	-15045
▁암살	-15046
life	-15047
▁머릿속	-15048
▁승무원	-15049
▁전두환	-15050
▁주어지	-15051
▁리바운드	-15052
▁박형	-15053
▁이바지	-15054
▁fruit	-15055
▁따돌	-15056
▁바뀔	-15057
▁선호도	-15058
▁휴게소	-15059
▁徒	-15060
란트	-15061
ste	-15062
▁버거	-15063
▁하느님	-15064
▁workers	-15065
EP	-15066
▁영수	-15067
▁풍선	-15068
▁진료소	-15069
▁Gree	-15070
▁colon	-15071
▁ぐ	-15072
▁陸軍	-15073
▁1942	-15074
ribute	-15075
▁幕	-15076
에스	-15077
▁말라	-15078
▁특가	-15079
▁주어진다	-15080
▁glass	-15081
▁양당	-15082
▁Prot	-15083
▁objects	-15084
▁therapy	-15085
▁똑똑	-15086
47	-15087
▁FO	-15088
▁ただ	-15089
▁태극기	-15090
▁middle	-15091
번호	-15092
iar	-15093
ジー	-15094
▁곡물	-15095
▁세심	-15096
▁量	-15097
▁끼치	-15098
▁부시	-15099
▁자회	-15100
▁직위	-15101
inese	-15102
▁demand	-15103
▁Japanese	-15104
▁군단	-15105
▁써서	-15106
▁애인	-15107
▁adj	-15108
▁가로막	-15109
▁김기현	-15110
▁miss	-15111
▁molec	-15112
▁블로	-15113
▁화석	-15114
▁맞물려	-15115
▁다변	-15116
▁삼척	-15117
▁teach	-15118
▁therefore	-15119
▁얀	-15120
▁줌	-15121
네마	-15122
the	-15123
▁CT	-15124
▁See	-15125
▁세탁기	-15126
▁아웃도어	-15127
▁agricult	-15128
▁providing	-15129
▁麻	-15130
▁チェ	-15131
▁윈도	-15132
▁유무	-15133
▁적대	-15134
リック	-15135
▁processes	-15136
▁trying	-15137
▁老	-15138
ロス	-15139
정동	-15140
▁男性	-15141
▁공채	-15142
▁채팅	-15143
▁해온	-15144
▁올라온	-15145
▁人間	-15146
▁호전	-15147
▁訪	-15148
▁윙	-15149
omy	-15150
▁교향	-15151
▁일보	-15152
▁진공	-15153
▁弁	-15154
레일	-15155
▁띈다	-15156
▁비엔	-15157
ところ	-15158
▁쏟아졌	-15159
▁주파수	-15160
▁Another	-15161
▁塩	-15162
▁가루	-15163
▁살포	-15164
▁가치관	-15165
▁뿜	-15166
▁리뷰	-15167
omb	-15168
▁BI	-15169
▁EN	-15170
▁環境	-15171
▁무더위	-15172
▁Good	-15173
▁electr	-15174
▁garden	-15175
런트	-15176
▁맞췄	-15177
isms	-15178
▁mid	-15179
▁生産	-15180
▁따위	-15181
▁염원	-15182
▁유수	-15183
▁1919	-15184
▁House	-15185
▁상급	-15186
▁스텝	-15187
▁구직자	-15188
▁Global	-15189
▁illness	-15190
▁smaller	-15191
디스	-15192
▁비추	-15193
▁앵커	-15194
▁320	-15195
▁그런지	-15196
▁높인다	-15197
▁소방관	-15198
43	-15199
▁반입	-15200
▁발자	-15201
▁차려	-15202
▁사법부	-15203
▁상품권	-15204
▁흘러나	-15205
▁단서	-15206
▁무실점	-15207
▁재테크	-15208
▁팔레스	-15209
▁빈번	-15210
▁웃돌	-15211
▁내세운	-15212
▁부지사	-15213
▁KAIST	-15214
▁Association	-15215
▁이브	-15216
▁체조	-15217
▁판례	-15218
▁진정한	-15219
▁rates	-15220
수원	-15221
uit	-15222
▁다우	-15223
▁샌프	-15224
▁헌혈	-15225
▁Met	-15226
▁리버풀	-15227
▁찾아왔	-15228
▁샌프란시스코	-15229
▁善	-15230
▁所在	-15231
▁構造	-15232
▁원수	-15233
▁화천	-15234
리칸	-15235
숭이	-15236
에르	-15237
키아	-15238
▁家族	-15239
▁157	-15240
▁guid	-15241
▁gradu	-15242
▁그렸	-15243
▁차주	-15244
▁단체전	-15245
▁밍	-15246
▁엎	-15247
▁一人	-15248
▁나마	-15249
▁직영	-15250
▁IBK	-15251
▁なる	-15252
izes	-15253
▁불쾌	-15254
gery	-15255
▁파주시	-15256
▁完成	-15257
▁동두	-15258
▁친정	-15259
▁내셔널	-15260
▁孝	-15261
▁몹	-15262
▁보라	-15263
▁환불	-15264
▁그런가	-15265
▁메신저	-15266
▁원동력	-15267
▁황교안	-15268
▁☆	-15269
▁앰	-15270
ospital	-15271
CO	-15272
FP	-15273
iny	-15274
▁169	-15275
▁172	-15276
mission	-15277
▁샴	-15278
▁만회	-15279
▁발맞	-15280
▁카트	-15281
▁피터	-15282
▁안양시	-15283
▁이순신	-15284
▁팔레스타인	-15285
バル	-15286
▁내줬	-15287
▁박계	-15288
reet	-15289
▁149	-15290
gy	-15291
とう	-15292
ジュ	-15293
노이	-15294
▁개체	-15295
▁동방	-15296
▁음모	-15297
▁입문	-15298
▁스파이	-15299
▁仙	-15300
▁더위	-15301
▁주택공사	-15302
▁Elect	-15303
▁弟	-15304
▁熱	-15305
デオ	-15306
익수	-15307
▁고법	-15308
▁목요일	-15309
▁보스턴	-15310
▁캐피탈	-15311
▁gives	-15312
グラ	-15313
▁물체	-15314
▁수해	-15315
▁습득	-15316
▁ing	-15317
▁바랍니다	-15318
▁差	-15319
que	-15320
yth	-15321
▁검장	-15322
▁극히	-15323
▁전속	-15324
▁처우	-15325
▁토마토	-15326
▁발산	-15327
▁1943	-15328
▁スペイン	-15329
▁President	-15330
▁견학	-15331
▁용사	-15332
anish	-15333
▁지킴	-15334
▁location	-15335
▁衆議	-15336
▁그늘	-15337
▁데스	-15338
▁목동	-15339
▁설탕	-15340
▁Washing	-15341
▁필립	-15342
▁제약사	-15343
▁north	-15344
▁south	-15345
▁脚本	-15346
▁눌러	-15347
▁사소	-15348
▁장남	-15349
▁137	-15350
▁1938	-15351
▁expected	-15352
▁remember	-15353
저기	-15354
정부	-15355
▁빼놓	-15356
▁승마	-15357
▁유익	-15358
▁148	-15359
▁tit	-15360
▁쌍둥이	-15361
▁의존도	-15362
▁타이밍	-15363
▁visual	-15364
▁anything	-15365
▁除	-15366
▁뺀	-15367
▁한라	-15368
▁담당관	-15369
▁shap	-15370
▁Space	-15371
▁恵	-15372
행사	-15373
▁Hel	-15374
▁가져다	-15375
▁신용카드	-15376
▁interesting	-15377
▁Je	-15378
▁뱅킹	-15379
▁본명	-15380
▁엔딩	-15381
▁오마	-15382
▁심리학	-15383
▁숍	-15384
▁초선	-15385
▁한중	-15386
▁280	-15387
▁Work	-15388
▁user	-15389
▁Mexic	-15390
▁steps	-15391
▁Chinese	-15392
▁哲	-15393
▁리콜	-15394
▁사의	-15395
▁우한	-15396
atab	-15397
▁750	-15398
▁떠오른	-15399
▁범죄자	-15400
▁활동가	-15401
▁博士	-15402
▁스케이팅	-15403
63	-15404
▁롬	-15405
▁돼지고기	-15406
▁여기저기	-15407
▁innov	-15408
▁】	-15409
뜨린	-15410
▁경색	-15411
▁날려	-15412
▁로선	-15413
▁만찬	-15414
▁증강	-15415
▁cry	-15416
▁남아공	-15417
▁김문	-15418
▁솔로	-15419
▁한동	-15420
▁가져야	-15421
▁아이콘	-15422
▁이뤄져야	-15423
FF	-15424
▁킴	-15425
▁경마	-15426
▁독창	-15427
▁쌓이	-15428
▁항해	-15429
▁260	-15430
▁파이프	-15431
▁mother	-15432
▁被	-15433
oration	-15434
▁General	-15435
▁billion	-15436
▁ず	-15437
▁gold	-15438
uments	-15439
ss	-15440
▁態	-15441
▁당할	-15442
▁에르	-15443
▁잡혀	-15444
41	-15445
61	-15446
▁칠레	-15447
▁행렬	-15448
▁imag	-15449
▁對	-15450
▁팁	-15451
▁ない	-15452
▁대림	-15453
▁bra	-15454
▁스케줄	-15455
▁책임감	-15456
▁세계관	-15457
▁거북	-15458
▁듀얼	-15459
주의자	-15460
▁AFC	-15461
ッグ	-15462
준호	-15463
▁Av	-15464
▁떠날	-15465
▁열흘	-15466
▁후문	-15467
▁Jes	-15468
▁マイ	-15469
▁점주	-15470
▁139	-15471
▁파트너십	-15472
▁해외여행	-15473
DC	-15474
▁焼	-15475
▁계통	-15476
▁연전	-15477
▁옮긴	-15478
illing	-15479
▁received	-15480
▁보단	-15481
▁비평	-15482
▁영산	-15483
▁어서다	-15484
▁hous	-15485
▁にかけて	-15486
▁inform	-15487
▁장흥	-15488
▁행성	-15489
▁bone	-15490
▁occurs	-15491
베스	-15492
▁가급	-15493
▁이완	-15494
▁활짝	-15495
▁수출액	-15496
▁장시간	-15497
맞이	-15498
▁아이파크	-15499
ンチ	-15500
▁HP	-15501
▁대란	-15502
▁성찰	-15503
▁우승자	-15504
▁ミュージ	-15505
다지	-15506
▁전셋	-15507
▁한식	-15508
▁화물차	-15509
워했	-15510
▁Bel	-15511
▁데일리	-15512
해서	-15513
▁네네	-15514
▁착륙	-15515
▁환산	-15516
▁비해서	-15517
▁화웨이	-15518
▁다이아몬드	-15519
▁닐	-15520
공화	-15521
▁지르	-15522
▁SDI	-15523
▁まれる	-15524
▁월평균	-15525
민호	-15526
▁다닌	-15527
▁대마	-15528
▁알선	-15529
▁위드	-15530
▁호가	-15531
▁Step	-15532
▁딘	-15533
▁뽀	-15534
▁수고	-15535
▁절제	-15536
▁해치	-15537
▁limited	-15538
pe	-15539
날두	-15540
▁map	-15541
▁호날두	-15542
▁날렸	-15543
▁DMZ	-15544
▁Top	-15545
▁via	-15546
▁어색	-15547
▁129	-15548
▁Google	-15549
▁respond	-15550
쟁이	-15551
▁ㆍ중	-15552
▁광교	-15553
▁산행	-15554
▁심혈	-15555
▁알릴	-15556
▁외형	-15557
▁평택시	-15558
▁1936	-15559
▁잔여	-15560
▁さらに	-15561
▁애널	-15562
▁138	-15563
▁파이낸	-15564
つも	-15565
▁BO	-15566
▁빈도	-15567
▁홍삼	-15568
▁seems	-15569
▁exposure	-15570
▁ㆍ군	-15571
▁건가	-15572
▁안개	-15573
▁seek	-15574
▁federal	-15575
▁Washington	-15576
ぞれ	-15577
▁버섯	-15578
▁칼럼	-15579
▁reasons	-15580
▁몸매	-15581
▁ㅜㅜ	-15582
▁거칠	-15583
▁구자	-15584
▁당권	-15585
uous	-15586
▁무사히	-15587
▁트로트	-15588
▁collection	-15589
▁responsible	-15590
▁둘레	-15591
▁만장	-15592
▁암시	-15593
▁참배	-15594
▁브로드	-15595
▁machine	-15596
▁などが	-15597
▁현대제철	-15598
관리위원회	-15599
▁도보	-15600
▁보선	-15601
▁퇴장	-15602
▁Sam	-15603
▁breast	-15604
▁갯벌	-15605
▁낙하	-15606
▁높인	-15607
▁들으면	-15608
▁에다가	-15609
▁final	-15610
▁advant	-15611
▁classroom	-15612
▁standards	-15613
▁兵庫	-15614
▁빠질	-15615
▁화답	-15616
▁pen	-15617
▁민영화	-15618
▁としての	-15619
▁nutri	-15620
▁隆	-15621
로움	-15622
iff	-15623
▁わせ	-15624
▁왕실	-15625
ウンド	-15626
▁사령탑	-15627
▁users	-15628
▁perfect	-15629
▁선거관리위원회	-15630
▁Ir	-15631
▁강등	-15632
▁동래	-15633
▁으라	-15634
▁pow	-15635
▁내다보	-15636
▁여동생	-15637
▁올라섰	-15638
▁alone	-15639
▁whose	-15640
▁늑	-15641
▁PR	-15642
▁구동	-15643
▁신보	-15644
▁즉석	-15645
▁conce	-15646
ida	-15647
▁열대	-15648
▁트롯	-15649
▁Dec	-15650
だけ	-15651
투자	-15652
▁도미	-15653
▁되새	-15654
▁사관	-15655
▁중등	-15656
▁향토	-15657
▁かった	-15658
▁카테고리	-15659
▁視	-15660
▁이케	-15661
▁Feb	-15662
▁웨스트	-15663
▁柳	-15664
▁약관	-15665
▁팟	-15666
케이	-15667
▁동거	-15668
ball	-15669
▁LPG	-15670
▁뉴타운	-15671
▁Make	-15672
PG	-15673
▁남짓	-15674
▁머신	-15675
▁오렌	-15676
▁평년	-15677
▁올라갔	-15678
▁didn	-15679
▁망설	-15680
▁해병대	-15681
▁click	-15682
▁Govern	-15683
▁administ	-15684
II	-15685
▁고독	-15686
▁너머	-15687
▁마신	-15688
▁통역	-15689
▁データ	-15690
▁丘	-15691
▁ep	-15692
▁공용	-15693
▁로직	-15694
▁신주	-15695
▁정읍	-15696
▁복지부	-15697
▁수성구	-15698
▁시위대	-15699
▁1937	-15700
▁rapid	-15701
▁moving	-15702
▁대포	-15703
▁labor	-15704
▁乱	-15705
사리	-15706
▁레이더	-15707
▁삼성증권	-15708
▁Service	-15709
EL	-15710
삼성	-15711
▁막히	-15712
▁셔츠	-15713
▁용의자	-15714
▁저질렀	-15715
▁천주교	-15716
▁topic	-15717
▁交差	-15718
▁파우	-15719
▁Sal	-15720
▁취임식	-15721
ari	-15722
▁호감	-15723
▁Organ	-15724
▁fresh	-15725
▁Bro	-15726
▁트랜스	-15727
▁named	-15728
46	-15729
천구	-15730
▁무제	-15731
▁웍스	-15732
▁정찰	-15733
▁고고	-15734
▁니까요	-15735
▁서대문	-15736
aters	-15737
▁depend	-15738
よく	-15739
▁진작	-15740
▁부천시	-15741
▁died	-15742
▁とともに	-15743
▁receive	-15744
zz	-15745
▁구할	-15746
▁organization	-15747
승환	-15748
▁最終	-15749
▁멜로	-15750
▁제법	-15751
▁진통	-15752
타이	-15753
era	-15754
▁안주	-15755
▁친근	-15756
▁느껴졌	-15757
▁completely	-15758
러운	-15759
▁국공	-15760
▁박해	-15761
▁청도	-15762
▁여행지	-15763
▁돌아다니	-15764
야수	-15765
져서	-15766
▁복장	-15767
▁봉화	-15768
▁오키	-15769
▁창녕	-15770
ocks	-15771
▁페널티	-15772
▁atmosp	-15773
▁당대	-15774
▁풀어	-15775
▁햇빛	-15776
▁들어선다	-15777
▁潟	-15778
ヴォ	-15779
bit	-15780
▁나뉜	-15781
▁달할	-15782
▁메탈	-15783
▁서한	-15784
▁수탁	-15785
▁외쳤	-15786
▁경희대	-15787
▁coast	-15788
▁黄	-15789
바겐	-15790
▁개업	-15791
▁거쳤	-15792
▁포로	-15793
▁사업주	-15794
▁部門	-15795
▁대용	-15796
▁친분	-15797
▁guide	-15798
▁equipment	-15799
카르	-15800
▁김미	-15801
▁보직	-15802
▁분단	-15803
▁외래	-15804
▁필라	-15805
oice	-15806
▁plastic	-15807
▁ショ	-15808
▁넷째	-15809
▁일화	-15810
▁프렌	-15811
▁뮤지션	-15812
▁fear	-15813
▁goes	-15814
▁milk	-15815
▁rise	-15816
▁Social	-15817
▁茶	-15818
부로	-15819
카락	-15820
▁리뉴	-15821
▁안겼	-15822
▁mis	-15823
▁쓰인다	-15824
▁전문의	-15825
▁絶	-15826
▁불출마	-15827
▁용산구	-15828
▁머리카락	-15829
▁David	-15830
▁version	-15831
금융	-15832
▁농수	-15833
▁밥상	-15834
▁임산	-15835
▁카리스	-15836
▁Korea	-15837
▁leave	-15838
▁emissions	-15839
▁크레	-15840
▁폐렴	-15841
▁citiz	-15842
▁speech	-15843
▁묵묵	-15844
▁설레	-15845
▁hun	-15846
▁연수원	-15847
▁盛	-15848
▁MM	-15849
▁려다	-15850
▁매운	-15851
▁속한	-15852
▁천연가스	-15853
▁picture	-15854
▁씹	-15855
진보	-15856
▁국물	-15857
▁대위	-15858
▁밝힐	-15859
▁我	-15860
▁閉	-15861
▁개표	-15862
▁미나	-15863
▁정은	-15864
▁태우	-15865
▁Ang	-15866
▁note	-15867
▁미성년자	-15868
には	-15869
▁産業	-15870
▁묘지	-15871
▁file	-15872
▁KD	-15873
▁ベル	-15874
▁퇴원	-15875
▁가급적	-15876
ta	-15877
텍스	-15878
파업	-15879
igr	-15880
▁명명	-15881
▁어딘	-15882
▁CES	-15883
▁에디션	-15884
▁吹	-15885
▁閣	-15886
さい	-15887
▁담아	-15888
▁가져올	-15889
▁교육장	-15890
▁터뜨렸	-15891
hemat	-15892
▁Development	-15893
리그	-15894
▁국기	-15895
▁추운	-15896
▁Mor	-15897
▁총파업	-15898
▁폭스바겐	-15899
▁Stand	-15900
▁journal	-15901
BI	-15902
▁짠	-15903
▁MW	-15904
▁비비	-15905
▁적법	-15906
▁절벽	-15907
▁ABC	-15908
▁스러웠	-15909
미지	-15910
▁ジュ	-15911
▁人民	-15912
▁인권위	-15913
▁Learning	-15914
▁사당	-15915
▁삽입	-15916
▁치를	-15917
▁email	-15918
▁수동	-15919
▁였을	-15920
▁은하	-15921
▁무주택	-15922
▁벗어난	-15923
▁제철소	-15924
무라	-15925
▁알바	-15926
▁저탄	-15927
▁son	-15928
▁もある	-15929
▁문화원	-15930
▁취득세	-15931
iences	-15932
▁famous	-15933
▁須	-15934
ると	-15935
▁先生	-15936
▁공자	-15937
▁이체	-15938
rote	-15939
▁알루미	-15940
▁Coun	-15941
▁October	-15942
▁국영	-15943
▁앞섰	-15944
▁착취	-15945
like	-15946
▁enh	-15947
▁signs	-15948
시피	-15949
▁Sub	-15950
▁구미시	-15951
▁툴	-15952
▁겹쳐	-15953
▁단과	-15954
▁지루	-15955
▁항쟁	-15956
▁후계	-15957
▁흰색	-15958
▁오렌지	-15959
osition	-15960
▁decision	-15961
▁フジ	-15962
▁국한	-15963
▁문예	-15964
▁상류	-15965
▁조장	-15966
▁차림	-15967
▁총무	-15968
▁署	-15969
▁대내외	-15970
▁일으킬	-15971
▁predict	-15972
벨트	-15973
▁こう	-15974
▁무늬	-15975
▁마사지	-15976
▁방송국	-15977
▁為	-15978
▁성지	-15979
▁Australia	-15980
▁September	-15981
▁OP	-15982
▁접대	-15983
▁사업체	-15984
▁Rober	-15985
겨운	-15986
▁강인	-15987
▁처해	-15988
▁142	-15989
▁왓	-15990
ッセ	-15991
▁ロー	-15992
▁일손	-15993
▁전인	-15994
▁고위급	-15995
▁아리랑	-15996
▁냉정	-15997
▁범주	-15998
▁아쿠	-15999
시스트	-16000
▁bed	-16001
▁cru	-16002
▁Fore	-16003
▁거꾸	-16004
▁농약	-16005
▁분비	-16006
▁어학	-16007
▁일명	-16008
▁천지	-16009
▁친척	-16010
▁면역력	-16011
▁commerc	-16012
▁元年	-16013
▁김우	-16014
▁드문	-16015
▁세분	-16016
▁체온	-16017
▁화산	-16018
틀랜드	-16019
▁달러화	-16020
▁hair	-16021
________	-16022
▁Profess	-16023
▁strength	-16024
▁로움	-16025
▁캐시	-16026
▁고성능	-16027
arian	-16028
▁Cour	-16029
▁East	-16030
ルド	-16031
▁にあ	-16032
▁넘쳐	-16033
▁손목	-16034
▁햇살	-16035
know	-16036
▁태그	-16037
▁톡톡히	-16038
▁Disc	-16039
▁decl	-16040
▁member	-16041
▁College	-16042
UN	-16043
북자	-16044
▁거머	-16045
▁검수	-16046
▁군정	-16047
▁길러	-16048
▁동산	-16049
▁연차	-16050
▁영종	-16051
obile	-16052
▁─	-16053
들여	-16054
체육	-16055
▁pick	-16056
ald	-16057
▁다뤄	-16058
▁비명	-16059
▁Test	-16060
▁spring	-16061
▁princip	-16062
▁ぎ	-16063
▁敷	-16064
▁曜	-16065
▁積	-16066
▁씌	-16067
▁근린	-16068
▁유병	-16069
▁회고	-16070
자유구역	-16071
▁印	-16072
▁환매	-16073
▁mouth	-16074
▁장중	-16075
▁Scient	-16076
▁native	-16077
▁practices	-16078
▁活躍	-16079
▁beyond	-16080
▁고작	-16081
▁기류	-16082
▁다치	-16083
▁시체	-16084
▁치가	-16085
연구원	-16086
LPGA	-16087
▁우즈베	-16088
혜진	-16089
ocol	-16090
▁광명시	-16091
▁1700	-16092
▁News	-16093
▁Their	-16094
▁piece	-16095
▁경제자유구역	-16096
경찰	-16097
▁비위	-16098
▁취했	-16099
▁overall	-16100
▁摩	-16101
▁以外	-16102
▁배급	-16103
▁밸류	-16104
▁액세	-16105
▁최태	-16106
rest	-16107
rome	-16108
▁산림청	-16109
▁쏟아져	-16110
▁전망대	-16111
▁vict	-16112
▁income	-16113
▁載	-16114
▁｜	-16115
▁각서	-16116
▁박세	-16117
▁Som	-16118
▁실수요자	-16119
▁기종	-16120
▁양궁	-16121
▁저격	-16122
▁캐주얼	-16123
▁basis	-16124
휴일	-16125
▁○○	-16126
▁Law	-16127
▁vision	-16128
▁불렸	-16129
▁거주지	-16130
▁About	-16131
▁阪	-16132
▁골퍼	-16133
▁영등포	-16134
▁offers	-16135
▁입당	-16136
▁특기	-16137
▁피겨	-16138
▁훈훈	-16139
▁VIP	-16140
▁알루미늄	-16141
▁Technology	-16142
RC	-16143
▁{{	-16144
▁김홍	-16145
▁쿠데	-16146
▁서해안	-16147
▁laws	-16148
▁agree	-16149
▁戻	-16150
▁중추	-16151
▁미지수	-16152
▁전경련	-16153
▁콘퍼런스	-16154
▁degree	-16155
▁except	-16156
▁速	-16157
▁뜰	-16158
ダル	-16159
제당	-16160
▁朝鮮	-16161
▁델타	-16162
▁평상	-16163
▁SKT	-16164
▁하와이	-16165
▁obtain	-16166
クス	-16167
ブラ	-16168
▁국유	-16169
▁급하	-16170
▁복음	-16171
▁）-	-16172
▁Bra	-16173
▁hon	-16174
▁인가요	-16175
▁귀촌	-16176
▁배기	-16177
▁스노	-16178
▁만난다	-16179
▁실종자	-16180
▁화요일	-16181
▁hear	-16182
▁제일제당	-16183
▁interp	-16184
タイ	-16185
▁변했	-16186
airs	-16187
▁가진다	-16188
▁루이스	-16189
▁하버드	-16190
▁합창단	-16191
▁남양주시	-16192
▁coming	-16193
▁military	-16194
EX	-16195
ギュ	-16196
▁kt	-16197
▁가령	-16198
▁포레	-16199
▁box	-16200
▁르노삼성	-16201
▁approx	-16202
のに	-16203
소통	-16204
▁取締	-16205
▁레버	-16206
▁요시	-16207
▁자란	-16208
▁쿠바	-16209
▁Lat	-16210
▁오디오	-16211
▁지휘자	-16212
▁似	-16213
▁をし	-16214
▁パー	-16215
▁社長	-16216
▁전입	-16217
▁중원	-16218
▁함량	-16219
백화점	-16220
▁세인트	-16221
▁주의보	-16222
▁홈경기	-16223
▁썬	-16224
▁機能	-16225
▁걷기	-16226
▁당과	-16227
▁stories	-16228
▁영도	-16229
▁검찰청	-16230
▁문학상	-16231
▁미스트	-16232
▁effort	-16233
ベント	-16234
▁Energy	-16235
▁떴	-16236
▁그랑	-16237
▁에릭	-16238
▁Ser	-16239
▁save	-16240
▁늘어난다	-16241
▁align	-16242
▁items	-16243
▁ム	-16244
승부	-16245
▁미르	-16246
▁Cam	-16247
▁김건희	-16248
▁legal	-16249
▁capital	-16250
▁겟	-16251
▁개요	-16252
▁분주	-16253
▁초미	-16254
▁임산부	-16255
▁꾸미	-16256
▁내기	-16257
▁상기	-16258
▁grade	-16259
▁influence	-16260
▁검역	-16261
▁산타	-16262
▁서적	-16263
▁WBC	-16264
▁그다지	-16265
▁huge	-16266
itable	-16267
▁니콜	-16268
▁무능	-16269
▁비축	-16270
vert	-16271
▁オープ	-16272
▁거꾸로	-16273
▁Cong	-16274
▁patterns	-16275
▁銀行	-16276
▁anti	-16277
▁Museum	-16278
▁explore	-16279
▁GW	-16280
▁』、	-16281
▁mention	-16282
▁기습	-16283
문화재	-16284
▁귀여운	-16285
ector	-16286
▁asked	-16287
▁반경	-16288
▁아님	-16289
▁엉뚱	-16290
▁167	-16291
▁플라이	-16292
▁모스크바	-16293
▁파키스탄	-16294
▁提供	-16295
▁의료비	-16296
▁스트리밍	-16297
▁opportunities	-16298
살이	-16299
수리	-16300
▁선조	-16301
▁득표율	-16302
▁플로리	-16303
▁inflamm	-16304
▁nothing	-16305
경원	-16306
▁재판관	-16307
iring	-16308
▁sett	-16309
매도	-16310
▁本社	-16311
▁裁判	-16312
▁그레	-16313
▁리아	-16314
▁웨어	-16315
▁유대인	-16316
set	-16317
▁引退	-16318
▁은폐	-16319
▁최영	-16320
▁buy	-16321
▁Cr	-16322
▁ヴィ	-16323
▁몰두	-16324
▁일축	-16325
젤레스	-16326
▁무더기	-16327
▁전성기	-16328
▁Post	-16329
▁James	-16330
▁들어섰	-16331
▁사채	-16332
▁saw	-16333
▁공휴일	-16334
▁은메달	-16335
▁Human	-16336
무소	-16337
▁支援	-16338
▁고비	-16339
▁농심	-16340
▁스폰	-16341
▁카리스마	-16342
▁CI	-16343
▁강간	-16344
▁용병	-16345
▁판문	-16346
▁허물	-16347
▁스피커	-16348
▁values	-16349
▁successful	-16350
▁笑	-16351
かな	-16352
▁수평	-16353
▁준우	-16354
aste	-16355
클럽	-16356
▁손익	-16357
▁쪼끔	-16358
▁피지	-16359
▁원산지	-16360
▁쿠데타	-16361
MP	-16362
▁況	-16363
디언	-16364
마을	-16365
▁저주	-16366
▁한껏	-16367
▁Two	-16368
▁도요타	-16369
▁생체	-16370
▁표방	-16371
진보당	-16372
▁재산세	-16373
▁적십자	-16374
▁충실히	-16375
▁powerful	-16376
▁映像	-16377
▁병합	-16378
▁십자	-16379
▁유역	-16380
▁beg	-16381
▁성명서	-16382
▁저탄소	-16383
▁막강	-16384
플렉스	-16385
▁걸린다	-16386
▁블라디	-16387
▁졸업식	-16388
▁immune	-16389
▁genetic	-16390
▁시아	-16391
▁옥천	-16392
omas	-16393
▁113	-16394
▁크리에이터	-16395
▁vitamin	-16396
つか	-16397
ano	-16398
▁れて	-16399
▁달빛	-16400
▁평면	-16401
▁폭격	-16402
▁ベスト	-16403
▁의사소통	-16404
▁findings	-16405
▁個人	-16406
▁少年	-16407
▁르네	-16408
▁주총	-16409
쓰기	-16410
▁명실	-16411
▁유교	-16412
▁막바지	-16413
▁trade	-16414
▁１	-16415
자재	-16416
▁사계	-16417
▁소품	-16418
▁전반기	-16419
▁아메리칸	-16420
▁★	-16421
▁논산	-16422
▁산청	-16423
axim	-16424
reak	-16425
▁스테이	-16426
▁옥수수	-16427
▁撮影	-16428
▁선장	-16429
▁조선업	-16430
암동	-16431
활약	-16432
▁붙였	-16433
듭니다	-16434
▁マル	-16435
▁本作	-16436
▁目的	-16437
▁increases	-16438
▁오찬	-16439
▁팝업	-16440
▁られた	-16441
▁models	-16442
▁collabor	-16443
され	-16444
혈압	-16445
▁소생	-16446
▁마리아	-16447
▁테크놀	-16448
▁acad	-16449
▁頼	-16450
▁벙	-16451
まま	-16452
마르	-16453
▁튀르	-16454
▁회식	-16455
▁sch	-16456
▁알고리	-16457
▁이승만	-16458
▁드라이버	-16459
▁establish	-16460
▁アフ	-16461
▁걸까	-16462
▁변론	-16463
▁북방	-16464
▁일렉	-16465
▁ELS	-16466
▁사용료	-16467
▁무화	-16468
▁시는	-16469
▁유령	-16470
▁시험장	-16471
▁Phys	-16472
▁adop	-16473
▁システム	-16474
▁測	-16475
んど	-16476
▁반포	-16477
ーカー	-16478
▁HIV	-16479
▁날카로운	-16480
▁지주회사	-16481
▁Using	-16482
▁동남아시아	-16483
▁England	-16484
▁어민	-16485
▁육지	-16486
▁편익	-16487
ager	-16488
▁플래시	-16489
ament	-16490
▁consumption	-16491
▁유격수	-16492
▁construction	-16493
▁막말	-16494
▁모였	-16495
▁123	-16496
craft	-16497
▁통합진보당	-16498
▁テレビドラマ	-16499
▁January	-16500
▁告	-16501
ッフ	-16502
▁대담	-16503
▁불허	-16504
▁지극	-16505
▁mal	-16506
▁インド	-16507
▁외교관	-16508
▁giving	-16509
▁brought	-16510
▁갈비	-16511
▁열망	-16512
▁Sum	-16513
▁オリンピック	-16514
▁options	-16515
저트	-16516
nes	-16517
▁실상	-16518
▁한발	-16519
▁Arm	-16520
▁여배우	-16521
▁현대인	-16522
▁Home	-16523
areness	-16524
▁워즈	-16525
▁순매도	-16526
▁price	-16527
▁details	-16528
▁measures	-16529
▁鎮	-16530
▁그릴	-16531
▁샤워	-16532
▁지칭	-16533
▁위크	-16534
▁가혹	-16535
▁남측	-16536
▁섹시	-16537
▁잔뜩	-16538
▁거쳐야	-16539
▁본다면	-16540
▁살아나	-16541
▁올린다	-16542
▁코엑스	-16543
▁があった	-16544
▁choice	-16545
▁掲	-16546
▁둥지	-16547
▁스마	-16548
▁치사	-16549
▁페트	-16550
▁などに	-16551
▁숨겨진	-16552
▁팍	-16553
▁공과	-16554
▁압류	-16555
▁{{{	-16556
▁property	-16557
▁electricity	-16558
▁飯	-16559
▁짱	-16560
equ	-16561
▁Sa	-16562
▁농부	-16563
▁virt	-16564
나물	-16565
환자	-16566
▁가미	-16567
▁가파른	-16568
▁노래방	-16569
▁으리라	-16570
▁軽	-16571
▁단연	-16572
▁모토	-16573
▁스릴	-16574
▁풍속	-16575
ynam	-16576
▁관리비	-16577
▁理事	-16578
▁사위	-16579
▁이상민	-16580
▁eight	-16581
▁France	-16582
금속	-16583
▁사표	-16584
▁요국	-16585
▁임영	-16586
▁조력	-16587
▁종식	-16588
▁부통령	-16589
rehens	-16590
▁りの	-16591
▁勝利	-16592
▁애매	-16593
▁147	-16594
▁함부로	-16595
▁만끽	-16596
▁설화	-16597
▁부산항	-16598
▁독거	-16599
▁돌이	-16600
▁리우	-16601
▁숙원	-16602
▁텐트	-16603
▁음악가	-16604
▁잃어버린	-16605
lection	-16606
▁expand	-16607
ii	-16608
려고	-16609
ION	-16610
▁야심	-16611
▁홍대	-16612
▁）」	-16613
▁벌인다	-16614
▁1910	-16615
▁wrong	-16616
▁convers	-16617
▁running	-16618
▁challenges	-16619
▁途	-16620
▁fr	-16621
water	-16622
▁像	-16623
これ	-16624
▁Str	-16625
▁repe	-16626
▁toward	-16627
▁縄	-16628
モン	-16629
▁디바	-16630
▁파동	-16631
▁휴먼	-16632
▁신분증	-16633
▁올리브	-16634
▁이대호	-16635
▁hour	-16636
▁광주광역시	-16637
▁스티븐	-16638
▁ユニ	-16639
▁관통	-16640
▁무자	-16641
▁수중	-16642
▁시국	-16643
▁BNK	-16644
▁のために	-16645
▁antib	-16646
▁【	-16647
▁안면	-16648
▁후진	-16649
▁흥원	-16650
공화국	-16651
▁팩토리	-16652
▁알고리즘	-16653
▁staff	-16654
▁chance	-16655
▁경합	-16656
▁송이	-16657
house	-16658
ッジ	-16659
▁등등	-16660
▁인자	-16661
▁킬로	-16662
▁교통망	-16663
▁체인지	-16664
▁Union	-16665
부상	-16666
▁마포	-16667
▁증축	-16668
ものの	-16669
aled	-16670
▁cou	-16671
▁적시타	-16672
▁터뜨리	-16673
▁Medic	-16674
▁balance	-16675
체어	-16676
ext	-16677
▁共同	-16678
▁김부	-16679
▁아줌	-16680
▁자궁	-16681
▁fair	-16682
▁靑	-16683
eed	-16684
▁구례	-16685
▁기수	-16686
▁부연	-16687
▁宇宙	-16688
▁오너	-16689
▁인내	-16690
▁조종사	-16691
▁청년층	-16692
▁해야지	-16693
▁tissue	-16694
▁鈴	-16695
▁공보	-16696
▁현관	-16697
재료	-16698
▁송전	-16699
▁영위	-16700
▁레코드	-16701
▁please	-16702
▁고강	-16703
▁베리	-16704
▁안부	-16705
▁예민	-16706
▁출격	-16707
▁task	-16708
결승	-16709
▁관하	-16710
▁실린	-16711
▁주둔	-16712
▁になり	-16713
▁머물러	-16714
▁지부장	-16715
▁properties	-16716
▁훗	-16717
▁물자	-16718
▁접할	-16719
でした	-16720
▁휠체어	-16721
▁reports	-16722
▁components	-16723
▁주입	-16724
▁엉덩이	-16725
▁일러스트	-16726
▁두꺼	-16727
▁재래	-16728
▁파울	-16729
▁ISO	-16730
▁고금리	-16731
▁학술지	-16732
▁마음대로	-16733
▁금정	-16734
▁쪼개	-16735
▁clos	-16736
덱스	-16737
▁동백	-16738
▁복사	-16739
▁큐브	-16740
ークス	-16741
▁아줌마	-16742
▁fert	-16743
▁happen	-16744
▁앗	-16745
▁공신	-16746
▁드럼	-16747
▁성북	-16748
▁보일러	-16749
▁우즈베키스탄	-16750
EB	-16751
스틱	-16752
emy	-16753
▁NG	-16754
▁급기	-16755
▁비틀	-16756
▁해냈	-16757
▁가르침	-16758
▁어느새	-16759
▁담장	-16760
▁스텔	-16761
▁영월	-16762
▁원만	-16763
▁폭포	-16764
▁ソフト	-16765
▁제자리	-16766
▁진행자	-16767
▁한양대	-16768
▁disorder	-16769
▁경정	-16770
▁리터	-16771
▁인출	-16772
▁디저트	-16773
▁tooth	-16774
▁値	-16775
▁꿇	-16776
▁수반	-16777
▁응급실	-16778
▁판문점	-16779
▁forward	-16780
▁수협	-16781
▁힘써	-16782
▁몰라도	-16783
▁\	-16784
같이	-16785
▁미야	-16786
▁버락	-16787
▁복선	-16788
▁이우	-16789
▁효자	-16790
▁모발	-16791
▁원소	-16792
▁잡힌	-16793
▁키운	-16794
▁택트	-16795
▁Mars	-16796
▁thousands	-16797
▁模	-16798
ken	-16799
▁두께	-16800
▁배양	-16801
▁인멸	-16802
▁인민공화국	-16803
▁감히	-16804
▁껍질	-16805
orks	-16806
▁했으니	-16807
▁element	-16808
ㅠㅠ	-16809
▁다졌	-16810
▁복도	-16811
▁중량	-16812
▁board	-16813
▁KP	-16814
▁점진	-16815
▁Year	-16816
▁그리하여	-16817
▁플로리다	-16818
レーション	-16819
▁conflic	-16820
▁토목	-16821
▁올라갈	-16822
▁Power	-16823
사키	-16824
▁쓰여	-16825
▁열연	-16826
▁Mac	-16827
▁util	-16828
▁하드웨어	-16829
▁Direct	-16830
▁assign	-16831
▁FT	-16832
▁HM	-16833
▁通常	-16834
▁알림	-16835
▁출루	-16836
▁콜롬	-16837
▁기본법	-16838
▁라이온	-16839
▁살아온	-16840
▁현행법	-16841
▁애널리스트	-16842
▁planning	-16843
▁temperatures	-16844
らの	-16845
무진	-16846
오리	-16847
조선	-16848
▁맹점	-16849
olic	-16850
wide	-16851
ーロッパ	-16852
▁liqu	-16853
ensity	-16854
▁capacity	-16855
じめ	-16856
イヤ	-16857
▁실려	-16858
▁정계	-16859
▁추행	-16860
コード	-16861
▁도우미	-16862
▁드래프트	-16863
▁俊	-16864
▁圧	-16865
스카	-16866
시티	-16867
▁山口	-16868
▁장래	-16869
▁효소	-16870
▁밀어붙	-16871
▁neigh	-16872
▁盟	-16873
▁NA	-16874
▁だと	-16875
▁그쪽	-16876
▁책무	-16877
▁550	-16878
▁EPL	-16879
▁아산시	-16880
▁ワールド	-16881
▁護	-16882
▁단골	-16883
▁응하	-16884
▁나스닥	-16885
▁양도세	-16886
▁1929	-16887
▁appe	-16888
▁film	-16889
▁strugg	-16890
▁作家	-16891
▁귀환	-16892
▁오션	-16893
▁장타	-16894
▁Rev	-16895
▁differences	-16896
ギー	-16897
▁過去	-16898
▁기밀	-16899
▁내국	-16900
▁원재료	-16901
▁insect	-16902
원지	-16903
▁DA	-16904
▁言語	-16905
▁두려워	-16906
▁burn	-16907
징계	-16908
▁設計	-16909
▁가마	-16910
▁전매	-16911
ulum	-16912
▁김포시	-16913
▁저금리	-16914
▁resource	-16915
▁풀려	-16916
▁함대	-16917
▁degrees	-16918
▁톨	-16919
かい	-16920
대식	-16921
▁위례	-16922
▁Tur	-16923
▁vill	-16924
업소	-16925
▁普通	-16926
▁단풍	-16927
▁액체	-16928
▁정장	-16929
▁중남	-16930
▁성수기	-16931
앤젤레스	-16932
▁surpr	-16933
내기	-16934
lor	-16935
▁プレ	-16936
▁最大	-16937
▁거둬	-16938
▁예의	-16939
▁woman	-16940
▁로스앤젤레스	-16941
▁generation	-16942
▁촘	-16943
▁팰	-16944
▁꼼수	-16945
▁educational	-16946
OW	-16947
▁각도	-16948
▁dri	-16949
▁モデル	-16950
▁ローマ	-16951
공항공사	-16952
반대	-16953
▁공범	-16954
▁브이	-16955
▁심문	-16956
っていた	-16957
▁어우러진	-16958
▁causing	-16959
▁演奏	-16960
▁말미	-16961
▁보트	-16962
▁categ	-16963
▁沼	-16964
▁거침	-16965
▁쌓인	-16966
▁은평	-16967
▁앞당겨	-16968
▁names	-16969
▁reduced	-16970
▁historical	-16971
▁景	-16972
▁요트	-16973
▁칠곡	-16974
▁lesson	-16975
59	-16976
부진	-16977
▁도어	-16978
▁방북	-16979
▁영천	-16980
▁원점	-16981
▁쇠고기	-16982
▁수사관	-16983
▁wiki	-16984
▁Music	-16985
▁father	-16986
▁extremely	-16987
▁nutrition	-16988
▁다카	-16989
▁전통문화	-16990
▁도둑	-16991
▁북극	-16992
▁비준	-16993
▁수납	-16994
sh	-16995
▁雪	-16996
▁낮췄	-16997
▁리가	-16998
▁양수	-16999
▁살펴볼	-17000
▁easier	-17001
▁工場	-17002
▁눈부	-17003
▁모닝	-17004
▁약사	-17005
▁양반	-17006
enty	-17007
▁고혈압	-17008
▁사업소	-17009
▁달걀	-17010
▁실기	-17011
▁정가	-17012
▁Paul	-17013
▁technologies	-17014
▁俳優	-17015
▁용납	-17016
▁인파	-17017
▁세일즈	-17018
▁예정자	-17019
ティング	-17020
orage	-17021
▁審	-17022
▁砲	-17023
기부	-17024
▁空港	-17025
▁극본	-17026
▁생전	-17027
▁PCR	-17028
▁constant	-17029
터카	-17030
▁개학	-17031
▁유머	-17032
▁유신	-17033
▁챙긴	-17034
▁Tex	-17035
▁1933	-17036
▁紙	-17037
포츠	-17038
▁SO	-17039
▁バイ	-17040
▁당근	-17041
▁성서	-17042
▁용적	-17043
▁자르	-17044
▁토니	-17045
▁로직스	-17046
▁novel	-17047
▁earlier	-17048
프레	-17049
희정	-17050
▁권단	-17051
▁어떡	-17052
▁얼어붙	-17053
▁dogs	-17054
▁Jesus	-17055
▁attempt	-17056
▁リー	-17057
▁書店	-17058
▁가든	-17059
▁버블	-17060
▁렌터카	-17061
▁최대치	-17062
▁≫	-17063
▁릭	-17064
▁이호	-17065
▁자민	-17066
▁절정	-17067
▁Mal	-17068
▁仲	-17069
▁PK	-17070
▁나카	-17071
▁스러움	-17072
▁웨이브	-17073
▁goals	-17074
▁だが	-17075
▁양양	-17076
▁4500	-17077
▁blog	-17078
irection	-17079
나와	-17080
▁또래	-17081
▁마냥	-17082
▁뽐내	-17083
▁챙겼	-17084
ygen	-17085
▁Christian	-17086
▁札	-17087
▁Ev	-17088
▁대관	-17089
▁얼리	-17090
▁jud	-17091
ought	-17092
블리	-17093
치소	-17094
▁비법	-17095
▁지름	-17096
▁피난	-17097
▁울트라	-17098
▁원피스	-17099
▁획기적으로	-17100
▁consequ	-17101
▁資料	-17102
▁選出	-17103
▁만지	-17104
▁몰린	-17105
▁수변	-17106
hors	-17107
▁는구나	-17108
▁신뢰도	-17109
▁오름세	-17110
▁homes	-17111
▁cities	-17112
▁극우	-17113
▁명장	-17114
▁어때	-17115
▁천국	-17116
▁충원	-17117
▁호황	-17118
▁store	-17119
▁followed	-17120
▁미쓰	-17121
として	-17122
ocal	-17123
▁관해서	-17124
▁입장권	-17125
용품	-17126
▁골절	-17127
ヨーク	-17128
asks	-17129
▁케이블카	-17130
▁promot	-17131
▁亜	-17132
▁･	-17133
▁고종	-17134
▁극한	-17135
▁사우스	-17136
▁rules	-17137
▁콕	-17138
키스	-17139
▁울려	-17140
▁청정기	-17141
볶이	-17142
▁개회	-17143
▁근간	-17144
▁막혀	-17145
▁변명	-17146
▁느냐고	-17147
▁불거지	-17148
▁여객선	-17149
▁이뤄져	-17150
▁figure	-17151
▁BE	-17152
▁㎞)	-17153
▁대승	-17154
▁시력	-17155
berg	-17156
rial	-17157
▁Mart	-17158
▁stim	-17159
▁wrote	-17160
▁Design	-17161
▁矢	-17162
▁담화	-17163
▁리치	-17164
▁조그	-17165
▁anx	-17166
▁다니엘	-17167
▁라운지	-17168
▁영향력	-17169
▁중개사	-17170
net	-17171
▁게끔	-17172
▁대의	-17173
▁멋있	-17174
▁서강	-17175
▁세밀	-17176
▁절박	-17177
▁스캔들	-17178
▁initi	-17179
ovember	-17180
▁placed	-17181
▁depression	-17182
▁もし	-17183
▁간장	-17184
▁스무	-17185
▁돌아섰	-17186
▁영남대	-17187
게임	-17188
▁모더	-17189
▁싸워	-17190
edom	-17191
턴트	-17192
▁내구	-17193
▁정인	-17194
▁금지법	-17195
▁시흥시	-17196
▁유재석	-17197
▁rule	-17198
▁느껴진다	-17199
▁muscle	-17200
▁distance	-17201
국수	-17202
▁가평	-17203
▁건넸	-17204
▁공안	-17205
▁말기	-17206
シング	-17207
▁농작물	-17208
▁臨	-17209
▁견고	-17210
▁식단	-17211
▁워커	-17212
▁직종	-17213
▁쫓겨	-17214
▁유소년	-17215
ラクター	-17216
▁Acad	-17217
▁신자	-17218
페이스	-17219
▁답니다	-17220
▁하이트	-17221
▁White	-17222
▁≪	-17223
▁콧	-17224
▁냉각	-17225
▁미혼	-17226
▁실책	-17227
▁일감	-17228
▁재검	-17229
ares	-17230
▁NYT	-17231
IVE	-17232
▁기미	-17233
▁성산	-17234
▁판도	-17235
ibly	-17236
▁브라이	-17237
▁apply	-17238
▁incor	-17239
▁actions	-17240
태우	-17241
▁귀찮	-17242
▁이양	-17243
▁철폐	-17244
▁hyp	-17245
▁Asia	-17246
▁described	-17247
▁QR	-17248
▁놀랍	-17249
릅니다	-17250
▁맹활약	-17251
▁빠져나가	-17252
▁changed	-17253
사랑	-17254
▁본토	-17255
▁국제선	-17256
▁원숭이	-17257
▁heavy	-17258
▁moment	-17259
▁昌	-17260
▁皆	-17261
ーネ	-17262
▁AK	-17263
▁一方	-17264
▁던전	-17265
▁마셨	-17266
▁비료	-17267
▁사마	-17268
▁살린	-17269
▁생략	-17270
▁핑계	-17271
ceed	-17272
▁秘	-17273
▁두부	-17274
▁리오	-17275
▁모건	-17276
▁윤종	-17277
aint	-17278
odes	-17279
▁スター	-17280
▁KLPGA	-17281
▁ヨーロッパ	-17282
55	-17283
▁救	-17284
▁국사	-17285
▁쇼크	-17286
▁증원	-17287
▁패권	-17288
▁121	-17289
▁완성도	-17290
▁컨텐츠	-17291
▁Like	-17292
▁症	-17293
▁업주	-17294
▁계약금	-17295
▁스폰서	-17296
▁office	-17297
ky	-17298
▁祖	-17299
かわ	-17300
테스	-17301
▁불길	-17302
▁들여다	-17303
▁은데요	-17304
▁November	-17305
▁suggests	-17306
하라	-17307
▁RE	-17308
▁이소	-17309
▁일리	-17310
▁limit	-17311
방향	-17312
▁전향	-17313
▁취항	-17314
▁Pal	-17315
▁장애물	-17316
▁identified	-17317
지엄	-17318
투리	-17319
▁거센	-17320
▁보성	-17321
ogen	-17322
▁설득력	-17323
▁준다고	-17324
▁survey	-17325
▁조수	-17326
▁중장	-17327
▁다는데	-17328
▁퇴직금	-17329
▁corn	-17330
▁프로야구	-17331
▁피아니스트	-17332
▁重要	-17333
▁로즈	-17334
▁중세	-17335
▁편향	-17336
▁프란	-17337
▁650	-17338
▁mag	-17339
▁아이오	-17340
▁진주시	-17341
▁축구단	-17342
▁Dece	-17343
▁심포지엄	-17344
▁알레르기	-17345
▁learned	-17346
▁mission	-17347
li	-17348
▁돌려주	-17349
▁부상자	-17350
▁시뮬레이션	-17351
hab	-17352
▁월화	-17353
▁전한	-17354
▁총체	-17355
▁チャン	-17356
▁상관없	-17357
▁Rich	-17358
▁勤	-17359
▁桜	-17360
タン	-17361
▁市立	-17362
imal	-17363
▁worth	-17364
▁勲	-17365
▁사업가	-17366
▁펼쳐진	-17367
▁root	-17368
▁showed	-17369
▁우라	-17370
rows	-17371
▁스미스	-17372
▁전셋값	-17373
▁{{{#	-17374
▁찐	-17375
▁명상	-17376
▁방대	-17377
▁식탁	-17378
▁져서	-17379
▁탐험	-17380
▁도로공사	-17381
ologist	-17382
▁background	-17383
▁植物	-17384
▁지중	-17385
lick	-17386
▁마니아	-17387
▁오프닝	-17388
▁입소문	-17389
▁Data	-17390
▁enter	-17391
▁程	-17392
▁대충	-17393
▁동대	-17394
▁보탬	-17395
▁신안	-17396
▁한상	-17397
▁Play	-17398
▁professor	-17399
어야	-17400
▁カナ	-17401
▁계명	-17402
▁김효	-17403
▁스와	-17404
▁제지	-17405
▁카자	-17406
▁계획안	-17407
▁끌어내	-17408
▁1932	-17409
▁純	-17410
▁딱딱	-17411
▁진한	-17412
▁호스	-17413
いった	-17414
▁달려가	-17415
▁장려금	-17416
▁보호구역	-17417
▁destro	-17418
TN	-17419
▁방금	-17420
▁가져왔	-17421
▁노동계	-17422
▁Sing	-17423
▁杉	-17424
▁那	-17425
마켓	-17426
oom	-17427
▁동등	-17428
▁황희	-17429
eces	-17430
▁emp	-17431
▁excess	-17432
rig	-17433
▁동경	-17434
▁슬픈	-17435
▁Expl	-17436
처분	-17437
pro	-17438
▁관철	-17439
▁대역	-17440
▁양현	-17441
▁윤상	-17442
▁이효	-17443
▁모자라	-17444
악산	-17445
▁변환	-17446
▁신랑	-17447
▁급성장	-17448
ことができる	-17449
베리	-17450
▁조사단	-17451
▁달라진다	-17452
▁plans	-17453
▁머무르	-17454
▁적절히	-17455
▁축산물	-17456
▁nuclear	-17457
▁instruct	-17458
▁medicine	-17459
▁내재	-17460
▁동인	-17461
▁돌아올	-17462
▁Engine	-17463
▁vegetables	-17464
▁極	-17465
トル	-17466
▁강판	-17467
▁마실	-17468
▁열병	-17469
▁퓨처	-17470
▁행적	-17471
▁IOC	-17472
▁영등포구	-17473
▁applied	-17474
▁극도	-17475
▁김보	-17476
▁김소	-17477
▁상반	-17478
▁엄지	-17479
▁Bus	-17480
▁아모레	-17481
▁spot	-17482
▁베스트셀러	-17483
▁限定	-17484
▁광양시	-17485
▁아가씨	-17486
バイ	-17487
▁工事	-17488
▁군위	-17489
▁형법	-17490
▁발맞춰	-17491
▁아프간	-17492
▁이승엽	-17493
▁철학자	-17494
▁이라든지	-17495
▁ocean	-17496
▁release	-17497
▁December	-17498
워진	-17499
▁인방	-17500
▁장편	-17501
▁지면	-17502
▁파행	-17503
구석	-17504
urt	-17505
▁PL	-17506
▁광산구	-17507
▁Port	-17508
▁drive	-17509
▁基本	-17510
▁기침	-17511
▁저변	-17512
▁청송	-17513
▁）（	-17514
▁중환자	-17515
▁notes	-17516
▁context	-17517
▁released	-17518
▁會	-17519
▁빼돌	-17520
▁접경	-17521
▁청계	-17522
ingu	-17523
▁농기계	-17524
▁lung	-17525
▁disorders	-17526
▁開設	-17527
▁요한	-17528
▁우월	-17529
▁저지르	-17530
▁結成	-17531
▁토론토	-17532
▁1928	-17533
IL	-17534
▁쫌	-17535
민턴	-17536
서울	-17537
▁%→	-17538
▁강당	-17539
▁독주	-17540
▁상선	-17541
▁수첩	-17542
▁가전제품	-17543
▁attract	-17544
▁낙후	-17545
▁불씨	-17546
▁스물	-17547
▁유착	-17548
▁터졌	-17549
▁수정안	-17550
▁커리어	-17551
▁制度	-17552
▁재기	-17553
▁크리	-17554
▁떡볶이	-17555
▁생물학	-17556
▁준결승	-17557
▁유서	-17558
▁현충	-17559
▁거래법	-17560
▁대상지	-17561
▁움직일	-17562
▁파이널	-17563
▁にあった	-17564
▁ㅇ	-17565
케미	-17566
ims	-17567
▁。）	-17568
▁가솔	-17569
▁몰락	-17570
▁사주	-17571
▁조계	-17572
▁긴밀히	-17573
▁직격탄	-17574
▁1935	-17575
▁sounds	-17576
▁청라	-17577
▁Def	-17578
▁김광현	-17579
▁acqu	-17580
▁견본	-17581
▁계류	-17582
▁반값	-17583
▁원년	-17584
ping	-17585
▁Dem	-17586
▁qual	-17587
▁unit	-17588
▁스코틀랜드	-17589
▁pi	-17590
▁統合	-17591
▁가액	-17592
▁바나	-17593
▁수필	-17594
▁전가	-17595
▁초상	-17596
집니다	-17597
▁기자재	-17598
▁유망주	-17599
▁저마다	-17600
▁1889	-17601
▁spect	-17602
▁가덕	-17603
▁잔인	-17604
▁촘촘	-17605
▁동호회	-17606
▁Mary	-17607
▁자연환경	-17608
▁毛	-17609
▁誉	-17610
우트	-17611
▁とし	-17612
▁연탄	-17613
▁타로	-17614
▁택했	-17615
ジャー	-17616
icip	-17617
▁湯	-17618
▁指揮	-17619
▁브레	-17620
▁이규	-17621
▁仮	-17622
하루	-17623
▁볼트	-17624
▁음향	-17625
used	-17626
▁언론인	-17627
▁치료법	-17628
▁treated	-17629
▁想	-17630
보증	-17631
aid	-17632
che	-17633
▁노골	-17634
▁フリー	-17635
▁재택근무	-17636
▁fully	-17637
▁wonder	-17638
▁chronic	-17639
▁掛	-17640
무지	-17641
lev	-17642
▁IF	-17643
▁Sl	-17644
▁마틴	-17645
▁씨티	-17646
▁スーパー	-17647
▁construct	-17648
마블	-17649
▁간다는	-17650
▁병원장	-17651
▁2027	-17652
▁monit	-17653
▁適	-17654
여대	-17655
찰청	-17656
▁본지	-17657
▁실로	-17658
▁Fre	-17659
▁SPC	-17660
▁넷마블	-17661
▁college	-17662
국적	-17663
▁변해	-17664
▁야채	-17665
▁원도	-17666
▁파스	-17667
▁항원	-17668
▁아우디	-17669
▁액세서리	-17670
보도	-17671
▁예결	-17672
aign	-17673
▁Mil	-17674
▁수목원	-17675
▁쇼트트랙	-17676
▁favor	-17677
▁테크놀로지	-17678
▁데이터베이스	-17679
▁通信	-17680
▁접점	-17681
▁채무자	-17682
▁1934	-17683
▁求	-17684
▁굳건	-17685
▁조이	-17686
ライン	-17687
▁124	-17688
▁관절염	-17689
キシ	-17690
모니	-17691
여겨	-17692
▁독성	-17693
▁멸망	-17694
▁rat	-17695
▁surgery	-17696
구장	-17697
▁協力	-17698
▁모던	-17699
▁우물	-17700
▁종양	-17701
aker	-17702
▁나아갈	-17703
▁정통부	-17704
▁주호영	-17705
abilities	-17706
▁김구	-17707
rief	-17708
▁Hen	-17709
▁발사체	-17710
▁religious	-17711
▁차명	-17712
▁추방	-17713
▁필기	-17714
tical	-17715
▁Phot	-17716
▁trig	-17717
▁vaccine	-17718
▁姓	-17719
▁民主	-17720
▁청담	-17721
▁Who	-17722
▁로맨틱	-17723
▁song	-17724
▁Information	-17725
▁跡	-17726
▁송구	-17727
▁엿볼	-17728
▁행하	-17729
phas	-17730
▁세계인	-17731
▁충주시	-17732
▁Last	-17733
▁대검찰청	-17734
mitted	-17735
▁experiences	-17736
권력	-17737
▁ブロ	-17738
▁分類	-17739
▁더군요	-17740
▁보험업	-17741
▁서포터	-17742
▁유난히	-17743
▁grass	-17744
▁{{{#!	-17745
▁changing	-17746
▁내성	-17747
▁도주	-17748
▁베드	-17749
▁사학	-17750
▁유능	-17751
▁차체	-17752
▁폭등	-17753
▁誕	-17754
▁문법	-17755
▁샌디	-17756
▁징후	-17757
ジナル	-17758
▁다가왔	-17759
▁저렇게	-17760
▁징역형	-17761
▁전해진다	-17762
▁stream	-17763
다운	-17764
▁감리	-17765
▁유비	-17766
▁나경원	-17767
절기	-17768
▁깔려	-17769
▁장동	-17770
▁최성	-17771
▁눈여겨	-17772
▁연기자	-17773
ander	-17774
atform	-17775
▁seven	-17776
쿠르	-17777
▁구슬	-17778
▁색채	-17779
▁청각	-17780
▁친숙	-17781
▁혈당	-17782
▁pul	-17783
▁가솔린	-17784
▁Free	-17785
▁instance	-17786
でも	-17787
▁축복	-17788
oses	-17789
▁までの	-17790
▁Const	-17791
▁absor	-17792
▁detect	-17793
▁female	-17794
▁GC	-17795
▁초안	-17796
▁해준다	-17797
▁allowed	-17798
▁challenge	-17799
산동	-17800
▁섞인	-17801
▁승률	-17802
▁남해안	-17803
▁벌어질	-17804
▁이건희	-17805
▁ニューヨーク	-17806
돋움	-17807
▁競走	-17808
▁벌일	-17809
▁조롱	-17810
▁발돋움	-17811
▁벗어날	-17812
▁유니버	-17813
▁배드민턴	-17814
▁cycle	-17815
▁메달리스트	-17816
ographic	-17817
▁펌프	-17818
▁rot	-17819
▁선제골	-17820
▁perhaps	-17821
▁扱	-17822
▁突	-17823
▁담론	-17824
▁휘말	-17825
▁Cle	-17826
▁법무법인	-17827
▁換	-17828
행위	-17829
▁도울	-17830
▁드로	-17831
▁샘플	-17832
▁수박	-17833
▁푸르지오	-17834
▁former	-17835
▁complic	-17836
▁적폐	-17837
▁좁혀	-17838
▁worked	-17839
순환	-17840
▁アクセ	-17841
▁중앙선	-17842
▁Dist	-17843
▁flood	-17844
▁고공	-17845
▁심심	-17846
▁에듀	-17847
▁요코	-17848
▁이세	-17849
▁정현	-17850
▁커진다	-17851
▁letter	-17852
▁KC	-17853
▁도피	-17854
▁두뇌	-17855
▁짜증	-17856
▁패소	-17857
▁흘렸	-17858
▁CGV	-17859
▁USA	-17860
▁지주사	-17861
▁peace	-17862
▁remove	-17863
▁hearing	-17864
하마	-17865
▁BA	-17866
▁서재	-17867
▁강수량	-17868
▁희망자	-17869
▁姫	-17870
▁澤	-17871
▁雨	-17872
▁깊숙	-17873
▁놀란	-17874
▁우뚝	-17875
▁토리	-17876
▁행정관	-17877
▁bottom	-17878
▁credit	-17879
▁formed	-17880
▁味	-17881
クラ	-17882
▁촉촉	-17883
▁나뉜다	-17884
▁지하수	-17885
apers	-17886
▁고로	-17887
▁구절	-17888
▁교육비	-17889
▁리포트	-17890
▁매립지	-17891
▁바우처	-17892
▁drop	-17893
▁파이낸셜	-17894
▁factor	-17895
▁Mr	-17896
▁내몰	-17897
▁die	-17898
▁레시피	-17899
▁무승부	-17900
▁평가전	-17901
▁graph	-17902
ウム	-17903
가와	-17904
미르	-17905
ees	-17906
▁KO	-17907
▁비빔	-17908
▁기획사	-17909
▁바꿔야	-17910
▁지난번	-17911
▁이화여대	-17912
▁占	-17913
▁王座	-17914
▁잠들	-17915
▁대표자	-17916
▁콜라보	-17917
▁국제기구	-17918
elines	-17919
▁George	-17920
▁Medical	-17921
성동	-17922
▁JP	-17923
▁세정	-17924
▁Fol	-17925
▁pip	-17926
▁아울렛	-17927
▁인증서	-17928
▁round	-17929
▁direction	-17930
라노	-17931
▁루이	-17932
▁카운트	-17933
ワー	-17934
저리	-17935
▁東北	-17936
▁마녀	-17937
▁방화	-17938
▁증식	-17939
▁추리	-17940
pped	-17941
▁내려갔	-17942
▁벌금형	-17943
▁앞바다	-17944
▁commercial	-17945
▁sustainable	-17946
▁劉	-17947
쳐서	-17948
▁끄덕	-17949
▁도립	-17950
▁민법	-17951
▁밀레	-17952
▁자위	-17953
▁중상	-17954
▁탈북자	-17955
▁existing	-17956
▁beautiful	-17957
▁낱	-17958
▁대웅	-17959
▁세척	-17960
▁팔렸	-17961
▁직거래	-17962
▁1918	-17963
▁받아들였	-17964
▁strategies	-17965
▁애리	-17966
▁자취	-17967
▁occup	-17968
▁Management	-17969
cop	-17970
▁은근	-17971
▁고구마	-17972
▁1931	-17973
EE	-17974
꿈치	-17975
▁낙선	-17976
▁셔틀	-17977
▁becoming	-17978
퇴직	-17979
rim	-17980
▁강철	-17981
▁브랜	-17982
▁주심	-17983
▁차리	-17984
▁보안법	-17985
▁1926	-17986
ologists	-17987
▁操	-17988
▁경청	-17989
▁のうち	-17990
▁のように	-17991
워졌	-17992
▁書房	-17993
▁거버	-17994
▁최전	-17995
▁목적지	-17996
▁cand	-17997
▁도왔	-17998
▁바랐	-17999
▁Ver	-18000
▁Vis	-18001
▁핸드폰	-18002
▁1925	-18003
▁童	-18004
▁mg	-18005
▁大臣	-18006
▁명사	-18007
▁직관	-18008
▁터진	-18009
▁배당금	-18010
▁智	-18011
▁犬	-18012
▁렛	-18013
▁CR	-18014
▁그친	-18015
▁리어	-18016
▁종편	-18017
▁패치	-18018
▁디테일	-18019
▁끌어올렸	-18020
▁Roman	-18021
▁risks	-18022
지수	-18023
▁~)	-18024
82	-18025
정지	-18026
▁격렬	-18027
▁예언	-18028
▁울음	-18029
▁하하	-18030
▁달서구	-18031
▁연평도	-18032
▁으라고	-18033
▁intellig	-18034
▁간신	-18035
▁까진	-18036
▁사리	-18037
▁이천	-18038
チーム	-18039
▁upd	-18040
▁샐러드	-18041
▁와일드	-18042
▁Germany	-18043
▁perspect	-18044
▁冬	-18045
▁岸	-18046
뉴스	-18047
▁물동	-18048
▁포식	-18049
▁유학생	-18050
▁load	-18051
▁majority	-18052
▁牧	-18053
거지	-18054
▁以前	-18055
▁연달	-18056
▁Know	-18057
▁alternative	-18058
▁申	-18059
▁겸손	-18060
▁일컫	-18061
▁주지	-18062
▁Fam	-18063
▁액티브	-18064
▁Open	-18065
▁oxygen	-18066
니지	-18067
▁完全	-18068
▁미비	-18069
▁임실	-18070
▁지평	-18071
▁무너졌	-18072
▁치러진	-18073
▁Miss	-18074
▁gets	-18075
▁ニュース	-18076
riculum	-18077
▁候補	-18078
▁꾀하	-18079
▁대요	-18080
▁신하	-18081
▁윤영	-18082
▁Old	-18083
▁wid	-18084
▁왔으며	-18085
▁조건부	-18086
▁functions	-18087
▁殿	-18088
▁茂	-18089
▁구이	-18090
▁인맥	-18091
▁하우	-18092
▁WTO	-18093
▁den	-18094
▁aware	-18095
▁status	-18096
▁happens	-18097
▁똥	-18098
▁IA	-18099
▁ドラ	-18100
▁뒤지	-18101
▁유영	-18102
니스탄	-18103
OA	-18104
▁茨	-18105
▁각성	-18106
▁땅볼	-18107
▁성모	-18108
▁최진	-18109
eles	-18110
▁Group	-18111
▁linked	-18112
▁reducing	-18113
용수	-18114
▁불상	-18115
▁사방	-18116
▁원본	-18117
▁타카	-18118
▁통운	-18119
▁글쓰기	-18120
▁동물원	-18121
▁Gold	-18122
▁exhib	-18123
▁organizations	-18124
▁姉	-18125
과이	-18126
▁새삼	-18127
▁식별	-18128
▁철원	-18129
▁Adv	-18130
▁플라자	-18131
▁1923	-18132
▁러시아군	-18133
▁exactly	-18134
▁encourage	-18135
마리	-18136
▁강풍	-18137
▁법치	-18138
▁인위	-18139
▁최원	-18140
▁라든가	-18141
▁온전히	-18142
▁롯데월드	-18143
▁壊	-18144
ひと	-18145
상스	-18146
uro	-18147
▁그랜	-18148
▁김호	-18149
▁마그	-18150
▁매몰	-18151
▁급기야	-18152
▁날아가	-18153
▁compar	-18154
▁脱	-18155
▁魚	-18156
브리	-18157
▁ビル	-18158
▁각본	-18159
▁동요	-18160
▁아테	-18161
▁이즈	-18162
▁호투	-18163
▁라든지	-18164
▁튀어나	-18165
▁Texas	-18166
▁covered	-18167
▁experts	-18168
rab	-18169
▁왕성	-18170
▁Any	-18171
▁목표치	-18172
▁starting	-18173
로리	-18174
▁著書	-18175
▁바짝	-18176
▁실세	-18177
▁제명	-18178
▁훗날	-18179
▁기념품	-18180
▁스토킹	-18181
▁위스키	-18182
▁이사회	-18183
ession	-18184
▁신세계백화점	-18185
▁動物	-18186
▁숙련	-18187
▁열광	-18188
▁음란	-18189
▁fix	-18190
▁올라와	-18191
▁Robert	-18192
▁鶴	-18193
▁네오	-18194
▁레스	-18195
▁무거	-18196
▁철새	-18197
▁Cap	-18198
▁걸어서	-18199
[...]
