[PAD]	0
[UNK]	0
[BOS]	0
[EOS]	0
[SEP]	0
[MASK]	0
<0x00>	0
<0x01>	0
<0x02>	0
<0x03>	0
<0x04>	0
<0x05>	0
<0x06>	0
<0x07>	0
<0x08>	0
<0x09>	0
<0x0A>	0
<0x0B>	0
<0x0C>	0
<0x0D>	0
<0x0E>	0
<0x0F>	0
<0x10>	0
<0x11>	0
<0x12>	0
<0x13>	0
<0x14>	0
<0x15>	0
<0x16>	0
<0x17>	0
<0x18>	0
<0x19>	0
<0x1A>	0
<0x1B>	0
<0x1C>	0
<0x1D>	0
<0x1E>	0
<0x1F>	0
<0x20>	0
<0x21>	0
<0x22>	0
<0x23>	0
<0x24>	0
<0x25>	0
<0x26>	0
<0x27>	0
<0x28>	0
<0x29>	0
<0x2A>	0
<0x2B>	0
<0x2C>	0
<0x2D>	0
<0x2E>	0
<0x2F>	0
<0x30>	0
<0x31>	0
<0x32>	0
<0x33>	0
<0x34>	0
<0x35>	0
<0x36>	0
<0x37>	0
<0x38>	0
<0x39>	0
<0x3A>	0
<0x3B>	0
<0x3C>	0
<0x3D>	0
<0x3E>	0
<0x3F>	0
<0x40>	0
<0x41>	0
<0x42>	0
<0x43>	0
<0x44>	0
<0x45>	0
<0x46>	0
<0x47>	0
<0x48>	0
<0x49>	0
<0x4A>	0
<0x4B>	0
<0x4C>	0
<0x4D>	0
<0x4E>	0
<0x4F>	0
<0x50>	0
<0x51>	0
<0x52>	0
<0x53>	0
<0x54>	0
<0x55>	0
<0x56>	0
<0x57>	0
<0x58>	0
<0x59>	0
<0x5A>	0
<0x5B>	0
<0x5C>	0
<0x5D>	0
<0x5E>	0
<0x5F>	0
<0x60>	0
<0x61>	0
<0x62>	0
<0x63>	0
<0x64>	0
<0x65>	0
<0x66>	0
<0x67>	0
<0x68>	0
<0x69>	0
<0x6A>	0
<0x6B>	0
<0x6C>	0
<0x6D>	0
<0x6E>	0
<0x6F>	0
<0x70>	0
<0x71>	0
<0x72>	0
<0x73>	0
<0x74>	0
<0x75>	0
<0x76>	0
<0x77>	0
<0x78>	0
<0x79>	0
<0x7A>	0
<0x7B>	0
<0x7C>	0
<0x7D>	0
<0x7E>	0
<0x7F>	0
<0x80>	0
<0x81>	0
<0x82>	0
<0x83>	0
<0x84>	0
<0x85>	0
<0x86>	0
<0x87>	0
<0x88>	0
<0x89>	0
<0x8A>	0
<0x8B>	0
<0x8C>	0
<0x8D>	0
<0x8E>	0
<0x8F>	0
<0x90>	0
<0x91>	0
<0x92>	0
<0x93>	0
<0x94>	0
<0x95>	0
<0x96>	0
<0x97>	0
<0x98>	0
<0x99>	0
<0x9A>	0
<0x9B>	0
<0x9C>	0
<0x9D>	0
<0x9E>	0
<0x9F>	0
<0xA0>	0
<0xA1>	0
<0xA2>	0
<0xA3>	0
<0xA4>	0
<0xA5>	0
<0xA6>	0
<0xA7>	0
<0xA8>	0
<0xA9>	0
<0xAA>	0
<0xAB>	0
<0xAC>	0
<0xAD>	0
<0xAE>	0
<0xAF>	0
<0xB0>	0
<0xB1>	0
<0xB2>	0
<0xB3>	0
<0xB4>	0
<0xB5>	0
<0xB6>	0
<0xB7>	0
<0xB8>	0
<0xB9>	0
<0xBA>	0
<0xBB>	0
<0xBC>	0
<0xBD>	0
<0xBE>	0
<0xBF>	0
<0xC0>	0
<0xC1>	0
<0xC2>	0
<0xC3>	0
<0xC4>	0
<0xC5>	0
<0xC6>	0
<0xC7>	0
<0xC8>	0
<0xC9>	0
<0xCA>	0
<0xCB>	0
<0xCC>	0
<0xCD>	0
<0xCE>	0
<0xCF>	0
<0xD0>	0
<0xD1>	0
<0xD2>	0
<0xD3>	0
<0xD4>	0
<0xD5>	0
<0xD6>	0
<0xD7>	0
<0xD8>	0
<0xD9>	0
<0xDA>	0
<0xDB>	0
<0xDC>	0
<0xDD>	0
<0xDE>	0
<0xDF>	0
<0xE0>	0
<0xE1>	0
<0xE2>	0
<0xE3>	0
<0xE4>	0
<0xE5>	0
<0xE6>	0
<0xE7>	0
<0xE8>	0
<0xE9>	0
<0xEA>	0
<0xEB>	0
<0xEC>	0
<0xED>	0
<0xEE>	0
<0xEF>	0
<0xF0>	0
<0xF1>	0
<0xF2>	0
<0xF3>	0
<0xF4>	0
<0xF5>	0
<0xF6>	0
<0xF7>	0
<0xF8>	0
<0xF9>	0
<0xFA>	0
<0xFB>	0
<0xFC>	0
<0xFD>	0
<0xFE>	0
<0xFF>	0
▁이	-0
▁t	-1
▁있	-2
으로	-3
▁1	-4
▁대	-5
▁a	-6
he	-7
▁지	-8
에서	-9
in	-10
했다	-11
▁수	-12
▁사	-13
▁2	-14
▁그	-15
▁전	-16
▁기	-17
re	-18
▁것	-19
▁한	-20
▁가	-21
▁시	-22
on	-23
▁the	-24
하는	-25
▁“	-26
▁등	-27
er	-28
▁아	-29
▁있다	-30
▁정	-31
at	-32
▁s	-33
이다	-34
▁o	-35
▁보	-36
▁‘	-37
하고	-38
▁경	-39
00	-40
▁자	-41
en	-42
▁주	-43
▁c	-44
▁공	-45
▁중	-46
▁제	-47
▁인	-48
▁위	-49
es	-50
▁w	-51
▁다	-52
an	-53
▁나	-54
is	-55
▁부	-56
▁하	-57
▁일	-58
or	-59
it	-60
▁상	-61
▁3	-62
al	-63
▁p	-64
▁국	-65
▁an	-66
▁관	-67
▁b	-68
▁f	-69
ing	-70
ed	-71
▁내	-72
ou	-73
▁of	-74
▁조	-75
▁선	-76
ar	-77
▁유	-78
▁모	-79
▁의	-80
▁오	-81
▁in	-82
▁소	-83
▁고	-84
▁어	-85
▁말	-86
▁m	-87
▁비	-88
▁해	-89
▁최	-90
▁연	-91
▁개	-92
▁마	-93
▁to	-94
▁있는	-95
ic	-96
▁신	-97
▁and	-98
▁않	-99
이라	-100
▁여	-101
▁20	-102
▁d	-103
▁미	-104
▁없	-105
ion	-106
한다	-107
▁통	-108
▁발	-109
었다	-110
▁만	-111
▁서	-112
▁우	-113
..	-114
▁예	-115
▁구	-116
▁방	-117
▁안	-118
▁때	-119
▁'	-120
▁4	-121
le	-122
▁거	-123
▁도	-124
지만	-125
▁5	-126
▁생	-127
ro	-128
▁강	-129
까지	-130
▁동	-131
▁지난	-132
as	-133
▁"	-134
▁진	-135
▁현	-136
▁세	-137
▁문	-138
▁영	-139
면서	-140
들이	-141
▁실	-142
▁바	-143
▁성	-144
▁확	-145
▁T	-146
▁김	-147
▁무	-148
▁원	-149
▁교	-150
▁h	-151
ent	-152
▁분	-153
▁th	-154
▁A	-155
에게	-156
부터	-157
▁S	-158
▁장	-159
▁결	-160
▁따	-161
▁추	-162
니다	-163
▁스	-164
▁계	-165
적인	-166
▁후	-167
▁재	-168
il	-169
▁당	-170
▁불	-171
▁대한	-172
ct	-173
▁올	-174
된다	-175
▁감	-176
▁e	-177
에는	-178
▁반	-179
▁6	-180
▁19	-181
om	-182
▁더	-183
▁특	-184
적으로	-185
▁또	-186
▁노	-187
▁받	-188
▁위해	-189
ve	-190
▁차	-191
▁re	-192
▁같	-193
▁l	-194
다는	-195
▁(	-196
st	-197
▁매	-198
▁되	-199
▁출	-200
▁n	-201
▁-	-202
▁적	-203
▁많	-204
▁C	-205
하게	-206
▁것으로	-207
▁설	-208
▁201	-209
▁I	-210
ol	-211
▁역	-212
▁입	-213
▁밝	-214
▁남	-215
▁건	-216
▁단	-217
하기	-218
▁7	-219
et	-220
▁배	-221
▁회	-222
▁is	-223
▁말했다	-224
됐다	-225
▁10	-226
▁참	-227
▁한국	-228
▁학	-229
▁들	-230
▁통해	-231
ly	-232
들의	-233
▁알	-234
▁한다	-235
이라고	-236
▁과	-237
▁8	-238
19	-239
▁달	-240
▁포	-241
▁했다	-242
▁행	-243
들은	-244
▁g	-245
▁사람	-246
▁열	-247
▁운	-248
se	-249
▁활	-250
▁저	-251
▁및	-252
20	-253
▁평	-254
▁작	-255
▁물	-256
▁be	-257
았다	-258
id	-259
▁투	-260
ation	-261
▁직	-262
▁두	-263
▁함	-264
im	-265
▁지역	-266
혔다	-267
▁금	-268
▁M	-269
▁요	-270
▁프	-271
ch	-272
▁박	-273
장은	-274
▁할	-275
▁때문	-276
ut	-277
ur	-278
ow	-279
▁9	-280
ce	-281
하다	-282
▁집	-283
▁앞	-284
ot	-285
▁밝혔다	-286
ra	-287
▁외	-288
▁못	-289
▁청	-290
▁증	-291
▁y	-292
ig	-293
▁총	-294
라고	-295
▁높	-296
▁피	-297
▁대해	-298
▁사업	-299
였다	-300
▁우리	-301
▁코	-302
▁아니	-303
자는	-304
▁B	-305
000	-306
▁민	-307
▁for	-308
▁새	-309
▁명	-310
▁P	-311
▁지원	-312
▁점	-313
▁파	-314
...	-315
▁u	-316
▁st	-317
▁함께	-318
▁초	-319
▁이어	-320
▁on	-321
▁판	-322
▁산	-323
▁필	-324
ver	-325
▁양	-326
▁하는	-327
▁경우	-328
에도	-329
▁맞	-330
기를	-331
▁대표	-332
▁것이	-333
▁각	-334
▁that	-335
▁검	-336
▁좋	-337
▁그러	-338
▁The	-339
에서는	-340
▁게	-341
▁L	-342
▁서울	-343
하지	-344
도록	-345
ir	-346
ay	-347
am	-348
▁본	-349
▁임	-350
겠다	-351
는데	-352
▁정부	-353
▁위한	-354
▁것이다	-355
▁이번	-356
▁화	-357
▁미국	-358
▁데	-359
▁변	-360
▁200	-361
보다	-362
▁심	-363
▁이상	-364
▁생각	-365
el	-366
▁관련	-367
▁목	-368
으며	-369
▁간	-370
ul	-371
▁체	-372
통령	-373
▁살	-374
),	-375
▁you	-376
▁관계	-377
▁같은	-378
▁처	-379
▁문제	-380
▁법	-381
사를	-382
위원	-383
▁가능	-384
▁협	-385
억원	-386
장을	-387
▁진행	-388
▁환	-389
▁업	-390
습니다	-391
이나	-392
▁따라	-393
▁D	-394
▁대통령	-395
▁E	-396
▁규	-397
▁등을	-398
▁are	-399
하며	-400
ad	-401
ith	-402
▁종	-403
들을	-404
▁기업	-405
라는	-406
리는	-407
▁광	-408
▁이후	-409
리고	-410
▁W	-411
▁K	-412
▁pro	-413
졌다	-414
▁F	-415
▁as	-416
▁경기	-417
되는	-418
her	-419
▁치	-420
대로	-421
▁들어	-422
▁근	-423
▁취	-424
▁삼	-425
▁뒤	-426
▁약	-427
▁타	-428
▁H	-429
▁지난해	-430
▁시작	-431
리를	-432
▁충	-433
if	-434
▁이날	-435
▁드	-436
▁속	-437
▁것은	-438
▁필요	-439
▁잘	-440
▁12	-441
하면	-442
▁손	-443
▁with	-444
▁의원	-445
od	-446
▁합	-447
▁con	-448
▁호	-449
▁11	-450
ter	-451
▁it	-452
▁돌	-453
▁올해	-454
지는	-455
▁프로	-456
▁or	-457
해야	-458
nd	-459
▁크	-460
사업	-461
▁상황	-462
▁리	-463
▁가장	-464
ge	-465
▁자신	-466
▁채	-467
▁계획	-468
▁세계	-469
▁G	-470
▁al	-471
▁wh	-472
ᄏᄏ	-473
성을	-474
▁N	-475
▁줄	-476
력을	-477
▁중국	-478
th	-479
▁창	-480
▁에	-481
▁있어	-482
▁때문에	-483
▁국민	-484
▁국내	-485
자가	-486
▁교육	-487
▁R	-488
▁없다	-489
▁다른	-490
지를	-491
▁사용	-492
▁그는	-493
▁예정	-494
▁운영	-495
▁카	-496
op	-497
기업	-498
▁준	-499
▁만들	-500
▁음	-501
▁아이	-502
ment	-503
하여	-504
비스	-505
▁편	-506
▁후보	-507
▁완	-508
만원	-509
▁북	-510
▁늘	-511
▁걸	-512
▁표	-513
▁찾	-514
지고	-515
▁된다	-516
ill	-517
▁담	-518
▁순	-519
▁사회	-520
▁농	-521
▁추진	-522
▁논	-523
▁대상	-524
로나	-525
ers	-526
▁복	-527
▁넘	-528
장이	-529
이라는	-530
▁그런	-531
ate	-532
▁번	-533
▁군	-534
ess	-535
기에	-536
▁모두	-537
▁사실	-538
us	-539
▁최근	-540
스트	-541
ab	-542
▁큰	-543
ore	-544
▁독	-545
▁현재	-546
▁온	-547
ist	-548
▁특히	-549
르면	-550
▁다양	-551
▁일본	-552
▁he	-553
▁누	-554
학교	-555
서는	-556
▁승	-557
▁de	-558
▁언	-559
▁하지만	-560
して	-561
▁하고	-562
した	-563
ies	-564
um	-565
레이	-566
하면서	-567
▁15	-568
▁30	-569
▁형	-570
▁경제	-571
▁결과	-572
ac	-573
ect	-574
▁ex	-575
성이	-576
▁접	-577
센터	-578
정을	-579
회의	-580
▁것을	-581
▁하나	-582
▁메	-583
렇게	-584
ke	-585
이고	-586
는다	-587
▁많은	-588
▁지금	-589
▁투자	-590
▁토	-591
▁이용	-592
ity	-593
▁com	-594
est	-595
▁네	-596
▁친	-597
▁국가	-598
니까	-599
은행	-600
ure	-601
▁개발	-602
▁v	-603
ive	-604
▁했	-605
▁we	-606
▁정도	-607
▁힘	-608
▁따르면	-609
처럼	-610
화를	-611
▁절	-612
and	-613
사는	-614
들에게	-615
▁이런	-616
▁시간	-617
▁18	-618
▁책	-619
▁될	-620
os	-621
▁설명	-622
▁식	-623
▁권	-624
▁참여	-625
▁기록	-626
▁태	-627
▁연구	-628
▁향	-629
ld	-630
▁없는	-631
▁O	-632
▁눈	-633
em	-634
▁다양한	-635
▁백	-636
▁갖	-637
되고	-638
▁첫	-639
▁can	-640
ant	-641
rom	-642
▁전문	-643
▁디	-644
▁시장	-645
▁글	-646
▁축	-647
nt	-648
기가	-649
사가	-650
시아	-651
시간	-652
(1	-653
ud	-654
qu	-655
▁△	-656
거나	-657
igh	-658
され	-659
▁항	-660
▁브	-661
▁선수	-662
로운	-663
왔다	-664
▁기술	-665
▁발생	-666
기도	-667
iv	-668
pp	-669
▁효	-670
▁ha	-671
▁날	-672
상을	-673
▁아니라	-674
ain	-675
▁at	-676
▁su	-677
▁기준	-678
▁홍	-679
이었다	-680
▁코로나	-681
▁다시	-682
▁제공	-683
▁관계자는	-684
▁허	-685
▁by	-686
▁라	-687
리가	-688
교육	-689
에서도	-690
oc	-691
▁ch	-692
가는	-693
▁윤	-694
ort	-695
▁있도록	-696
▁많이	-697
▁용	-698
▁야	-699
▁있었다	-700
자의	-701
지역	-702
▁ne	-703
▁트	-704
랜드	-705
▁애	-706
un	-707
▁기대	-708
▁그러나	-709
▁증가	-710
▁버	-711
▁U	-712
▁r	-713
▁막	-714
▁from	-715
시장	-716
▁질	-717
▁그래	-718
▁확대	-719
위원회	-720
▁로	-721
▁측	-722
▁폭	-723
으면	-724
이는	-725
10	-726
▁평가	-727
▁철	-728
운데	-729
▁싶	-730
▁이에	-731
▁학생	-732
▁곳	-733
▁커	-734
▁최고	-735
렸다	-736
▁발표	-737
▁나타	-738
▁보고	-739
▁너	-740
▁벌	-741
▁서비스	-742
する	-743
▁마련	-744
▁활동	-745
▁부산	-746
▁먹	-747
ial	-748
▁13	-749
った	-750
art	-751
res	-752
▁뭐	-753
▁그리고	-754
▁있을	-755
▁16	-756
▁끝	-757
▁모든	-758
▁이제	-759
그램	-760
ある	-761
▁최대	-762
▁전국	-763
주의	-764
▁정치	-765
0%	-766
▁금융	-767
▁se	-768
▁내용	-769
▁가운데	-770
▁당시	-771
다고	-772
▁급	-773
▁피해	-774
0.	-775
▁le	-776
▁14	-777
▁확인	-778
이라며	-779
▁느	-780
▁정책	-781
들과	-782
▁또한	-783
▁다음	-784
▁민주	-785
▁안전	-786
▁202	-787
▁등의	-788
▁모습	-789
▁병	-790
▁사이	-791
씨는	-792
▁삼성	-793
▁중요	-794
og	-795
(2	-796
▁이유	-797
▁예정이다	-798
▁문화	-799
▁패	-800
자를	-801
▁이를	-802
▁was	-803
기는	-804
▁천	-805
▁얼	-806
▁J	-807
산업	-808
▁한편	-809
▁have	-810
▁17	-811
▁경찰	-812
명이	-813
▁포함	-814
▁있다는	-815
▁100	-816
▁199	-817
▁잡	-818
▁판매	-819
▁빠	-820
해서	-821
▁쓰	-822
▁시민	-823
▁어려	-824
▁플	-825
ical	-826
いる	-827
▁좀	-828
▁활용	-829
회를	-830
▁볼	-831
▁규모	-832
▁등이	-833
하겠다	-834
▁제품	-835
인다	-836
기관	-837
▁강조	-838
났다	-839
▁전망	-840
▁영화	-841
▁오는	-842
▁마음	-843
부는	-844
▁면	-845
했던	-846
▁추가	-847
▁베	-848
▁처음	-849
▁결정	-850
▁en	-851
ri	-852
▁sh	-853
▁강화	-854
▁산업	-855
▁not	-856
▁갈	-857
▁주민	-858
사의	-859
▁길	-860
▁공개	-861
▁직접	-862
から	-863
▁생산	-864
▁대구	-865
▁대비	-866
도를	-867
pe	-868
원은	-869
인이	-870
치를	-871
▁현대	-872
식을	-873
▁있었	-874
▁수도	-875
▁알려	-876
ight	-877
▁골	-878
▁않고	-879
▁25	-880
으나	-881
▁수준	-882
▁감독	-883
▁조사	-884
日本	-885
▁어떤	-886
▁중심	-887
▁환경	-888
▁월	-889
시설	-890
▁In	-891
▁국제	-892
▁분석	-893
all	-894
▁학교	-895
▁지적	-896
▁this	-897
▁동안	-898
문화	-899
마트	-900
▁지속	-901
▁wor	-902
수는	-903
기로	-904
라인	-905
▁새로운	-906
▁ab	-907
▁경쟁	-908
▁이미	-909
▁극	-910
▁구성	-911
원을	-912
명을	-913
rou	-914
위를	-915
원이	-916
▁여러	-917
▁대학	-918
▁준비	-919
our	-920
▁고객	-921
제로	-922
안을	-923
▁관심	-924
했고	-925
시는	-926
▁범	-927
%)	-928
▁오후	-929
의를	-930
ine	-931
▁선정	-932
▁your	-933
▁사건	-934
▁때문이다	-935
201	-936
▁프로그램	-937
▁정보	-938
out	-939
▁전체	-940
ome	-941
했다고	-942
▁울	-943
30	-944
▁가격	-945
어요	-946
."	-947
▁상승	-948
ost	-949
per	-950
▁공동	-951
▁좋은	-952
▁않은	-953
du	-954
ag	-955
pt	-956
▁존	-957
▁주장	-958
▁이야	-959
▁분야	-960
▁일부	-961
▁방송	-962
▁주요	-963
▁개선	-964
▁이렇게	-965
▁북한	-966
▁계속	-967
어나	-968
▁됐다	-969
▁요구	-970
▁높은	-971
연구	-972
▁엄	-973
▁낮	-974
력이	-975
▁키	-976
점을	-977
ich	-978
ard	-979
▁적극	-980
이지	-981
▁us	-982
▁k	-983
ions	-984
▁도시	-985
ere	-986
▁im	-987
▁계획이다	-988
▁떠	-989
스템	-990
로벌	-991
▁받아	-992
지원	-993
▁pl	-994
▁떨	-995
▁:	-996
리아	-997
ould	-998
▁인천	-999
▁해당	-1000
인의	-1001
gh	-1002
ff	-1003
ell	-1004
▁송	-1005
▁의미	-1006
전을	-1007
일부터	-1008
▁성장	-1009
▁핵	-1010
▁예상	-1011
▁<	-1012
▁과정	-1013
▁육	-1014
▁찾아	-1015
▁방문	-1016
ear	-1017
▁지방	-1018
▁영향	-1019
▁기존	-1020
▁소비	-1021
▁된	-1022
라도	-1023
▁폐	-1024
▁광주	-1025
act	-1026
▁만큼	-1027
ak	-1028
이며	-1029
▁성공	-1030
って	-1031
▁적용	-1032
▁팀	-1033
▁응	-1034
환경	-1035
관리	-1036
이스	-1037
▁상태	-1038
개월	-1039
age	-1040
금을	-1041
▁몰	-1042
▁만들어	-1043
▁테	-1044
▁해외	-1045
▁나오	-1046
▁없이	-1047
▁열린	-1048
▁물론	-1049
ther	-1050
▁여성	-1051
▁별	-1052
대를	-1053
▁않았다	-1054
▁24	-1055
▁Th	-1056
pl	-1057
일까지	-1058
도가	-1059
.5	-1060
되어	-1061
▁개최	-1062
▁생활	-1063
▁21	-1064
▁있고	-1065
주는	-1066
ide	-1067
are	-1068
▁미래	-1069
제를	-1070
시에	-1071
▁황	-1072
▁자신의	-1073
▁기간	-1074
▁탄	-1075
▁돌아	-1076
▁난	-1077
▁선거	-1078
대표	-1079
▁잠	-1080
▁관리	-1081
▁설명했다	-1082
ated	-1083
▁일반	-1084
▁확보	-1085
▁조성	-1086
ast	-1087
사회	-1088
도로	-1089
이트	-1090
▁their	-1091
▁효과	-1092
▁검찰	-1093
지가	-1094
▁보여	-1095
▁역시	-1096
기술	-1097
ood	-1098
시키	-1099
▁비롯	-1100
▁더욱	-1101
▁너무	-1102
ust	-1103
▁부분	-1104
경제	-1105
선을	-1106
▁희	-1107
개발	-1108
▁아닌	-1109
▁특별	-1110
▁않는	-1111
파트	-1112
▁되는	-1113
▁int	-1114
▁행정	-1115
▁역할	-1116
▁어떻	-1117
▁앞서	-1118
▁will	-1119
도시	-1120
▁혐	-1121
▁레	-1122
ans	-1123
원의	-1124
입니다	-1125
나라	-1126
국의	-1127
▁작품	-1128
명의	-1129
▁휴	-1130
▁보면	-1131
▁등에	-1132
▁맡	-1133
▁그래서	-1134
진다	-1135
▁설치	-1136
혁신	-1137
▁머	-1138
▁내년	-1139
▁놓	-1140
▁클	-1141
▁V	-1142
밖에	-1143
장의	-1144
▁대상으로	-1145
▁홈	-1146
▁얻	-1147
▁글로벌	-1148
▁얘	-1149
▁they	-1150
▁업무	-1151
▁whe	-1152
▁죽	-1153
50	-1154
▁페	-1155
▁밀	-1156
▁떨어	-1157
이터	-1158
▁바로	-1159
▁침	-1160
▁어떻게	-1161
▁장관	-1162
ia	-1163
▁이름	-1164
▁가족	-1165
▁보인다	-1166
수를	-1167
▁상품	-1168
▁▲	-1169
.”	-1170
▁사랑	-1171
12	-1172
▁국회	-1173
인은	-1174
▁씨	-1175
▁실시	-1176
▁more	-1177
iz	-1178
▁공급	-1179
냈다	-1180
▁22	-1181
▁악	-1182
리에	-1183
▁있다고	-1184
▁콘	-1185
▁신청	-1186
▁몸	-1187
라며	-1188
동차	-1189
인을	-1190
▁대응	-1191
ru	-1192
▁인터	-1193
▁건강	-1194
▁지난달	-1195
▁우려	-1196
자로	-1197
cc	-1198
▁매출	-1199
ult	-1200
▁집중	-1201
르는	-1202
end	-1203
▁돈	-1204
ie	-1205
▁왜	-1206
▁뉴	-1207
장에서	-1208
단체	-1209
▁나온	-1210
▁책임	-1211
겠다는	-1212
▁예산	-1213
ong	-1214
▁개인	-1215
▁dis	-1216
▁목표	-1217
ib	-1218
▁ad	-1219
ous	-1220
▁유지	-1221
▁귀	-1222
동을	-1223
▁배우	-1224
▁구축	-1225
▁inc	-1226
▁그렇	-1227
11	-1228
▁시행	-1229
수가	-1230
사에	-1231
▁23	-1232
▁관광	-1233
동안	-1234
200	-1235
vel	-1236
부가	-1237
▁먼	-1238
감을	-1239
▁긴	-1240
치는	-1241
▁뿐	-1242
▁198	-1243
▁강조했다	-1244
드는	-1245
▁all	-1246
▁노력	-1247
ild	-1248
▁뜻	-1249
▁이뤄	-1250
너지	-1251
▁경영	-1252
▁comp	-1253
▁which	-1254
▁의견	-1255
▁민주당	-1256
▁do	-1257
스는	-1258
▁50	-1259
ater	-1260
가지	-1261
움을	-1262
ip	-1263
▁각각	-1264
이었	-1265
▁캐	-1266
▁위원	-1267
orm	-1268
▁시즌	-1269
스를	-1270
18	-1271
▁has	-1272
년간	-1273
▁고려	-1274
▁스타	-1275
▁전했다	-1276
▁발전	-1277
▁풀	-1278
▁방법	-1279
업체	-1280
계를	-1281
세를	-1282
그룹	-1283
▁즐	-1284
▁나는	-1285
의회	-1286
ok	-1287
부를	-1288
こと	-1289
▁자체	-1290
▁또는	-1291
▁따른	-1292
.2	-1293
である	-1294
부분	-1295
▁cont	-1296
▁것도	-1297
▁수출	-1298
▁크게	-1299
민주	-1300
so	-1301
ap	-1302
다가	-1303
▁돼	-1304
▁펼	-1305
료를	-1306
▁대한민	-1307
▁27	-1308
(3	-1309
▁혼	-1310
▁건설	-1311
▁이는	-1312
▁뛰	-1313
▁26	-1314
▁오전	-1315
▁판단	-1316
약을	-1317
ind	-1318
▁같이	-1319
▁참석	-1320
▁res	-1321
▁외국	-1322
▁St	-1323
▁의원은	-1324
▁거래	-1325
장에	-1326
ry	-1327
’,	-1328
▁있으며	-1329
되지	-1330
▁28	-1331
▁해결	-1332
▁탈	-1333
▁블	-1334
リー	-1335
▁만나	-1336
▁브랜드	-1337
▁내가	-1338
▁자유	-1339
자인	-1340
▁사고	-1341
▁제작	-1342
▁앞으로	-1343
한다는	-1344
들도	-1345
권을	-1346
▁만에	-1347
old	-1348
||	-1349
ations	-1350
▁와	-1351
사와	-1352
▁등으로	-1353
리스	-1354
어서	-1355
▁아직	-1356
하려	-1357
▁도입	-1358
▁정상	-1359
물을	-1360
.3	-1361
▁인정	-1362
ary	-1363
▁te	-1364
▁러	-1365
▁감소	-1366
▁쉽	-1367
able	-1368
라이	-1369
▁부담	-1370
BS	-1371
달러	-1372
▁Y	-1373
▁선택	-1374
▁터	-1375
인데	-1376
▁평균	-1377
ence	-1378
ep	-1379
머니	-1380
▁팔	-1381
▁그것	-1382
▁전략	-1383
▁둘	-1384
▁cl	-1385
▁결국	-1386
과의	-1387
▁공공	-1388
ents	-1389
▁답	-1390
▁풍	-1391
ake	-1392
ack	-1393
▁바이	-1394
인트	-1395
▁받고	-1396
▁LG	-1397
▁국민의	-1398
ire	-1399
▁아파트	-1400
ual	-1401
▁그의	-1402
▁man	-1403
▁방식	-1404
ᄏᄏᄏᄏ	-1405
▁경험	-1406
아요	-1407
▁게임	-1408
▁압	-1409
▁me	-1410
▁받은	-1411
▁이전	-1412
▁어린	-1413
▁이해	-1414
).	-1415
▁협력	-1416
▁즉	-1417
▁않았	-1418
한다고	-1419
정보	-1420
러스	-1421
▁0.	-1422
상이	-1423
▁격	-1424
▁other	-1425
롯데	-1426
ame	-1427
▁확진	-1428
▁『	-1429
▁왕	-1430
として	-1431
ach	-1432
ass	-1433
마다	-1434
업을	-1435
▁선보	-1436
.1	-1437
▁업체	-1438
▁노동	-1439
▁드러	-1440
스타	-1441
ign	-1442
원에	-1443
이가	-1444
대에	-1445
서를	-1446
▁가지	-1447
▁비판	-1448
)’	-1449
했지만	-1450
▁아무	-1451
▁출시	-1452
소년	-1453
▁imp	-1454
한국	-1455
정부	-1456
지도	-1457
▁최초	-1458
▁차지	-1459
가를	-1460
▁삶	-1461
▁이러	-1462
ase	-1463
동산	-1464
▁오늘	-1465
하기로	-1466
ール	-1467
▁대부분	-1468
▁스마트	-1469
▁아니다	-1470
▁않는다	-1471
▁있지만	-1472
▁공격	-1473
▁자연	-1474
▁끌	-1475
reat	-1476
▁착	-1477
▁but	-1478
▁하루	-1479
리그	-1480
.4	-1481
ance	-1482
▁받았다	-1483
▁봉	-1484
▁같다	-1485
▁중앙	-1486
▁also	-1487
스로	-1488
▁어느	-1489
▁자리	-1490
▁기능	-1491
▁상당	-1492
▁공연	-1493
▁stud	-1494
되었다	-1495
av	-1496
▁SK	-1497
au	-1498
▁출신	-1499
▁경기도	-1500
one	-1501
자들이	-1502
▁않을	-1503
▁상대	-1504
▁먼저	-1505
사로	-1506
された	-1507
주택	-1508
▁중소	-1509
▁40	-1510
▁품	-1511
금융	-1512
▁온라인	-1513
▁기반	-1514
▁핵심	-1515
▁구조	-1516
전히	-1517
▁지급	-1518
▁사람이	-1519
▁필요한	-1520
▁기본	-1521
.7	-1522
스크	-1523
.6	-1524
ice	-1525
없이	-1526
▁j	-1527
지에	-1528
▁하지	-1529
▁좋아	-1530
문을	-1531
▁혐의	-1532
▁전문가	-1533
전자	-1534
정책	-1535
▁per	-1536
▁sp	-1537
▁주택	-1538
투자	-1539
▁시스템	-1540
▁one	-1541
いた	-1542
▁능	-1543
▁변화	-1544
▁수요	-1545
▁논의	-1546
분기	-1547
▁29	-1548
▁참가	-1549
%,	-1550
▁석	-1551
ace	-1552
지막	-1553
▁대전	-1554
ime	-1555
▁영업	-1556
▁It	-1557
린다	-1558
▁about	-1559
ress	-1560
▁은	-1561
ose	-1562
▁조직	-1563
.8	-1564
very	-1565
▁올라	-1566
▁대표는	-1567
15	-1568
정이	-1569
하였다	-1570
km	-1571
▁활성	-1572
▁기자	-1573
▁so	-1574
▁청년	-1575
▁가지고	-1576
음을	-1577
▁반영	-1578
어난	-1579
▁out	-1580
(4	-1581
▁인간	-1582
▁꾸	-1583
▁대회	-1584
▁기관	-1585
▁시설	-1586
량을	-1587
반기	-1588
소를	-1589
▁몇	-1590
▁맛	-1591
장과	-1592
갔다	-1593
ック	-1594
년부터	-1595
▁우선	-1596
ub	-1597
▁공간	-1598
▁통합	-1599
▁해야	-1600
계획	-1601
▁무엇	-1602
▁롯데	-1603
▁살아	-1604
▁그렇게	-1605
년에	-1606
▁자기	-1607
▁의료	-1608
대의	-1609
▁유럽	-1610
▁제기	-1611
경기	-1612
원에서	-1613
ite	-1614
쳤다	-1615
▁확산	-1616
ory	-1617
ition	-1618
불어	-1619
에선	-1620
▁팬	-1621
▁놀	-1622
등학교	-1623
▁This	-1624
▁사진	-1625
▁다만	-1626
ord	-1627
도의	-1628
▁듯	-1629
도는	-1630
▁혁신	-1631
거리	-1632
▁검토	-1633
▁하락	-1634
▁최종	-1635
성과	-1636
ction	-1637
▁우수	-1638
조사	-1639
▁가능성이	-1640
▁마지막	-1641
▁넘어	-1642
▁있는데	-1643
가가	-1644
라마	-1645
트를	-1646
▁제시	-1647
スト	-1648
▁공식	-1649
▁주변	-1650
ber	-1651
나는	-1652
.9	-1653
케이	-1654
안전	-1655
▁신규	-1656
▁인사	-1657
▁그런데	-1658
자리	-1659
훈련	-1660
▁친구	-1661
ang	-1662
▁본격	-1663
ens	-1664
복지	-1665
바이	-1666
로는	-1667
로부터	-1668
▁부족	-1669
ike	-1670
ター	-1671
▁제주	-1672
では	-1673
▁안정	-1674
대가	-1675
▁논란	-1676
リン	-1677
▁pre	-1678
디어	-1679
ount	-1680
▁음악	-1681
ks	-1682
ue	-1683
▁촉	-1684
▁직원	-1685
▁번째	-1686
▁조선	-1687
▁이동	-1688
▁pe	-1689
학생	-1690
ook	-1691
▁역할을	-1692
▁나서	-1693
▁이러한	-1694
대회	-1695
▁197	-1696
ci	-1697
▁방침	-1698
▁위험	-1699
▁소속	-1700
▁현실	-1701
▁반면	-1702
▁성과	-1703
▁갖고	-1704
▁수사	-1705
▁보호	-1706
▁컨	-1707
▁행사	-1708
▁전기	-1709
▁꿈	-1710
▁수익	-1711
생활	-1712
ew	-1713
스터	-1714
▁등장	-1715
이를	-1716
위에	-1717
▁우승	-1718
▁part	-1719
▁존재	-1720
▁교통	-1721
▁덧	-1722
▁중요한	-1723
▁app	-1724
▁표현	-1725
によ	-1726
▁더불어	-1727
▁없었다	-1728
▁un	-1729
▁위치	-1730
▁어렵	-1731
▁숨	-1732
ラン	-1733
▁inf	-1734
▁한다는	-1735
와의	-1736
ish	-1737
▁두고	-1738
▁사례	-1739
▁전환	-1740
▁하면	-1741
▁축구	-1742
▁사망	-1743
▁얼마	-1744
랐다	-1745
정한	-1746
▁감염	-1747
ors	-1748
▁있게	-1749
▁교수	-1750
었던	-1751
には	-1752
제가	-1753
▁러시아	-1754
▁출연	-1755
이자	-1756
▁설립	-1757
▁were	-1758
▁겨	-1759
▁징	-1760
21	-1761
▁ar	-1762
▁여행	-1763
大学	-1764
▁2020	-1765
ound	-1766
포츠	-1767
▁수상	-1768
ces	-1769
▁감사	-1770
▁Ch	-1771
▁정부가	-1772
▁매우	-1773
▁문제가	-1774
보고	-1775
now	-1776
▁인해	-1777
원으로	-1778
움이	-1779
▁이와	-1780
▁중인	-1781
olog	-1782
▁중심으로	-1783
스의	-1784
▁전달	-1785
60	-1786
섰다	-1787
▁견	-1788
▁대통령은	-1789
주시	-1790
인지	-1791
▁겪	-1792
▁sy	-1793
▁지나	-1794
르게	-1795
▁붙	-1796
25	-1797
▁자동차	-1798
▁정말	-1799
비를	-1800
▁각종	-1801
▁지지	-1802
▁나타났다	-1803
▁진출	-1804
▁일이	-1805
▁않아	-1806
▁비교	-1807
(5	-1808
▁누구	-1809
▁분위	-1810
▁덧붙	-1811
ric	-1812
▁ev	-1813
▁의혹	-1814
두고	-1815
▁모델	-1816
ree	-1817
증권	-1818
▁them	-1819
ays	-1820
▁경남	-1821
자들의	-1822
공사	-1823
거래	-1824
▁부동산	-1825
드를	-1826
ile	-1827
とな	-1828
▁퇴	-1829
▁역사	-1830
▁이루	-1831
▁대신	-1832
있는	-1833
대한	-1834
텐츠	-1835
림픽	-1836
하도록	-1837
선거	-1838
mer	-1839
느냐	-1840
하자	-1841
ない	-1842
22	-1843
▁치료	-1844
▁조금	-1845
▁캠	-1846
▁울산	-1847
▁언론	-1848
▁내려	-1849
low	-1850
▁2018	-1851
ている	-1852
BC	-1853
▁종합	-1854
하거나	-1855
▁현장	-1856
▁지정	-1857
▁who	-1858
▁웃	-1859
▁모습을	-1860
▁차량	-1861
ople	-1862
▁제외	-1863
▁녹	-1864
▁2019	-1865
위는	-1866
리지	-1867
▁요청	-1868
▁장기	-1869
▁기획	-1870
▁과정에서	-1871
▁암	-1872
▁전시	-1873
▁up	-1874
▁은행	-1875
▁관한	-1876
▁대형	-1877
▁퍼	-1878
その	-1879
전에	-1880
규모	-1881
▁발견	-1882
▁재판	-1883
했다는	-1884
▁qu	-1885
▁과거	-1886
▁가까	-1887
했으며	-1888
▁주목	-1889
세대	-1890
▁목소	-1891
본부	-1892
스가	-1893
▁선발	-1894
▁나라	-1895
지로	-1896
23	-1897
学校	-1898
▁year	-1899
▁만든	-1900
대학	-1901
....	-1902
▁중이다	-1903
보험	-1904
iff	-1905
▁통한	-1906
▁실제	-1907
▁보유	-1908
▁엔	-1909
イン	-1910
▁대출	-1911
▁bec	-1912
▁구매	-1913
▁민간	-1914
▁높아	-1915
차를	-1916
▁보도	-1917
구를	-1918
세요	-1919
▁되고	-1920
▁여기	-1921
▁개정	-1922
▁헌	-1923
지털	-1924
ail	-1925
서비스	-1926
▁than	-1927
세계	-1928
시가	-1929
▁체험	-1930
되면서	-1931
▁깨	-1932
▁예방	-1933
▁소개	-1934
▁사회적	-1935
자와	-1936
▁전남	-1937
▁홍보	-1938
이기	-1939
하다는	-1940
▁싸	-1941
▁깊	-1942
▁회사	-1943
운동	-1944
▁may	-1945
▁제대로	-1946
▁없어	-1947
명으로	-1948
▁사업을	-1949
17	-1950
▁대책	-1951
▁사무	-1952
▁덧붙였다	-1953
(19	-1954
▁않다	-1955
pec	-1956
▁정부는	-1957
▁나가	-1958
▁서로	-1959
▁연속	-1960
▁외부	-1961
▁영향을	-1962
▁comm	-1963
▁신고	-1964
ll	-1965
▁정신	-1966
하지만	-1967
월부터	-1968
▁알려졌다	-1969
장으로	-1970
이번	-1971
▁회복	-1972
이익	-1973
▁소재	-1974
▁계약	-1975
▁있습니다	-1976
르고	-1977
▁헤	-1978
▁가입	-1979
더라도	-1980
vers	-1981
40	-1982
られ	-1983
▁제한	-1984
▁31	-1985
▁밤	-1986
ren	-1987
민주당	-1988
▁고용	-1989
▁some	-1990
alth	-1991
건설	-1992
하던	-1993
▁비해	-1994
▁when	-1995
▁대한민국	-1996
ph	-1997
▁희망	-1998
▁연결	-1999
상의	-2000
하기도	-2001
▁전년	-2002
▁대해서	-2003
되면	-2004
▁청와	-2005
ings	-2006
▁「	-2007
▁how	-2008
치고	-2009
▁rec	-2010
▁달리	-2011
▁움	-2012
므로	-2013
▁관련해	-2014
ュー	-2015
ove	-2016
▁말을	-2017
디오	-2018
▁[	-2019
▁유치	-2020
13	-2021
▁our	-2022
협회	-2023
▁제출	-2024
관계	-2025
▁그동안	-2026
▁대선	-2027
▁워	-2028
▁필요하다	-2029
▁2017	-2030
대는	-2031
▁보내	-2032
▁거쳐	-2033
랫폼	-2034
rit	-2035
▁향후	-2036
16	-2037
경찰	-2038
▁time	-2039
▁지도	-2040
통신	-2041
▁티	-2042
▁낙	-2043
▁work	-2044
었고	-2045
▁비용	-2046
▁방향	-2047
스코	-2048
▁정도로	-2049
人物	-2050
▁받을	-2051
▁이야기	-2052
▁그녀	-2053
인가	-2054
▁여자	-2055
들에	-2056
부의	-2057
▁보험	-2058
▁전통	-2059
운드	-2060
▁반대	-2061
▁people	-2062
▁넣	-2063
▁알고	-2064
▁흔	-2065
▁있기	-2066
▁분양	-2067
어야	-2068
▁남자	-2069
▁2015	-2070
▁근데	-2071
ット	-2072
▁숙	-2073
▁sa	-2074
▁우리가	-2075
▁못한	-2076
▁얘기	-2077
▁go	-2078
nder	-2079
▁나온다	-2080
▁잔	-2081
▁행복	-2082
,000	-2083
▁정부의	-2084
ング	-2085
롭게	-2086
프로	-2087
▁인상	-2088
row	-2089
te	-2090
적을	-2091
▁듣	-2092
▁영국	-2093
▁업계	-2094
▁처리	-2095
▁불가	-2096
교통	-2097
▁동시에	-2098
지지	-2099
▁최소	-2100
임을	-2101
▁2014	-2102
부에	-2103
▁입장	-2104
학과	-2105
▁혜	-2106
ob	-2107
▁운동	-2108
%),	-2109
▁프랑	-2110
▁into	-2111
▁믿	-2112
▁어려운	-2113
▁솔	-2114
으로써	-2115
▁불법	-2116
▁거의	-2117
정은	-2118
ates	-2119
치가	-2120
▁경북	-2121
▁2012	-2122
▁활성화	-2123
▁빨	-2124
▁바람	-2125
▁use	-2126
▁마을	-2127
ond	-2128
성에	-2129
▁like	-2130
이지만	-2131
억원을	-2132
로서	-2133
발전	-2134
▁충분	-2135
씨가	-2136
▁Wh	-2137
▁tra	-2138
▁장애	-2139
▁흐	-2140
▁노래	-2141
▁비롯해	-2142
▁대통령이	-2143
▁단체	-2144
▁독일	-2145
ause	-2146
▁2016	-2147
▁제가	-2148
▁결혼	-2149
▁diff	-2150
리의	-2151
단을	-2152
▁there	-2153
14	-2154
▁문제를	-2155
▁hel	-2156
▁기록했다	-2157
▁좌	-2158
스러	-2159
으로는	-2160
▁미국의	-2161
tern	-2162
▁60	-2163
▁2010	-2164
erv	-2165
▁이끌	-2166
lud	-2167
▁파악	-2168
24	-2169
▁over	-2170
만큼	-2171
ian	-2172
▁사람들이	-2173
이란	-2174
▁담당	-2175
▁이하	-2176
▁ro	-2177
▁쪽	-2178
보는	-2179
ough	-2180
▁been	-2181
년까지	-2182
ning	-2183
▁대해서는	-2184
수의	-2185
int	-2186
활동	-2187
보다는	-2188
▁되었다	-2189
▁졸	-2190
▁구체	-2191
▁갑	-2192
합니다	-2193
▁고민	-2194
▁됐	-2195
▁new	-2196
ys	-2197
펀드	-2198
▁2000	-2199
다면	-2200
▁아버	-2201
▁읽	-2202
rough	-2203
국민	-2204
▁움직	-2205
무원	-2206
ons	-2207
관광	-2208
▁0	-2209
▁its	-2210
▁과학	-2211
세가	-2212
▁사태	-2213
▁가능한	-2214
포인트	-2215
▁《	-2216
자들은	-2217
▁위반	-2218
▁어린이	-2219
정에	-2220
스럽	-2221
겼다	-2222
기간	-2223
▁해서	-2224
など	-2225
▁달라	-2226
ally	-2227
율이	-2228
▁these	-2229
회가	-2230
과학	-2231
기의	-2232
▁확정	-2233
▁중소기업	-2234
▁인근	-2235
▁체결	-2236
▁help	-2237
구가	-2238
▁know	-2239
▁꼽	-2240
▁가진	-2241
▁쇼	-2242
▁어디	-2243
▁납	-2244
les	-2245
▁지적했다	-2246
ool	-2247
▁언급	-2248
▁형태	-2249
관은	-2250
▁달러	-2251
lect	-2252
▁드라마	-2253
▁많다	-2254
▁스스로	-2255
▁기념	-2256
▁이것	-2257
▁제조	-2258
▁아시아	-2259
▁그룹	-2260
▁bl	-2261
▁투입	-2262
ject	-2263
단은	-2264
▁빌	-2265
▁need	-2266
▁합의	-2267
▁방안	-2268
개의	-2269
▁얼굴	-2270
도체	-2271
.0	-2272
▁잇	-2273
▁혹	-2274
려고	-2275
성은	-2276
▁지하	-2277
▁앞두고	-2278
▁빈	-2279
▁강원	-2280
▁기억	-2281
▁루	-2282
소득	-2283
▁있던	-2284
ific	-2285
▁TV	-2286
ms	-2287
행을	-2288
점이	-2289
▁단계	-2290
▁회의	-2291
▁인터넷	-2292
▁ag	-2293
▁프리	-2294
、19	-2295
이어	-2296
▁유명	-2297
▁오른	-2298
▁수입	-2299
지의	-2300
▁전쟁	-2301
▁서비스를	-2302
▁곡	-2303
상에	-2304
▁시청	-2305
▁his	-2306
▁–	-2307
▁벗	-2308
▁우리나라	-2309
irst	-2310
▁most	-2311
적이	-2312
식이	-2313
▁2013	-2314
▁가능하다	-2315
▁그냥	-2316
▁부모	-2317
▁act	-2318
▁2011	-2319
건을	-2320
히려	-2321
▁이달	-2322
량이	-2323
▁소통	-2324
ート	-2325
’(	-2326
▁부문	-2327
▁보다	-2328
평가	-2329
▁bet	-2330
▁통과	-2331
velop	-2332
고를	-2333
업계	-2334
▁child	-2335
stem	-2336
we	-2337
품을	-2338
자체	-2339
▁col	-2340
병원	-2341
▁슈	-2342
▁디지털	-2343
ities	-2344
▁콘텐츠	-2345
▁때는	-2346
この	-2347
▁일을	-2348
red	-2349
ティ	-2350
물이	-2351
▁주장했다	-2352
▁전해	-2353
▁되어	-2354
▁중단	-2355
選手	-2356
▁ra	-2357
▁히	-2358
▁공모	-2359
▁바탕	-2360
▁한번	-2361
▁에너지	-2362
거든	-2363
▁수밖에	-2364
▁외국인	-2365
▁플랫폼	-2366
위가	-2367
시켜	-2368
자에게	-2369
▁이들은	-2370
日本の	-2371
▁나선	-2372
▁acc	-2373
대책	-2374
▁점을	-2375
▁슬	-2376
▁국정	-2377
▁그대로	-2378
▁변호	-2379
▁des	-2380
별로	-2381
▁해도	-2382
화가	-2383
체육	-2384
▁못했다	-2385
▁덕	-2386
▁등록	-2387
▁cons	-2388
리즈	-2389
이에	-2390
ational	-2391
▁힘들	-2392
lic	-2393
▁제안	-2394
공항	-2395
재인	-2396
▁tr	-2397
▁봐	-2398
▁젊	-2399
▁Un	-2400
대학교	-2401
▁나왔다	-2402
연합	-2403
80	-2404
심을	-2405
오는	-2406
▁수가	-2407
▁보였다	-2408
▁수행	-2409
▁반응	-2410
▁라이	-2411
개를	-2412
▁|	-2413
▁국회의	-2414
▁under	-2415
▁관심을	-2416
촬영	-2417
▁전날	-2418
▁시절	-2419
▁곧	-2420
▁도로	-2421
▁정확	-2422
TV	-2423
ne	-2424
마을	-2425
▁방역	-2426
▁홈페	-2427
▁오히려	-2428
▁인한	-2429
▁주식	-2430
지구	-2431
▁2008	-2432
격을	-2433
회사	-2434
ark	-2435
▁백신	-2436
▁딸	-2437
▁당선	-2438
내는	-2439
▁이벤	-2440
▁작은	-2441
란다	-2442
▁찬	-2443
ffect	-2444
▁비중	-2445
ov	-2446
▁주는	-2447
ments	-2448
▁if	-2449
▁2009	-2450
▁교수는	-2451
일에	-2452
▁상황에서	-2453
▁발언	-2454
하는데	-2455
▁2021	-2456
▁흥	-2457
▁전에	-2458
▁저는	-2459
▁what	-2460
▁궁	-2461
▁비슷	-2462
▁includ	-2463
▁받는	-2464
▁공유	-2465
명은	-2466
▁전망이다	-2467
▁활동을	-2468
무리	-2469
▁프로젝	-2470
▁지켜	-2471
▁공정	-2472
ディ	-2473
▁인도	-2474
실을	-2475
▁예술	-2476
▁못하고	-2477
했을	-2478
▁점검	-2479
▁사람은	-2480
ple	-2481
▁규제	-2482
▁변경	-2483
▁그러면서	-2484
▁fe	-2485
▁말씀	-2486
▁영상	-2487
가구	-2488
▁측은	-2489
--	-2490
▁청소년	-2491
▁데이터	-2492
으로서	-2493
▁색	-2494
시민	-2495
일을	-2496
▁불과	-2497
cess	-2498
▁줄어	-2499
웠다	-2500
▁국민의힘	-2501
▁인수	-2502
2)	-2503
카드	-2504
년을	-2505
(6	-2506
프트	-2507
▁사전	-2508
우리	-2509
▁강력	-2510
▁인제	-2511
▁수도권	-2512
▁국토	-2513
▁작업	-2514
▁196	-2515
▁택	-2516
▁따라서	-2517
ating	-2518
▁연계	-2519
▁이상의	-2520
는지	-2521
ck	-2522
▁근무	-2523
▁혜택	-2524
▁기초	-2525
ink	-2526
▁내부	-2527
▁이사	-2528
round	-2529
▁이들	-2530
▁외교	-2531
▁used	-2532
▁묻	-2533
였던	-2534
▁맞아	-2535
▁사실을	-2536
관을	-2537
▁tw	-2538
▁쿠	-2539
ics	-2540
▁염	-2541
▁제도	-2542
▁any	-2543
▁원내	-2544
▁힘을	-2545
예술	-2546
화된	-2547
▁훈련	-2548
▁차례	-2549
▁유통	-2550
▁근로	-2551
▁방침이다	-2552
▁충남	-2553
▁such	-2554
▁왔다	-2555
▁실제로	-2556
사고	-2557
위로	-2558
▁알아	-2559
▁내놓	-2560
▁재정	-2561
이션	-2562
▁Re	-2563
단지	-2564
우는	-2565
분을	-2566
자치	-2567
▁여전히	-2568
▁produ	-2569
서울	-2570
▁찍	-2571
수록	-2572
이드	-2573
주고	-2574
감이	-2575
▁내용을	-2576
경영	-2577
지방	-2578
▁As	-2579
만의	-2580
▁위해서	-2581
버스	-2582
▁채용	-2583
▁되면	-2584
▁항공	-2585
시의	-2586
▁봤	-2587
지면서	-2588
▁ph	-2589
▁보는	-2590
▁쉽게	-2591
▁약속	-2592
▁땅	-2593
▁전반	-2594
단계	-2595
▁망	-2596
▁조정	-2597
▁섬	-2598
같이	-2599
▁달성	-2600
▁방안을	-2601
年に	-2602
▁시는	-2603
▁혐의로	-2604
되며	-2605
▁would	-2606
으로도	-2607
▁끊	-2608
▁의견을	-2609
항공	-2610
▁many	-2611
학년	-2612
eth	-2613
▁바탕으로	-2614
▁지원을	-2615
▁푸	-2616
관이	-2617
▁그가	-2618
리로	-2619
▁잃	-2620
▁익	-2621
▁수는	-2622
청은	-2623
▁시간이	-2624
▁범죄	-2625
코로나	-2626
NS	-2627
▁의해	-2628
▁창업	-2629
ise	-2630
bold	-2631
년대	-2632
드시	-2633
▁말이	-2634
)'	-2635
▁이재	-2636
▁스포츠	-2637
▁잘못	-2638
▁현지	-2639
당이	-2640
ng	-2641
▁가져	-2642
▁develop	-2643
▁할인	-2644
증을	-2645
▁1000	-2646
27	-2647
▁인구	-2648
자에	-2649
▁기여	-2650
▁빼	-2651
5%	-2652
▁자신이	-2653
▁◆	-2654
케팅	-2655
른다	-2656
플레이	-2657
ative	-2658
▁취업	-2659
리기	-2660
ーム	-2661
으면서	-2662
▁검사	-2663
가의	-2664
▁di	-2665
▁대통령의	-2666
▁갈등	-2667
▁전용	-2668
▁부정	-2669
가고	-2670
▁마무리	-2671
ため	-2672
▁대중	-2673
いて	-2674
hed	-2675
▁시작했다	-2676
누리	-2677
▁엄마	-2678
▁도움이	-2679
▁순간	-2680
ular	-2681
▁sc	-2682
28	-2683
▁시험	-2684
▁전자	-2685
とい	-2686
어진	-2687
▁/	-2688
시스템	-2689
▁꼭	-2690
▁KT	-2691
▁투표	-2692
프라	-2693
▁우리는	-2694
▁발굴	-2695
▁off	-2696
▁선생	-2697
▁gen	-2698
▁위해서는	-2699
율은	-2700
ath	-2701
방송	-2702
▁first	-2703
노동	-2704
국제	-2705
▁through	-2706
▁코스	-2707
▁바란다	-2708
している	-2709
▁시간을	-2710
ョン	-2711
▁질문	-2712
▁한다고	-2713
iss	-2714
바일	-2715
29	-2716
▁연기	-2717
회는	-2718
으니	-2719
▁rel	-2720
▁있어서	-2721
▁둔	-2722
▁여름	-2723
ious	-2724
ced	-2725
▁주인	-2726
같은	-2727
▁불구	-2728
▁걱	-2729
▁AI	-2730
hen	-2731
出身	-2732
▁음식	-2733
▁촬영	-2734
▁언제	-2735
▁것이라고	-2736
▁am	-2737
▁독립	-2738
과는	-2739
ful	-2740
oss	-2741
한테	-2742
자산	-2743
제는	-2744
▁넓	-2745
▁전북	-2746
▁모집	-2747
니스	-2748
▁복지	-2749
▁싱	-2750
▁가는	-2751
▁prov	-2752
▁spec	-2753
상공	-2754
▁매년	-2755
▁health	-2756
als	-2757
▁수원	-2758
금이	-2759
▁젊은	-2760
▁것이라는	-2761
70	-2762
중앙	-2763
▁여론	-2764
▁대체	-2765
▁지자체	-2766
단이	-2767
ife	-2768
ww	-2769
ange	-2770
▁전혀	-2771
26	-2772
▁마이	-2773
▁인물	-2774
▁differe	-2775
▁의무	-2776
▁소득	-2777
▁입장을	-2778
율을	-2779
어를	-2780
▁He	-2781
▁pr	-2782
▁옮	-2783
하겠다는	-2784
▁only	-2785
▁쌓	-2786
▁진짜	-2787
500	-2788
▁셈	-2789
▁졸업	-2790
▁어머니	-2791
▁이야기를	-2792
▁脚	-2793
▁건축	-2794
리카	-2795
함을	-2796
▁신뢰	-2797
▁보건	-2798
▁구속	-2799
▁인식	-2800
▁일자리	-2801
법을	-2802
▁회장	-2803
당은	-2804
번째	-2805
▁주로	-2806
▁억	-2807
▁아주	-2808
도에	-2809
화에	-2810
▁이게	-2811
▁청와대	-2812
▁이유로	-2813
▁500	-2814
▁술	-2815
▁자산	-2816
▁ア	-2817
▁입주	-2818
상은	-2819
▁규모의	-2820
에서의	-2821
▁결과를	-2822
にな	-2823
▁도전	-2824
▁2022	-2825
▁rep	-2826
▁친환경	-2827
률이	-2828
진을	-2829
▁불안	-2830
▁놓고	-2831
▁2007	-2832
군은	-2833
▁그림	-2834
▁던	-2835
ます	-2836
▁사실상	-2837
정의	-2838
원과	-2839
ature	-2840
uring	-2841
럼프	-2842
▁반도체	-2843
▁서울시	-2844
▁분명	-2845
겠습니다	-2846
ble	-2847
▁water	-2848
▁기다	-2849
▁늘어	-2850
인과	-2851
xt	-2852
점으로	-2853
ram	-2854
?"	-2855
▁주도	-2856
▁그때	-2857
전문	-2858
▁최초로	-2859
oth	-2860
▁냉	-2861
▁no	-2862
▁자료	-2863
▁비롯한	-2864
분이	-2865
▁em	-2866
▁속에서	-2867
▁멀	-2868
▁토론	-2869
arch	-2870
ント	-2871
▁add	-2872
▁맥	-2873
▁꽃	-2874
▁하다	-2875
부와	-2876
▁예비	-2877
▁had	-2878
よう	-2879
▁처음으로	-2880
▁단순	-2881
▁system	-2882
▁아름	-2883
▁남아	-2884
▁더불어민주당	-2885
▁문재인	-2886
▁후보는	-2887
했는데	-2888
▁프랑스	-2889
구역	-2890
fter	-2891
▁등은	-2892
▁반드시	-2893
▁니	-2894
▁쉬	-2895
▁느낌	-2896
__	-2897
▁임대	-2898
▁rese	-2899
▁접근	-2900
▁것에	-2901
▁sur	-2902
▁카드	-2903
▁빛	-2904
▁300	-2905
▁작년	-2906
▁세종	-2907
▁脚注	-2908
▁창출	-2909
▁쏟	-2910
▁get	-2911
ert	-2912
으로부터	-2913
아가	-2914
▁꾸준	-2915
own	-2916
ility	-2917
만을	-2918
▁회장은	-2919
기와	-2920
▁조치	-2921
국은	-2922
▁We	-2923
▁아래	-2924
▁이곳	-2925
▁나와	-2926
▁뜨	-2927
▁옥	-2928
시키는	-2929
▁정당	-2930
▁사라	-2931
▁관심이	-2932
단의	-2933
ten	-2934
です	-2935
▁국방	-2936
ード	-2937
▁얼마나	-2938
▁스트	-2939
▁홈페이지	-2940
워크	-2941
▁심각	-2942
▁ind	-2943
▁늦	-2944
▁fl	-2945
▁exp	-2946
▁유일	-2947
▁추천	-2948
▁특징	-2949
준다	-2950
구조	-2951
▁컴	-2952
▁상담	-2953
▁욕	-2954
회에서	-2955
あり	-2956
▁선언	-2957
▁마음을	-2958
▁협의	-2959
수로	-2960
▁감독은	-2961
ick	-2962
▁월드	-2963
▁ac	-2964
▁열고	-2965
▁70	-2966
chn	-2967
ower	-2968
금은	-2969
▁건물	-2970
chool	-2971
▁아울	-2972
▁하는데	-2973
▁없다는	-2974
▁거리	-2975
▁外	-2976
구의	-2977
▁two	-2978
만이	-2979
부모	-2980
근혜	-2981
▁프로젝트	-2982
▁국립	-2983
▁나섰다	-2984
국이	-2985
멤버	-2986
ible	-2987
성의	-2988
▁싶은	-2989
▁맞춰	-2990
예요	-2991
▁자세	-2992
▁차별	-2993
▁혈	-2994
▁인터뷰	-2995
았던	-2996
erm	-2997
▁최선을	-2998
▁행동	-2999
▁정보를	-3000
▁실패	-3001
소에	-3002
▁필요가	-3003
90	-3004
▁reg	-3005
▁만드는	-3006
▁굉	-3007
▁탑	-3008
ライ	-3009
▁여기에	-3010
▁안에	-3011
▁sm	-3012
▁디자인	-3013
▁상황을	-3014
카오	-3015
▁지키	-3016
거든요	-3017
▁신용	-3018
지와	-3019
▁should	-3020
제품	-3021
아이	-3022
소가	-3023
식품	-3024
▁출전	-3025
▁생각한다	-3026
만원을	-3027
▁펼쳐	-3028
▁ass	-3029
東京	-3030
릭터	-3031
▁설계	-3032
▁경우가	-3033
인으로	-3034
니아	-3035
▁벤	-3036
▁당신	-3037
▁아동	-3038
레스	-3039
▁회원	-3040
▁make	-3041
▁뮤	-3042
▁스마트폰	-3043
▁보기	-3044
IS	-3045
cy	-3046
▁주거	-3047
▁엘	-3048
성장	-3049
▁well	-3050
▁불편	-3051
적이고	-3052
テレ	-3053
▁dec	-3054
▁지속적으로	-3055
▁기회를	-3056
▁거주	-3057
▁(19	-3058
▁하며	-3059
▁돈을	-3060
▁탐	-3061
▁흘	-3062
▁살펴	-3063
나무	-3064
▁액	-3065
▁조합	-3066
▁케	-3067
역을	-3068
▁많아	-3069
▁Pro	-3070
보호	-3071
켰다	-3072
ft	-3073
받은	-3074
액은	-3075
▁들어가	-3076
▁촉구	-3077
▁광고	-3078
▁왔	-3079
▁굉장	-3080
▁If	-3081
네요	-3082
협력	-3083
▁법률	-3084
▁첨	-3085
려는	-3086
リンク	-3087
▁완성	-3088
자기	-3089
산물	-3090
하였	-3091
▁올림픽	-3092
ased	-3093
ont	-3094
▁일정	-3095
▁아울러	-3096
ology	-3097
▁lear	-3098
▁완료	-3099
▁남편	-3100
대전	-3101
▁좋다	-3102
▁시도	-3103
▁years	-3104
▁뇌	-3105
▁느끼	-3106
▁신설	-3107
하라	-3108
▁가치	-3109
▁co	-3110
▁po	-3111
▁~	-3112
리와	-3113
현지	-3114
겠다고	-3115
어도	-3116
aw	-3117
씨의	-3118
rib	-3119
▁역대	-3120
▁오래	-3121
▁끌어	-3122
잖아요	-3123
▁칼	-3124
▁보니	-3125
▁요즘	-3126
체를	-3127
com	-3128
▁남북	-3129
수도	-3130
▁대규모	-3131
▁만족	-3132
▁하면서	-3133
▁이익	-3134
▁획	-3135
▁모르	-3136
▁모바일	-3137
▁rem	-3138
다운	-3139
월까지	-3140
▁맺	-3141
▁소비자	-3142
▁긍	-3143
▁되지	-3144
▁적이	-3145
▁아마	-3146
▁주고	-3147
텔레	-3148
▁통신	-3149
구는	-3150
재를	-3151
▁연장	-3152
▁자녀	-3153
▁겨울	-3154
▁무료	-3155
시즌	-3156
▁바라	-3157
IC	-3158
▁해석	-3159
▁캐릭터	-3160
▁무슨	-3161
▁근거	-3162
▁195	-3163
▁레이	-3164
▁없을	-3165
해도	-3166
서관	-3167
という	-3168
▁bu	-3169
▁규정	-3170
▁194	-3171
リカ	-3172
군의	-3173
its	-3174
▁뽑	-3175
ract	-3176
▁대변	-3177
▁보장	-3178
▁사는	-3179
▁출마	-3180
▁상대로	-3181
공원	-3182
fore	-3183
▁ob	-3184
균형	-3185
ade	-3186
▁멤버	-3187
크라	-3188
▁접종	-3189
▁강남	-3190
▁예상된다	-3191
▁다르	-3192
일이	-3193
hes	-3194
される	-3195
▁실적	-3196
정치	-3197
▁Al	-3198
-1	-3199
▁생각을	-3200
선수	-3201
▁속에	-3202
▁연간	-3203
차례	-3204
▁外部	-3205
▁시장은	-3206
▁자주	-3207
▁일단	-3208
▁att	-3209
▁배경	-3210
중에	-3211
ps	-3212
▁집행	-3213
▁이벤트	-3214
▁high	-3215
월에	-3216
▁could	-3217
▁선물	-3218
▁싶다	-3219
▁특정	-3220
▁맞는	-3221
스러운	-3222
▁문제는	-3223
주를	-3224
▁편의	-3225
▁원칙	-3226
プロ	-3227
▁노조	-3228
▁外部リンク	-3229
▁)	-3230
▁마찬	-3231
▁출발	-3232
▁트럼프	-3233
▁실천	-3234
▁굉장히	-3235
▁데뷔	-3236
페인	-3237
길을	-3238
▁올랐다	-3239
まで	-3240
사에서	-3241
▁supp	-3242
상품	-3243
▁수립	-3244
▁최고의	-3245
▁의사	-3246
▁명의	-3247
▁측면	-3248
▁흑	-3249
▁앨	-3250
アル	-3251
▁농업	-3252
▁사항	-3253
명에	-3254
상으로	-3255
31	-3256
▁지금까지	-3257
▁출범	-3258
조선	-3259
조합	-3260
▁이름을	-3261
전에서	-3262
▁낮은	-3263
▁있지	-3264
▁학습	-3265
▁끼	-3266
▁둘러	-3267
▁금지	-3268
▁지역의	-3269
▁마케팅	-3270
▁밝혀	-3271
▁상황이	-3272
▁원내대표	-3273
리한	-3274
▁겸	-3275
▁선고	-3276
▁신속	-3277
▁An	-3278
▁일으	-3279
▁충북	-3280
▁합니다	-3281
라면	-3282
▁영어	-3283
年の	-3284
▁inv	-3285
▁원을	-3286
テレビ	-3287
ata	-3288
▁수술	-3289
▁있었던	-3290
▁마찬가지	-3291
하다고	-3292
▁import	-3293
대출	-3294
また	-3295
시킨	-3296
▁생각이	-3297
▁타이	-3298
▁극복	-3299
권의	-3300
비가	-3301
▁1,	-3302
▁기준으로	-3303
석열	-3304
▁2006	-3305
▁그럼	-3306
▁것과	-3307
▁밖	-3308
다른	-3309
▁씨는	-3310
안이	-3311
.5%	-3312
▁적극적으로	-3313
▁철저	-3314
ース	-3315
▁공무원	-3316
▁호텔	-3317
gan	-3318
▁하기	-3319
▁긴급	-3320
로를	-3321
▁열리는	-3322
▁류	-3323
uch	-3324
▁생태	-3325
▁발표했다	-3326
▁가정	-3327
에게는	-3328
▁국무	-3329
▁시대	-3330
제의	-3331
ween	-3332
(7	-3333
▁링	-3334
시를	-3335
없는	-3336
▁KB	-3337
▁평화	-3338
더니	-3339
주가	-3340
회에	-3341
▁방식으로	-3342
▁35	-3343
▁빅	-3344
▁기술을	-3345
사항	-3346
▁것처럼	-3347
▁뒷	-3348
지난	-3349
하우	-3350
form	-3351
▁벌어	-3352
보면	-3353
률을	-3354
uc	-3355
▁하이	-3356
▁사과	-3357
▁‘20	-3358
もの	-3359
산을	-3360
▁해양	-3361
ting	-3362
▁How	-3363
▁강한	-3364
력과	-3365
▁이탈	-3366
위의	-3367
ivers	-3368
▁낸	-3369
▁소유	-3370
▁없고	-3371
▁비상	-3372
하이	-3373
erg	-3374
▁대한민국의	-3375
▁해소	-3376
ts	-3377
자원	-3378
기준	-3379
분에	-3380
▁골프	-3381
화점	-3382
▁콜	-3383
특별	-3384
▁메이	-3385
▁의원이	-3386
▁짓	-3387
の人物	-3388
했으나	-3389
진흥	-3390
▁육성	-3391
리며	-3392
▁옛	-3393
간의	-3394
▁새누리	-3395
ily	-3396
아야	-3397
▁괴	-3398
기고	-3399
▁뛰어	-3400
질을	-3401
▁허용	-3402
▁where	-3403
가족	-3404
생을	-3405
▁2023	-3406
▁쓴	-3407
ural	-3408
▁시리즈	-3409
リア	-3410
ants	-3411
▁신경	-3412
iet	-3413
▁형성	-3414
▁효율	-3415
▁특수	-3416
▁맞춤	-3417
요일	-3418
▁추정	-3419
▁발생한	-3420
▁시각	-3421
sel	-3422
▁전화	-3423
당의	-3424
파크	-3425
▁sub	-3426
감독	-3427
▁옆	-3428
▁년	-3429
▁훨	-3430
▁모양	-3431
차가	-3432
받고	-3433
▁기업의	-3434
meric	-3435
▁홀	-3436
▁휘	-3437
면서도	-3438
▁You	-3439
에너지	-3440
▁완화	-3441
▁실현	-3442
▁판결	-3443
▁나오는	-3444
▁나머	-3445
▁긍정	-3446
사랑	-3447
昭和	-3448
▁소송	-3449
ins	-3450
▁사상	-3451
ines	-3452
▁못하는	-3453
장애	-3454
▁불구하고	-3455
이버	-3456
만에	-3457
▁최저	-3458
▁체계	-3459
ied	-3460
안에	-3461
▁정의	-3462
▁car	-3463
ution	-3464
자동차	-3465
▁앉	-3466
▁앱	-3467
▁pres	-3468
▁부여	-3469
▁exper	-3470
▁보수	-3471
▁For	-3472
선이	-3473
▁said	-3474
▁반발	-3475
▁한국의	-3476
▁안내	-3477
▁자금	-3478
적이다	-3479
(20	-3480
▁world	-3481
▁늘어나	-3482
▁훨씬	-3483
회견	-3484
제도	-3485
▁작가	-3486
이면	-3487
▁거부	-3488
▁주인공	-3489
▁걸쳐	-3490
▁between	-3491
▁포함한	-3492
oy	-3493
▁상반기	-3494
내고	-3495
가격	-3496
하려는	-3497
▁써	-3498
▁집계	-3499
▁이번에	-3500
영화	-3501
▁아침	-3502
▁재미	-3503
▁pol	-3504
▁종목	-3505
함으로써	-3506
land	-3507
점에서	-3508
뿐만	-3509
▁36	-3510
▁pers	-3511
▁틀	-3512
률은	-3513
▁불러	-3514
게임	-3515
▁받았	-3516
▁점에서	-3517
군이	-3518
세기	-3519
▁자리를	-3520
▁말한다	-3521
▁공사	-3522
▁배치	-3523
▁배출	-3524
▁대법	-3525
구나	-3526
▁대화	-3527
이라도	-3528
위원장	-3529
▁열어	-3530
▁매일	-3531
▁exam	-3532
었는데	-3533
▁작성	-3534
▁ear	-3535
종합	-3536
35	-3537
▁different	-3538
1)	-3539
▁플레이	-3540
▁ty	-3541
에만	-3542
▁프로그램을	-3543
▁법무	-3544
▁위기	-3545
▁기부	-3546
▁KBS	-3547
▁80	-3548
▁나갈	-3549
▁넘는	-3550
▁주문	-3551
関連	-3552
거운	-3553
ict	-3554
▁높다	-3555
▁집단	-3556
▁조건	-3557
ists	-3558
▁Q	-3559
▁절반	-3560
▁타고	-3561
▁자율	-3562
wn	-3563
▁그린	-3564
님이	-3565
▁효과를	-3566
▁just	-3567
▁◇	-3568
▁군사	-3569
스와	-3570
▁뉴욕	-3571
▁발표한	-3572
진이	-3573
ンド	-3574
해를	-3575
▁num	-3576
권이	-3577
우고	-3578
バー	-3579
▁대기업	-3580
▁진단	-3581
▁당부	-3582
▁폴	-3583
co	-3584
▁맨	-3585
ever	-3586
주민	-3587
진은	-3588
▁Com	-3589
▁프리미	-3590
▁인공	-3591
면을	-3592
▁돕	-3593
테크	-3594
▁동일	-3595
트워크	-3596
트남	-3597
▁화장	-3598
▁그러니까	-3599
▁found	-3600
▁그게	-3601
공간	-3602
▁인기	-3603
▁단지	-3604
▁way	-3605
겠지만	-3606
구에	-3607
ident	-3608
▁봄	-3609
▁trans	-3610
웨이	-3611
▁채널	-3612
실에서	-3613
트로	-3614
あった	-3615
ジャ	-3616
▁her	-3617
대상	-3618
▁셈이다	-3619
▁경찰은	-3620
▁건립	-3621
▁장관은	-3622
▁기자회견	-3623
ually	-3624
억원으로	-3625
▁쏟아	-3626
▁일본의	-3627
TA	-3628
▁ke	-3629
▁long	-3630
▁피해를	-3631
통합	-3632
▁바뀌	-3633
인들이	-3634
▁inst	-3635
▁보이는	-3636
▁계열	-3637
▁정기	-3638
의료	-3639
▁med	-3640
하나	-3641
▁students	-3642
조차	-3643
▁득	-3644
▁전면	-3645
▁form	-3646
▁inform	-3647
시티	-3648
▁늘었다	-3649
▁메시	-3650
어가	-3651
▁당연	-3652
3)	-3653
국가	-3654
▁아프	-3655
aking	-3656
년에는	-3657
FC	-3658
▁임시	-3659
소는	-3660
▁because	-3661
▁빚	-3662
ited	-3663
▁남성	-3664
▁접수	-3665
▁옷	-3666
었지만	-3667
티브	-3668
▁챙	-3669
▁아내	-3670
▁연출	-3671
▁취임	-3672
회장	-3673
▁나누	-3674
▁걱정	-3675
▁mod	-3676
arm	-3677
운영	-3678
▁박근혜	-3679
▁창원	-3680
분의	-3681
▁시작으로	-3682
히는	-3683
션을	-3684
▁ed	-3685
피언	-3686
▁동물	-3687
▁비대	-3688
▁증권	-3689
하고자	-3690
ション	-3691
▁이내	-3692
ER	-3693
▁죄	-3694
▁정규	-3695
▁성과를	-3696
▁이른	-3697
▁소방	-3698
▁충분히	-3699
▁very	-3700
▁삼성전자	-3701
ness	-3702
▁원하는	-3703
▁보이고	-3704
▁오픈	-3705
▁자본	-3706
▁교체	-3707
▁관련된	-3708
▁제품을	-3709
무를	-3710
メリカ	-3711
▁영업이익	-3712
urn	-3713
get	-3714
▁개혁	-3715
▁관광객	-3716
▁see	-3717
▁위치한	-3718
▁수용	-3719
▁이유는	-3720
▁카카오	-3721
전략	-3722
▁중에	-3723
▁33	-3724
▁2005	-3725
▁every	-3726
▁개념	-3727
▁이루어	-3728
재단	-3729
ork	-3730
조원	-3731
회담	-3732
▁등에서	-3733
▁effect	-3734
▁주제로	-3735
▁리그	-3736
력은	-3737
▁기소	-3738
▁했던	-3739
▁children	-3740
리오	-3741
▁현대차	-3742
▁Americ	-3743
▁하반기	-3744
vent	-3745
▁금리	-3746
▁발행	-3747
)、	-3748
후보	-3749
',	-3750
도와	-3751
▁자동	-3752
▁취약	-3753
습니까	-3754
어로	-3755
신을	-3756
사업을	-3757
▁않으면	-3758
받는	-3759
조정	-3760
▁확실	-3761
전이	-3762
▁sim	-3763
▁꾸준히	-3764
▁my	-3765
▁확장	-3766
▁새로	-3767
과정	-3768
▁실질	-3769
ered	-3770
▁케이	-3771
챔피언	-3772
성도	-3773
▁even	-3774
ec	-3775
The	-3776
iron	-3777
간다	-3778
mm	-3779
▁가수	-3780
(201	-3781
등급	-3782
▁incre	-3783
▁쓸	-3784
~3	-3785
스토	-3786
われ	-3787
들로	-3788
▁뿌	-3789
▁위협	-3790
▁고통	-3791
ました	-3792
교육청	-3793
▁같아	-3794
선의	-3795
▁걷	-3796
5000	-3797
▁inter	-3798
▁techn	-3799
ef	-3800
▁했지만	-3801
▁환자	-3802
▁돌파	-3803
직원	-3804
▁명이	-3805
해진	-3806
▁크다	-3807
▁과정을	-3808
주로	-3809
▁관람	-3810
▁공부	-3811
ures	-3812
▁구입	-3813
스럽게	-3814
▁유튜	-3815
트는	-3816
▁엄청	-3817
99	-3818
크라이나	-3819
フィ	-3820
▁컬	-3821
량은	-3822
▁&	-3823
▁포항	-3824
▁가슴	-3825
IA	-3826
▁목표로	-3827
ody	-3828
io	-3829
▁작용	-3830
▁비슷한	-3831
▁후반	-3832
▁상장	-3833
▁응답	-3834
▁한화	-3835
100	-3836
▁보통	-3837
▁count	-3838
ップ	-3839
cer	-3840
▁처벌	-3841
▁떠나	-3842
▁name	-3843
려면	-3844
▁브라	-3845
▁그리	-3846
▁lar	-3847
건축	-3848
행정	-3849
▁담은	-3850
계약	-3851
▁여야	-3852
부장	-3853
메달	-3854
심히	-3855
계가	-3856
▁포기	-3857
NA	-3858
ives	-3859
▁참고	-3860
▁식품	-3861
▁다니	-3862
▁평가를	-3863
▁주말	-3864
금리	-3865
▁소설	-3866
▁시작한	-3867
日に	-3868
▁아니냐	-3869
▁십	-3870
▁인증	-3871
▁det	-3872
하겠다고	-3873
▁거듭	-3874
▁고양	-3875
▁자랑	-3876
▁sk	-3877
▁다가	-3878
▁링크	-3879
▁주관	-3880
▁정비	-3881
라운드	-3882
점에	-3883
▁then	-3884
iew	-3885
▁기울	-3886
▁앞에서	-3887
ED	-3888
▁그러면	-3889
▁활용해	-3890
시험	-3891
되기	-3892
▁경우에는	-3893
이라면	-3894
자금	-3895
이기도	-3896
▁50%	-3897
한다면	-3898
kg	-3899
▁prog	-3900
▁어려움을	-3901
カー	-3902
▁통화	-3903
대에서	-3904
other	-3905
종의	-3906
▁꺼	-3907
▁리더	-3908
▁초기	-3909
▁대표가	-3910
▁사람들은	-3911
ock	-3912
▁빨리	-3913
▁항상	-3914
▁관객	-3915
▁사람의	-3916
▁습	-3917
▁겁	-3918
▁묘	-3919
▁나타나	-3920
▁진입	-3921
▁혼자	-3922
▁sign	-3923
명과	-3924
▁책임을	-3925
映画	-3926
▁after	-3927
▁탓	-3928
されている	-3929
목을	-3930
▁사장	-3931
▁일상	-3932
▁들여	-3933
류를	-3934
지면	-3935
▁중간	-3936
든지	-3937
있다	-3938
터리	-3939
84	-3940
▁“(	-3941
▁34	-3942
시킬	-3943
▁병원	-3944
▁스토	-3945
▁ᆞ	-3946
▁var	-3947
▁important	-3948
▁증가했다	-3949
▁도움을	-3950
▁They	-3951
의원	-3952
▁애플	-3953
SG	-3954
▁수석	-3955
▁짧	-3956
▁hum	-3957
보를	-3958
▁만난	-3959
▁지식	-3960
▁call	-3961
▁향해	-3962
▁전력	-3963
ros	-3964
▁개편	-3965
▁구간	-3966
▁이용해	-3967
▁study	-3968
액을	-3969
▁혹은	-3970
▁cent	-3971
▁바다	-3972
▁앨범	-3973
▁태양	-3974
ds	-3975
비용	-3976
▁중국의	-3977
▁안타	-3978
▁일어나	-3979
▁운전	-3980
▁절대	-3981
tle	-3982
호를	-3983
▁완전히	-3984
점은	-3985
가스	-3986
▁까	-3987
cent	-3988
▁주차	-3989
연구원	-3990
ファ	-3991
▁논란이	-3992
▁MBC	-3993
▁빠르게	-3994
▁밝힌	-3995
▁바꾸	-3996
▁총선	-3997
▁심사	-3998
▁Ar	-3999
▁pub	-4000
▁process	-4001
▁10%	-4002
▁빠져	-4003
レー	-4004
▁자격	-4005
ism	-4006
▁등과	-4007
▁food	-4008
▁꼬	-4009
▁인프라	-4010
표를	-4011
▁ca	-4012
렀다	-4013
っている	-4014
▁밥	-4015
EO	-4016
▁계획을	-4017
▁눈에	-4018
▁통일	-4019
.3%	-4020
▁밑	-4021
▁pat	-4022
▁인력	-4023
!!	-4024
36	-4025
.4%	-4026
▁융	-4027
▁삼성전	-4028
▁大	-4029
▁사람을	-4030
CC	-4031
당을	-4032
▁윤석열	-4033
▁베트남	-4034
범죄	-4035
▁흐름	-4036
▁성남	-4037
▁나머지	-4038
▁감안	-4039
ages	-4040
▁든	-4041
▁센터	-4042
▁関連	-4043
▁고위	-4044
▁each	-4045
▁찾는	-4046
▁펀드	-4047
부산	-4048
제에	-4049
▁취소	-4050
▁효과가	-4051
구청	-4052
▁직장	-4053
▁제공한다	-4054
▁반복	-4055
줬다	-4056
▁제공하는	-4057
▁중요하다	-4058
▁잊	-4059
많은	-4060
▁흡	-4061
▁명예	-4062
▁상호	-4063
より	-4064
비는	-4065
수사	-4066
▁정치적	-4067
▁life	-4068
ically	-4069
▁gener	-4070
▁́	-4071
년이	-4072
법인	-4073
▁지배	-4074
▁정리	-4075
▁#	-4076
▁개막	-4077
▁예측	-4078
▁those	-4079
▁information	-4080
▁2004	-4081
cept	-4082
지능	-4083
▁인권	-4084
▁도내	-4085
▁저희	-4086
▁새롭게	-4087
▁하나의	-4088
▁버스	-4089
▁후보가	-4090
ases	-4091
▁의심	-4092
▁result	-4093
▁뿐만	-4094
▁read	-4095
▁There	-4096
▁노력을	-4097
EC	-4098
론을	-4099
속도로	-4100
치지	-4101
.7%	-4102
▁의한	-4103
▁원래	-4104
▁손을	-4105
▁ext	-4106
.1%	-4107
▁매각	-4108
▁much	-4109
.6%	-4110
▁우리의	-4111
▁장애인	-4112
▁대해서도	-4113
放送	-4114
▁기능을	-4115
▁cre	-4116
▁노인	-4117
▁뜻을	-4118
▁빠른	-4119
▁똑	-4120
이사	-4121
▁school	-4122
▁어렵다	-4123
▁What	-4124
▁하늘	-4125
▁직후	-4126
▁포함해	-4127
이하	-4128
▁이거	-4129
▁갖춘	-4130
▁45	-4131
▁굳	-4132
▁상황이다	-4133
▁국회의원	-4134
▁공감	-4135
▁불가능	-4136
지사	-4137
▁공약	-4138
리티	-4139
▁나오고	-4140
가능	-4141
▁오랜	-4142
이었던	-4143
현지시간	-4144
gg	-4145
▁모아	-4146
▁들고	-4147
ruct	-4148
ollow	-4149
項目	-4150
▁앞에	-4151
ues	-4152
유의	-4153
▁향상	-4154
.2%	-4155
기구	-4156
▁사이에	-4157
라우	-4158
▁하게	-4159
▁back	-4160
▁소상공	-4161
▁재난	-4162
권에	-4163
▁복귀	-4164
.8%	-4165
일에는	-4166
▁증거	-4167
▁했는데	-4168
당한	-4169
▁않도록	-4170
더라	-4171
▁resp	-4172
공업	-4173
화학	-4174
▁헌법	-4175
34	-4176
▁확인할	-4177
イト	-4178
▁기타	-4179
시와	-4180
▁being	-4181
안은	-4182
▁mon	-4183
문이	-4184
ーク	-4185
▁재산	-4186
▁늘어난	-4187
사무	-4188
▁정책을	-4189
체가	-4190
▁우려가	-4191
作品	-4192
▁하여	-4193
▁이처럼	-4194
▁신한	-4195
(200	-4196
▁포스코	-4197
▁벽	-4198
ーズ	-4199
▁commun	-4200
ize	-4201
▁fact	-4202
받아	-4203
만명	-4204
▁전투	-4205
활동을	-4206
▁도착	-4207
▁sci	-4208
조를	-4209
올림픽	-4210
▁다소	-4211
▁art	-4212
▁이르	-4213
▁받지	-4214
37	-4215
서에	-4216
란드	-4217
▁lead	-4218
▁저녁	-4219
▁전기차	-4220
-0	-4221
▁인재	-4222
FA	-4223
▁상징	-4224
▁갖추	-4225
▁페이스	-4226
-2	-4227
▁들었다	-4228
▁없다고	-4229
문학	-4230
88	-4231
구요	-4232
ices	-4233
▁sec	-4234
관에서	-4235
▁find	-4236
imes	-4237
▁gra	-4238
.0%	-4239
▁칠	-4240
▁양성	-4241
▁김영	-4242
▁자신을	-4243
▁자원	-4244
▁마치	-4245
▁만약	-4246
▁끝에	-4247
▁쇼핑	-4248
▁data	-4249
▁ᄏᄏᄏᄏ	-4250
▁good	-4251
▁미술	-4252
▁승리	-4253
tt	-4254
협의회	-4255
▁동의	-4256
▁37	-4257
▁지구	-4258
▁생각해	-4259
▁복합	-4260
▁강력한	-4261
▁맞춤형	-4262
viron	-4263
스티	-4264
ale	-4265
▁추가로	-4266
었을	-4267
.9%	-4268
▁IT	-4269
▁최우	-4270
▁즐길	-4271
▁연말	-4272
▁日本の	-4273
▁제일	-4274
▁grow	-4275
led	-4276
hers	-4277
▁누적	-4278
▁부과	-4279
액이	-4280
▁딱	-4281
까지는	-4282
▁우크라이나	-4283
▁혜택을	-4284
▁내고	-4285
▁proble	-4286
▁뭔	-4287
▁듣고	-4288
▁무역	-4289
▁수업	-4290
중한	-4291
▁활약	-4292
▁But	-4293
▁헬	-4294
화로	-4295
사일	-4296
▁関連項目	-4297
▁하겠다	-4298
▁징역	-4299
▁웹	-4300
▁쌍	-4301
▁챔피언	-4302
까요	-4303
상황	-4304
▁ref	-4305
▁조례	-4306
ward	-4307
▁열심히	-4308
AI	-4309
4)	-4310
▁문을	-4311
▁활용한	-4312
공단	-4313
씨를	-4314
any	-4315
5)	-4316
▁she	-4317
▁예고	-4318
연구소	-4319
▁누구나	-4320
▁che	-4321
모델	-4322
▁第	-4323
▁길을	-4324
▁학부모	-4325
▁베이	-4326
▁동아	-4327
▁월드컵	-4328
▁마스크	-4329
▁갑자기	-4330
퓨터	-4331
▁나무	-4332
▁덜	-4333
cm	-4334
▁조기	-4335
▁look	-4336
ix	-4337
▁운행	-4338
▁당초	-4339
▁가까운	-4340
▁끝나	-4341
▁X	-4342
▁거예요	-4343
▁적극적인	-4344
▁does	-4345
메라	-4346
▁New	-4347
▁loc	-4348
▁있어요	-4349
▁벗어나	-4350
▁나를	-4351
▁가치를	-4352
▁객	-4353
해양	-4354
研究	-4355
▁굴	-4356
▁fam	-4357
봤다	-4358
con	-4359
▁쉽지	-4360
▁커피	-4361
▁자치	-4362
▁동기	-4363
▁보이	-4364
▁gl	-4365
und	-4366
▁cur	-4367
89	-4368
▁그래도	-4369
▁▷	-4370
▁set	-4371
▁지금은	-4372
▁본다	-4373
▁공직	-4374
▁흔들	-4375
질이	-4376
▁운영하는	-4377
▁갤	-4378
부문	-4379
▁형사	-4380
▁보조	-4381
▁인생	-4382
라스	-4383
▁level	-4384
▁기업이	-4385
검사	-4386
▁노선	-4387
지수	-4388
▁적절	-4389
▁등도	-4390
연을	-4391
해주	-4392
▁32	-4393
▁행사를	-4394
ergy	-4395
▁partic	-4396
▁바이오	-4397
』(	-4398
철도	-4399
▁시범	-4400
▁during	-4401
コン	-4402
でも	-4403
▁미리	-4404
▁requ	-4405
분야	-4406
出身の人物	-4407
▁using	-4408
▁패션	-4409
▁주력	-4410
▁밖에	-4411
▁유튜브	-4412
▁분류	-4413
▁삭	-4414
▁확진자	-4415
▁필수	-4416
지기	-4417
▁폐지	-4418
86	-4419
▁이외	-4420
건강	-4421
▁검찰은	-4422
▁자체가	-4423
▁말고	-4424
▁dise	-4425
▁먹고	-4426
▁research	-4427
▁체육	-4428
보건	-4429
비아	-4430
▁soc	-4431
iversity	-4432
▁급증	-4433
▁아들	-4434
피스	-4435
▁test	-4436
수수	-4437
먼트	-4438
형을	-4439
웨어	-4440
▁가구	-4441
▁가르	-4442
▁성격	-4443
▁br	-4444
뮤니	-4445
▁세월	-4446
리스트	-4447
がある	-4448
時代	-4449
조건	-4450
제한	-4451
승을	-4452
▁20%	-4453
시켰다	-4454
생산	-4455
stand	-4456
▁위원장은	-4457
▁■	-4458
엑스	-4459
▁초반	-4460
▁봉사	-4461
2000	-4462
による	-4463
▁2002	-4464
39	-4465
かった	-4466
▁30%	-4467
시키고	-4468
▁받는다	-4469
▁영역	-4470
▁경기를	-4471
▁기대된다	-4472
▁포인트	-4473
▁av	-4474
▁가동	-4475
ES	-4476
▁삶의	-4477
▁선도	-4478
▁인기를	-4479
▁거야	-4480
이의	-4481
45	-4482
▁밝히	-4483
▁평소	-4484
▁있으면	-4485
▁피부	-4486
orn	-4487
▁운용	-4488
により	-4489
▁사실이	-4490
식으로	-4491
▁문학	-4492
会社	-4493
▁광역	-4494
▁올해는	-4495
나가	-4496
▁dep	-4497
▁진행한다	-4498
▁person	-4499
현재	-4500
▁임명	-4501
▁대표적인	-4502
경을	-4503
▁여부를	-4504
▁부인	-4505
공동	-4506
개국	-4507
▁청구	-4508
▁화재	-4509
▁단독	-4510
▁그거	-4511
▁모습이	-4512
지게	-4513
치료	-4514
연금	-4515
▁절차	-4516
가에	-4517
▁ins	-4518
▁상당히	-4519
크로	-4520
▁가득	-4521
▁특별한	-4522
▁전해졌다	-4523
。19	-4524
でき	-4525
▁day	-4526
화와	-4527
▁삶을	-4528
받을	-4529
예산	-4530
▁괜	-4531
▁야구	-4532
AS	-4533
▁파트	-4534
▁상태다	-4535
▁접촉	-4536
▁많았다	-4537
▁aut	-4538
▁own	-4539
▁대기	-4540
▁전개	-4541
▁성적	-4542
▁채권	-4543
▁잇따	-4544
▁ent	-4545
ex	-4546
▁right	-4547
iel	-4548
▁가까이	-4549
▁가격이	-4550
▁가능성을	-4551
사인	-4552
▁숲	-4553
법에	-4554
▁sol	-4555
▁str	-4556
▁위에	-4557
석을	-4558
▁min	-4559
▁만들기	-4560
▁종료	-4561
▁비난	-4562
▁인하	-4563
대와	-4564
▁있다면	-4565
계의	-4566
▁대폭	-4567
▁아니면	-4568
▁느껴	-4569
억원의	-4570
▁때마다	-4571
받았다	-4572
ection	-4573
read	-4574
▁가을	-4575
スタ	-4576
IT	-4577
▁show	-4578
▁있어야	-4579
▁가서	-4580
▁센	-4581
자들을	-4582
해왔다	-4583
기지	-4584
▁참석한	-4585
▁초청	-4586
▁미디어	-4587
▁사용할	-4588
▁지원하는	-4589
▁수수	-4590
▁유도	-4591
▁누가	-4592
▁만한	-4593
▁상황에	-4594
▁expl	-4595
스에	-4596
チャ	-4597
시고	-4598
akes	-4599
▁곳곳	-4600
이로	-4601
▁조사를	-4602
마저	-4603
▁매입	-4604
)。	-4605
▁오르	-4606
▁궁금	-4607
▁=	-4608
▁이같이	-4609
▁나왔	-4610
▁take	-4611
향을	-4612
▁후원	-4613
일보	-4614
▁한반	-4615
▁기회	-4616
▁공장	-4617
자들에게	-4618
▁SNS	-4619
리어	-4620
hip	-4621
▁나눠	-4622
▁협약	-4623
▁보도했다	-4624
87	-4625
▁간담	-4626
▁올렸다	-4627
개혁	-4628
▁신종	-4629
▁두산	-4630
▁공천	-4631
▁사람들	-4632
▁이때	-4633
데이터	-4634
영업	-4635
day	-4636
vironment	-4637
ather	-4638
▁따뜻	-4639
▁이행	-4640
▁이탈리아	-4641
▁90	-4642
▁Z	-4643
ars	-4644
▁갔	-4645
▁단일	-4646
▁철도	-4647
▁증가한	-4648
▁깊은	-4649
ron	-4650
방을	-4651
▁교사	-4652
▁설정	-4653
ute	-4654
▁로봇	-4655
▁prot	-4656
식에	-4657
▁진행된다	-4658
▁선생님	-4659
▁def	-4660
▁나올	-4661
중국	-4662
▁힘든	-4663
▁디자	-4664
▁구성된	-4665
▁최대한	-4666
계층	-4667
33	-4668
85	-4669
▁압박	-4670
▁새누리당	-4671
▁호소	-4672
호선	-4673
▁2003	-4674
▁춘	-4675
이야	-4676
▁관측	-4677
▁made	-4678
▁차원에서	-4679
▁small	-4680
▁도와	-4681
▁사장은	-4682
▁지역에	-4683
▁교육을	-4684
동의	-4685
ier	-4686
시대	-4687
▁선진	-4688
▁follow	-4689
리적	-4690
했습니다	-4691
▁시장의	-4692
광역	-4693
▁글을	-4694
▁목적	-4695
▁임금	-4696
▁북한의	-4697
▁공공기관	-4698
인들의	-4699
▁있으	-4700
가량	-4701
▁네이버	-4702
rain	-4703
▁축소	-4704
▁연구원은	-4705
축구	-4706
▁활발	-4707
▁실험	-4708
서가	-4709
았고	-4710
리트	-4711
▁before	-4712
iqu	-4713
▁권한	-4714
ient	-4715
▁한나라	-4716
にお	-4717
▁받아들	-4718
▁혐의를	-4719
▁中	-4720
▁dist	-4721
▁구체적인	-4722
천시	-4723
ality	-4724
国の	-4725
▁거기	-4726
억달러	-4727
▁이용할	-4728
ized	-4729
▁treat	-4730
체험	-4731
▁무엇보다	-4732
개로	-4733
ik	-4734
일간	-4735
▁비판했다	-4736
▁곤	-4737
더라고	-4738
▁상위	-4739
▁획득	-4740
nce	-4741
▁경험을	-4742
▁발매	-4743
▁○	-4744
▁잡아	-4745
▁미세	-4746
▁카페	-4747
코리아	-4748
▁블랙	-4749
▁less	-4750
미국	-4751
▁강제	-4752
▁예를	-4753
▁ris	-4754
▁때까지	-4755
()	-4756
전거	-4757
대구	-4758
▁same	-4759
테이	-4760
▁동반	-4761
▁대표팀	-4762
쇼핑	-4763
ax	-4764
▁시장에	-4765
▁장면	-4766
▁스타일	-4767
일본	-4768
世界	-4769
▁소리	-4770
▁능력	-4771
▁수요가	-4772
▁종교	-4773
▁첨단	-4774
up	-4775
▁출생	-4776
▁To	-4777
▁조치를	-4778
▁기대한다	-4779
▁결승	-4780
▁end	-4781
▁프리미엄	-4782
▁천안	-4783
노조	-4784
▁이로	-4785
▁남은	-4786
▁짜	-4787
사한	-4788
▁기후	-4789
▁교과	-4790
드로	-4791
▁hist	-4792
민의	-4793
imate	-4794
▁샤	-4795
▁약간	-4796
AR	-4797
▁100%	-4798
기획	-4799
▁선호	-4800
▁comple	-4801
▁방지	-4802
それ	-4803
▁사업에	-4804
▁우주	-4805
▁마음이	-4806
식은	-4807
▁등이다	-4808
-3	-4809
ved	-4810
명한	-4811
만달러	-4812
계에	-4813
▁5000	-4814
▁당부했다	-4815
▁Ind	-4816
▁의미를	-4817
나다	-4818
▁body	-4819
▁내용이	-4820
판을	-4821
연맹	-4822
▁vis	-4823
결과	-4824
▁검증	-4825
▁상대적으로	-4826
어는	-4827
달라	-4828
건이	-4829
▁모여	-4830
잖아	-4831
신문	-4832
▁상임	-4833
omen	-4834
▁often	-4835
▁start	-4836
학을	-4837
▁만들었다	-4838
▁around	-4839
▁못해	-4840
▁줄어들	-4841
▁수소	-4842
▁고령	-4843
▁폭발	-4844
▁싫	-4845
スの	-4846
▁150	-4847
97	-4848
▁이들의	-4849
경북	-4850
▁고려해	-4851
놓고	-4852
▁design	-4853
▁동료	-4854
▁다음달	-4855
シャ	-4856
これ	-4857
소에서	-4858
平成	-4859
▁멈	-4860
▁그를	-4861
처리	-4862
바이오	-4863
▁And	-4864
▁네트워크	-4865
루션	-4866
▁차단	-4867
▁직업	-4868
심의	-4869
▁사용하는	-4870
봉사	-4871
▁썼	-4872
ential	-4873
께서	-4874
▁전세	-4875
▁적은	-4876
▁내세	-4877
▁시기	-4878
vern	-4879
됐고	-4880
NG	-4881
▁부탁	-4882
화의	-4883
▁시장에서	-4884
▁떨어진	-4885
▁차지했다	-4886
rol	-4887
었습니다	-4888
▁쓰는	-4889
▁아이디어	-4890
직을	-4891
▁분리	-4892
▁차이가	-4893
피해	-4894
자들	-4895
▁그것은	-4896
▁이웃	-4897
▁제거	-4898
ah	-4899
▁grou	-4900
▁마감	-4901
▁아니고	-4902
▁나도	-4903
▁취득	-4904
▁class	-4905
음이	-4906
▁홍콩	-4907
▁전주	-4908
rop	-4909
▁now	-4910
8)	-4911
▁선박	-4912
▁이끌어	-4913
▁신문	-4914
▁털	-4915
보니	-4916
air	-4917
▁여기서	-4918
▁개별	-4919
現在	-4920
▁주의	-4921
▁민족	-4922
の一	-4923
호는	-4924
ルー	-4925
소로	-4926
▁올려	-4927
となる	-4928
reen	-4929
▁통해서	-4930
▁이들이	-4931
위기	-4932
▁선임	-4933
▁수비	-4934
▁pop	-4935
▁down	-4936
▁제외한	-4937
▁disc	-4938
▁계약을	-4939
▁완벽	-4940
▁기반으로	-4941
했기	-4942
▁lit	-4943
▁책을	-4944
▁슈퍼	-4945
ash	-4946
▁both	-4947
▁얘기를	-4948
PG	-4949
iety	-4950
▁이명	-4951
▁When	-4952
▁페이스북	-4953
위원회는	-4954
▁동원	-4955
산시	-4956
▁안보	-4957
▁국내외	-4958
▁상생	-4959
96	-4960
▁보상	-4961
▁균형	-4962
年生	-4963
ital	-4964
훼손	-4965
돼야	-4966
▁치열	-4967
▁다하겠다	-4968
▁공항	-4969
▁사업은	-4970
▁400	-4971
▁하나로	-4972
올해	-4973
▁38	-4974
、「	-4975
▁while	-4976
폭력	-4977
▁비행	-4978
▁비밀	-4979
▁일은	-4980
▁컴퓨터	-4981
년의	-4982
▁분위기	-4983
95	-4984
▁탄소	-4985
운용	-4986
▁main	-4987
▁이슈	-4988
▁재개	-4989
시부터	-4990
inal	-4991
▁답변	-4992
말로	-4993
▁지상	-4994
▁품질	-4995
▁경쟁력	-4996
▁지휘	-4997
▁수능	-4998
キャ	-4999
▁De	-5000
처를	-5001
▁아름다운	-5002
iving	-5003
▁Sh	-5004
▁시장을	-5005
▁뮤지	-5006
니어	-5007
▁낳	-5008
트가	-5009
▁fun	-5010
▁거론	-5011
▁상품을	-5012
지에서	-5013
▁법인	-5014
전의	-5015
▁아르	-5016
▁유니	-5017
dition	-5018
▁계기로	-5019
ted	-5020
월드	-5021
전은	-5022
▁연락	-5023
단에	-5024
サー	-5025
재생	-5026
[/	-5027
실이	-5028
▁방문해	-5029
ivid	-5030
ince	-5031
▁`	-5032
ことが	-5033
▁완전	-5034
ger	-5035
▁희생	-5036
가로	-5037
▁activ	-5038
クラ	-5039
▁셀	-5040
▁Se	-5041
▁주최	-5042
현대	-5043
▁했고	-5044
▁시장이	-5045
▁축제	-5046
트리	-5047
세로	-5048
효과	-5049
월에는	-5050
ave	-5051
▁정권	-5052
드리	-5053
책을	-5054
ロー	-5055
▁크리스	-5056
▁추진하고	-5057
▁점이	-5058
체계	-5059
▁거죠	-5060
▁경고	-5061
▁업종	-5062
▁질병	-5063
ands	-5064
となった	-5065
▁머물	-5066
▁목소리를	-5067
건의	-5068
▁대로	-5069
▁care	-5070
▁높이	-5071
▁elect	-5072
일은	-5073
앞으로도	-5074
れる	-5075
▁때도	-5076
▁redu	-5077
바이러스	-5078
▁쌀	-5079
서의	-5080
cl	-5081
바로	-5082
ral	-5083
ull	-5084
ty	-5085
기기	-5086
▁변화를	-5087
▁Sp	-5088
▁관련한	-5089
▁그랬	-5090
▁사퇴	-5091
▁특허	-5092
▁탁	-5093
듯이	-5094
▁분야에서	-5095
47	-5096
▁초등학교	-5097
おり	-5098
▁집에	-5099
▁내에	-5100
령을	-5101
호가	-5102
▁유엔	-5103
▁돌려	-5104
물관	-5105
▁이틀	-5106
최근	-5107
▁본격적인	-5108
▁잠시	-5109
▁수준으로	-5110
▁농촌	-5111
▁가상	-5112
망을	-5113
하면서도	-5114
물의	-5115
▁.	-5116
▁횡	-5117
심이	-5118
▁물류	-5119
▁Ex	-5120
der	-5121
▁투자를	-5122
판매	-5123
▁표준	-5124
▁멋	-5125
gen	-5126
▁일자	-5127
▁눈길을	-5128
▁결합	-5129
▁연습	-5130
▁만들고	-5131
▁달려	-5132
ids	-5133
▁생명	-5134
▁수준의	-5135
▁고발	-5136
▁수많은	-5137
ides	-5138
▁power	-5139
▁당장	-5140
스포츠	-5141
,”	-5142
미술	-5143
됩니다	-5144
여행	-5145
면적	-5146
▁커뮤니	-5147
미를	-5148
▁나의	-5149
▁아쉬	-5150
▁plan	-5151
▁These	-5152
▁부상	-5153
▁결과가	-5154
사이	-5155
▁이른바	-5156
▁부품	-5157
음에	-5158
(0.	-5159
미래	-5160
ven	-5161
de	-5162
▁척	-5163
▁맹	-5164
▁자리에서	-5165
とも	-5166
▁비즈	-5167
▁val	-5168
년도	-5169
?”	-5170
▁초과	-5171
irect	-5172
▁대우	-5173
적으로는	-5174
선에	-5175
▁관계를	-5176
▁보완	-5177
▁심각한	-5178
▁행위	-5179
▁지시	-5180
▁열린다	-5181
▁common	-5182
▁3000	-5183
ished	-5184
체의	-5185
▁것입니다	-5186
니터	-5187
rent	-5188
▁65	-5189
▁입학	-5190
▁방법을	-5191
▁나이	-5192
▁Res	-5193
▁최소화	-5194
▁ᄏᄏ	-5195
▁섭	-5196
▁가로	-5197
▁각주	-5198
▁답했다	-5199
▁기회가	-5200
설팅	-5201
▁시스템을	-5202
력의	-5203
▁청약	-5204
인터	-5205
▁들어서	-5206
해온	-5207
▁소화	-5208
정으로	-5209
▁number	-5210
▁띄	-5211
플러스	-5212
▁괜찮	-5213
していた	-5214
▁살고	-5215
만한	-5216
오프	-5217
▁도쿄	-5218
▁충청	-5219
----	-5220
약품	-5221
▁지역에서	-5222
▁참여한	-5223
▁자료를	-5224
▁특성	-5225
▁단속	-5226
▁위로	-5227
▁사건을	-5228
▁아버지	-5229
▁할머니	-5230
46	-5231
▁구현	-5232
bs	-5233
ets	-5234
▁39	-5235
▁편성	-5236
▁점점	-5237
▁writ	-5238
しい	-5239
▁부진	-5240
인에	-5241
등록	-5242
안타	-5243
지금	-5244
실에	-5245
ien	-5246
됐다고	-5247
▁에어	-5248
▁우수한	-5249
▁교류	-5250
▁poss	-5251
자유	-5252
▁운영하고	-5253
▁낼	-5254
▁학생들이	-5255
평균	-5256
2,	-5257
77	-5258
▁이정	-5259
▁2001	-5260
▁초대	-5261
▁현장에서	-5262
▁한미	-5263
야구	-5264
way	-5265
▁learn	-5266
드가	-5267
▁재무	-5268
▁state	-5269
▁日本	-5270
▁합격	-5271
ouse	-5272
▁Ad	-5273
▁CJ	-5274
영상	-5275
▁키워	-5276
ていた	-5277
me	-5278
회의에서	-5279
▁다음과	-5280
▁부담을	-5281
▁serv	-5282
▁발휘	-5283
▁구분	-5284
만으로	-5285
▁파트너	-5286
▁김정	-5287
▁생존	-5288
동에	-5289
38	-5290
▁노출	-5291
ける	-5292
▁훌	-5293
▁수정	-5294
▁think	-5295
▁외에도	-5296
▁dr	-5297
line	-5298
음에도	-5299
ves	-5300
▁지분	-5301
▁현황	-5302
▁문의	-5303
▁이래	-5304
▁인공지능	-5305
나요	-5306
다시	-5307
▁개설	-5308
鉄道	-5309
었으며	-5310
▁cle	-5311
番組	-5312
▁보유한	-5313
서트	-5314
기능	-5315
ank	-5316
▁mem	-5317
▁제재	-5318
▁모두가	-5319
▁Be	-5320
▁직무	-5321
들어	-5322
▁여러분	-5323
▁University	-5324
▁개방	-5325
소비	-5326
이던	-5327
져야	-5328
▁GS	-5329
▁건의	-5330
▁사실은	-5331
▁build	-5332
기록	-5333
▁매매	-5334
aterial	-5335
▁수치	-5336
▁트렌	-5337
▁46	-5338
▁내다	-5339
일까	-5340
▁경제적	-5341
▁understand	-5342
▁벨	-5343
▁보급	-5344
▁support	-5345
▁겪고	-5346
▁이승	-5347
▁조언	-5348
ross	-5349
와는	-5350
▁열었다	-5351
▁영입	-5352
지법	-5353
질환	-5354
차로	-5355
▁organ	-5356
테인	-5357
▁있는지	-5358
일로	-5359
경쟁	-5360
▁생긴	-5361
55	-5362
▁내용은	-5363
アメリカ	-5364
▁더해	-5365
▁again	-5366
량의	-5367
オー	-5368
신이	-5369
ury	-5370
▁경상	-5371
▁런	-5372
▁성능	-5373
력으로	-5374
▁실무	-5375
▁실내	-5376
▁바닥	-5377
▁진술	-5378
명이다	-5379
▁출입	-5380
▁cell	-5381
▁고급	-5382
▁준공	-5383
▁보안	-5384
uss	-5385
▁배달	-5386
▁원자	-5387
anc	-5388
▁모색	-5389
▁통계	-5390
フォ	-5391
▁의미가	-5392
▁실시간	-5393
▁여수	-5394
이상	-5395
▁자극	-5396
▁새벽	-5397
▁유리	-5398
▁먹는	-5399
▁역량을	-5400
▁준다	-5401
회의를	-5402
▁씨가	-5403
▁다이	-5404
주기	-5405
2%	-5406
▁일제	-5407
▁기록한	-5408
호텔	-5409
차는	-5410
▁누리	-5411
주에	-5412
▁eas	-5413
▁지역사회	-5414
사람	-5415
됐던	-5416
추진	-5417
▁Cl	-5418
▁용인	-5419
ステ	-5420
난다	-5421
▁재활	-5422
▁카메라	-5423
전쟁	-5424
ium	-5425
은행은	-5426
▁몸을	-5427
ulation	-5428
1%	-5429
임금	-5430
alk	-5431
▁도심	-5432
▁PC	-5433
▁능력을	-5434
작용	-5435
▁경쟁력을	-5436
학습	-5437
OU	-5438
6)	-5439
れた	-5440
ラー	-5441
▁Pl	-5442
▁부처	-5443
▁심의	-5444
▁불리는	-5445
▁그려	-5446
▁report	-5447
▁occ	-5448
▁three	-5449
▁제목	-5450
▁사랑을	-5451
▁현금	-5452
▁including	-5453
▁이상이	-5454
▁이재명	-5455
▁확충	-5456
ters	-5457
aj	-5458
트의	-5459
▁지하철	-5460
▁떠올	-5461
▁착용	-5462
혁명	-5463
▁탄생	-5464
▁무기	-5465
▁ser	-5466
▁1990	-5467
7)	-5468
▁같아요	-5469
▁스타트	-5470
▁인간의	-5471
els	-5472
ving	-5473
▁energy	-5474
代表	-5475
▁협상	-5476
▁,	-5477
▁진행하고	-5478
▁분석했다	-5479
▁경우는	-5480
▁Le	-5481
북한	-5482
국을	-5483
▁노력하겠다	-5484
▁등급	-5485
▁지속적인	-5486
▁손해	-5487
▁텐	-5488
ains	-5489
▁적발	-5490
oms	-5491
ランド	-5492
▁don	-5493
▁김종	-5494
▁질문에	-5495
32	-5496
▁의지를	-5497
자치단체	-5498
▁짐	-5499
▁나아가	-5500
고는	-5501
함이	-5502
석이	-5503
면에	-5504
バム	-5505
シング	-5506
건으로	-5507
44	-5508
AT	-5509
세에	-5510
▁그녀는	-5511
▁노후	-5512
▁표시	-5513
▁힐	-5514
▁want	-5515
oh	-5516
▁낮아	-5517
▁호흡	-5518
▁사진을	-5519
▁고향	-5520
(8	-5521
3%	-5522
▁하자	-5523
▁쾌	-5524
▁의결	-5525
프로그램	-5526
▁알려져	-5527
▁경우도	-5528
▁내에서	-5529
삼성	-5530
법이	-5531
▁절차를	-5532
▁충격	-5533
▁human	-5534
▁채택	-5535
▁대학생	-5536
▁명확	-5537
▁장비	-5538
아시아	-5539
▁추구	-5540
acter	-5541
수와	-5542
▁point	-5543
▁som	-5544
▁눈을	-5545
▁화려	-5546
▁bel	-5547
ON	-5548
▁서울대	-5549
▁토지	-5550
▁변호사	-5551
▁낭	-5552
ined	-5553
▁분위기를	-5554
▁중심의	-5555
▁무시	-5556
▁깔	-5557
▁평생	-5558
▁곳이	-5559
제와	-5560
님의	-5561
▁냈다	-5562
아버	-5563
▁알려진	-5564
▁발전을	-5565
재정	-5566
▁놀라	-5567
▁제정	-5568
▁사유	-5569
해요	-5570
▁아빠	-5571
▁현재까지	-5572
권은	-5573
▁이중	-5574
▁달하는	-5575
▁char	-5576
▁...	-5577
무역	-5578
▁op	-5579
▁예약	-5580
▁담긴	-5581
▁발생하는	-5582
▁adv	-5583
지자	-5584
▁연주	-5585
▁allow	-5586
▁돌아가	-5587
であった	-5588
▁정착	-5589
보증	-5590
▁게시	-5591
스플레이	-5592
였고	-5593
▁example	-5594
▁cor	-5595
▁과연	-5596
▁예능	-5597
힌다	-5598
▁응원	-5599
▁연령	-5600
ional	-5601
~4	-5602
outh	-5603
▁project	-5604
럭시	-5605
▁SBS	-5606
▁아닌가	-5607
▁개입	-5608
▁오염	-5609
백화점	-5610
ᄒᄒ	-5611
▁창의	-5612
▁자전거	-5613
▁업무를	-5614
수한	-5615
키로	-5616
▁알게	-5617
▁임상	-5618
▁형태로	-5619
▁이상을	-5620
▁생각하는	-5621
▁칭	-5622
▁나선다	-5623
▁따로	-5624
▁아예	-5625
なく	-5626
관의	-5627
▁세부	-5628
▁선출	-5629
歴史	-5630
▁대북	-5631
raph	-5632
▁거짓	-5633
▁아는	-5634
▁연합	-5635
▁Ph	-5636
▁널	-5637
자도	-5638
▁Eng	-5639
▁뛰어난	-5640
▁55	-5641
www	-5642
▁종류	-5643
▁현행	-5644
▁주가	-5645
▁풍부	-5646
조사를	-5647
▁수학	-5648
화는	-5649
▁Is	-5650
▁47	-5651
▁Te	-5652
▁북한이	-5653
▁gu	-5654
▁소프트	-5655
▁book	-5656
▁educ	-5657
▁대부분의	-5658
▁승인	-5659
상담	-5660
▁bo	-5661
▁좁	-5662
▁변동	-5663
▁부분이	-5664
▁확인됐다	-5665
진의	-5666
▁conf	-5667
▁저도	-5668
▁190	-5669
함에	-5670
にある	-5671
법은	-5672
▁그들의	-5673
복합	-5674
▁정체	-5675
▁감독이	-5676
▁great	-5677
▁담아	-5678
국에	-5679
▁데다	-5680
▁must	-5681
▁끈	-5682
▁영양	-5683
▁quest	-5684
▁저렴	-5685
lish	-5686
▁못할	-5687
▁environment	-5688
▁석유	-5689
▁쓰고	-5690
군에	-5691
▁가격은	-5692
PA	-5693
▁44	-5694
▁가고	-5695
▁모니터	-5696
▁이용한	-5697
공개	-5698
지검	-5699
▁바꿔	-5700
▁뉴스	-5701
▁실행	-5702
포를	-5703
-4	-5704
ージ	-5705
조직	-5706
단한	-5707
19)	-5708
▁Con	-5709
▁사업이	-5710
청소년	-5711
the	-5712
▁에이	-5713
▁결제	-5714
▁작품을	-5715
▁밟	-5716
▁법정	-5717
▁김태	-5718
▁전문가들은	-5719
놨다	-5720
▁전형	-5721
ries	-5722
▁disease	-5723
▁일어	-5724
▁met	-5725
▁어려워	-5726
(9	-5727
▁근본	-5728
▁김성	-5729
인에게	-5730
▁보이지	-5731
▁왼	-5732
▁부회	-5733
gin	-5734
▁나설	-5735
투표	-5736
を受	-5737
▁세상	-5738
▁법적	-5739
비전	-5740
▁풀이	-5741
▁묵	-5742
시안	-5743
집을	-5744
▁유기	-5745
▁간의	-5746
▁싶어	-5747
수에	-5748
との	-5749
.,	-5750
▁자세한	-5751
드러	-5752
▁동참	-5753
▁집계됐다	-5754
▁개의	-5755
▁힘이	-5756
▁보낸	-5757
▁예산을	-5758
▁전공	-5759
직한	-5760
투자증권	-5761
▁창조	-5762
▁typ	-5763
▁반응을	-5764
ering	-5765
▁앞장	-5766
▁정확한	-5767
ffic	-5768
▁발사	-5769
▁악화	-5770
▁적합	-5771
▁합동	-5772
られる	-5773
agn	-5774
디아	-5775
▁추석	-5776
▁클럽	-5777
브리	-5778
▁이어질	-5779
개선	-5780
▁배터리	-5781
▁▶	-5782
▁出	-5783
▁진행된	-5784
▁내렸다	-5785
▁총리	-5786
▁US	-5787
수산	-5788
▁called	-5789
マン	-5790
▁그만큼	-5791
TF	-5792
az	-5793
지며	-5794
시장은	-5795
▁안에서	-5796
▁대만	-5797
▁라인	-5798
▁경찰에	-5799
▁그럴	-5800
▁심리	-5801
oci	-5802
▁48	-5803
▁김해	-5804
하려고	-5805
▁caus	-5806
itions	-5807
ドラ	-5808
▁앉아	-5809
▁한정	-5810
PC	-5811
▁국가대표	-5812
▁수주	-5813
▁부족한	-5814
▁밴	-5815
친다	-5816
▁검색	-5817
▁말하는	-5818
▁사람들의	-5819
스키	-5820
▁고등학교	-5821
▁좋겠다	-5822
배를	-5823
arc	-5824
▁유입	-5825
▁강원도	-5826
▁애니	-5827
iver	-5828
eng	-5829
▁겁니다	-5830
▁무려	-5831
남도	-5832
▁옮겨	-5833
수원	-5834
▁설명이다	-5835
오늘	-5836
사들이	-5837
▁ve	-5838
그래	-5839
▁보증	-5840
▁참여하는	-5841
▁말해	-5842
졌고	-5843
itive	-5844
벤처	-5845
▁still	-5846
▁규모로	-5847
▁바이든	-5848
▁그걸	-5849
▁product	-5850
▁수사를	-5851
65	-5852
▁잡고	-5853
▁그들은	-5854
생명	-5855
▁선두	-5856
▁change	-5857
검찰	-5858
시로	-5859
내가	-5860
▁이제는	-5861
재해	-5862
여명이	-5863
▁세대	-5864
▁내용의	-5865
▁테마	-5866
▁꿈을	-5867
▁합류	-5868
▁모르는	-5869
▁play	-5870
▁large	-5871
▁진행했다	-5872
ected	-5873
▁지원한다	-5874
▁활성화를	-5875
▁입을	-5876
self	-5877
▁문제에	-5878
▁캠프	-5879
철수	-5880
▁그것을	-5881
부로	-5882
▁긴장	-5883
▁선제	-5884
.)	-5885
75	-5886
▁대답	-5887
▁화학	-5888
▁개통	-5889
▁beh	-5890
▁known	-5891
78	-5892
▁tem	-5893
▁트위	-5894
▁계산	-5895
▁그만	-5896
▁넘게	-5897
▁equ	-5898
▁야당	-5899
▁움직임	-5900
리게	-5901
▁material	-5902
▁컸	-5903
▁혼란	-5904
conom	-5905
▁이스	-5906
질의	-5907
▁원전	-5908
▁최적	-5909
▁쏠	-5910
▁대처	-5911
카이	-5912
▁떠오	-5913
▁이명박	-5914
세는	-5915
▁정도의	-5916
sp	-5917
man	-5918
▁cour	-5919
▁어울	-5920
▁시작된	-5921
재는	-5922
▁앞으로도	-5923
▁비중이	-5924
ources	-5925
▁개봉	-5926
▁목소리가	-5927
▁상상	-5928
▁좋지	-5929
뱅크	-5930
▁물러	-5931
을까	-5932
인도	-5933
▁작업을	-5934
▁최고위원	-5935
OR	-5936
▁부장	-5937
▁확진자가	-5938
▁가졌다	-5939
▁제공하고	-5940
▁뚜	-5941
ared	-5942
▁시상	-5943
주년	-5944
アルバム	-5945
소의	-5946
리면	-5947
▁아닐	-5948
▁contin	-5949
책임	-5950
고등학교	-5951
▁though	-5952
▁복잡	-5953
▁점유	-5954
▁consid	-5955
94	-5956
____	-5957
OS	-5958
▁것이었다	-5959
▁튀	-5960
▁만남	-5961
▁풀어	-5962
▁지적이	-5963
▁값	-5964
ially	-5965
▁1999	-5966
▁곳에	-5967
▁물가	-5968
총리	-5969
▁않게	-5970
▁올린	-5971
▁내린	-5972
▁느낄	-5973
ording	-5974
98	-5975
▁장학	-5976
▁전부	-5977
▁NH	-5978
▁가야	-5979
▁유형	-5980
TE	-5981
파이	-5982
▁home	-5983
다니	-5984
▁진보	-5985
▁감정	-5986
▁묶	-5987
▁흉	-5988
▁수십	-5989
▁외에	-5990
쪽으로	-5991
▁것이란	-5992
각을	-5993
팀은	-5994
います	-5995
음악	-5996
▁의식	-5997
▁질환	-5998
▁공개했다	-5999
▁impro	-6000
▁몽	-6001
▁맞추	-6002
▁꺾	-6003
▁보니까	-6004
▁있으나	-6005
▁IS	-6006
수요	-6007
▁평가했다	-6008
”,	-6009
고가	-6010
▁일이다	-6011
iness	-6012
▁아무리	-6013
▁음성	-6014
illion	-6015
력에	-6016
▁파괴	-6017
▁아이템	-6018
▁길이	-6019
▁받게	-6020
시오	-6021
▁연휴	-6022
▁본격적으로	-6023
▁대책을	-6024
협약	-6025
iod	-6026
▁이같은	-6027
▁폐기	-6028
▁light	-6029
▁한국은	-6030
중공업	-6031
▁연방	-6032
▁즉시	-6033
▁호주	-6034
▁캐나다	-6035
▁아우	-6036
▁입고	-6037
▁군은	-6038
▁prof	-6039
군을	-6040
セン	-6041
▁place	-6042
오고	-6043
▁웨	-6044
▁좋아하는	-6045
▁est	-6046
▁ide	-6047
정상	-6048
▁줄었다	-6049
▁기아	-6050
▁후에	-6051
▁사법	-6052
▁미래를	-6053
이닝	-6054
によって	-6055
▁협업	-6056
▁음반	-6057
▁시가	-6058
▁언어	-6059
▁1998	-6060
해졌다	-6061
▁spe	-6062
▁정부와	-6063
ᅲᅲ	-6064
▁바이러스	-6065
▁대변인은	-6066
순환	-6067
▁잉	-6068
▁2,	-6069
▁맞이	-6070
드린다	-6071
▁통제	-6072
▁유출	-6073
ental	-6074
선은	-6075
▁브리	-6076
▁클래	-6077
안보	-6078
일과	-6079
▁저지	-6080
어버	-6081
타운	-6082
ats	-6083
▁유명한	-6084
▁이란	-6085
▁피해자	-6086
▁그리스	-6087
高等	-6088
ウェ	-6089
▁통상	-6090
▁·	-6091
▁덕분에	-6092
▁비대면	-6093
▁기계	-6094
▁안전한	-6095
는가	-6096
▁(200	-6097
▁넷	-6098
▁점차	-6099
대통령	-6100
▁이유가	-6101
▁시내	-6102
▁few	-6103
드의	-6104
줘야	-6105
▁뮤지컬	-6106
▁bre	-6107
▁참석했다	-6108
르신	-6109
축제	-6110
▁국토교통	-6111
보자	-6112
▁120	-6113
마켓	-6114
ills	-6115
치게	-6116
ner	-6117
우스	-6118
▁수급	-6119
▁그것이	-6120
차전	-6121
▁무대	-6122
▁—	-6123
군요	-6124
▁불가피	-6125
▁대리	-6126
▁상관	-6127
▁금메달	-6128
OC	-6129
란히	-6130
▁기존의	-6131
▁결정을	-6132
AM	-6133
▁마친	-6134
포르	-6135
▁녹색	-6136
▁뒤에	-6137
▁chang	-6138
▁공무	-6139
▁중에서	-6140
▁require	-6141
▁종사	-6142
▁폐쇄	-6143
물로	-6144
▁대통령과	-6145
▁목적으로	-6146
▁+	-6147
▁모임	-6148
フラン	-6149
▁pain	-6150
ンの	-6151
▁public	-6152
▁흘러	-6153
공장	-6154
バス	-6155
▁입증	-6156
▁조작	-6157
人の	-6158
▁무너	-6159
”...	-6160
▁70%	-6161
여성	-6162
행위	-6163
▁이론	-6164
▁did	-6165
▁뭔가	-6166
▁유동	-6167
점검	-6168
자료	-6169
66	-6170
▁지연	-6171
▁pract	-6172
iven	-6173
▁직전	-6174
ょう	-6175
▁맡은	-6176
ton	-6177
明治	-6178
▁돌입	-6179
シュ	-6180
▁총괄	-6181
▁텔레	-6182
▁체포	-6183
치로	-6184
▁선사	-6185
영은	-6186
▁40%	-6187
▁남녀	-6188
ジェ	-6189
▁기자회견을	-6190
▁고정	-6191
시까지	-6192
erest	-6193
공연	-6194
관과	-6195
시마	-6196
▁도는	-6197
▁On	-6198
▁진행됐다	-6199
ividual	-6200
청이	-6201
▁연예	-6202
▁충돌	-6203
▁성장을	-6204
▁쳐	-6205
수익	-6206
▁문제로	-6207
にも	-6208
▁1~	-6209
▁가계	-6210
▁Col	-6211
위에서	-6212
ience	-6213
▁충전	-6214
▁된다는	-6215
ason	-6216
▁might	-6217
▁않을까	-6218
대화	-6219
분간	-6220
▁Bl	-6221
▁발달	-6222
▁곳은	-6223
PS	-6224
▁미만	-6225
▁부실	-6226
▁안팎	-6227
▁govern	-6228
▁결코	-6229
▁연극	-6230
▁승리를	-6231
▁코로나바이러스	-6232
▁목표를	-6233
이즈	-6234
지어	-6235
지요	-6236
▁누군	-6237
공급	-6238
▁요금	-6239
II	-6240
▁스페	-6241
angu	-6242
▁eng	-6243
▁iss	-6244
협의	-6245
골을	-6246
▁참여해	-6247
참여	-6248
▁지방선거	-6249
농업	-6250
봐야	-6251
9)	-6252
48	-6253
arent	-6254
▁역량	-6255
▁코스피	-6256
▁参	-6257
▁이천	-6258
ris	-6259
▁부지	-6260
▁집을	-6261
으니까	-6262
▁여유	-6263
주일	-6264
라엘	-6265
▁const	-6266
▁감독의	-6267
▁phys	-6268
재판	-6269
▁better	-6270
▁늘고	-6271
▁매장	-6272
▁En	-6273
▁기사	-6274
▁입법	-6275
▁anim	-6276
▁커지고	-6277
씨와	-6278
▁파견	-6279
▁비즈니스	-6280
▁기재	-6281
▁둘째	-6282
ption	-6283
아파트	-6284
▁부사	-6285
나이	-6286
기금	-6287
▁취재	-6288
▁risk	-6289
▁금액	-6290
ID	-6291
▁면접	-6292
▁르	-6293
▁(201	-6294
텔레콤	-6295
가락	-6296
글로벌	-6297
▁분명히	-6298
▁best	-6299
향이	-6300
▁잠재	-6301
▁So	-6302
베이	-6303
▁홈런	-6304
됐으며	-6305
▁강의	-6306
인들은	-6307
▁두려	-6308
▁주주	-6309
장기	-6310
▁내는	-6311
oun	-6312
▁mus	-6313
▁제약	-6314
▁산림	-6315
▁여부	-6316
▁한마	-6317
타임	-6318
▁급격	-6319
▁제공할	-6320
▁sym	-6321
atural	-6322
osed	-6323
▁메이저	-6324
▁인터뷰에서	-6325
▁이것은	-6326
▁넥	-6327
▁부담이	-6328
しか	-6329
▁물어	-6330
▁전담	-6331
▁국회에서	-6332
여서	-6333
▁조절	-6334
▁입은	-6335
▁별로	-6336
▁세워	-6337
▁배제	-6338
▁설득	-6339
ior	-6340
▁침해	-6341
이에요	-6342
▁급등	-6343
作曲	-6344
▁방어	-6345
▁했다고	-6346
ration	-6347
▁하였다	-6348
체인	-6349
▁향한	-6350
▁추진할	-6351
せん	-6352
▁include	-6353
레이드	-6354
▁blood	-6355
▁CEO	-6356
▁keep	-6357
▁앤	-6358
부터는	-6359
▁규모가	-6360
▁협조	-6361
감한	-6362
▁미니	-6363
▁분야의	-6364
▁고교	-6365
▁ess	-6366
▁appro	-6367
종을	-6368
▁최초의	-6369
▁air	-6370
▁분노	-6371
▁ben	-6372
▁세계적인	-6373
▁However	-6374
인천	-6375
▁되게	-6376
메이션	-6377
뒀다	-6378
석은	-6379
▁끝난	-6380
▁회장이	-6381
につ	-6382
▁여의	-6383
▁스타트업	-6384
앞으로	-6385
▁pot	-6386
▁대표의	-6387
▁가능성도	-6388
▁창작	-6389
音楽	-6390
▁1980	-6391
▁1997	-6392
클럽	-6393
님은	-6394
르크	-6395
▁있을까	-6396
▁의원의	-6397
▁앞둔	-6398
▁점도	-6399
관에	-6400
▁ret	-6401
민은	-6402
▁전망했다	-6403
ek	-6404
概要	-6405
그러	-6406
▁선배	-6407
발을	-6408
▁최다	-6409
▁김동	-6410
▁세상을	-6411
▁그렇지	-6412
▁“‘	-6413
サン	-6414
▁유행	-6415
▁멘	-6416
bers	-6417
▁축하	-6418
ination	-6419
타를	-6420
▁깜	-6421
▁조사됐다	-6422
소방	-6423
//	-6424
대비	-6425
▁몰아	-6426
▁인지	-6427
기까지	-6428
당에	-6429
▁트위터	-6430
▁American	-6431
▁은퇴	-6432
▁전략을	-6433
▁되는데	-6434
▁매주	-6435
~20	-6436
ense	-6437
ha	-6438
▁머리	-6439
さん	-6440
1,	-6441
▁개발한	-6442
▁생활을	-6443
▁징계	-6444
키는	-6445
▁투수	-6446
▁토대로	-6447
300	-6448
であり	-6449
드라마	-6450
만원의	-6451
ield	-6452
▁말이다	-6453
▁마련했다	-6454
ug	-6455
▁learning	-6456
▁mat	-6457
▁구글	-6458
(10	-6459
▁경선	-6460
られた	-6461
▁식으로	-6462
시다	-6463
▁화성	-6464
▁높였다	-6465
▁환경을	-6466
담을	-6467
mon	-6468
▁공략	-6469
▁한반도	-6470
ベル	-6471
▁의혹을	-6472
▁마찬가지로	-6473
세의	-6474
스테	-6475
가와	-6476
▁말까지	-6477
▁메뉴	-6478
▁호남	-6479
리면서	-6480
シア	-6481
▁컬러	-6482
ator	-6483
▁원의	-6484
감염	-6485
식의	-6486
▁진료	-6487
기념	-6488
▁일대	-6489
▁선정된	-6490
치의	-6491
▁재판부는	-6492
▁경주	-6493
▁동남	-6494
명했다	-6495
▁미세먼	-6496
▁hand	-6497
▁스위	-6498
ッド	-6499
복을	-6500
▁자아	-6501
▁당연히	-6502
▁지역을	-6503
▁집에서	-6504
▁당사	-6505
▁뜨거운	-6506
▁붕	-6507
▁샌	-6508
▁반려	-6509
행사	-6510
▁서민	-6511
▁요리	-6512
증이	-6513
▁의존	-6514
▁대해선	-6515
▁측정	-6516
▁품목	-6517
▁sit	-6518
나마	-6519
▁At	-6520
▁상무	-6521
정규	-6522
짜리	-6523
!"	-6524
▁명품	-6525
,"	-6526
▁발생할	-6527
▁선보인다	-6528
▁촉구했다	-6529
실은	-6530
▁진행할	-6531
재로	-6532
▁착수	-6533
orld	-6534
▁지원할	-6535
▁끌고	-6536
▁상업	-6537
▁meth	-6538
▁오프	-6539
▁강하게	-6540
▁어떠	-6541
되자	-6542
터테인	-6543
▁권고	-6544
▁투어	-6545
▁원내대표는	-6546
▁부분을	-6547
だった	-6548
▁다르다	-6549
▁sl	-6550
▁산하	-6551
▁일각	-6552
▁부르	-6553
▁saf	-6554
▁민주주의	-6555
하려면	-6556
▁area	-6557
상과	-6558
▁김민	-6559
해주는	-6560
신의	-6561
▁가맹	-6562
끄는	-6563
▁안정적인	-6564
9%	-6565
めた	-6566
▁우승을	-6567
▁신체	-6568
▁라디오	-6569
▁보여주는	-6570
▁present	-6571
▁돋	-6572
▁핀	-6573
▁게다가	-6574
소송	-6575
▁다행	-6576
케이션	-6577
4%	-6578
ization	-6579
▁동생	-6580
케어	-6581
エン	-6582
등학생	-6583
▁벌써	-6584
▁관계자	-6585
大会	-6586
감은	-6587
▁것이고	-6588
uro	-6589
시설을	-6590
TS	-6591
▁가게	-6592
하세요	-6593
골프	-6594
▁허위	-6595
▁있었고	-6596
▁됩니다	-6597
고도	-6598
(-	-6599
▁한층	-6600
▁top	-6601
での	-6602
▁듯한	-6603
)·	-6604
▁유일한	-6605
▁떨어져	-6606
7%	-6607
시청	-6608
▁인사를	-6609
▁development	-6610
▁때부터	-6611
▁공화	-6612
상태	-6613
▁과도	-6614
▁다섯	-6615
▁휴대	-6616
▁피해가	-6617
▁수준이다	-6618
▁전파	-6619
▁정상회담	-6620
▁pur	-6621
간에	-6622
▁pass	-6623
동이	-6624
▁따뜻한	-6625
인당	-6626
▁소녀	-6627
▁계기가	-6628
える	-6629
재가	-6630
▁드러났다	-6631
내기	-6632
▁Can	-6633
센터는	-6634
▁컨설팅	-6635
공정	-6636
▁individual	-6637
▁내달	-6638
▁높여	-6639
76	-6640
ware	-6641
▁발급	-6642
▁재배	-6643
▁보여주	-6644
▁다루	-6645
less	-6646
▁전부터	-6647
▁동해	-6648
센터에서	-6649
▁후보를	-6650
▁걸어	-6651
▁참여할	-6652
CD	-6653
라우드	-6654
監督	-6655
패를	-6656
IN	-6657
リス	-6658
심사	-6659
ource	-6660
▁구단	-6661
▁훼손	-6662
▁나중에	-6663
▁숫	-6664
하시	-6665
▁그다	-6666
▁며	-6667
▁program	-6668
▁공포	-6669
▁신세계	-6670
분양	-6671
amp	-6672
▁합리	-6673
▁점이다	-6674
▁여파	-6675
▁차지하는	-6676
'(	-6677
▁사례가	-6678
的な	-6679
▁의뢰	-6680
▁편안	-6681
kr	-6682
▁협력을	-6683
▁맞은	-6684
▁어깨	-6685
미디어	-6686
▁cause	-6687
설을	-6688
▁만날	-6689
▁대결	-6690
▁적지	-6691
▁1.	-6692
개가	-6693
▁양산	-6694
活動	-6695
▁이건	-6696
▁지역경제	-6697
▁쓰레	-6698
▁거리두	-6699
▁쫓	-6700
▁가면	-6701
▁무게	-6702
▁시정	-6703
rodu	-6704
▁법안	-6705
▁조달	-6706
만여	-6707
▁meas	-6708
▁기대하고	-6709
▁다녀	-6710
▁유력	-6711
임대	-6712
모를	-6713
▁공통	-6714
위원회를	-6715
초등학교	-6716
▁높이고	-6717
▁모으	-6718
▁물을	-6719
フェ	-6720
▁mark	-6721
ertain	-6722
신청	-6723
용품	-6724
▁hy	-6725
센터를	-6726
▁감소했다	-6727
8%	-6728
▁지닌	-6729
▁의견이	-6730
6%	-6731
▁방향으로	-6732
IP	-6733
▁women	-6734
▁아프리카	-6735
민이	-6736
▁소상공인	-6737
하다가	-6738
▁대거	-6739
▁단기	-6740
▁절감	-6741
▁용산	-6742
、200	-6743
진과	-6744
▁진정	-6745
람회	-6746
▁동네	-6747
▁미치는	-6748
▁수집	-6749
▁과제	-6750
▁있음을	-6751
▁총리는	-6752
▁해상	-6753
▁become	-6754
▁without	-6755
동물	-6756
▁direct	-6757
▁발의	-6758
▁원인	-6759
▁회계	-6760
주년을	-6761
▁here	-6762
▁대장	-6763
▁발생했다	-6764
▁이유를	-6765
▁찾은	-6766
orth	-6767
▁후속	-6768
の中	-6769
here	-6770
▁사기	-6771
▁신입	-6772
▁싱글	-6773
▁커뮤니티	-6774
로의	-6775
▁feel	-6776
▁within	-6777
▁anal	-6778
イル	-6779
▁시급	-6780
▁구미	-6781
▁충족	-6782
억원에	-6783
シングル	-6784
▁All	-6785
▁tre	-6786
▁another	-6787
▁출판	-6788
▁철학	-6789
▁보관	-6790
▁와서	-6791
▁쏘	-6792
▁쟁	-6793
▁아직도	-6794
소한	-6795
▁먹을	-6796
물질	-6797
▁기상	-6798
위원장은	-6799
▁ident	-6800
▁블루	-6801
▁기준을	-6802
▁활용할	-6803
▁too	-6804
시장에서	-6805
ograph	-6806
▁통보	-6807
▁자리에	-6808
▁재건축	-6809
ways	-6810
▁보유하고	-6811
▁당일	-6812
▁그에	-6813
위원회가	-6814
▁일환	-6815
▁선수가	-6816
▁상태에서	-6817
▁추억	-6818
▁나아	-6819
icle	-6820
▁유발	-6821
준비	-6822
데이	-6823
3000	-6824
なかった	-6825
DP	-6826
ニア	-6827
▁평택	-6828
▁펜	-6829
▁소환	-6830
▁imm	-6831
로가	-6832
):	-6833
▁학생들의	-6834
ヴィ	-6835
ヴァ	-6836
▁화물	-6837
▁say	-6838
사건	-6839
▁위하여	-6840
▁연구개발	-6841
▁춤	-6842
▁cap	-6843
▁사이트	-6844
▁경기에서	-6845
ify	-6846
▁bas	-6847
▁명칭	-6848
스에서	-6849
▁수영	-6850
▁입장이다	-6851
▁공연을	-6852
▁사업의	-6853
▁다수	-6854
▁happ	-6855
▁한나라당	-6856
▁경계	-6857
▁임원	-6858
be	-6859
▁치러	-6860
▁엄청난	-6861
ability	-6862
▁scient	-6863
▁75	-6864
▁상당한	-6865
▁원활	-6866
▁공을	-6867
청년	-6868
▁탑재	-6869
만원으로	-6870
▁means	-6871
▁임직원	-6872
▁概要	-6873
▁침체	-6874
小学校	-6875
▁이어졌다	-6876
view	-6877
스티벌	-6878
▁요구했다	-6879
항을	-6880
▁부채	-6881
▁왜냐	-6882
▁영상을	-6883
광주	-6884
://	-6885
▁끌어올	-6886
ccess	-6887
▁민원	-6888
에요	-6889
▁얻을	-6890
▁나눔	-6891
▁무상	-6892
로드	-6893
とは	-6894
ina	-6895
cle	-6896
기업의	-6897
▁결과에	-6898
to	-6899
경은	-6900
▁추진하는	-6901
▁지원하고	-6902
アン	-6903
ーン	-6904
▁요구하는	-6905
▁이르는	-6906
DA	-6907
文化	-6908
▁pos	-6909
능력	-6910
▁Or	-6911
▁농협	-6912
ブル	-6913
조의	-6914
▁회의를	-6915
MA	-6916
▁42	-6917
ニュー	-6918
별로는	-6919
▁해주	-6920
▁동부	-6921
▁비서	-6922
▁타이틀	-6923
지인	-6924
▁매달	-6925
▁작곡	-6926
▁쥐	-6927
▁proper	-6928
▁합병	-6929
▁제시했다	-6930
▁아니었다	-6931
▁태풍	-6932
산화	-6933
▁검사를	-6934
▁막기	-6935
무현	-6936
단으로	-6937
▁old	-6938
정과	-6939
▁택시	-6940
▁것인가	-6941
피아	-6942
▁융합	-6943
▁얻어	-6944
ajor	-6945
회와	-6946
▁2.	-6947
▁dev	-6948
▁이스라엘	-6949
재산	-6950
▁브라질	-6951
▁감축	-6952
64	-6953
▁혹시	-6954
▁him	-6955
낸다	-6956
▁어르신	-6957
성한	-6958
호의	-6959
MC	-6960
▁사로	-6961
▁이주	-6962
▁편리	-6963
~5	-6964
▁넘겨	-6965
▁low	-6966
-19	-6967
▁그녀의	-6968
ining	-6969
▁last	-6970
▁전망된다	-6971
▁interest	-6972
一覧	-6973
▁보인	-6974
확실	-6975
▁있었지만	-6976
▁스피	-6977
▁대표하는	-6978
-5	-6979
▁사건이	-6980
▁역사를	-6981
▁달한다	-6982
투어	-6983
▁뒤를	-6984
분석	-6985
月に	-6986
보가	-6987
oid	-6988
▁관내	-6989
▁행복한	-6990
▁시민들의	-6991
レン	-6992
▁600	-6993
CT	-6994
▁셋	-6995
식과	-6996
네시아	-6997
국내	-6998
▁철저히	-6999
업무	-7000
장비	-7001
▁자문	-7002
노총	-7003
린이	-7004
aper	-7005
発売	-7006
▁응급	-7007
ern	-7008
▁기록을	-7009
▁화장품	-7010
▁해당하는	-7011
教育	-7012
文献	-7013
사이트	-7014
▁맡고	-7015
▁곽	-7016
▁정식	-7017
▁파이	-7018
▁매출이	-7019
その後	-7020
시장의	-7021
▁후보의	-7022
▁있었는데	-7023
▁봤다	-7024
▁반박	-7025
▁하더라도	-7026
▁social	-7027
▁서구	-7028
▁미국과	-7029
▁중대	-7030
▁일시	-7031
▁대상이	-7032
▁짧은	-7033
パー	-7034
▁says	-7035
▁메시지를	-7036
8000	-7037
▁정해	-7038
▁적응	-7039
▁브리핑	-7040
▁개발을	-7041
▁김정은	-7042
▁없지만	-7043
▁올랐	-7044
▁강화를	-7045
を行	-7046
▁에스	-7047
사업에	-7048
▁받아들이	-7049
▁수준을	-7050
▁current	-7051
▁1995	-7052
▁이어지고	-7053
췄다	-7054
▁꼼	-7055
▁식당	-7056
세다	-7057
eral	-7058
▁판정을	-7059
▁특징이다	-7060
▁조용	-7061
▁스페인	-7062
▁위안	-7063
▁특화	-7064
▁매체	-7065
▁주어	-7066
▁치료를	-7067
▁자살	-7068
▁mean	-7069
▁대하여	-7070
▁stand	-7071
▁단순히	-7072
▁Cent	-7073
▁able	-7074
▁배당	-7075
▁수록	-7076
▁One	-7077
미널	-7078
ards	-7079
셨다	-7080
소와	-7081
▁무관	-7082
연대	-7083
▁압도	-7084
▁몬	-7085
▁있겠	-7086
▁opp	-7087
▁뿐이다	-7088
▁1996	-7089
▁의사를	-7090
▁깨끗	-7091
▁FC	-7092
마크	-7093
▁provide	-7094
감사	-7095
▁해제	-7096
▁둘러싼	-7097
▁history	-7098
문의	-7099
▁서류	-7100
▁중학교	-7101
▁속도를	-7102
화하는	-7103
BN	-7104
▁프레	-7105
ological	-7106
▁해운	-7107
▁쪽으로	-7108
ling	-7109
▁차세대	-7110
머스	-7111
▁상승했다	-7112
ッカー	-7113
▁규모는	-7114
청에	-7115
hor	-7116
▁지표	-7117
▁들려	-7118
ision	-7119
전남	-7120
▁49	-7121
▁현안	-7122
인력	-7123
전으로	-7124
▁参考	-7125
▁이자	-7126
▁아니냐는	-7127
유통	-7128
▁가속	-7129
하니	-7130
화하고	-7131
▁살해	-7132
▁위축	-7133
▁즉각	-7134
인권	-7135
▁early	-7136
축은행	-7137
▁결정했다	-7138
▁안심	-7139
atic	-7140
▁차기	-7141
▁착공	-7142
▁소요	-7143
▁라이브	-7144
▁그간	-7145
オン	-7146
▁es	-7147
▁가공	-7148
튜디오	-7149
BA	-7150
▁건조	-7151
▁마침	-7152
▁항목	-7153
6000	-7154
▁belie	-7155
▁가스	-7156
▁손흥	-7157
고객	-7158
대응	-7159
▁런던	-7160
더라고요	-7161
▁sever	-7162
문제	-7163
문에	-7164
ission	-7165
▁아이들이	-7166
▁위기를	-7167
.'	-7168
▁소형	-7169
コー	-7170
▁plant	-7171
▁위원장	-7172
단과	-7173
됐지만	-7174
ナー	-7175
▁ant	-7176
▁청주	-7177
▁보존	-7178
▁80%	-7179
▁캠페인	-7180
▁지출	-7181
▁매수	-7182
▁선정됐다	-7183
▁참여를	-7184
1000	-7185
▁성인	-7186
유치	-7187
▁태양광	-7188
▁줄어든	-7189
収録	-7190
고기	-7191
▁move	-7192
▁투명	-7193
▁원장은	-7194
▁affect	-7195
▁rest	-7196
ote	-7197
유산	-7198
장관	-7199
▁완공	-7200
▁KIA	-7201
스마트	-7202
▁그니까	-7203
층의	-7204
천만	-7205
▁gr	-7206
▁오피스	-7207
▁avail	-7208
화폐	-7209
ified	-7210
경이	-7211
▁점은	-7212
▁벤처	-7213
▁Sci	-7214
▁변화가	-7215
▁신청을	-7216
▁맡아	-7217
▁분쟁	-7218
▁경험이	-7219
▁건강한	-7220
▁econom	-7221
▁美	-7222
보기	-7223
▁백화점	-7224
▁법무부	-7225
▁주민들의	-7226
총장	-7227
▁생각하고	-7228
▁control	-7229
▁방사	-7230
▁cult	-7231
▁곧바로	-7232
▁아무런	-7233
▁행사는	-7234
▁인용	-7235
▁사로잡	-7236
lished	-7237
라의	-7238
숨을	-7239
계획을	-7240
▁method	-7241
평양	-7242
▁패키	-7243
밀한	-7244
사실	-7245
▁이어지는	-7246
려야	-7247
▁세금	-7248
ames	-7249
유럽	-7250
▁취급	-7251
▁끝까지	-7252
▁갔다	-7253
▁대화를	-7254
▁준비를	-7255
▁진정한	-7256
자본	-7257
들이다	-7258
▁43	-7259
▁대학교	-7260
▁호응	-7261
▁요청했다	-7262
▁percent	-7263
▁때가	-7264
서도	-7265
▁물리	-7266
스탄	-7267
예방	-7268
었어요	-7269
▁공간을	-7270
ients	-7271
4000	-7272
▁풀이된다	-7273
근로	-7274
▁시점	-7275
연이	-7276
▁의장	-7277
▁생겨	-7278
▁높이는	-7279
▁끊임	-7280
ox	-7281
▁영향으로	-7282
▁National	-7283
▁건너	-7284
▁내내	-7285
장애인	-7286
obal	-7287
▁찬성	-7288
▁들어갔다	-7289
▁민주당은	-7290
▁천연	-7291
ので	-7292
osp	-7293
株式	-7294
창업	-7295
▁주지	-7296
▁선수들이	-7297
▁species	-7298
▁빗	-7299
▁명절	-7300
▁중구	-7301
▁말에	-7302
▁real	-7303
처분	-7304
ane	-7305
▁CC	-7306
▁동문	-7307
▁benef	-7308
페이	-7309
▁훈	-7310
port	-7311
▁fore	-7312
원한	-7313
ole	-7314
92	-7315
▁사우	-7316
▁北	-7317
▁소외	-7318
▁Sy	-7319
▁With	-7320
▁같은데	-7321
▁방식을	-7322
▁방해	-7323
▁콘서트	-7324
▁group	-7325
74	-7326
erc	-7327
▁아까	-7328
ived	-7329
▁겨냥	-7330
▁family	-7331
물에	-7332
해질	-7333
リーグ	-7334
▁섞	-7335
▁퇴직	-7336
그룹은	-7337
▁블록	-7338
▁저장	-7339
▁평창	-7340
ックス	-7341
▁제도를	-7342
아트	-7343
미나	-7344
▁최우수	-7345
▁second	-7346
서로	-7347
(15	-7348
▁되기	-7349
기반	-7350
▁유권	-7351
▁콩	-7352
▁북미	-7353
んだ	-7354
▁출산	-7355
▁addition	-7356
▁부부	-7357
▁bus	-7358
어져	-7359
ends	-7360
93	-7361
▁함께하는	-7362
가치	-7363
르지	-7364
▁mil	-7365
▁곳에서	-7366
▁틈	-7367
원장	-7368
▁존중	-7369
▁들어간	-7370
▁박정	-7371
▁처음이다	-7372
▁비교적	-7373
▁모른다	-7374
▁살인	-7375
부에서	-7376
DI	-7377
▁IP	-7378
▁경찰이	-7379
▁사이에서	-7380
▁결의	-7381
▁제고	-7382
▁최근에는	-7383
▁외환	-7384
▁마쳤다	-7385
▁indu	-7386
▁김포	-7387
▁마주	-7388
▁공개된	-7389
▁이것이	-7390
▁방향을	-7391
론이	-7392
▁공기	-7393
br	-7394
▁덮	-7395
전기	-7396
포럼	-7397
▁얻고	-7398
▁마치고	-7399
▁봐야	-7400
▁잇따라	-7401
ung	-7402
리다	-7403
세포	-7404
··	-7405
▁교환	-7406
▁대사	-7407
▁fin	-7408
▁엉	-7409
▁확대해	-7410
마자	-7411
▁콘텐츠를	-7412
▁비율	-7413
▁cal	-7414
ently	-7415
주행	-7416
▁폭행	-7417
▁몰려	-7418
▁깊이	-7419
▁제조업	-7420
▁비교해	-7421
▁일방	-7422
이용	-7423
▁land	-7424
바마	-7425
▁전라	-7426
▁ele	-7427
▁near	-7428
북도	-7429
▁갖춰	-7430
▁par	-7431
▁장관이	-7432
신고	-7433
ots	-7434
버그	-7435
▁이적	-7436
▁perform	-7437
カル	-7438
▁안양	-7439
▁탓에	-7440
▁감염증	-7441
재난	-7442
▁문화예술	-7443
리도	-7444
▁시공	-7445
▁creat	-7446
▁마련해	-7447
▁장르	-7448
▁문자	-7449
농협	-7450
미가	-7451
▁leg	-7452
였지만	-7453
▁펴	-7454
안의	-7455
번에	-7456
rist	-7457
▁격려	-7458
가지고	-7459
았지만	-7460
af	-7461
?)	-7462
가포르	-7463
▁노하우	-7464
▁맞게	-7465
위와	-7466
▁출근	-7467
▁떼	-7468
▁매력	-7469
スター	-7470
▁areas	-7471
lu	-7472
▁가해	-7473
화한	-7474
▁갤럭시	-7475
시코	-7476
▁month	-7477
관련	-7478
▁occur	-7479
への	-7480
▁상향	-7481
国際	-7482
면은	-7483
스턴	-7484
▁개선을	-7485
▁기업들이	-7486
▁prevent	-7487
▁major	-7488
▁langu	-7489
전과	-7490
카데	-7491
▁김기	-7492
▁cost	-7493
▁칸	-7494
▁위탁	-7495
7000	-7496
▁2030	-7497
んで	-7498
▁부대	-7499
合衆	-7500
ことを	-7501
▁possible	-7502
사용	-7503
▁안철수	-7504
▁떨어졌다	-7505
비로	-7506
▁소식을	-7507
서와	-7508
▁독자	-7509
work	-7510
하라고	-7511
use	-7512
관계를	-7513
구로	-7514
▁지사는	-7515
▁세월호	-7516
비에	-7517
▁배려	-7518
통상	-7519
▁조심	-7520
ples	-7521
▁붉	-7522
▁실시한	-7523
▁access	-7524
하신	-7525
ocus	-7526
▁things	-7527
▁경기가	-7528
eg	-7529
댓글	-7530
세트	-7531
해지고	-7532
이라면서	-7533
MS	-7534
世紀	-7535
時間	-7536
について	-7537
▁사람들을	-7538
▁닫	-7539
ogn	-7540
디션	-7541
▁도약	-7542
년째	-7543
▁41	-7544
▁추진한다	-7545
실로	-7546
▁얼굴을	-7547
▁빠진	-7548
所属	-7549
▁얻은	-7550
高等学校	-7551
▁노사	-7552
됨에	-7553
러리	-7554
▁이미지를	-7555
▁문화재	-7556
▁신임	-7557
▁위기에	-7558
곳에	-7559
산이	-7560
료가	-7561
▁넣어	-7562
▁모니터링	-7563
▁보일	-7564
정규직	-7565
▁ESG	-7566
국인	-7567
▁그렇다면	-7568
부동산	-7569
권과	-7570
▁비용을	-7571
▁미국이	-7572
팀이	-7573
▁마지막으로	-7574
▁구체적으로	-7575
일의	-7576
||0	-7577
▁철강	-7578
▁불어	-7579
▁시사	-7580
▁치매	-7581
▁겹	-7582
▁간편	-7583
▁신인	-7584
▁리더십	-7585
▁불확실	-7586
에게도	-7587
교사	-7588
▁84	-7589
ories	-7590
OP	-7591
로그	-7592
行われ	-7593
▁데이	-7594
교육을	-7595
▁경력	-7596
허가	-7597
▁민생	-7598
▁그건	-7599
▁과학기술	-7600
▁기대를	-7601
▁고개를	-7602
▁impact	-7603
出場	-7604
▁말은	-7605
▁전원	-7606
공공	-7607
▁꽤	-7608
▁테이	-7609
심한	-7610
▁휴대전	-7611
▁바른	-7612
▁아웃	-7613
▁입찰	-7614
▁명령	-7615
crib	-7616
ope	-7617
▁개발에	-7618
▁times	-7619
▁several	-7620
ニー	-7621
」(	-7622
▁신선	-7623
▁국내에서	-7624
▁지방자치단체	-7625
여야	-7626
▁리스크	-7627
▁관찰	-7628
마이	-7629
고용	-7630
▁그쳤다	-7631
담당	-7632
▁출석	-7633
▁5%	-7634
광역시	-7635
▁어제	-7636
▁애니메이션	-7637
부처	-7638
▁대단	-7639
▁researc	-7640
▁필리	-7641
▁treatment	-7642
cing	-7643
리자	-7644
미는	-7645
▁베이징	-7646
ones	-7647
구와	-7648
▁1994	-7649
▁진행되는	-7650
▁광주시	-7651
▁아시안	-7652
▁본인	-7653
ns	-7654
업에	-7655
▁성공했다	-7656
市の	-7657
▁김대	-7658
▁invol	-7659
▁problem	-7660
けて	-7661
▁52	-7662
yle	-7663
▁Ear	-7664
▁参考文献	-7665
▁검찰이	-7666
사례	-7667
치며	-7668
·18	-7669
▁필요하다는	-7670
터를	-7671
달라고	-7672
▁지속가능	-7673
색을	-7674
▁내지	-7675
▁United	-7676
▁양국	-7677
▁없었던	-7678
ething	-7679
ternational	-7680
▁말한	-7681
▁말할	-7682
▁oper	-7683
▁충분한	-7684
72	-7685
MW	-7686
▁강릉	-7687
▁빙	-7688
▁유사	-7689
▁마음에	-7690
▁진행한	-7691
▁최신	-7692
▁이익을	-7693
使用	-7694
▁자가	-7695
배우	-7696
▁free	-7697
건에	-7698
센트	-7699
▁계좌	-7700
▁멜	-7701
▁없애	-7702
une	-7703
▁층	-7704
싱턴	-7705
전형	-7706
선으로	-7707
▁김진	-7708
▁hig	-7709
법상	-7710
▁비가	-7711
チーム	-7712
▁훌륭	-7713
▁즐거	-7714
▁EU	-7715
oint	-7716
▁전후	-7717
▁미사일	-7718
▁재생	-7719
▁털어	-7720
▁스크	-7721
용차	-7722
▁크로	-7723
▁대구시	-7724
물은	-7725
▁run	-7726
▁list	-7727
▁주가가	-7728
▁내다봤다	-7729
▁signific	-7730
▁東京	-7731
▁면적	-7732
▁선보였다	-7733
▁이용하는	-7734
▁권리	-7735
▁용역	-7736
▁Some	-7737
▁긍정적인	-7738
▁natural	-7739
이와	-7740
▁서울중앙	-7741
HE	-7742
優勝	-7743
▁기원	-7744
▁요소	-7745
▁open	-7746
▁뚫	-7747
▁입국	-7748
▁쪼	-7749
도에서	-7750
▁period	-7751
양을	-7752
▁i	-7753
▁남부	-7754
▁미래에	-7755
▁현재의	-7756
ring	-7757
▁갖추고	-7758
▁실업	-7759
▁탄핵	-7760
▁현장을	-7761
たち	-7762
말을	-7763
rap	-7764
▁붕괴	-7765
▁수렴	-7766
▁순으로	-7767
연히	-7768
▁느낀	-7769
감과	-7770
만은	-7771
▁김현	-7772
됐다는	-7773
▁확대를	-7774
▁고객이	-7775
▁order	-7776
▁대안	-7777
場合	-7778
▁막을	-7779
▁운동을	-7780
▁World	-7781
온다	-7782
▁당내	-7783
▁강화하고	-7784
▁구청	-7785
▁신분	-7786
▁한국에	-7787
▁방법으로	-7788
▁허가	-7789
▁war	-7790
▁정지	-7791
▁분야에	-7792
▁Inst	-7793
▁댄	-7794
▁60%	-7795
르트	-7796
▁기록하며	-7797
▁피아	-7798
▁잘못된	-7799
▁철거	-7800
들과의	-7801
▁것인지	-7802
メン	-7803
▁손님	-7804
▁available	-7805
▁오리	-7806
면으로	-7807
▁돈이	-7808
▁뚜렷	-7809
▁박사	-7810
▁찾을	-7811
씨에게	-7812
RA	-7813
▁사고가	-7814
▁코리아	-7815
▁공동으로	-7816
▁부산시	-7817
▁발언을	-7818
쪽에	-7819
▁분들이	-7820
▁간호	-7821
タイ	-7822
▁높았다	-7823
▁이전에	-7824
로도	-7825
......	-7826
par	-7827
▁인류	-7828
너지를	-7829
▁운영을	-7830
uture	-7831
행이	-7832
ret	-7833
▁납부	-7834
▁일찍	-7835
·2	-7836
▁권력	-7837
도서관	-7838
▁도서관	-7839
に対	-7840
▁unt	-7841
▁독특	-7842
▁된다고	-7843
지난해	-7844
기본	-7845
▁현상	-7846
연의	-7847
▁편집	-7848
▁금감	-7849
▁추진해	-7850
ention	-7851
▁웅	-7852
공헌	-7853
▁59	-7854
▁공시	-7855
▁come	-7856
▁국민이	-7857
go	-7858
▁el	-7859
▁fac	-7860
▁드러냈다	-7861
▁56	-7862
▁이종	-7863
face	-7864
▁law	-7865
▁밀어	-7866
▁hard	-7867
소리	-7868
▁환영	-7869
정신	-7870
▁vol	-7871
너스	-7872
▁기업을	-7873
신한	-7874
된다는	-7875
ians	-7876
▁회장의	-7877
▁들이	-7878
야말로	-7879
▁그러한	-7880
▁비율이	-7881
▁일정을	-7882
ann	-7883
경남	-7884
토록	-7885
수석	-7886
▁투쟁	-7887
길이	-7888
▁아이를	-7889
ained	-7890
▁전화를	-7891
(0	-7892
소속	-7893
▁추모	-7894
▁앞세	-7895
▁못한다	-7896
▁시작해	-7897
▁이벤트를	-7898
바른	-7899
학적	-7900
▁안녕	-7901
において	-7902
▁부분에	-7903
▁솔루션	-7904
평을	-7905
▁패배	-7906
되어야	-7907
▁높게	-7908
atch	-7909
안정	-7910
▁del	-7911
기자	-7912
점과	-7913
▁주민들이	-7914
▁파리	-7915
▁heart	-7916
agement	-7917
アー	-7918
▁수여	-7919
▁현장에	-7920
▁ス	-7921
▁타격	-7922
▁자연스럽게	-7923
▁면역	-7924
▁소리를	-7925
▁1970	-7926
박물관	-7927
▁측면에서	-7928
▁회사의	-7929
▁인도네시아	-7930
▁others	-7931
연은	-7932
▁속도	-7933
▁촉진	-7934
▁comput	-7935
▁conn	-7936
▁실적을	-7937
▁young	-7938
▁technology	-7939
に入	-7940
계는	-7941
▁전월	-7942
▁가치가	-7943
inc	-7944
▁가시	-7945
▁무료로	-7946
▁엠	-7947
가요	-7948
사업은	-7949
▁NC	-7950
▁죽음	-7951
▁여론조사	-7952
▁냄	-7953
める	-7954
프리	-7955
▁영광	-7956
ateg	-7957
▁Dr	-7958
▁실질적인	-7959
중소	-7960
▁숙박	-7961
▁provid	-7962
▁점포	-7963
▁한강	-7964
현은	-7965
▁보냈다	-7966
▁벌금	-7967
▁연봉	-7968
▁저소득	-7969
▁설문	-7970
▁시기에	-7971
▁시간에	-7972
▁심지어	-7973
▁근처	-7974
▁다짐	-7975
??	-7976
▁뭘	-7977
주간	-7978
▁Fr	-7979
▁마약	-7980
できる	-7981
▁particular	-7982
조치	-7983
지다	-7984
▁54	-7985
▁age	-7986
▁차이	-7987
▁mar	-7988
▁비례	-7989
▁전망이	-7990
▁댓글	-7991
ポー	-7992
비와	-7993
▁사전에	-7994
주차	-7995
▁지침	-7996
공사는	-7997
▁이름이	-7998
▁시대를	-7999
티스트	-8000
▁since	-8001
억원이	-8002
▁type	-8003
▁유족	-8004
▁반대로	-8005
▁미국에서	-8006
▁부작용	-8007
▁펀	-8008
▁이성	-8009
▁테러	-8010
▁김재	-8011
▁problems	-8012
abor	-8013
▁bir	-8014
▁진행하는	-8015
▁아이가	-8016
액의	-8017
▁파워	-8018
▁물질	-8019
역에서	-8020
▁lim	-8021
연한	-8022
있게	-8023
▁amount	-8024
렸던	-8025
▁널리	-8026
800	-8027
▁상태로	-8028
▁ter	-8029
▁적절한	-8030
주와	-8031
▁단축	-8032
▁지금도	-8033
株式会社	-8034
ortun	-8035
▁테스트	-8036
ジオ	-8037
▁증명	-8038
▁정확히	-8039
▁구상	-8040
▁이혼	-8041
▁사람들에게	-8042
▁little	-8043
내며	-8044
▁country	-8045
▁부분은	-8046
▁cond	-8047
터테인먼트	-8048
술을	-8049
▁cho	-8050
ae	-8051
▁실종	-8052
방이	-8053
▁1%	-8054
▁brain	-8055
▁국가의	-8056
▁여당	-8057
▁코스닥	-8058
▁곁	-8059
▁64	-8060
▁기업에	-8061
▁보건복지	-8062
▁많고	-8063
▁했습니다	-8064
▁부각	-8065
▁아끼	-8066
지역의	-8067
▁머리를	-8068
▁결과는	-8069
▁주기	-8070
▁levels	-8071
▁bi	-8072
히고	-8073
▁Med	-8074
▁이마트	-8075
전시	-8076
▁문화를	-8077
▁거는	-8078
▁가격을	-8079
▁거두	-8080
▁관계가	-8081
サッカー	-8082
탄을	-8083
잡고	-8084
▁LH	-8085
▁담고	-8086
▁음식을	-8087
▁분위기가	-8088
▁고도	-8089
▁사내	-8090
아동	-8091
▁government	-8092
▁언니	-8093
▁대한항공	-8094
▁시민의	-8095
절한	-8096
▁기술이	-8097
크를	-8098
탄소	-8099
▁섭취	-8100
▁실태	-8101
우리는	-8102
▁총장	-8103
▁수익을	-8104
대사	-8105
변화	-8106
전한	-8107
▁재능	-8108
▁안전을	-8109
▁prom	-8110
▁본부	-8111
79	-8112
▁낮추	-8113
▁press	-8114
▁불거	-8115
▁춘천	-8116
になる	-8117
신용	-8118
▁수백	-8119
▁처분	-8120
▁열렸다	-8121
▁유일하게	-8122
卒業	-8123
함과	-8124
▁잡았다	-8125
▁어려울	-8126
▁주장을	-8127
▁뮤직	-8128
とした	-8129
▁부서	-8130
▁성적을	-8131
여자	-8132
EN	-8133
▁않기	-8134
中学校	-8135
▁대외	-8136
렸고	-8137
▁계절	-8138
▁살아있는	-8139
▁야외	-8140
レイ	-8141
▁감시	-8142
▁flow	-8143
▁같습니다	-8144
▁얻었다	-8145
끼리	-8146
역사	-8147
▁뒤집	-8148
▁개인의	-8149
▁도민	-8150
▁put	-8151
、201	-8152
결을	-8153
▁보면서	-8154
▁나가겠다	-8155
▁회담	-8156
▁마련됐다	-8157
미터	-8158
랫동안	-8159
▁옛날	-8160
일반	-8161
▁연금	-8162
았는데	-8163
▁화려한	-8164
▁앙	-8165
▁복원	-8166
▁making	-8167
▁렌	-8168
▁읍	-8169
평화	-8170
▁생기	-8171
と思	-8172
산의	-8173
▁create	-8174
중인	-8175
▁관람객	-8176
▁현재는	-8177
▁부활	-8178
▁준수	-8179
빌리티	-8180
▁against	-8181
▁유해	-8182
▁부당	-8183
▁아닙	-8184
▁아이돌	-8185
▁극대화	-8186
チェ	-8187
▁옹	-8188
들었다	-8189
▁패턴	-8190
시장에	-8191
▁꼽힌다	-8192
ead	-8193
9000	-8194
멕시코	-8195
▁four	-8196
oad	-8197
▁오바마	-8198
소프트	-8199
▁post	-8200
숙한	-8201
▁3.	-8202
한의	-8203
▁Sc	-8204
장치	-8205
▁첫째	-8206
▁180	-8207
▁형태의	-8208
▁미칠	-8209
▁let	-8210
▁원으로	-8211
▁시대에	-8212
▁적용해	-8213
▁something	-8214
▁가리	-8215
▁손에	-8216
▁드러나	-8217
▁근육	-8218
▁늘어날	-8219
▁$	-8220
ended	-8221
▁했다는	-8222
▁시민들이	-8223
▁이들을	-8224
▁가능성	-8225
▁객관	-8226
마스	-8227
비의	-8228
독교	-8229
즈는	-8230
▁갈수록	-8231
▁어른	-8232
▁탈락	-8233
▁동일한	-8234
▁이뤄진	-8235
▁피고	-8236
놓은	-8237
▁득점	-8238
▁싱가포르	-8239
소재	-8240
▁사회의	-8241
▁눈이	-8242
83	-8243
▁말로	-8244
けた	-8245
▁기업은	-8246
▁편입	-8247
생활을	-8248
▁85	-8249
료로	-8250
시키기	-8251
▁기분	-8252
ances	-8253
▁indust	-8254
▁을	-8255
▁검찰에	-8256
조가	-8257
▁멀리	-8258
▁겪는	-8259
뷰티	-8260
▁순천	-8261
▁삼성전자는	-8262
後に	-8263
PGA	-8264
▁存	-8265
곳을	-8266
▁항의	-8267
▁today	-8268
▁struct	-8269
▁후보로	-8270
▁유로	-8271
="	-8272
▁et	-8273
OL	-8274
ream	-8275
▁부적	-8276
▁참석해	-8277
▁focus	-8278
▁검은	-8279
idence	-8280
mit	-8281
▁소프트웨어	-8282
▁분기	-8283
역이	-8284
군과	-8285
▁적립	-8286
국과	-8287
선언	-8288
▁based	-8289
▁너무나	-8290
▁어떠한	-8291
▁head	-8292
ルト	-8293
심으로	-8294
▁2~3	-8295
▁팽	-8296
▁사회복지	-8297
달아	-8298
▁중도	-8299
▁휩	-8300
▁정부에	-8301
▁담겨	-8302
과장은	-8303
끄러	-8304
▁사이버	-8305
우가	-8306
▁농가	-8307
▁음주	-8308
▁중국이	-8309
▁orig	-8310
편의	-8311
▁고속도로	-8312
▁취약계층	-8313
시장이	-8314
US	-8315
방에	-8316
elf	-8317
방안	-8318
ダー	-8319
▁깜짝	-8320
▁보지	-8321
산업의	-8322
ᄏᄏᄏᄏᄏᄏᄏᄏ	-8323
요금	-8324
▁병행	-8325
▁이태	-8326
▁오브	-8327
ours	-8328
IV	-8329
▁느꼈	-8330
の選手	-8331
▁하락했다	-8332
접종	-8333
▁이야기가	-8334
キー	-8335
..."	-8336
~6	-8337
▁배송	-8338
▁*	-8339
메이	-8340
아는	-8341
나갈	-8342
icult	-8343
urope	-8344
▁서해	-8345
▁상처	-8346
▁주행	-8347
▁지명	-8348
ません	-8349
▁사용한	-8350
▁추경	-8351
라스틱	-8352
グラ	-8353
형이	-8354
▁무릎	-8355
명에게	-8356
▁데이터를	-8357
▁자유한국	-8358
수준	-8359
치기	-8360
▁참조	-8361
▁경우에	-8362
▁무조건	-8363
▁하던	-8364
엑스포	-8365
▁않지만	-8366
대문	-8367
▁진로	-8368
▁Stud	-8369
▁포장	-8370
고속도로	-8371
▁存命	-8372
캠프	-8373
設立	-8374
aster	-8375
こう	-8376
▁고소	-8377
▁차를	-8378
▁team	-8379
스카	-8380
시면	-8381
▁days	-8382
▁存命人物	-8383
▁新	-8384
’...	-8385
委員	-8386
▁중반	-8387
▁상환	-8388
▁이민	-8389
▁non	-8390
▁현상이	-8391
▁●	-8392
▁김용	-8393
DC	-8394
▁대법원	-8395
▁local	-8396
정비	-8397
▁대립	-8398
▁믿고	-8399
▁핸	-8400
hem	-8401
경찰청	-8402
omm	-8403
56	-8404
ication	-8405
▁각오	-8406
▁한때	-8407
▁미국은	-8408
과학기술	-8409
▁판단했다	-8410
순위	-8411
었기	-8412
▁이끄는	-8413
역에	-8414
▁2024	-8415
▁닭	-8416
めて	-8417
▁산불	-8418
▁이기	-8419
중학교	-8420
sy	-8421
차량	-8422
▁것이며	-8423
▁자영업	-8424
▁운송	-8425
▁서부	-8426
셔널	-8427
ape	-8428
▁되면서	-8429
▁대통령을	-8430
ナル	-8431
것도	-8432
▁공원	-8433
of	-8434
▁Af	-8435
▁어쩌	-8436
▁following	-8437
EA	-8438
▁초래	-8439
▁사람도	-8440
およ	-8441
▁동양	-8442
신도시	-8443
▁참여했다	-8444
▁법원	-8445
ilar	-8446
▁vir	-8447
▁어린이집	-8448
나의	-8449
▁방치	-8450
이어서	-8451
▁캠페	-8452
▁본인이	-8453
▁사업으로	-8454
놀이	-8455
▁않아도	-8456
▁사이의	-8457
지원센터	-8458
▁뼈	-8459
ショ	-8460
▁그들이	-8461
出演	-8462
▁고성	-8463
래도	-8464
요한	-8465
82	-8466
▁여객	-8467
orts	-8468
▁후보자	-8469
させ	-8470
▁갖는	-8471
▁로마	-8472
のため	-8473
-6	-8474
▁않는다는	-8475
43	-8476
▁중순	-8477
실한	-8478
측은	-8479
▁자금을	-8480
이너	-8481
sw	-8482
고의	-8483
▁팀이	-8484
▁노무현	-8485
▁teac	-8486
▁하나가	-8487
▁도덕	-8488
스트라	-8489
▁특검	-8490
▁모았다	-8491
받침	-8492
▁공익	-8493
▁모은	-8494
▁계속해서	-8495
▁이사회	-8496
▁밀려	-8497
▁By	-8498
▁좋을	-8499
▁풍부한	-8500
59	-8501
市立	-8502
▁윌	-8503
식에서	-8504
르기	-8505
ゲーム	-8506
인터넷	-8507
▁벼	-8508
▁Go	-8509
▁증정	-8510
LG	-8511
점의	-8512
▁800	-8513
▁성공적으로	-8514
▁남양	-8515
yl	-8516
개월간	-8517
▁가끔	-8518
공무원	-8519
▁오랫동안	-8520
▁マ	-8521
▁듀	-8522
까지도	-8523
주인	-8524
por	-8525
▁달아	-8526
▁일어난	-8527
▁행동을	-8528
ウン	-8529
▁명을	-8530
▁시달	-8531
▁cancer	-8532
▁case	-8533
になった	-8534
▁경매	-8535
▁temper	-8536
▁연관	-8537
▁있으니	-8538
▁관할	-8539
겠어요	-8540
▁주제	-8541
▁일자리를	-8542
▁States	-8543
▁出典	-8544
▁측이	-8545
▁소규모	-8546
▁심판	-8547
▁관리를	-8548
▁이번에는	-8549
▁곳이다	-8550
▁나름	-8551
▁방법이	-8552
atory	-8553
pr	-8554
▁수험	-8555
▁운영한다	-8556
특히	-8557
▁후배	-8558
などの	-8559
▁쓰러	-8560
▁해수	-8561
현장	-8562
인증	-8563
졌던	-8564
▁개인정보	-8565
▁That	-8566
레인	-8567
app	-8568
▁별도로	-8569
▁의미한다	-8570
▁이미지	-8571
▁늘려	-8572
콘텐츠	-8573
▁매출은	-8574
▁본격화	-8575
은행이	-8576
▁ᄀ	-8577
▁그저	-8578
▁김경	-8579
▁탑승	-8580
▁제외하고	-8581
▁세트	-8582
▁turn	-8583
▁다채	-8584
▁어우	-8585
▁입원	-8586
▁철저한	-8587
開始	-8588
트넘	-8589
▁자발	-8590
▁전수	-8591
▁대비해	-8592
▁소중한	-8593
▁이상으로	-8594
)-	-8595
▁mult	-8596
바다	-8597
성으로	-8598
▁men	-8599
▁곳으로	-8600
▁받아야	-8601
칙을	-8602
▁short	-8603
▁되돌	-8604
▁1993	-8605
▁일환으로	-8606
락을	-8607
통을	-8608
▁교수가	-8609
합의	-8610
▁썼다	-8611
레이션	-8612
▁범행	-8613
▁포럼	-8614
▁협약을	-8615
▁일반적으로	-8616
▁certain	-8617
▁찾기	-8618
91	-8619
▁사례를	-8620
ode	-8621
▁정작	-8622
▁없기	-8623
▁신축	-8624
▁쇠	-8625
▁몸에	-8626
▁profess	-8627
세종	-8628
▁due	-8629
▁likely	-8630
랭킹	-8631
的に	-8632
악의	-8633
▁Tr	-8634
▁success	-8635
▁안동	-8636
▁하나는	-8637
▁중고	-8638
ウィ	-8639
▁고객의	-8640
▁소식	-8641
대체	-8642
법의	-8643
▁선보인	-8644
▁승객	-8645
▁흔히	-8646
퍼스	-8647
▁멸	-8648
바람	-8649
▁신호	-8650
▁서서	-8651
▁수리	-8652
▁영남	-8653
▁힘입	-8654
▁목포	-8655
▁700	-8656
ET	-8657
기계	-8658
부품	-8659
▁심화	-8660
▁상용	-8661
▁250	-8662
▁million	-8663
ray	-8664
▁서초	-8665
▁한국을	-8666
▁sw	-8667
▁도모	-8668
▁폭력	-8669
リーズ	-8670
▁object	-8671
금으로	-8672
▁1992	-8673
▁마리	-8674
즈를	-8675
▁마라	-8676
대교	-8677
ggest	-8678
TX	-8679
▁66	-8680
▁course	-8681
시스	-8682
42	-8683
女子	-8684
ドラマ	-8685
ique	-8686
▁cells	-8687
▁이른다	-8688
学者	-8689
생태	-8690
▁텐데	-8691
ably	-8692
▁원정	-8693
73	-8694
pect	-8695
事業	-8696
▁팀의	-8697
▁이뤄질	-8698
차별	-8699
▁ey	-8700
▁why	-8701
▁예정인	-8702
▁significant	-8703
시리즈	-8704
though	-8705
▁엄격	-8706
▁far	-8707
▁잡은	-8708
▁쉬운	-8709
▁물었다	-8710
イツ	-8711
▁한해	-8712
▁일에	-8713
▁좌우	-8714
▁소감을	-8715
▁납품	-8716
▁근로자	-8717
▁consum	-8718
▁시민단체	-8719
▁않았지만	-8720
▁셰	-8721
▁간부	-8722
raw	-8723
되기도	-8724
들로부터	-8725
ptoms	-8726
▁그럼에도	-8727
▁일하는	-8728
▁생애	-8729
▁시중	-8730
▁fre	-8731
hy	-8732
oot	-8733
▁동맹	-8734
사회의	-8735
▁오늘날	-8736
매매	-8737
▁구제	-8738
▁공격을	-8739
▁활동에	-8740
▁among	-8741
▁돋보	-8742
▁피의	-8743
▁유지하고	-8744
▁이수	-8745
▁떡	-8746
▁FA	-8747
▁소셜	-8748
ember	-8749
조에	-8750
▁학술	-8751
기부	-8752
에서만	-8753
ploy	-8754
多く	-8755
뉴스	-8756
▁김상	-8757
▁빌려	-8758
ised	-8759
▁또다시	-8760
▁무대를	-8761
▁개성	-8762
▁세포	-8763
ression	-8764
aps	-8765
▁works	-8766
▁차별화된	-8767
▁행정안전	-8768
▁치열한	-8769
▁지지를	-8770
に関	-8771
▁usually	-8772
▁찌	-8773
▁사용해	-8774
▁맞서	-8775
▁왜냐하면	-8776
rug	-8777
ビュー	-8778
▁높이기	-8779
사진	-8780
▁넓은	-8781
▁PD	-8782
▁별도의	-8783
아웃	-8784
▁특유의	-8785
▁behav	-8786
olution	-8787
금지	-8788
▁느낌을	-8789
▁종로	-8790
▁increase	-8791
▁메타	-8792
오염	-8793
▁인기가	-8794
▁증가하고	-8795
박한	-8796
▁수수료	-8797
▁모습으로	-8798
▁없습니다	-8799
졌다는	-8800
글랜드	-8801
▁휴대폰	-8802
▁팝	-8803
▁여성의	-8804
▁이하의	-8805
CO	-8806
▁유가	-8807
▁농산물	-8808
▁회사는	-8809
시장을	-8810
▁소개했다	-8811
しま	-8812
라서	-8813
림을	-8814
▁내외	-8815
▁솔로	-8816
▁지원이	-8817
경기에서	-8818
년과	-8819
▁associ	-8820
▁education	-8821
실험	-8822
▁빅데이터	-8823
▁potential	-8824
▁이름으로	-8825
층에	-8826
▁중동	-8827
▁results	-8828
▁Do	-8829
▁스트레	-8830
▁researchers	-8831
평등	-8832
▁거기에	-8833
▁전세계	-8834
▁앞선	-8835
▁사회공헌	-8836
디지털	-8837
▁미세먼지	-8838
▁parent	-8839
적한	-8840
중심	-8841
(16	-8842
▁앞장서	-8843
49	-8844
県の	-8845
이런	-8846
▁압수수	-8847
회로	-8848
▁내야	-8849
▁올리	-8850
작을	-8851
아의	-8852
하였고	-8853
▁experience	-8854
▁텍	-8855
▁세종시	-8856
▁없도록	-8857
▁땀	-8858
▁내놓은	-8859
▁항소	-8860
▁try	-8861
▁차원의	-8862
aut	-8863
▁무대에	-8864
のは	-8865
▁제주도	-8866
▁Health	-8867
▁분이	-8868
당에서	-8869
▁기반을	-8870
出版	-8871
교육청은	-8872
장한	-8873
▁것만	-8874
▁차가	-8875
▁90%	-8876
▁community	-8877
▁승진	-8878
▁필리핀	-8879
▁어찌	-8880
試合	-8881
▁워크	-8882
▁나오지	-8883
▁systems	-8884
▁뻔	-8885
공화	-8886
▁채무	-8887
▁지역은	-8888
장도	-8889
▁접속	-8890
▁방문한	-8891
하자는	-8892
▁dam	-8893
▁연구를	-8894
TO	-8895
이었지만	-8896
고한	-8897
방향	-8898
수지	-8899
유를	-8900
▁4000	-8901
▁space	-8902
▁필요하다고	-8903
▁명시	-8904
ブラ	-8905
作詞	-8906
▁도움	-8907
목이	-8908
우기	-8909
▁지니	-8910
역으로	-8911
▁내일	-8912
▁추락	-8913
▁학원	-8914
문화재	-8915
▁along	-8916
DS	-8917
▁낫	-8918
▁인접	-8919
▁정원	-8920
마를	-8921
▁일관	-8922
▁거대한	-8923
▁방송된	-8924
▁꼽았다	-8925
▁한마디	-8926
▁묻는	-8927
▁나가는	-8928
▁팀을	-8929
로서의	-8930
▁생각했다	-8931
치에	-8932
etic	-8933
▁투기	-8934
위원은	-8935
사태	-8936
우주	-8937
▁No	-8938
카데미	-8939
▁않았던	-8940
▁마음으로	-8941
▁준비하고	-8942
▁나쁜	-8943
▁없게	-8944
▁장착	-8945
▁rece	-8946
▁금호	-8947
▁enc	-8948
されて	-8949
▁Europe	-8950
주식	-8951
▁보육	-8952
▁극단	-8953
체계를	-8954
▁다르게	-8955
▁투입해	-8956
▁크고	-8957
은행의	-8958
드에	-8959
천여	-8960
▁비중은	-8961
▁next	-8962
41	-8963
▁능력이	-8964
장인	-8965
▁포함된	-8966
일자리	-8967
▁분석한	-8968
▁의혹이	-8969
셔서	-8970
▁양도	-8971
▁의도	-8972
▁워싱턴	-8973
▁제품은	-8974
▁invest	-8975
보다도	-8976
▁걸려	-8977
oney	-8978
▁닮	-8979
▁설비	-8980
ループ	-8981
▁맡았다	-8982
▁맞지	-8983
▁내리	-8984
▁중국은	-8985
ately	-8986
▁always	-8987
▁재밌	-8988
▁기여할	-8989
▁오프라인	-8990
▁타당	-8991
サイト	-8992
ledge	-8993
▁시의	-8994
에서부터	-8995
생이	-8996
▁유망	-8997
▁이로써	-8998
▁future	-8999
▁needs	-9000
중립	-9001
しかし	-9002
▁검토하고	-9003
▁목록	-9004
회복	-9005
▁집권	-9006
▁감각	-9007
었으나	-9008
▁Ne	-9009
▁until	-9010
▁국비	-9011
▁다운	-9012
는데요	-9013
▁않으	-9014
▁인상을	-9015
▁학생들은	-9016
を持	-9017
▁작동	-9018
판에	-9019
▁청소	-9020
apan	-9021
▁가깝	-9022
▁Man	-9023
▁남겨	-9024
▁아나	-9025
▁뒷받침	-9026
▁바람에	-9027
▁들어가는	-9028
▁suggest	-9029
왔던	-9030
▁씨의	-9031
▁effective	-9032
▁방법은	-9033
서비스를	-9034
▁2025	-9035
가며	-9036
let	-9037
▁대표를	-9038
日の	-9039
▁조속	-9040
▁자유롭게	-9041
한데	-9042
지주	-9043
▁탈출	-9044
법으로	-9045
▁광양	-9046
▁위주로	-9047
▁가량	-9048
정원	-9049
▁무산	-9050
된다고	-9051
urther	-9052
MF	-9053
情報	-9054
하우스	-9055
▁보고서	-9056
작업	-9057
2010	-9058
▁한국과	-9059
▁즐기는	-9060
学部	-9061
나게	-9062
▁매니	-9063
▁개최했다	-9064
▁막아	-9065
▁z	-9066
▁훈련을	-9067
SK	-9068
당과	-9069
▁영웅	-9070
ured	-9071
▁높일	-9072
▁여의도	-9073
건은	-9074
▁냄새	-9075
확인	-9076
▁영화를	-9077
▁rad	-9078
▁보여준다	-9079
플레이션	-9080
방의	-9081
▁접어	-9082
▁소송을	-9083
▁지원해	-9084
드와	-9085
▁갖게	-9086
▁만들어진	-9087
▁language	-9088
문은	-9089
▁text	-9090
地域	-9091
트에	-9092
▁Car	-9093
리포	-9094
▁보자	-9095
▁장소	-9096
▁어디서	-9097
▁한국인	-9098
71	-9099
사법	-9100
▁창립	-9101
▁집값	-9102
▁나섰	-9103
▁무엇을	-9104
レス	-9105
▁그날	-9106
▁view	-9107
irc	-9108
▁체크	-9109
▁언제나	-9110
▁wr	-9111
협약을	-9112
▁텔레비전	-9113
▁イ	-9114
▁확실히	-9115
▁선별	-9116
▁드라이	-9117
지대	-9118
▁Resear	-9119
▁되도록	-9120
▁past	-9121
▁improve	-9122
▁햇	-9123
기관의	-9124
▁청문	-9125
▁웃음을	-9126
▁인천시	-9127
보장	-9128
▁시설을	-9129
규제	-9130
망이	-9131
▁독서	-9132
▁별도	-9133
▁힘입어	-9134
대강	-9135
▁While	-9136
▁옳	-9137
81	-9138
▁빵	-9139
▁가질	-9140
▁역전	-9141
▁장난	-9142
▁출연해	-9143
▁한다면	-9144
▁이뤄졌다	-9145
▁예전	-9146
▁베스트	-9147
▁이외에도	-9148
▁give	-9149
▁높아지고	-9150
▁제안했다	-9151
▁감소한	-9152
▁관심과	-9153
TI	-9154
▁부천	-9155
▁정도가	-9156
▁재개발	-9157
ery	-9158
▁말도	-9159
디자인	-9160
▁temperature	-9161
▁comb	-9162
▁번역	-9163
▁개척	-9164
▁아니지만	-9165
▁적정	-9166
하기는	-9167
▁plants	-9168
본부는	-9169
▁논의를	-9170
▁강행	-9171
어린이	-9172
▁흥미	-9173
▁맑	-9174
만간	-9175
그런	-9176
세이	-9177
▁제휴	-9178
▁분석이다	-9179
소시	-9180
▁한일	-9181
▁단순한	-9182
▁클라우드	-9183
레일	-9184
▁확진자는	-9185
▁낯	-9186
▁초점을	-9187
ending	-9188
▁조금씩	-9189
▁끊임없이	-9190
▁야간	-9191
▁끌었다	-9192
인재	-9193
▁function	-9194
▁정치권	-9195
▁격리	-9196
▁스튜디오	-9197
▁시나	-9198
국장은	-9199
にて	-9200
▁bro	-9201
▁tool	-9202
전환	-9203
▁51	-9204
▁날아	-9205
▁비록	-9206
▁왜곡	-9207
하지는	-9208
▁사람에게	-9209
公式	-9210
▁가중	-9211
▁이어진	-9212
63	-9213
▁colle	-9214
pecially	-9215
ai	-9216
▁흐름을	-9217
▁운항	-9218
사업의	-9219
後の	-9220
교류	-9221
▁역임	-9222
および	-9223
▁words	-9224
存在	-9225
施設	-9226
영의	-9227
▁across	-9228
▁지향	-9229
▁성공한	-9230
위원회의	-9231
nal	-9232
▁싸움	-9233
▁않다는	-9234
▁솔직	-9235
해지는	-9236
▁protect	-9237
저는	-9238
ems	-9239
▁메달	-9240
▁행위를	-9241
▁기쁘	-9242
▁언급했다	-9243
방역	-9244
▁희망을	-9245
lease	-9246
▁노래를	-9247
▁이준	-9248
▁진행될	-9249
▁메르	-9250
▁식사	-9251
▁전인	-9252
선에서	-9253
▁느끼는	-9254
▁conditions	-9255
野球	-9256
▁English	-9257
リスト	-9258
年から	-9259
사들의	-9260
워서	-9261
▁가전	-9262
▁있을지	-9263
▁멕시코	-9264
원들이	-9265
▁대상은	-9266
▁자사	-9267
▁노동자	-9268
▁코너	-9269
▁안타까	-9270
▁小	-9271
れば	-9272
put	-9273
위험	-9274
▁했을	-9275
▁손실	-9276
▁ways	-9277
▁면제	-9278
▁우울	-9279
開催	-9280
▁국세	-9281
▁시위	-9282
▁재발	-9283
스럽다	-9284
정지	-9285
▁이은	-9286
▁벌이고	-9287
aring	-9288
울산	-9289
54	-9290
▁||	-9291
속에	-9292
▁제출한	-9293
유가	-9294
min	-9295
▁side	-9296
▁vs	-9297
▁뒤로	-9298
금의	-9299
번호	-9300
▁주장이	-9301
▁difficult	-9302
▁비정규직	-9303
▁배정	-9304
ators	-9305
▁반등	-9306
▁디스플레이	-9307
地方	-9308
▁주목된다	-9309
▁억제	-9310
▁조각	-9311
UV	-9312
大阪	-9313
여개	-9314
▁학생이	-9315
▁재활용	-9316
▁working	-9317
gether	-9318
▁special	-9319
▁거친	-9320
▁연수	-9321
심은	-9322
▁주간	-9323
▁콘셉	-9324
▁협의를	-9325
전국	-9326
▁교육과	-9327
▁옷을	-9328
▁together	-9329
▁식물	-9330
▁최강	-9331
▁전까지	-9332
▁1991	-9333
▁sing	-9334
設置	-9335
운동을	-9336
▁시작한다	-9337
대행	-9338
▁안산	-9339
▁분석이	-9340
▁몸이	-9341
이지를	-9342
aves	-9343
▁Joh	-9344
▁자회사	-9345
느라	-9346
▁엇	-9347
▁ill	-9348
▁아티스트	-9349
▁질문을	-9350
▁골목	-9351
▁실정	-9352
▁첫날	-9353
▁日	-9354
とする	-9355
シーズ	-9356
본다	-9357
▁단위	-9358
▁임기	-9359
이니	-9360
私は	-9361
악한	-9362
모리	-9363
▁big	-9364
▁입장에서	-9365
▁옆에	-9366
▁확대하고	-9367
▁짚	-9368
LS	-9369
ler	-9370
▁obs	-9371
이게	-9372
자연	-9373
양의	-9374
▁→	-9375
▁옵	-9376
ush	-9377
▁determ	-9378
▁wind	-9379
rag	-9380
▁key	-9381
▁국방부	-9382
▁세계에서	-9383
▁땐	-9384
급여	-9385
영이	-9386
▁무죄	-9387
▁비중을	-9388
▁서울시는	-9389
▁전무	-9390
▁fil	-9391
토론	-9392
▁거리두기	-9393
▁지난주	-9394
▁배경으로	-9395
▁뭉	-9396
페라	-9397
▁다문화	-9398
▁발간	-9399
ott	-9400
ように	-9401
하라는	-9402
▁전체의	-9403
▁1500	-9404
▁나타난	-9405
▁급여	-9406
aken	-9407
▁사랑하는	-9408
BM	-9409
▁강경	-9410
▁specific	-9411
래곤	-9412
재정부	-9413
なる	-9414
▁자꾸	-9415
하더라도	-9416
했다가	-9417
▁진출을	-9418
LA	-9419
京都	-9420
현의	-9421
▁전당	-9422
▁독특한	-9423
▁공산	-9424
asing	-9425
▁의회	-9426
게요	-9427
▁mov	-9428
▁거뒀다	-9429
ences	-9430
름이	-9431
▁MC	-9432
▁정책에	-9433
▁저항	-9434
했어요	-9435
▁특성을	-9436
グループ	-9437
▁당분간	-9438
交通	-9439
生ま	-9440
신은	-9441
▁kind	-9442
ysis	-9443
▁away	-9444
▁アメリカ	-9445
겁게	-9446
트라	-9447
oon	-9448
▁57	-9449
▁살려	-9450
▁순매	-9451
정부가	-9452
▁넘치는	-9453
체에	-9454
bon	-9455
▁가이드	-9456
▁나서고	-9457
▁countries	-9458
eds	-9459
▁1988	-9460
백을	-9461
▁등장하는	-9462
HO	-9463
▁이영	-9464
▁헤어	-9465
▁KBO	-9466
▁승부	-9467
▁가볍	-9468
▁진상	-9469
53	-9470
▁닿	-9471
▁아이폰	-9472
절을	-9473
▁조명	-9474
▁찾아가	-9475
수출	-9476
관으로	-9477
開発	-9478
▁찾았다	-9479
▁は	-9480
아리	-9481
ley	-9482
▁건데	-9483
▁지목	-9484
▁흰	-9485
조는	-9486
▁이렇	-9487
▁파업	-9488
▁빼앗	-9489
▁밖으로	-9490
▁대량	-9491
졌지만	-9492
▁1.5	-9493
ジョ	-9494
동강	-9495
▁53	-9496
.(	-9497
인사	-9498
amm	-9499
▁오빠	-9500
idd	-9501
▁흡수	-9502
▁담보	-9503
과도	-9504
▁환율	-9505
팀을	-9506
해진다	-9507
▁Ass	-9508
▁일부를	-9509
리조	-9510
▁신중	-9511
ttp	-9512
▁만든다	-9513
▁소리가	-9514
▁예외	-9515
ドイツ	-9516
▁lot	-9517
보수	-9518
▁무리	-9519
▁백악	-9520
▁단행	-9521
▁ask	-9522
当時	-9523
어촌	-9524
▁동계	-9525
▁동구	-9526
덜란드	-9527
▁방송을	-9528
포먼	-9529
타워	-9530
학자	-9531
▁말씀을	-9532
▁엑	-9533
행복	-9534
▁3,	-9535
▁연다	-9536
▁sum	-9537
▁모델을	-9538
▁영국의	-9539
▁몫	-9540
▁순환	-9541
▁떨어지는	-9542
▁한국에서	-9543
▁캘	-9544
▁세운	-9545
▁추적	-9546
▁꿈꾸	-9547
▁무인	-9548
사항을	-9549
▁챙겨	-9550
女性	-9551
社会	-9552
aces	-9553
▁paper	-9554
▁enough	-9555
▁Afric	-9556
▁기온	-9557
리즘	-9558
▁대상을	-9559
▁올라가	-9560
▁going	-9561
개소	-9562
회계	-9563
▁추첨	-9564
目の	-9565
▁조사한	-9566
실장	-9567
처벌	-9568
▁환자가	-9569
議員	-9570
▁게재	-9571
었다고	-9572
▁감면	-9573
▁애초	-9574
▁여행을	-9575
운전	-9576
모델링	-9577
▁types	-9578
▁삭제	-9579
resent	-9580
▁위험이	-9581
▁연료	-9582
▁윈	-9583
름을	-9584
▁생물	-9585
▁슬로	-9586
▁규모를	-9587
▁그것도	-9588
▁매력을	-9589
급식	-9590
판사	-9591
IFA	-9592
▁주변에	-9593
▁한국이	-9594
62	-9595
▁목숨을	-9596
▁sure	-9597
▁줄여	-9598
▁그에게	-9599
▁고속	-9600
vious	-9601
▁내정	-9602
▁얘기다	-9603
▁line	-9604
▁step	-9605
だけ	-9606
ipp	-9607
企業	-9608
▁확보를	-9609
▁세계적으로	-9610
화해	-9611
▁워낙	-9612
▁chem	-9613
omet	-9614
제주	-9615
환자	-9616
▁여겨	-9617
미사일	-9618
▁God	-9619
▁er	-9620
만원에	-9621
▁비율은	-9622
체로	-9623
▁경쟁을	-9624
늦게	-9625
▁결론	-9626
▁물량	-9627
하셨	-9628
▁이번이	-9629
▁조성을	-9630
부담	-9631
라면서	-9632
▁story	-9633
부채	-9634
▁Ab	-9635
▁보며	-9636
쉽게	-9637
▁내수	-9638
▁체결했다	-9639
▁지어	-9640
▁변화에	-9641
▁sens	-9642
▁불과하다	-9643
クト	-9644
▁discuss	-9645
▁전설	-9646
제약	-9647
▁이겨	-9648
상에서	-9649
▁기독교	-9650
거리를	-9651
▁mot	-9652
채널	-9653
▁1~2	-9654
천군	-9655
체는	-9656
▁도달	-9657
▁같았다	-9658
▁태국	-9659
以下	-9660
선수권	-9661
▁오피스텔	-9662
In	-9663
教授	-9664
▁멈추	-9665
▁것이라	-9666
▁Im	-9667
보드	-9668
▁무서	-9669
▁터뜨	-9670
▁느낌이	-9671
▁정치인	-9672
▁들어오	-9673
▁given	-9674
▁complete	-9675
▁カ	-9676
▁시대의	-9677
▁일종의	-9678
▁기업들의	-9679
▁스웨	-9680
▁세웠다	-9681
▁작가의	-9682
▁changes	-9683
~19	-9684
회관	-9685
▁정무	-9686
▁컸다	-9687
▁다수의	-9688
대한민	-9689
▁갈등을	-9690
▁1960	-9691
▁그나마	-9692
▁동시	-9693
▁내게	-9694
▁홀로	-9695
ソン	-9696
▁1987	-9697
▁business	-9698
들에게는	-9699
▁약속했다	-9700
▁과정에	-9701
▁등판	-9702
▁자제	-9703
▁증시	-9704
▁상영	-9705
학년도	-9706
2019	-9707
▁티켓	-9708
▁한은	-9709
▁0.0	-9710
▁것보다	-9711
목으로	-9712
▁이후에	-9713
▁지원에	-9714
사들은	-9715
시켰	-9716
▁쓰레기	-9717
57	-9718
▁덩	-9719
고에	-9720
▁밝혔	-9721
ored	-9722
제철	-9723
▁대다	-9724
▁later	-9725
▁어쨌	-9726
▁앓	-9727
選手権	-9728
▁선보일	-9729
▁여성이	-9730
실과	-9731
▁포르	-9732
thing	-9733
▁crit	-9734
67	-9735
▁Pr	-9736
▁중점	-9737
▁핑	-9738
▁스테	-9739
▁라이프	-9740
▁아니라는	-9741
보며	-9742
▁반영해	-9743
ruction	-9744
org	-9745
▁1989	-9746
ビー	-9747
어의	-9748
▁기쁨	-9749
センター	-9750
▁메인	-9751
즈의	-9752
촛불	-9753
▁꼼꼼	-9754
렬한	-9755
▁cr	-9756
▁간단	-9757
▁신도시	-9758
イド	-9759
상승	-9760
▁정황	-9761
ried	-9762
iting	-9763
▁시에	-9764
▁해요	-9765
▁감염병	-9766
▁알리는	-9767
나와	-9768
ジョン	-9769
▁제시한	-9770
▁skills	-9771
▁롤	-9772
▁東	-9773
経済	-9774
▁곳을	-9775
▁symptoms	-9776
▁Ge	-9777
▁윤리	-9778
▁주재	-9779
▁주식을	-9780
받지	-9781
not	-9782
면에서	-9783
▁흥행	-9784
▁금융감독	-9785
·3	-9786
▁페스티벌	-9787
▁젖	-9788
楽曲	-9789
▁내놨다	-9790
▁올바른	-9791
を務	-9792
▁귀국	-9793
이노	-9794
▁우려를	-9795
▁full	-9796
▁체감	-9797
▁CCTV	-9798
▁달했다	-9799
▁山	-9800
라가	-9801
플루	-9802
▁회사가	-9803
생의	-9804
▁광명	-9805
▁않겠	-9806
▁때에는	-9807
▁프로모	-9808
▁オ	-9809
っていた	-9810
▁딜	-9811
▁교통사고	-9812
▁신제품	-9813
ither	-9814
▁가능성은	-9815
실히	-9816
▁소년	-9817
▁Me	-9818
▁strong	-9819
▁사후	-9820
▁어려움	-9821
▁자원봉사	-9822
▁appear	-9823
▁론	-9824
▁She	-9825
언론	-9826
すること	-9827
▁간다	-9828
▁무소속	-9829
▁나은	-9830
itor	-9831
▁대표이	-9832
료는	-9833
희는	-9834
日本語	-9835
▁기획재정부	-9836
산은	-9837
となり	-9838
icro	-9839
▁begin	-9840
▁놈	-9841
▁확인했다	-9842
▁며칠	-9843
▁Cont	-9844
▁아니라고	-9845
▁냈	-9846
▁태어	-9847
▁지금의	-9848
▁역사적	-9849
공학	-9850
▁science	-9851
바닥	-9852
▁경남도	-9853
▁않았고	-9854
용을	-9855
▁편이다	-9856
면의	-9857
▁미안	-9858
▁닥	-9859
프레	-9860
▁안성	-9861
▁진주	-9862
▁상태를	-9863
트와	-9864
▁노력이	-9865
発表	-9866
▁도서	-9867
▁x	-9868
▁꺼내	-9869
▁죽은	-9870
▁중에는	-9871
형의	-9872
▁성향	-9873
▁평범	-9874
▁진행되고	-9875
▁death	-9876
▁철회	-9877
ボール	-9878
▁톱	-9879
타르	-9880
(12	-9881
▁자기가	-9882
▁수준에	-9883
▁민선	-9884
52	-9885
▁포착	-9886
▁이모	-9887
▁applic	-9888
여명의	-9889
ilt	-9890
▁신뢰를	-9891
시한	-9892
▁접목	-9893
▁ᄏᄏᄏ	-9894
▁higher	-9895
진에	-9896
pos	-9897
▁발전에	-9898
ilities	-9899
▁지낸	-9900
シリーズ	-9901
▁FTA	-9902
▁정밀	-9903
▁실시하고	-9904
류가	-9905
▁Am	-9906
▁류현	-9907
▁찾고	-9908
기술을	-9909
웠던	-9910
▁박지	-9911
당국은	-9912
유예	-9913
▁아베	-9914
▁여파로	-9915
ジュ	-9916
▁당한	-9917
▁방영	-9918
아서	-9919
▁사태가	-9920
▁확인하고	-9921
▁의장은	-9922
▁제품의	-9923
▁밸	-9924
▁멀티	-9925
▁live	-9926
▁高	-9927
되었고	-9928
▁일주일	-9929
▁저렴한	-9930
법과	-9931
▁사고를	-9932
공을	-9933
홈런	-9934
▁뿌리	-9935
▁Mar	-9936
▁세상에	-9937
용으로	-9938
▁사항은	-9939
범위	-9940
▁especially	-9941
68	-9942
▁웬	-9943
할지	-9944
국으로	-9945
▁포스트	-9946
▁굳이	-9947
▁현역	-9948
▁모범	-9949
SC	-9950
▁불교	-9951
▁재해	-9952
▁타임	-9953
参加	-9954
▁싫어	-9955
이었고	-9956
▁경쟁이	-9957
aining	-9958
마가	-9959
타로	-9960
▁끝내	-9961
▁체제	-9962
▁상당의	-9963
▁총장은	-9964
▁관여	-9965
▁문화체육	-9966
同年	-9967
▁온실	-9968
▁사건의	-9969
▁5·18	-9970
フト	-9971
▁makes	-9972
▁갚	-9973
▁전반에	-9974
석의	-9975
▁토트넘	-9976
형은	-9977
69	-9978
▁강요	-9979
▁일도	-9980
▁금강	-9981
▁수시	-9982
utes	-9983
▁least	-9984
▁스케	-9985
개인	-9986
▁스탠	-9987
▁생태계	-9988
▁After	-9989
매김	-9990
▁various	-9991
융합	-9992
▁매출액	-9993
▁시선을	-9994
간담	-9995
▁선포	-9996
결정	-9997
▁매월	-9998
▁공개한	-9999
ables	-10000
▁분산	-10001
ミュー	-10002
▁Christ	-10003
▁War	-10004
마는	-10005
▁원유	-10006
곳에서	-10007
▁투자자	-10008
목적	-10009
▁칭찬	-10010
▁사업이다	-10011
▁연애	-10012
記録	-10013
▁오를	-10014
▁화가	-10015
▁감안하면	-10016
▁시작됐다	-10017
most	-10018
(11	-10019
▁후쿠	-10020
▁로드	-10021
▁만나는	-10022
▁자리매김	-10023
카페	-10024
화할	-10025
▁패러	-10026
▁연대	-10027
duct	-10028
aching	-10029
▁무선	-10030
▁출신의	-10031
▁휴가	-10032
▁턱	-10033
▁인적	-10034
▁모자	-10035
브랜드	-10036
▁아무도	-10037
▁신흥	-10038
▁되찾	-10039
side	-10040
▁나타냈다	-10041
▁エ	-10042
로지	-10043
▁대중교통	-10044
십니까	-10045
되도록	-10046
▁이어가고	-10047
▁patients	-10048
▁공사를	-10049
▁발효	-10050
▁하천	-10051
살을	-10052
▁포트	-10053
▁그러자	-10054
▁본회의	-10055
▁아름다	-10056
▁없어서	-10057
▁opt	-10058
▁변호사는	-10059
밀히	-10060
아직	-10061
인물	-10062
반도체	-10063
▁week	-10064
▁never	-10065
▁主	-10066
▁유용	-10067
マー	-10068
긴다	-10069
▁쇼핑몰	-10070
▁ᄒᄒ	-10071
▁다음에	-10072
▁돕는	-10073
▁대응을	-10074
▁차량을	-10075
▁Comm	-10076
그룹의	-10077
국민의	-10078
ument	-10079
hern	-10080
▁들어갈	-10081
▁둥	-10082
▁조만간	-10083
▁케이블	-10084
▁모습이다	-10085
▁근대	-10086
▁record	-10087
61	-10088
▁쌓아	-10089
▁정신을	-10090
으로서의	-10091
▁Co	-10092
실의	-10093
▁유아	-10094
감에	-10095
▁강화해	-10096
▁심사를	-10097
▁잉글랜드	-10098
견을	-10099
리라	-10100
층이	-10101
▁새해	-10102
▁어쩔	-10103
▁오토	-10104
▁드론	-10105
▁경북도	-10106
▁고통을	-10107
▁잦	-10108
▁선을	-10109
지역에	-10110
▁퍼포먼	-10111
제작	-10112
구에서	-10113
▁대형마트	-10114
▁above	-10115
▁similar	-10116
▁대표와	-10117
이제	-10118
이한	-10119
▁LED	-10120
▁장을	-10121
▁해체	-10122
▁실시한다	-10123
▁거래를	-10124
▁dem	-10125
▁clear	-10126
▁Japan	-10127
▁순위	-10128
▁국산	-10129
▁유효	-10130
▁트레이	-10131
▁살펴보면	-10132
▁돌아온	-10133
▁김씨는	-10134
ジア	-10135
▁맞고	-10136
▁세계를	-10137
▁붉은	-10138
OT	-10139
▁기업과	-10140
▁성장할	-10141
▁도망	-10142
▁주한	-10143
▁nut	-10144
▁really	-10145
2020	-10146
▁어우러	-10147
のみ	-10148
2018	-10149
▁행사에	-10150
▁회의에서	-10151
전용	-10152
▁간에	-10153
▁논의가	-10154
▁의원을	-10155
방안을	-10156
chie	-10157
▁의정부	-10158
금과	-10159
▁대대	-10160
▁육군	-10161
▁author	-10162
イス	-10163
▁그렇다고	-10164
▁날씨	-10165
▁무한	-10166
▁펼치고	-10167
▁멘토	-10168
▁원천	-10169
▁당첨	-10170
종이	-10171
▁재직	-10172
▁음악을	-10173
▁증상이	-10174
▁부총	-10175
▁상가	-10176
▁무엇이	-10177
희망	-10178
RE	-10179
▁레드	-10180
▁가난	-10181
▁크루	-10182
▁가족이	-10183
▁보행	-10184
▁중견	-10185
수입	-10186
센티브	-10187
▁정규직	-10188
omes	-10189
님을	-10190
▁농민	-10191
▁dig	-10192
▁이유다	-10193
▁이룬	-10194
▁주목을	-10195
▁할지	-10196
▁가격에	-10197
방지	-10198
인구	-10199
분쯤	-10200
사기	-10201
▁야권	-10202
同じ	-10203
▁걸린	-10204
▁부딪	-10205
",	-10206
alf	-10207
▁소장	-10208
▁않겠다	-10209
▁작가는	-10210
(18	-10211
그린	-10212
▁chall	-10213
▁respons	-10214
▁이걸	-10215
▁하나인	-10216
▁대회에서	-10217
셔츠	-10218
▁학교에	-10219
고요	-10220
▁개관	-10221
▁설치된	-10222
シーズン	-10223
▁뜻이다	-10224
사업으로	-10225
▁경기에	-10226
시간을	-10227
▁훌륭한	-10228
▁범위	-10229
▁계열사	-10230
▁맛을	-10231
▁태어난	-10232
▁Cal	-10233
たい	-10234
58	-10235
▁데려	-10236
▁어려움이	-10237
▁드는	-10238
▁비핵	-10239
▁정도다	-10240
▁육아	-10241
▁개정안	-10242
丁目	-10243
▁population	-10244
▁김지	-10245
▁사안	-10246
▁구성해	-10247
▁합쳐	-10248
▁사회에	-10249
▁내비	-10250
▁택배	-10251
학의	-10252
▁교회	-10253
박람회	-10254
by	-10255
▁마스터	-10256
oll	-10257
▁Gu	-10258
▁논쟁	-10259
▁유사한	-10260
▁김연	-10261
집행	-10262
▁해군	-10263
자로서	-10264
다리	-10265
명에서	-10266
▁고객에게	-10267
오픈	-10268
▁것인	-10269
▁보편	-10270
▁북한은	-10271
▁Earth	-10272
ンス	-10273
ired	-10274
▁지적이다	-10275
▁되길	-10276
국에서	-10277
▁기간에	-10278
▁ETF	-10279
▁상승한	-10280
▁금속	-10281
廃止	-10282
▁사령	-10283
▁climate	-10284
면이	-10285
▁effects	-10286
▁꼴	-10287
▁가벼	-10288
▁고객을	-10289
LL	-10290
뉴얼	-10291
▁보여준	-10292
▁연계해	-10293
ready	-10294
かつ	-10295
당시	-10296
▁유전	-10297
▁쇄	-10298
가정	-10299
▁점수를	-10300
▁mind	-10301
▁정확하게	-10302
▁questions	-10303
▁고마	-10304
▁모습은	-10305
▁채워	-10306
의회는	-10307
▁〈	-10308
ips	-10309
▁activities	-10310
▁삼아	-10311
까지만	-10312
▁phot	-10313
▁products	-10314
っと	-10315
▁CN	-10316
▁든다	-10317
amin	-10318
층을	-10319
▁군민	-10320
지수는	-10321
▁이슬	-10322
▁면세	-10323
▁왼쪽	-10324
▁치솟	-10325
제일	-10326
▁집회	-10327
▁떠난	-10328
▁character	-10329
ee	-10330
든가	-10331
▁고백	-10332
▁잊지	-10333
▁예상되는	-10334
▁대륙	-10335
▁씻	-10336
▁법조	-10337
▁응시	-10338
▁잠깐	-10339
재의	-10340
▁과도한	-10341
▁펼쳤다	-10342
verage	-10343
▁healthy	-10344
▁색깔	-10345
화문	-10346
▁고맙	-10347
▁파티	-10348
대학원	-10349
첨단	-10350
시킨다	-10351
▁다음날	-10352
소통	-10353
~8	-10354
▁알리	-10355
학회	-10356
▁기간을	-10357
▁사건은	-10358
분께	-10359
▁한글	-10360
▁site	-10361
▁6·	-10362
▁강연	-10363
▁임신	-10364
▁구속영	-10365
▁화이트	-10366
▁58	-10367
▁확대할	-10368
St	-10369
주지	-10370
▁고대	-10371
▁말라	-10372
▁수강	-10373
사회적	-10374
져서	-10375
▁도발	-10376
▁그러다	-10377
道路	-10378
계열	-10379
▁입장이	-10380
▁medical	-10381
▁resources	-10382
▁연설	-10383
つの	-10384
ows	-10385
▁세탁	-10386
▁장례	-10387
▁주시	-10388
▁예비후보	-10389
교회	-10390
▁공고	-10391
▁냉장	-10392
▁번째로	-10393
yn	-10394
로로	-10395
박스	-10396
작가	-10397
정당	-10398
▁유연	-10399
▁환자의	-10400
▁네덜란드	-10401
▁보여주고	-10402
통화	-10403
▁개헌	-10404
정책을	-10405
▁평가가	-10406
▁거점	-10407
▁physical	-10408
▁마련한	-10409
▁99	-10410
leep	-10411
▁상황은	-10412
에이	-10413
▁사건에	-10414
▁신속한	-10415
まり	-10416
▁임차	-10417
▁패널	-10418
부지	-10419
푸드	-10420
▁헬스	-10421
정부의	-10422
▁공인	-10423
세한	-10424
▁4.	-10425
▁전달했다	-10426
타민	-10427
하기에	-10428
▁119	-10429
▁네가	-10430
▁문서	-10431
▁서울의	-10432
▁전남도	-10433
▁loss	-10434
▁러시아의	-10435
▁주장하는	-10436
▁입시	-10437
▁외면	-10438
acy	-10439
▁AP	-10440
▁Gen	-10441
릭스	-10442
코스	-10443
민족	-10444
▁기각	-10445
ival	-10446
▁매도	-10447
▁번도	-10448
▁기능이	-10449
통상자원	-10450
▁지나치게	-10451
▁SM	-10452
ales	-10453
답게	-10454
ires	-10455
▁今	-10456
しく	-10457
▁붙잡	-10458
▁전직	-10459
▁다이어	-10460
▁reduce	-10461
청문	-10462
▁요구를	-10463
▁다채로운	-10464
lement	-10465
▁찰	-10466
▁술을	-10467
▁실효	-10468
▁트로	-10469
▁대면	-10470
▁gre	-10471
▁일반적인	-10472
▁표창	-10473
▁갈등이	-10474
▁나란히	-10475
▁최저임금	-10476
▁증언	-10477
▁ground	-10478
▁이십	-10479
계약을	-10480
들께	-10481
마의	-10482
▁개시	-10483
▁부정적인	-10484
overed	-10485
▁바뀐	-10486
▁중부	-10487
▁줄이고	-10488
▁심한	-10489
▁원격	-10490
▁skin	-10491
SNS	-10492
ules	-10493
ルの	-10494
▁얘기가	-10495
▁있느냐	-10496
県道	-10497
ird	-10498
▁63	-10499
다란	-10500
400	-10501
점이다	-10502
▁민주당이	-10503
▁변신	-10504
▁제공해	-10505
▁리모델링	-10506
ウス	-10507
▁having	-10508
▁지혜	-10509
▁클래식	-10510
병을	-10511
기사	-10512
▁겨우	-10513
▁맛있	-10514
ites	-10515
▁지역주민	-10516
테이너	-10517
▁조건을	-10518
▁무사	-10519
▁진학	-10520
▁규제를	-10521
▁아무래도	-10522
▁심장	-10523
えた	-10524
효율	-10525
▁똑같은	-10526
▁Acc	-10527
▁term	-10528
▁이후에도	-10529
▁인테	-10530
연합회	-10531
担当	-10532
▁130	-10533
▁가능할	-10534
▁구축을	-10535
▁듣는	-10536
라리	-10537
▁속에서도	-10538
IST	-10539
▁한창	-10540
可能	-10541
▁나서는	-10542
▁뛰어나	-10543
▁range	-10544
▁갈아	-10545
▁엔진	-10546
▁넘어서	-10547
위원회에	-10548
▁주민들은	-10549
ST	-10550
▁writing	-10551
▁三	-10552
워드	-10553
▁left	-10554
▁자율주행	-10555
iation	-10556
▁necess	-10557
트랙	-10558
▁데는	-10559
▁조항	-10560
▁바람직	-10561
▁word	-10562
アニ	-10563
▁소폭	-10564
자료를	-10565
▁눈물을	-10566
▁house	-10567
▁다름	-10568
ournal	-10569
~10	-10570
▁ens	-10571
▁유관	-10572
▁받아들여	-10573
청의	-10574
▁참사	-10575
▁My	-10576
사업이	-10577
였는데	-10578
AP	-10579
▁studies	-10580
と呼	-10581
▁tru	-10582
unt	-10583
▁공수	-10584
▁김치	-10585
▁조지	-10586
▁전국에서	-10587
색이	-10588
▁속도가	-10589
--------	-10590
모든	-10591
▁태어나	-10592
▁상한	-10593
utions	-10594
▁뛰어넘	-10595
制作	-10596
▁경비	-10597
▁red	-10598
osis	-10599
▁activity	-10600
▁배상	-10601
▁에코	-10602
ils	-10603
배상	-10604
우의	-10605
자다	-10606
차에	-10607
▁조합원	-10608
▁그렇습니다	-10609
산에	-10610
▁마르	-10611
▁무더	-10612
▁것들이	-10613
월한	-10614
▁저작	-10615
▁운영에	-10616
▁role	-10617
모임	-10618
▁건강을	-10619
RI	-10620
▁Des	-10621
스팅	-10622
곳이	-10623
았을	-10624
▁단백	-10625
なが	-10626
결제	-10627
▁북부	-10628
▁영향이	-10629
▁다해	-10630
▁확립	-10631
▁황금	-10632
▁Brit	-10633
바지	-10634
▁들여다	-10635
▁행사가	-10636
진단	-10637
年には	-10638
2015	-10639
▁기소된	-10640
▁협력해	-10641
학기	-10642
(17	-10643
▁경유	-10644
건설은	-10645
퍼런	-10646
▁급락	-10647
▁사각	-10648
▁했으나	-10649
▁answ	-10650
selves	-10651
미디	-10652
해외	-10653
▁만화	-10654
▁거절	-10655
▁와인	-10656
fact	-10657
▁논란을	-10658
정도	-10659
▁학과	-10660
▁분당	-10661
があり	-10662
▁기업인	-10663
보조	-10664
AC	-10665
海道	-10666
캐피	-10667
▁whether	-10668
▁문제의	-10669
▁Your	-10670
▁통산	-10671
▁fund	-10672
▁animals	-10673
▁궤	-10674
▁lower	-10675
▁72	-10676
▁drug	-10677
▁지진	-10678
▁집으로	-10679
▁surface	-10680
▁本	-10681
▁특혜	-10682
▁소재로	-10683
eb	-10684
일랜드	-10685
▁섹	-10686
주얼	-10687
▁호응을	-10688
ールド	-10689
거리는	-10690
urity	-10691
▁인센티브	-10692
▁quality	-10693
▁많지	-10694
▁종종	-10695
▁신속하게	-10696
▁exist	-10697
▁당원	-10698
▁정유	-10699
출을	-10700
▁오직	-10701
▁정례	-10702
▁추산	-10703
▁net	-10704
▁깎	-10705
自動	-10706
근무	-10707
닉스	-10708
▁가짜	-10709
▁already	-10710
▁허리	-10711
▁내년도	-10712
▁때보다	-10713
▁수치다	-10714
▁polit	-10715
▁끓	-10716
의가	-10717
▁마시	-10718
GB	-10719
▁국채	-10720
▁도중	-10721
▁방안도	-10722
▁account	-10723
▁남해	-10724
▁대부분이	-10725
▁below	-10726
▁물이	-10727
었다는	-10728
▁시간은	-10729
산업단지	-10730
▁팩	-10731
スペ	-10732
채권	-10733
ormal	-10734
erence	-10735
▁describ	-10736
シー	-10737
編曲	-10738
기업이	-10739
られている	-10740
수급	-10741
▁고유	-10742
▁스토리	-10743
RO	-10744
▁할아버	-10745
▁발주	-10746
▁본질	-10747
▁Pe	-10748
ump	-10749
light	-10750
▁수를	-10751
▁잇는	-10752
루를	-10753
▁말았다	-10754
▁설립된	-10755
51	-10756
▁관해	-10757
▁비트	-10758
ᄏᄏᄏ	-10759
▁거라고	-10760
▁스웨덴	-10761
현실	-10762
▁공중	-10763
▁century	-10764
▁보내는	-10765
▁못했던	-10766
▁이해할	-10767
▁지적도	-10768
일자	-10769
中央	-10770
보안	-10771
편을	-10772
▁들어선	-10773
▁균	-10774
티즌	-10775
:00	-10776
▁웰	-10777
、『	-10778
▁Pre	-10779
경의	-10780
월드컵	-10781
▁담았다	-10782
▁위에서	-10783
▁기업으로	-10784
지않	-10785
▁감정을	-10786
권도	-10787
enn	-10788
▁올해도	-10789
isc	-10790
▁미국에	-10791
▁삽	-10792
검토	-10793
선과	-10794
▁문화체육관광	-10795
取り	-10796
페이스	-10797
▁비용이	-10798
▁수술을	-10799
▁예정된	-10800
▁done	-10801
네트워크	-10802
▁하위	-10803
2017	-10804
シン	-10805
폭이	-10806
▁입점	-10807
▁늘어났다	-10808
지원금	-10809
oman	-10810
▁구조를	-10811
▁재판에	-10812
▁산업통상자원	-10813
▁감상	-10814
▁원작	-10815
그동안	-10816
심에서	-10817
▁recomm	-10818
매를	-10819
전지	-10820
▁67	-10821
▁자체를	-10822
▁이뤄지지	-10823
▁엿	-10824
년만에	-10825
▁ver	-10826
▁늘어나는	-10827
▁추정된다	-10828
▁필요성을	-10829
▁stress	-10830
英語	-10831
ety	-10832
▁업그	-10833
▁사랑의	-10834
▁전략적	-10835
▁향상을	-10836
▁핫	-10837
▁대목	-10838
▁요양	-10839
▁매출을	-10840
▁살아남	-10841
▁subject	-10842
공사가	-10843
ese	-10844
▁동북	-10845
▁예금	-10846
동은	-10847
▁본인의	-10848
▁나타나는	-10849
▁student	-10850
▁생성	-10851
ような	-10852
력발전	-10853
▁별다른	-10854
▁한계가	-10855
ーション	-10856
▁만기	-10857
▁배포	-10858
동조합	-10859
여름	-10860
▁선정해	-10861
▁플라스틱	-10862
방위	-10863
▁아트	-10864
▁개발해	-10865
3,	-10866
교를	-10867
▁la	-10868
▁직원이	-10869
▁building	-10870
▁제로	-10871
(30	-10872
형으로	-10873
▁Hist	-10874
▁비교하면	-10875
▁어렵다는	-10876
▁덴	-10877
icy	-10878
▁2%	-10879
▁줄일	-10880
▁협박	-10881
▁만났다	-10882
▁업체가	-10883
▁적어도	-10884
▁이념	-10885
sych	-10886
▁하락한	-10887
を見	-10888
설계	-10889
▁이사장은	-10890
▁global	-10891
▁어쨌든	-10892
▁중국과	-10893
법원	-10894
▁종이	-10895
ask	-10896
▁적합한	-10897
부대	-10898
▁부회장	-10899
▁상승세를	-10900
이면서	-10901
▁곳곳에	-10902
▁growth	-10903
소설	-10904
▁수성	-10905
cri	-10906
▁바람이	-10907
주주	-10908
▁contrib	-10909
▁동영상	-10910
▁차지하고	-10911
기한	-10912
폭행	-10913
▁미군	-10914
▁운영할	-10915
두에	-10916
▁현실을	-10917
▁materials	-10918
▁cy	-10919
▁진행해	-10920
▁모르겠다	-10921
▁체계를	-10922
▁김병	-10923
▁deg	-10924
▁결정할	-10925
▁산업의	-10926
-20	-10927
기만	-10928
▁3%	-10929
▁유의	-10930
▁점에	-10931
▁김광	-10932
▁연내	-10933
▁대출을	-10934
▁방문객	-10935
▁부르는	-10936
▁knowledge	-10937
KB	-10938
▁직면	-10939
▁eff	-10940
Th	-10941
▁실망	-10942
▁1986	-10943
▁‘2023	-10944
플러	-10945
▁나면	-10946
▁외교부	-10947
とき	-10948
노인	-10949
▁다니는	-10950
▁입지	-10951
▁cases	-10952
치면서	-10953
▁비판을	-10954
▁Su	-10955
물류	-10956
▁편의점	-10957
▁판매하는	-10958
▁according	-10959
▁공부를	-10960
▁一	-10961
▁fri	-10962
▁tell	-10963
augh	-10964
▁bat	-10965
▁seen	-10966
▁들은	-10967
▁세미나	-10968
▁수업을	-10969
んな	-10970
▁폭염	-10971
▁Dep	-10972
보상	-10973
▁정수	-10974
▁기간이	-10975
니는	-10976
▁과태	-10977
벤처기업	-10978
▁델	-10979
▁벌였다	-10980
▁태도를	-10981
▁achie	-10982
▁국가가	-10983
▁완벽한	-10984
▁대체로	-10985
りの	-10986
▁점심	-10987
▁플래	-10988
▁으	-10989
▁수혜	-10990
▁원인이	-10991
▁시나리오	-10992
주도	-10993
▁고수	-10994
▁생생	-10995
▁この	-10996
임에도	-10997
bo	-10998
▁래	-10999
토리	-11000
iam	-11001
▁개그	-11002
▁큐	-11003
남부	-11004
▁양자	-11005
年度	-11006
▁동행	-11007
마리	-11008
▁봐도	-11009
▁한계	-11010
▁세계적	-11011
▁위해선	-11012
れて	-11013
▁붙여	-11014
▁해결할	-11015
ibr	-11016
▁놓은	-11017
▁반영한	-11018
▁prim	-11019
▁•	-11020
▁겉	-11021
천만원	-11022
▁소위	-11023
▁경찰청	-11024
▁아들이	-11025
▁공정거래	-11026
▁생길	-11027
▁중장기	-11028
▁검찰의	-11029
▁올리는	-11030
개사	-11031
▁아이들	-11032
▁없으면	-11033
▁홈페이지를	-11034
비율	-11035
▁마산	-11036
▁목격	-11037
▁일치	-11038
EU	-11039
rams	-11040
▁달라고	-11041
▁벌어진	-11042
▁보내고	-11043
▁청취	-11044
▁출간	-11045
▁유치원	-11046
▁사실이다	-11047
▁입장에서는	-11048
▁ann	-11049
▁이름은	-11050
에스	-11051
▁독점	-11052
▁비싸	-11053
▁바라는	-11054
▁정책이	-11055
建築	-11056
urs	-11057
▁비판이	-11058
자산운용	-11059
▁스티	-11060
▁클린	-11061
リング	-11062
▁School	-11063
물가	-11064
사카	-11065
저우	-11066
▁DNA	-11067
▁国	-11068
▁마크	-11069
▁인근에	-11070
ening	-11071
물과	-11072
▁developed	-11073
ney	-11074
▁맛이	-11075
▁의원과	-11076
곳의	-11077
▁장식	-11078
▁평양	-11079
クラブ	-11080
▁나라의	-11081
▁수상했다	-11082
えて	-11083
학원	-11084
▁친박	-11085
▁새정치	-11086
▁관세	-11087
▁산책	-11088
▁탄탄	-11089
마케팅	-11090
▁자신들의	-11091
▁서울에서	-11092
▁생겼	-11093
▁힐링	-11094
なら	-11095
버린	-11096
▁이강	-11097
교수	-11098
취업	-11099
▁지불	-11100
되거나	-11101
▁노력하고	-11102
▁메이저리그	-11103
SS	-11104
▁공동체	-11105
▁방침을	-11106
NH	-11107
▁오지	-11108
▁요인	-11109
▁출동	-11110
▁게임을	-11111
담보	-11112
における	-11113
라크	-11114
제조	-11115
▁원이	-11116
으므로	-11117
▁저희가	-11118
▁강화하는	-11119
▁110	-11120
▁fat	-11121
▁일본은	-11122
▁그러므로	-11123
▁however	-11124
▁비싼	-11125
▁dog	-11126
▁전체를	-11127
▁거주하는	-11128
▁마이크로	-11129
없다	-11130
▁특례	-11131
▁명백	-11132
▁조회	-11133
았다는	-11134
関係	-11135
국장	-11136
차의	-11137
작은	-11138
▁맘	-11139
지니어	-11140
▁오스트	-11141
▁question	-11142
▁그중	-11143
▁간접	-11144
▁몰라	-11145
경영자	-11146
프를	-11147
▁받기	-11148
▁한데	-11149
▁발을	-11150
▁셋째	-11151
준표	-11152
▁서명	-11153
▁횡령	-11154
동구	-11155
▁その	-11156
▁상시	-11157
▁수확	-11158
▁되며	-11159
▁만났	-11160
▁하셨	-11161
ivity	-11162
▁소수	-11163
sh	-11164
미의	-11165
▁해안	-11166
▁1985	-11167
▁circ	-11168
▁자신에게	-11169
▁opportun	-11170
▁다룬	-11171
▁자칫	-11172
▁II	-11173
▁flu	-11174
▁맞대	-11175
▁이르면	-11176
▁압수수색	-11177
▁차트	-11178
▁article	-11179
登場	-11180
▁당황	-11181
▁촛불	-11182
▁부드러	-11183
▁합리적인	-11184
利用	-11185
광고	-11186
▁못하게	-11187
▁fall	-11188
▁세무	-11189
政治	-11190
600	-11191
▁속으로	-11192
즈가	-11193
rad	-11194
사령	-11195
▁가려	-11196
▁집안	-11197
▁함유	-11198
▁South	-11199
▁black	-11200
▁비전	-11201
▁한달	-11202
▁경제가	-11203
▁비디오	-11204
▁대표이사	-11205
▁쓰지	-11206
공제	-11207
▁지내	-11208
▁토로	-11209
되는데	-11210
for	-11211
대회를	-11212
ification	-11213
PL	-11214
▁톡	-11215
▁반환	-11216
▁밴드	-11217
이트를	-11218
rect	-11219
▁상태가	-11220
位置	-11221
서구	-11222
▁어렵게	-11223
▁해결을	-11224
▁consider	-11225
▁견인	-11226
▁6000	-11227
▁규정하고	-11228
▁수면	-11229
▁일일	-11230
렸을	-11231
▁무렵	-11232
ピック	-11233
▁대회를	-11234
▁농림	-11235
▁돼야	-11236
▁기준이	-11237
▁구역	-11238
▁내년부터	-11239
▁detail	-11240
▁Act	-11241
고속	-11242
▁로맨	-11243
▁아메	-11244
개정	-11245
▁fr	-11246
▁강도	-11247
iple	-11248
▁아무것도	-11249
▁Soc	-11250
▁선보이는	-11251
▁issues	-11252
▁source	-11253
언더	-11254
자고	-11255
▁숨진	-11256
현이	-11257
▁관중	-11258
▁사업자	-11259
IG	-11260
종은	-11261
acc	-11262
경찰서	-11263
▁싶었다	-11264
▁평가다	-11265
▁하거나	-11266
성군	-11267
▁검거	-11268
▁라고	-11269
러스터	-11270
▁관점에서	-11271
양이	-11272
반기에	-11273
▁업무협약	-11274
▁샘	-11275
▁도출	-11276
▁맞춘	-11277
▁사업비	-11278
▁close	-11279
체제	-11280
▁닦	-11281
급을	-11282
▁적어	-11283
▁협상을	-11284
▁그다음에	-11285
▁들어와	-11286
▁situ	-11287
▁프리미어	-11288
▁당국	-11289
전력	-11290
▁교육부	-11291
▁뒤늦게	-11292
▁Qu	-11293
▁감지	-11294
▁북구	-11295
친구	-11296
십시오	-11297
▁전국의	-11298
▁engine	-11299
▁마법	-11300
▁실시했다	-11301
ibility	-11302
하에	-11303
▁몰랐	-11304
▁엘리	-11305
▁없어요	-11306
▁들을	-11307
▁리얼	-11308
▁전액	-11309
▁시즌을	-11310
▁사립	-11311
▁잠실	-11312
▁선수들의	-11313
▁박성	-11314
▁추진을	-11315
▁불을	-11316
▁열릴	-11317
▁원에	-11318
▁책은	-11319
▁사용하고	-11320
▁feature	-11321
OV	-11322
▁캠핑	-11323
▁스트레스	-11324
▁노트	-11325
▁자존	-11326
▁오르는	-11327
▁돌봄	-11328
▁doct	-11329
▁모의	-11330
▁생산하는	-11331
우며	-11332
▁본선	-11333
▁제이	-11334
▁중국에	-11335
▁질의	-11336
▁마침내	-11337
▁North	-11338
해가	-11339
▁인민	-11340
들고	-11341
▁자식	-11342
▁exerc	-11343
▁62	-11344
▁보좌	-11345
▁입사	-11346
▁에이스	-11347
▁공동주택	-11348
막을	-11349
▁손가락	-11350
▁차이를	-11351
▁영업이익은	-11352
▁합작	-11353
령이	-11354
▁날이	-11355
▁cut	-11356
▁America	-11357
하기를	-11358
▁Part	-11359
▁value	-11360
▁한진	-11361
▁프로젝트를	-11362
▁production	-11363
スク	-11364
istic	-11365
▁현대자동차	-11366
▁하향	-11367
▁늘어나고	-11368
▁당뇨	-11369
경기도	-11370
▁pressure	-11371
▁켜	-11372
▁남구	-11373
FT	-11374
트롤	-11375
に移	-11376
하느냐	-11377
▁예산이	-11378
▁Aust	-11379
~7	-11380
▁미친	-11381
▁이끌고	-11382
슈퍼	-11383
▁돼요	-11384
▁소음	-11385
協会	-11386
데스	-11387
▁답답	-11388
▁보강	-11389
▁particip	-11390
(?)	-11391
▁산학	-11392
▁체납	-11393
2016	-11394
▁밀집	-11395
時に	-11396
都市	-11397
조로	-11398
▁본래	-11399
▁살짝	-11400
▁한국어	-11401
AN	-11402
외교	-11403
▁분할	-11404
하여야	-11405
▁나이가	-11406
편이	-11407
▁연동	-11408
▁돌아오	-11409
▁green	-11410
판이	-11411
피를	-11412
▁재단	-11413
된다면	-11414
▁올해부터	-11415
▁아픔	-11416
▁실적이	-11417
▁이어갔다	-11418
▁further	-11419
▁이병	-11420
등을	-11421
▁테크	-11422
reme	-11423
▁근거로	-11424
▁self	-11425
▁재벌	-11426
artment	-11427
▁놀이	-11428
▁확보한	-11429
itute	-11430
クター	-11431
▁선택을	-11432
▁직원들이	-11433
▁recogn	-11434
いい	-11435
▁하니	-11436
▁바르	-11437
▁물건을	-11438
合衆国の	-11439
▁pred	-11440
▁concer	-11441
初の	-11442
▁중증	-11443
▁simple	-11444
▁소련	-11445
ency	-11446
사장	-11447
출산	-11448
▁설치해	-11449
▁이밖에	-11450
▁있는가	-11451
inter	-11452
▁방탄	-11453
▁국회에	-11454
▁선택할	-11455
cial	-11456
▁둘러싸	-11457
▁투자가	-11458
▁published	-11459
▁족	-11460
ule	-11461
▁의지	-11462
시간이	-11463
▁판단을	-11464
▁あ	-11465
及び	-11466
클래	-11467
음식	-11468
▁아이들의	-11469
▁reason	-11470
▁부합	-11471
▁적자	-11472
▁회수	-11473
▁잃은	-11474
▁오른쪽	-11475
▁올리고	-11476
▁엇갈	-11477
▁분석해	-11478
모가	-11479
▁꼬집	-11480
▁인건	-11481
▁박영	-11482
▁Research	-11483
ison	-11484
▁general	-11485
곡을	-11486
uel	-11487
▁신라	-11488
▁액션	-11489
▁권리를	-11490
▁가능하며	-11491
▁잠정	-11492
▁정한	-11493
▁스크린	-11494
wards	-11495
▁market	-11496
ications	-11497
▁위생	-11498
▁의류	-11499
▁이지	-11500
동원	-11501
나라는	-11502
하시는	-11503
▁횟	-11504
겠죠	-11505
▁UN	-11506
▁고스	-11507
▁청렴	-11508
▁25%	-11509
▁그렇다	-11510
▁event	-11511
년생	-11512
진료	-11513
▁약속을	-11514
▁그림을	-11515
▁68	-11516
되었으며	-11517
▁More	-11518
エル	-11519
하늘	-11520
▁개장	-11521
▁손으로	-11522
▁연기를	-11523
▁운전자	-11524
▁인스타	-11525
▁회사를	-11526
본부장은	-11527
▁드리	-11528
▁죄송	-11529
▁Many	-11530
널드	-11531
▁과정이	-11532
▁지키는	-11533
데믹	-11534
▁tv	-11535
대회에서	-11536
▁지역으로	-11537
▁collect	-11538
▁순수	-11539
▁후에는	-11540
▁York	-11541
직자	-11542
▁고등	-11543
진흥원	-11544
▁국내에	-11545
▁급격히	-11546
)4	-11547
통제	-11548
eter	-11549
▁커다란	-11550
▁once	-11551
▁거다	-11552
▁그렇지만	-11553
▁팬들의	-11554
▁물품	-11555
▁뽑아	-11556
Wh	-11557
▁송파	-11558
▁몬스터	-11559
▁송도	-11560
▁혈액	-11561
現在の	-11562
▁작품은	-11563
▁프로야구	-11564
▁컵	-11565
게는	-11566
유로	-11567
전문가	-11568
▁충격을	-11569
▁상관없이	-11570
▁제기됐다	-11571
창조	-11572
어지고	-11573
▁범위를	-11574
▁최악의	-11575
▁사람과	-11576
▁확인한	-11577
실적	-11578
ublic	-11579
ロン	-11580
왕의	-11581
위원회에서	-11582
▁relations	-11583
大き	-11584
▁장악	-11585
▁법을	-11586
▁became	-11587
스쿨	-11588
▁걸고	-11589
▁성공적인	-11590
▁address	-11591
-7	-11592
fer	-11593
SI	-11594
보았다	-11595
▁예상했다	-11596
▁영혼	-11597
▁지원사업	-11598
競技	-11599
▁불리	-11600
살이	-11601
▁Science	-11602
▁좋고	-11603
▁인력을	-11604
str	-11605
▁논문	-11606
▁마땅	-11607
▁차질	-11608
▁five	-11609
기관이	-11610
▁국민의당	-11611
▁influ	-11612
▁짝	-11613
2012	-11614
▁규칙	-11615
ラジオ	-11616
▁の	-11617
동과	-11618
플랜	-11619
(14	-11620
▁15%	-11621
▁1984	-11622
미니	-11623
▁사흘	-11624
▁상하이	-11625
ounds	-11626
なお	-11627
iol	-11628
▁측에	-11629
▁포털	-11630
▁당국은	-11631
▁유리한	-11632
▁일으키	-11633
▁69	-11634
▁일원	-11635
▁누릴	-11636
플랫폼	-11637
▁adult	-11638
비디오	-11639
▁gas	-11640
▁ability	-11641
▁actually	-11642
▁May	-11643
▁디자이너	-11644
▁반대하는	-11645
▁상속	-11646
▁앞당	-11647
▁이대	-11648
▁자립	-11649
▁치유	-11650
▁금리를	-11651
▁출신인	-11652
▁포함됐다	-11653
▁굿	-11654
▁기존에	-11655
▁coll	-11656
닷컴	-11657
▁77	-11658
실장은	-11659
▁white	-11660
▁푸른	-11661
▁사회를	-11662
▁rate	-11663
▁어두	-11664
▁남겼다	-11665
▁막대한	-11666
▁개최한다	-11667
경에	-11668
▁우리에게	-11669
▁몇몇	-11670
▁진실	-11671
▁meet	-11672
▁릴	-11673
풀이	-11674
▁거리를	-11675
▁이용자	-11676
▁선착	-11677
▁모르고	-11678
▁understanding	-11679
업계에	-11680
▁부정적	-11681
▁탄소중립	-11682
하의	-11683
rict	-11684
과정에서	-11685
라운	-11686
▁카드를	-11687
▁넣고	-11688
▁시티	-11689
▁커질	-11690
환경을	-11691
냐고	-11692
▁거둔	-11693
▁부착	-11694
추행	-11695
피소	-11696
▁부모님	-11697
▁아끼지	-11698
▁엄마가	-11699
▁diet	-11700
협정	-11701
▁시기를	-11702
▁실력을	-11703
▁우리나라의	-11704
AA	-11705
표준	-11706
품질	-11707
▁field	-11708
▁록	-11709
금속	-11710
LED	-11711
▁1950	-11712
▁comes	-11713
설명	-11714
edi	-11715
デル	-11716
▁힘들다	-11717
소시엄	-11718
▁선전	-11719
▁Germ	-11720
ged	-11721
▁오늘은	-11722
▁초등학생	-11723
▁결심	-11724
▁중립	-11725
▁없는데	-11726
フランス	-11727
프는	-11728
▁해설	-11729
▁생기는	-11730
▁주문했다	-11731
브리드	-11732
▁시인	-11733
▁created	-11734
▁생각은	-11735
▁원인을	-11736
▁국민들이	-11737
국회	-11738
협상	-11739
▁안고	-11740
▁지리	-11741
▁마련할	-11742
▁복잡한	-11743
▁준비했다	-11744
▁고조	-11745
하기가	-11746
▁불편을	-11747
▁sent	-11748
챌린	-11749
▁성공을	-11750
▁生	-11751
세와	-11752
aging	-11753
▁준비하는	-11754
(,	-11755
▁숭	-11756
▁고생	-11757
▁무력	-11758
▁진지	-11759
からの	-11760
▁abs	-11761
▁그렇죠	-11762
▁당신이	-11763
▁구성됐다	-11764
▁introdu	-11765
다이	-11766
▁즐기	-11767
▁App	-11768
▁weight	-11769
▁담배	-11770
▁반응이	-11771
▁연세대	-11772
▁fish	-11773
▁먹어	-11774
▁오고	-11775
▁핸드	-11776
▁수험생	-11777
리포니아	-11778
▁online	-11779
▁훔	-11780
▁‘1	-11781
▁업계에	-11782
▁인천공항	-11783
ネル	-11784
▁승강	-11785
▁size	-11786
そう	-11787
(25	-11788
!”	-11789
▁일각에서는	-11790
▁성사	-11791
▁수차례	-11792
▁판매를	-11793
▁mass	-11794
블록	-11795
▁물론이고	-11796
年代	-11797
스런	-11798
▁웃음	-11799
▁치고	-11800
▁하시	-11801
▁계획이	-11802
▁이었다	-11803
ECD	-11804
▁다리	-11805
▁측의	-11806
▁위원장이	-11807
▁프로그램은	-11808
▁행태	-11809
▁sun	-11810
▁의하면	-11811
▁처음에는	-11812
군수	-11813
나눔	-11814
▁미흡	-11815
▁실용	-11816
2014	-11817
▁love	-11818
▁Fl	-11819
▁여건	-11820
ネット	-11821
▁총리가	-11822
차적으로	-11823
▁reading	-11824
Ch	-11825
지하	-11826
▁기다리고	-11827
▁quick	-11828
GM	-11829
취를	-11830
どう	-11831
나고	-11832
▁박물관	-11833
▁ge	-11834
▁김수	-11835
▁신재생	-11836
▁처음부터	-11837
▁부패	-11838
시설이	-11839
raft	-11840
icial	-11841
석에	-11842
저히	-11843
의약품	-11844
▁곰	-11845
측이	-11846
▁공장을	-11847
▁반박했다	-11848
モン	-11849
금리를	-11850
▁간담회	-11851
▁휴식	-11852
▁요구하고	-11853
▁정보통신	-11854
▁중국에서	-11855
aim	-11856
▁맺고	-11857
▁인명	-11858
▁국민을	-11859
▁single	-11860
금액	-11861
ges	-11862
▁조종	-11863
ideo	-11864
▁갖는다	-11865
▁캔	-11866
▁깨달	-11867
전자는	-11868
▁이례	-11869
いない	-11870
▁모으고	-11871
▁유지할	-11872
하였으며	-11873
▁기운	-11874
▁상처를	-11875
▁앞세워	-11876
ze	-11877
▁분석을	-11878
▁성명을	-11879
パン	-11880
▁배가	-11881
립니다	-11882
▁소속사	-11883
톨릭	-11884
▁걸로	-11885
▁억울	-11886
▁국정원	-11887
▁지역구	-11888
▁아버지가	-11889
▁model	-11890
▁groups	-11891
自分	-11892
rel	-11893
▁Gl	-11894
▁마찬가지다	-11895
겨진	-11896
위원장이	-11897
▁employ	-11898
▁남긴	-11899
▁찍은	-11900
▁기분이	-11901
▁세계에	-11902
ヴェ	-11903
풍을	-11904
▁나간	-11905
▁더블	-11906
▁정상화	-11907
▁학생들에게	-11908
▁성립	-11909
축산	-11910
▁맞았다	-11911
▁업무협약을	-11912
사무소	-11913
▁안전하게	-11914
▁경로	-11915
▁났	-11916
▁붙어	-11917
▁일본에서	-11918
きた	-11919
▁보아	-11920
ポーツ	-11921
▁歴史	-11922
▁규모다	-11923
뤘다	-11924
▁끝으로	-11925
▁이내에	-11926
▁측근	-11927
▁주가는	-11928
디스플레이	-11929
urb	-11930
▁높고	-11931
▁city	-11932
크는	-11933
▁인턴	-11934
자문	-11935
그룹이	-11936
▁피아노	-11937
▁wide	-11938
▁CD	-11939
▁골드	-11940
▁의문	-11941
gest	-11942
▁140	-11943
▁oil	-11944
▁혁신을	-11945
용이	-11946
▁Pol	-11947
▁prob	-11948
▁낚	-11949
▁먹거리	-11950
▁사무총	-11951
▁living	-11952
▁webs	-11953
▁드림	-11954
▁통행	-11955
lt	-11956
타는	-11957
▁주류	-11958
러시아	-11959
▁북한에	-11960
기소	-11961
▁흙	-11962
▁computer	-11963
▁condition	-11964
▁재료	-11965
▁기억이	-11966
▁시켜	-11967
용은	-11968
▁네티즌	-11969
▁중요성을	-11970
▁style	-11971
▁공영	-11972
홀에서	-11973
▁기자들과	-11974
▁아이디어를	-11975
▁진화	-11976
▁다각	-11977
▁스키	-11978
▁조리	-11979
like	-11980
▁기본적인	-11981
인치	-11982
▁났다	-11983
▁속의	-11984
▁침묵	-11985
年没	-11986
월말	-11987
추어	-11988
▁해마다	-11989
고교	-11990
구청장	-11991
▁자유한국당	-11992
원전	-11993
▁sal	-11994
▁선수는	-11995
▁John	-11996
▁눈앞	-11997
▁추구하는	-11998
솔루션	-11999
레이시아	-12000
▁들면	-12001
▁매진	-12002
▁중에서도	-12003
가야	-12004
▁반성	-12005
본부장	-12006
▁플로	-12007
▁나라를	-12008
▁유전자	-12009
▁estab	-12010
일리	-12011
▁저하	-12012
もある	-12013
궐선거	-12014
에게서	-12015
▁강화할	-12016
▁학교에서	-12017
▁61	-12018
apt	-12019
emic	-12020
▁조치가	-12021
されていた	-12022
▁정도는	-12023
▁생각하면	-12024
▁5.	-12025
▁수거	-12026
▁음료	-12027
차이즈	-12028
(13	-12029
▁과목	-12030
▁한참	-12031
▁금메달을	-12032
ッチ	-12033
▁최상	-12034
▁avoid	-12035
야마	-12036
▁신장	-12037
버리	-12038
재료	-12039
▁스코	-12040
▁tradition	-12041
▁고전	-12042
▁도시재생	-12043
처는	-12044
▁유예	-12045
▁이슬람	-12046
▁clean	-12047
들인	-12048
수도권	-12049
▁세계의	-12050
▁연준	-12051
ster	-12052
▁있으므로	-12053
▁장관의	-12054
▁증가하는	-12055
fficient	-12056
보지	-12057
▁살아가는	-12058
더스	-12059
▁낙동강	-12060
▁인간이	-12061
▁패키지	-12062
▁활동이	-12063
▁두드러	-12064
▁세금을	-12065
▁미래에셋	-12066
col	-12067
▁기증	-12068
カップ	-12069
▁설명을	-12070
▁민주노총	-12071
▁아이들을	-12072
티드	-12073
▁키우는	-12074
도심	-12075
▁못하면	-12076
リンピック	-12077
変更	-12078
타이	-12079
▁기도	-12080
▁규정을	-12081
▁받으며	-12082
▁국민연금	-12083
둘러	-12084
았습니다	-12085
▁money	-12086
실점	-12087
▁논의했다	-12088
▁attack	-12089
치면	-12090
▁신청할	-12091
▁학교를	-12092
▁마사	-12093
▁우대	-12094
폴리오	-12095
▁모델로	-12096
감도	-12097
oT	-12098
▁생각할	-12099
▁샀	-12100
▁안다	-12101
▁출장	-12102
▁되었	-12103
▁벌인	-12104
▁야생	-12105
▁아닐까	-12106
▁concept	-12107
クロ	-12108
oph	-12109
▁나쁘	-12110
▁위법	-12111
키스탄	-12112
ores	-12113
▁마련된	-12114
▁치료제	-12115
▁결론을	-12116
▁기대감을	-12117
▁방위	-12118
うち	-12119
보에	-12120
▁의지가	-12121
中国	-12122
고자	-12123
▁화합	-12124
로서는	-12125
▁언급한	-12126
wh	-12127
2013	-12128
▁다를	-12129
▁사항을	-12130
▁지주	-12131
▁긍정적	-12132
▁즐거운	-12133
▁활용하는	-12134
UN	-12135
포구	-12136
▁유대	-12137
원자	-12138
▁사찰	-12139
▁조세	-12140
▁cat	-12141
▁타격을	-12142
위인	-12143
▁중기	-12144
▁연상	-12145
▁포지	-12146
▁color	-12147
▁안정적으로	-12148
표가	-12149
▁뷰티	-12150
▁읽어	-12151
▁후보자는	-12152
バイ	-12153
▁160	-12154
▁줄이는	-12155
▁Here	-12156
▁구성원	-12157
▁고구	-12158
베이션	-12159
과거	-12160
방에서	-12161
▁수시로	-12162
▁하다가	-12163
▁밀접	-12164
▁실력	-12165
였으며	-12166
통합당	-12167
.3%)	-12168
▁승인을	-12169
▁인사청문	-12170
▁experien	-12171
강화	-12172
▁여가	-12173
감으로	-12174
▁안타깝	-12175
iction	-12176
▁needed	-12177
.5%)	-12178
▁확실한	-12179
▁State	-12180
석유	-12181
mb	-12182
치와	-12183
▁재현	-12184
▁생겼다	-12185
▁주유	-12186
aily	-12187
▁parents	-12188
▁이사장	-12189
케미	-12190
▁선거에서	-12191
▁Per	-12192
▁비리	-12193
▁재고	-12194
▁Rep	-12195
▁경향이	-12196
▁나에게	-12197
。200	-12198
▁소식이	-12199
▁stat	-12200
▁그야말로	-12201
▁가족과	-12202
ミュージ	-12203
▁고용노동	-12204
▁부회장은	-12205
mar	-12206
▁조국	-12207
▁파악하고	-12208
ned	-12209
▁위의	-12210
▁지능	-12211
언더파	-12212
▁그녀가	-12213
베르	-12214
▁영토	-12215
▁강남구	-12216
▁제기한	-12217
예정	-12218
▁구리	-12219
▁그와	-12220
▁신동	-12221
▁제품이	-12222
▁물건	-12223
▁테슬	-12224
▁rather	-12225
▁상주	-12226
▁신고를	-12227
▁이용객	-12228
▁either	-12229
▁제어	-12230
▁보고서를	-12231
roll	-12232
▁사용자	-12233
▁ト	-12234
▁터키	-12235
▁트리	-12236
프리카	-12237
▁확보해	-12238
▁조사에서	-12239
▁74	-12240
▁화상	-12241
▁박차를	-12242
irl	-12243
▁조사에	-12244
온은	-12245
デビュー	-12246
▁끄	-12247
総合	-12248
과제	-12249
풍이	-12250
▁지사	-12251
oles	-12252
icles	-12253
▁hold	-12254
▁아카데미	-12255
▁빛을	-12256
▁job	-12257
▁신혼	-12258
▁추세	-12259
▁곳곳에서	-12260
▁연결하는	-12261
▁scientists	-12262
▁김모	-12263
▁멋진	-12264
▁거리가	-12265
▁safe	-12266
·4	-12267
진보	-12268
▁판결을	-12269
▁합성	-12270
▁1·2	-12271
중소기업	-12272
▁Most	-12273
▁parts	-12274
▁무효	-12275
erve	-12276
▁활약을	-12277
쾌한	-12278
▁즐겨	-12279
▁군산	-12280
...)	-12281
▁줬	-12282
▁급식	-12283
랜차이즈	-12284
▁whole	-12285
▁지은	-12286
▁특강	-12287
▁면에서	-12288
▁휴대전화	-12289
▁Of	-12290
▁스프	-12291
기관에	-12292
▁lay	-12293
▁서버	-12294
▁연일	-12295
시의회	-12296
▁합의를	-12297
タル	-12298
▁국어	-12299
したが	-12300
했는지	-12301
▁것들을	-12302
▁문제와	-12303
▁안으로	-12304
▁괴롭	-12305
▁중독	-12306
▁의하여	-12307
▁치명	-12308
욕을	-12309
▁트랙	-12310
pro	-12311
▁치킨	-12312
▁수습	-12313
▁idea	-12314
반을	-12315
▁taken	-12316
▁地	-12317
▁짙	-12318
파가	-12319
▁상인	-12320
▁종전	-12321
▁운영해	-12322
▁활발한	-12323
▁공간으로	-12324
▁온실가스	-12325
▁인플레이션	-12326
▁months	-12327
주군	-12328
▁중계	-12329
▁대표적	-12330
▁출마를	-12331
지상	-12332
▁분열	-12333
▁이의	-12334
span	-12335
▁불만을	-12336
▁soil	-12337
ervation	-12338
▁수사에	-12339
▁직장인	-12340
팀의	-12341
관계가	-12342
▁알렸다	-12343
▁건강보험	-12344
▁메가	-12345
▁와이	-12346
▁꼽히는	-12347
▁민주당의	-12348
▁indic	-12349
▁중개	-12350
받는다	-12351
▁경우에도	-12352
▁섬유	-12353
ensive	-12354
▁produce	-12355
▁represent	-12356
생물	-12357
수술	-12358
▁pay	-12359
▁고시	-12360
▁집중적으로	-12361
조한	-12362
ober	-12363
▁여부에	-12364
anced	-12365
▁있었습니다	-12366
▁주체	-12367
▁비타민	-12368
▁평범한	-12369
▁chemical	-12370
▁알렉	-12371
▁재차	-12372
すると	-12373
되지만	-12374
▁hab	-12375
▁느끼고	-12376
▁나타나고	-12377
We	-12378
좋은	-12379
파의	-12380
▁최근에	-12381
내지	-12382
친화	-12383
▁알리고	-12384
▁인구가	-12385
▁빠졌다	-12386
▁이것을	-12387
▁통하여	-12388
▁확산을	-12389
▁기록하고	-12390
選挙	-12391
▁만만	-12392
렸지만	-12393
▁여섯	-12394
▁정성	-12395
▁병원에	-12396
화되고	-12397
ころ	-12398
내년	-12399
▁사모	-12400
우리가	-12401
▁포함돼	-12402
▁국민들의	-12403
▁혁명	-12404
▁doc	-12405
▁업그레이드	-12406
대장	-12407
▁형식	-12408
타이어	-12409
▁3~4	-12410
▁사장이	-12411
▁참여하고	-12412
▁neg	-12413
▁일본이	-12414
▁고문	-12415
▁소집	-12416
▁초등	-12417
이미	-12418
크론	-12419
어지는	-12420
ming	-12421
▁깃	-12422
▁복구	-12423
▁등장한	-12424
▁선정했다	-12425
記念	-12426
천원	-12427
▁자부	-12428
▁발표할	-12429
▁management	-12430
ボー	-12431
▁밝은	-12432
▁기본적으로	-12433
デー	-12434
훈은	-12435
メント	-12436
례를	-12437
▁있죠	-12438
▁거기서	-12439
▁스페셜	-12440
astic	-12441
▁ever	-12442
▁극장	-12443
▁눈빛	-12444
▁보낼	-12445
태평양	-12446
▁하나를	-12447
▁고스란히	-12448
▁associated	-12449
퇴근	-12450
▁웹툰	-12451
▁stop	-12452
▁때의	-12453
▁없었	-12454
중이다	-12455
▁브랜드를	-12456
GA	-12457
▁만이다	-12458
▁※	-12459
意味	-12460
자책	-12461
▁동작	-12462
▁유가족	-12463
▁폴란드	-12464
밸리	-12465
val	-12466
▁않았다는	-12467
ued	-12468
▁거지	-12469
▁현직	-12470
▁코미디	-12471
▁넷플	-12472
▁이듬	-12473
▁부문에서	-12474
▁컨테이너	-12475
▁이송	-12476
▁보조금	-12477
▁7000	-12478
수업	-12479
했었다	-12480
▁link	-12481
▁provides	-12482
▁갑작	-12483
▁Int	-12484
▁들어갔	-12485
격이	-12486
2011	-12487
▁상담을	-12488
▁analysis	-12489
무는	-12490
▁기름	-12491
▁lab	-12492
분과	-12493
▁눌	-12494
▁교섭	-12495
時代の	-12496
ケット	-12497
▁메이크	-12498
▁자료에	-12499
정보통신	-12500
▁거제	-12501
▁봉쇄	-12502
▁일제히	-12503
연구원은	-12504
▁활성화에	-12505
技術	-12506
▁줘	-12507
별한	-12508
~30	-12509
권으로	-12510
지역에서	-12511
시장과	-12512
lying	-12513
▁easy	-12514
▁nature	-12515
▁ロ	-12516
▁국무총리	-12517
ground	-12518
안군	-12519
▁산정	-12520
▁자는	-12521
▁지분을	-12522
▁제기했다	-12523
▁이르기까지	-12524
▁다할	-12525
▁만성	-12526
▁벗어	-12527
▁형제	-12528
▁이집	-12529
▁한양	-12530
자들과	-12531
▁대응할	-12532
년여	-12533
▁발탁	-12534
▁하남	-12535
▁발생하지	-12536
▁아이들은	-12537
▁위성	-12538
▁말하고	-12539
▁vers	-12540
▁달성했다	-12541
となっている	-12542
通り	-12543
▁알지	-12544
.7%)	-12545
▁히로	-12546
.6%)	-12547
▁사무실	-12548
▁신용카드	-12549
▁시작하는	-12550
ym	-12551
▁역할이	-12552
▁rele	-12553
▁휠	-12554
프가	-12555
▁골든	-12556
▁잡는	-12557
▁성폭력	-12558
▁친구가	-12559
▁판매한다	-12560
터는	-12561
▁유니폼	-12562
▁init	-12563
▁자신감을	-12564
▁저축은행	-12565
の名	-12566
상환	-12567
▁서식	-12568
▁전지	-12569
▁practice	-12570
-8	-12571
부족	-12572
피고	-12573
▁커플	-12574
▁1982	-12575
▁national	-12576
드림	-12577
▁관절	-12578
▁출국	-12579
ジャー	-12580
▁테이블	-12581
▁투자하는	-12582
▁포괄	-12583
문화를	-12584
▁마련하고	-12585
▁Par	-12586
▁기반의	-12587
▁원칙을	-12588
익을	-12589
▁76	-12590
▁부근	-12591
▁오세	-12592
▁독일의	-12593
▁뽐	-12594
강원	-12595
▁미드	-12596
▁음원	-12597
▁노하우를	-12598
▁―	-12599
폰을	-12600
▁지수	-12601
란을	-12602
▁주연	-12603
▁중시	-12604
▁체력	-12605
order	-12606
▁사고로	-12607
▁연계한	-12608
시스템을	-12609
▁바닷	-12610
▁장수	-12611
년으로	-12612
▁모양새	-12613
▁이듬해	-12614
향후	-12615
▁공주	-12616
▁확신	-12617
||||	-12618
▁수령	-12619
▁아기	-12620
▁특성상	-12621
▁무엇인가	-12622
▁방식이다	-12623
▁당의	-12624
▁한쪽	-12625
▁사업장	-12626
▁아나운	-12627
OD	-12628
스레	-12629
▁나타났	-12630
▁더욱이	-12631
▁후보와	-12632
▁soft	-12633
▁띠	-12634
발표	-12635
▁당당	-12636
▁내보	-12637
스리그	-12638
▁광화문	-12639
▁맞아요	-12640
▁필요로	-12641
MI	-12642
로봇	-12643
리안	-12644
CEO	-12645
▁크기	-12646
정부는	-12647
▁동서	-12648
정보를	-12649
▁kids	-12650
▁고민을	-12651
▁비례대표	-12652
▁늦게	-12653
▁불이	-12654
▁사태를	-12655
▁repl	-12656
▁프로그램이	-12657
)(	-12658
계좌	-12659
▁담당하는	-12660
と共	-12661
▁과시	-12662
▁캘리포니아	-12663
▁혁	-12664
▁프린	-12665
.4%)	-12666
▁잭	-12667
려서	-12668
▁보냈	-12669
▁간담회를	-12670
구성	-12671
롭고	-12672
무기	-12673
▁권한을	-12674
▁위촉	-12675
▁subst	-12676
▁내릴	-12677
믹스	-12678
▁무용	-12679
アニメ	-12680
기관과	-12681
▁학생들을	-12682
を経	-12683
以上	-12684
▁GM	-12685
▁Us	-12686
▁factors	-12687
▁감수	-12688
한국시간	-12689
심과	-12690
컨대	-12691
▁시원	-12692
▁기사를	-12693
▁sleep	-12694
이재	-12695
▁check	-12696
▁없으며	-12697
▁모른	-12698
▁서양	-12699
▁이동통신	-12700
택시	-12701
▁Ke	-12702
▁땅을	-12703
▁시작할	-12704
▁예방을	-12705
ともに	-12706
박근혜	-12707
터미널	-12708
テー	-12709
우를	-12710
▁hours	-12711
▁전국적으로	-12712
연패	-12713
음은	-12714
인민	-12715
▁원장	-12716
▁있다며	-12717
민주주의	-12718
▁차지한	-12719
위원장을	-12720
▁경제의	-12721
▁고려하면	-12722
▁육박	-12723
▁각자	-12724
▁위험을	-12725
▁長	-12726
겨울	-12727
▁게이	-12728
▁바꿀	-12729
▁찾지	-12730
센터가	-12731
▁시행령	-12732
ene	-12733
▁안정을	-12734
▁줄이기	-12735
▁지정된	-12736
▁8000	-12737
製作	-12738
▁김선	-12739
▁역을	-12740
▁4,	-12741
▁모인	-12742
▁원주	-12743
동에서	-12744
ivil	-12745
▁인증을	-12746
▁talk	-12747
▁구축해	-12748
▁준비한	-12749
以降	-12750
우수	-12751
ホーム	-12752
▁관리하는	-12753
▁react	-12754
시각	-12755
일러	-12756
▁따져	-12757
▁spread	-12758
토지	-12759
▁항만	-12760
기에는	-12761
분으로	-12762
urch	-12763
▁말씀드	-12764
▁출신으로	-12765
▁선진국	-12766
▁프로듀	-12767
▁이후에는	-12768
▁73	-12769
▁방한	-12770
▁보게	-12771
▁온갖	-12772
▁차관	-12773
ened	-12774
▁펼쳐진다	-12775
겠지	-12776
설비	-12777
▁확보할	-12778
に関する	-12779
▁사드	-12780
▁인원	-12781
▁입건	-12782
디움	-12783
이도	-12784
▁수천	-12785
▁lives	-12786
▁histor	-12787
▁입력	-12788
▁선행	-12789
▁이메	-12790
▁선거를	-12791
▁다양하게	-12792
우승	-12793
▁깨닫	-12794
▁이어갈	-12795
▁커졌다	-12796
변호	-12797
▁중의	-12798
였습니다	-12799
▁호소했다	-12800
▁출시한	-12801
▁시너지	-12802
▁의약품	-12803
▁녀	-12804
ME	-12805
▁폭넓	-12806
▁wild	-12807
▁않습니까	-12808
▁예정이며	-12809
값이	-12810
터가	-12811
▁비로	-12812
▁챔피언십	-12813
他の	-12814
황을	-12815
.8%)	-12816
かな	-12817
就任	-12818
▁시흥	-12819
over	-12820
▁본사	-12821
▁유료	-12822
문화예술	-12823
▁웨이	-12824
▁cop	-12825
▁tvN	-12826
▁increased	-12827
모토	-12828
탱크	-12829
▁견제	-12830
▁홍준표	-12831
公園	-12832
▁실증	-12833
▁스위스	-12834
▁몽골	-12835
▁tot	-12836
▁fail	-12837
▁직원들의	-12838
▁thought	-12839
해져	-12840
호한	-12841
▁자국	-12842
▁직접적인	-12843
▁앵	-12844
▁아스	-12845
と言	-12846
タリア	-12847
검사를	-12848
조원을	-12849
▁fru	-12850
채를	-12851
해지	-12852
▁다행히	-12853
▁데리고	-12854
▁시민이	-12855
▁있었다고	-12856
▁frequ	-12857
▁required	-12858
임이	-12859
▁신약	-12860
▁구체적	-12861
▁듯하다	-12862
▁하나다	-12863
▁도입을	-12864
▁유치를	-12865
▁작품이	-12866
▁prote	-12867
▁소통을	-12868
▁일으킨	-12869
▁arch	-12870
분은	-12871
事務	-12872
화될	-12873
ume	-12874
▁얻는	-12875
▁읽고	-12876
▁적도	-12877
▁pie	-12878
대한민국	-12879
管理	-12880
우지	-12881
▁방안이	-12882
▁인식을	-12883
▁않습니다	-12884
▁에피소	-12885
illed	-12886
▁조언했다	-12887
▁diagn	-12888
▁중복	-12889
▁인스타그램	-12890
아무	-12891
▁related	-12892
관리를	-12893
▁캄	-12894
▁맥주	-12895
▁부러	-12896
식에는	-12897
어질	-12898
위안	-12899
」「	-12900
スコ	-12901
▁손해배상	-12902
SA	-12903
▁랩	-12904
▁얽	-12905
연료	-12906
집에	-12907
▁Ed	-12908
▁양극	-12909
하길	-12910
히지	-12911
▁과세	-12912
베이스	-12913
▁1983	-12914
기아	-12915
으려	-12916
▁얼굴이	-12917
▁필요할	-12918
▁퓨	-12919
▁획기	-12920
겠어	-12921
하루	-12922
▁기록해	-12923
▁evidence	-12924
▁뜬	-12925
후의	-12926
▁사용되는	-12927
ronic	-12928
▁발생하고	-12929
▁구독	-12930
▁발송	-12931
▁아픈	-12932
▁기념해	-12933
▁우리를	-12934
시행	-12935
▁건국	-12936
니스트	-12937
▁아이의	-12938
경기에	-12939
국제공항	-12940
▁almost	-12941
▁carbon	-12942
▁유죄	-12943
▁LA	-12944
▁팀은	-12945
▁힘쓰	-12946
▁생각에	-12947
▁수준이	-12948
▁이곳에서	-12949
폐기	-12950
▁|-	-12951
▁감동	-12952
▁구조조정	-12953
▁유지하는	-12954
▁해결하기	-12955
ections	-12956
▁자진	-12957
▁가족의	-12958
▁항공기	-12959
VP	-12960
▁여권	-12961
▁전격	-12962
▁전환을	-12963
eding	-12964
극장	-12965
역의	-12966
oor	-12967
▁차로	-12968
▁생명을	-12969
▁선거에	-12970
問題	-12971
▁교육감	-12972
▁heat	-12973
▁영향력을	-12974
▁자동으로	-12975
명령	-12976
▁taking	-12977
デン	-12978
▁“1	-12979
▁표기	-12980
▁대학의	-12981
▁1979	-12982
▁아닙니다	-12983
▁assess	-12984
▁빨라	-12985
▁했어요	-12986
▁port	-12987
▁전용면적	-12988
▁ハ	-12989
▁기자간담	-12990
▁진심으로	-12991
헨티	-12992
홍보	-12993
▁눈물	-12994
▁기대가	-12995
▁표현을	-12996
인간	-12997
▁대여	-12998
▁이원	-12999
▁자라	-13000
▁제목의	-13001
▁causes	-13002
▁前	-13003
経歴	-13004
▁considered	-13005
호와	-13006
▁있나	-13007
▁관리에	-13008
▁수송	-13009
▁아산	-13010
였으나	-13011
▁갱	-13012
ちゃ	-13013
lex	-13014
▁공간이	-13015
▁참가한	-13016
▁company	-13017
{{	-13018
▁2.5	-13019
ising	-13020
▁주장하고	-13021
▁music	-13022
▁95	-13023
▁여름철	-13024
▁suff	-13025
PI	-13026
▁Art	-13027
▁자택	-13028
▁플라	-13029
▁화제를	-13030
▁확보하고	-13031
▁보았다	-13032
▁themselves	-13033
브라	-13034
자나	-13035
▁스카	-13036
aged	-13037
▁farm	-13038
▁금융당	-13039
▁주민의	-13040
▁진영	-13041
어졌다	-13042
▁당했다	-13043
림이	-13044
침을	-13045
▁파주	-13046
리케이션	-13047
▁half	-13048
니가	-13049
브를	-13050
▁서면	-13051
발전을	-13052
▁福	-13053
指定	-13054
냐는	-13055
하되	-13056
abet	-13057
▁정의당	-13058
▁Comp	-13059
獲得	-13060
▁세입	-13061
▁염두에	-13062
▁famil	-13063
▁states	-13064
地区	-13065
▁가라	-13066
▁묻자	-13067
▁지지율	-13068
▁해당한다	-13069
CE	-13070
▁다들	-13071
▁관계없이	-13072
▁의원들이	-13073
▁검출	-13074
▁면담	-13075
▁태극	-13076
▁environmental	-13077
▁구멍	-13078
▁선택한	-13079
▁안전관리	-13080
▁랜	-13081
▁레벨	-13082
▁정도를	-13083
~~	-13084
저가	-13085
▁최적의	-13086
▁인재를	-13087
▁파악됐다	-13088
ulations	-13089
▁inj	-13090
▁김대중	-13091
▁특별히	-13092
しょう	-13093
▁essential	-13094
▁물에	-13095
거리가	-13096
.1%)	-13097
book	-13098
▁보이며	-13099
▁체계적인	-13100
▁무척	-13101
▁기술과	-13102
▁industry	-13103
▁According	-13104
▁Center	-13105
만명을	-13106
▁서울중앙지검	-13107
▁피로	-13108
▁희망하는	-13109
▁shows	-13110
▁수질	-13111
▁꾸준한	-13112
▁확보했다	-13113
▁super	-13114
▁꾀	-13115
▁문제점을	-13116
▁throughout	-13117
▁명문	-13118
▁추후	-13119
▁회사에	-13120
▁お	-13121
科学	-13122
▁71	-13123
▁일고	-13124
▁자매	-13125
以下の	-13126
▁전교	-13127
▁감안해	-13128
▁국토부	-13129
▁대피	-13130
▁크지	-13131
▁방식의	-13132
▁중국을	-13133
▁한계를	-13134
▁줄이	-13135
2021	-13136
▁발표된	-13137
▁실정이다	-13138
▁바꾸는	-13139
▁cannot	-13140
로워	-13141
▁내각	-13142
밀하게	-13143
▁골을	-13144
▁모래	-13145
▁석탄	-13146
▁타이어	-13147
▁스킬	-13148
▁유산	-13149
새로운	-13150
▁break	-13151
발의	-13152
▁ce	-13153
▁해임	-13154
▁maint	-13155
▁점수	-13156
▁제작한	-13157
▁말레이시아	-13158
▁세력	-13159
▁바라보는	-13160
▁플랫폼을	-13161
▁험	-13162
▁interact	-13163
na	-13164
투를	-13165
▁손상	-13166
축구연맹	-13167
비드	-13168
꺼번에	-13169
▁경찰의	-13170
▁위치해	-13171
▁helps	-13172
는데도	-13173
mber	-13174
▁bar	-13175
▁블로그	-13176
▁카타르	-13177
▁존재하는	-13178
▁complex	-13179
テン	-13180
▁예선	-13181
ために	-13182
였다는	-13183
▁발견된	-13184
erous	-13185
▁도박	-13186
았으며	-13187
▁프로세	-13188
기존	-13189
▁AR	-13190
▁책임이	-13191
▁personal	-13192
▁세제	-13193
▁마스크를	-13194
찰을	-13195
달라는	-13196
▁BMW	-13197
▁strateg	-13198
▁없던	-13199
▁주관하는	-13200
▁감당	-13201
▁정보가	-13202
▁증가할	-13203
▁등장인물	-13204
▁익숙	-13205
▁지점	-13206
vere	-13207
▁members	-13208
▁designed	-13209
득점	-13210
委員会	-13211
활동에	-13212
해운	-13213
TBC	-13214
▁마련을	-13215
▁제품에	-13216
▁‘2022	-13217
▁economic	-13218
▁가자	-13219
▁읽는	-13220
▁타입	-13221
▁자세히	-13222
행위를	-13223
코드	-13224
▁난다	-13225
▁보전	-13226
▁조별	-13227
▁eat	-13228
▁당신의	-13229
▁분야를	-13230
▁이어져	-13231
추가	-13232
시에서	-13233
▁에어컨	-13234
▁Sm	-13235
▁뉴딜	-13236
▁dest	-13237
▁measure	-13238
▁딴	-13239
▁콤	-13240
▁유승	-13241
▁강조한	-13242
▁논리	-13243
▁그래요	-13244
メンバー	-13245
▁return	-13246
▁동화	-13247
▁상정	-13248
▁베이스	-13249
▁김주	-13250
▁전임	-13251
chan	-13252
▁위해서다	-13253
▁caused	-13254
돌이	-13255
自動車	-13256
▁emer	-13257
▁thing	-13258
▁굽	-13259
리콘	-13260
언스	-13261
▁두루	-13262
▁SUV	-13263
▁효과적으로	-13264
神社	-13265
머리	-13266
.2%)	-13267
▁일본에	-13268
▁댄스	-13269
(24	-13270
▁Em	-13271
▁결성	-13272
문재인	-13273
▁정부에서	-13274
idge	-13275
▁이어진다	-13276
수소	-13277
hing	-13278
농구	-13279
▁기조	-13280
충남	-13281
▁가만	-13282
▁강좌	-13283
▁미뤄	-13284
센터에	-13285
▁세우고	-13286
▁제안을	-13287
▁선언했다	-13288
▁선호하는	-13289
▁환경에	-13290
엔터테인먼트	-13291
▁계승	-13292
▁내걸	-13293
로우	-13294
▁금리가	-13295
▁모를	-13296
▁바꾼	-13297
出身の	-13298
itud	-13299
▁들어온	-13300
▁일정한	-13301
▁포트폴리오	-13302
▁approach	-13303
▁갓	-13304
졌을	-13305
▁travel	-13306
900	-13307
▁채널을	-13308
▁올릴	-13309
단위	-13310
▁오미	-13311
해달라	-13312
▁Now	-13313
▁백신을	-13314
▁foods	-13315
▁dom	-13316
▁있어도	-13317
운다	-13318
▁잡을	-13319
부부	-13320
reg	-13321
▁가파	-13322
▁고려한	-13323
▁한꺼번에	-13324
▁대통령에게	-13325
ライブ	-13326
▁하니까	-13327
▁주소	-13328
ほか	-13329
호로	-13330
▁축산	-13331
▁KTX	-13332
▁디자인을	-13333
청과	-13334
▁빠져나	-13335
매출	-13336
▁과일	-13337
▁김승	-13338
▁상실	-13339
▁원료	-13340
room	-13341
▁불구속	-13342
▁현대중공업	-13343
▁services	-13344
▁영동	-13345
캐피탈	-13346
based	-13347
▁컨소시엄	-13348
▁위험한	-13349
icine	-13350
▁안녕하세요	-13351
事件	-13352
▁감추	-13353
경기를	-13354
▁의미다	-13355
:1	-13356
리우	-13357
여명	-13358
품이	-13359
▁책정	-13360
▁구성돼	-13361
▁사회가	-13362
만대	-13363
역은	-13364
▁km	-13365
▁등산	-13366
▁bacter	-13367
독립	-13368
▁끝나고	-13369
▁깔끔	-13370
▁버티	-13371
▁소홀	-13372
적이었다	-13373
▁실시간으로	-13374
다만	-13375
▁정서	-13376
▁한시	-13377
▁해명했다	-13378
子の	-13379
▁작전	-13380
▁Sec	-13381
▁이상인	-13382
▁International	-13383
▁과장	-13384
▁펼칠	-13385
벤션	-13386
▁상금	-13387
▁남성이	-13388
▁최우선	-13389
▁Canad	-13390
월과	-13391
화재	-13392
▁광복	-13393
동맹	-13394
북부	-13395
ply	-13396
▁동결	-13397
▁퇴근	-13398
▁Our	-13399
▁프랑스의	-13400
길에	-13401
유지	-13402
▁AS	-13403
▁作詞	-13404
▁수의	-13405
▁알았	-13406
HD	-13407
▁캡	-13408
uck	-13409
▁돌아왔다	-13410
duc	-13411
▁녹음	-13412
▁electric	-13413
▁relationship	-13414
류의	-13415
▁청사	-13416
▁파는	-13417
play	-13418
▁주변의	-13419
미한	-13420
절차	-13421
▁추출	-13422
▁거래가	-13423
▁건축물	-13424
▁페이스북에	-13425
▁누리꾼	-13426
▁의정	-13427
▁수요를	-13428
버트	-13429
▁노력할	-13430
▁의해서	-13431
2’	-13432
▁폭로	-13433
▁주차장	-13434
iddle	-13435
▁통화에서	-13436
과를	-13437
hib	-13438
aced	-13439
▁오페라	-13440
▁판매가	-13441
능력을	-13442
▁관측이	-13443
▁인생을	-13444
ロッ	-13445
▁교원	-13446
▁부의	-13447
▁가볍게	-13448
▁농구	-13449
▁미치지	-13450
▁킹	-13451
서치	-13452
▁업데	-13453
▁저기	-13454
▁과제를	-13455
)」	-13456
▁bab	-13457
▁움직이는	-13458
▁88	-13459
원이다	-13460
▁목소리	-13461
いました	-13462
▁Ag	-13463
▁파격	-13464
사도	-13465
양성	-13466
▁연말까지	-13467
도어	-13468
▁넥센	-13469
▁위치를	-13470
________	-13471
▁공적	-13472
▁이끈	-13473
▁Day	-13474
.9%)	-13475
▁토요일	-13476
▁학생은	-13477
▁봅	-13478
▁바깥	-13479
▁보컬	-13480
ながら	-13481
▁하는지	-13482
▁확인해	-13483
중이	-13484
▁결정에	-13485
▁죽음을	-13486
▁entire	-13487
▁소멸	-13488
▁키움	-13489
▁높아졌다	-13490
▁서울시장	-13491
▁불필	-13492
▁pattern	-13493
?’	-13494
▁린	-13495
맞춤	-13496
환은	-13497
▁열려	-13498
어머니	-13499
ラス	-13500
설이	-13501
▁시키	-13502
▁웃었다	-13503
▁주었다	-13504
▁아랍	-13505
▁여는	-13506
이었으나	-13507
ufact	-13508
サイ	-13509
販売	-13510
▁오래된	-13511
▁이어가	-13512
▁damage	-13513
역과	-13514
학급	-13515
になり	-13516
▁환경이	-13517
▁대행	-13518
▁기간은	-13519
▁프랜차이즈	-13520
▁하이브리드	-13521
▁神	-13522
者の	-13523
줄이	-13524
▁라는	-13525
▁어릴	-13526
▁전일	-13527
▁제품으로	-13528
▁찾아가는	-13529
▁meaning	-13530
好き	-13531
広島	-13532
▁무장	-13533
▁하드	-13534
되던	-13535
asc	-13536
▁기관이	-13537
inary	-13538
▁came	-13539
▁지난해보다	-13540
카와	-13541
▁가까워	-13542
契約	-13543
▁구매할	-13544
▁variety	-13545
クション	-13546
▁나라가	-13547
▁적용한	-13548
저축은행	-13549
izing	-13550
▁visit	-13551
▁아시안게임	-13552
▁양육	-13553
▁폭이	-13554
▁popular	-13555
▁다큐	-13556
ches	-13557
▁것인데	-13558
▁새마을	-13559
▁에너지를	-13560
씨에	-13561
▁ut	-13562
▁조율	-13563
▁환자는	-13564
▁recent	-13565
▁유래	-13566
▁Har	-13567
▁인식이	-13568
new	-13569
▁독려	-13570
▁지인	-13571
aving	-13572
▁benefits	-13573
셀러	-13574
▁플러스	-13575
조선해양	-13576
▁average	-13577
▁소중	-13578
▁알파	-13579
▁불가능한	-13580
일으	-13581
▁공군	-13582
スポーツ	-13583
▁Not	-13584
▁선착순	-13585
▁분위기다	-13586
▁지난해부터	-13587
▁박원	-13588
소비자	-13589
▁시의회	-13590
ma	-13591
▁화면	-13592
▁ICT	-13593
▁인테리어	-13594
▁liter	-13595
▁소독	-13596
▁자랑하는	-13597
TT	-13598
県立	-13599
▁78	-13600
▁올해로	-13601
▁캠페인을	-13602
建設	-13603
▁고기	-13604
▁교황	-13605
▁전쟁을	-13606
▁이들에게	-13607
민을	-13608
▁담겼다	-13609
▁지키고	-13610
공천	-13611
700	-13612
▁맞물	-13613
▁토크	-13614
▁단위로	-13615
▁장면을	-13616
▁조직을	-13617
▁mach	-13618
。(	-13619
만족	-13620
보도	-13621
▁관료	-13622
▁교수의	-13623
▁된다면	-13624
▁전시회	-13625
▁아직까지	-13626
▁당기	-13627
제도를	-13628
▁3.3	-13629
▁제기되고	-13630
▁지원하기	-13631
▁全	-13632
고와	-13633
▁경향	-13634
▁한가	-13635
리지널	-13636
▁밀양	-13637
이었는데	-13638
▁공급하는	-13639
▁experim	-13640
LB	-13641
희가	-13642
▁거세	-13643
▁챌린	-13644
▁청춘	-13645
▁추격	-13646
大学の	-13647
▁Min	-13648
▁전에는	-13649
▁비상대책	-13650
리츠	-13651
▁한국당	-13652
▁발령	-13653
▁FIFA	-13654
▁간단한	-13655
▁Lear	-13656
▁됐고	-13657
▁변이	-13658
▁요구에	-13659
▁전통시장	-13660
▁소비자들의	-13661
▁increasing	-13662
▁굵	-13663
세권	-13664
▁도널드	-13665
▁원자력	-13666
プリ	-13667
가입	-13668
▁꾸며	-13669
▁삭감	-13670
結果	-13671
▁1)	-13672
▁위대한	-13673
epend	-13674
션은	-13675
(21	-13676
▁갈라	-13677
▁죽을	-13678
▁있었다는	-13679
**	-13680
처가	-13681
rown	-13682
▁individuals	-13683
개에	-13684
-10	-13685
▁세이	-13686
▁내리는	-13687
▁선거구	-13688
▁원활한	-13689
人が	-13690
그림	-13691
습을	-13692
청구	-13693
▁박진	-13694
▁가맹점	-13695
▁기업들은	-13696
▁소비자가	-13697
▁군수는	-13698
밀리	-13699
▁거짓말	-13700
▁방송된다	-13701
데요	-13702
▁너는	-13703
▁행안	-13704
▁감사의	-13705
▁손실을	-13706
▁화제가	-13707
▁content	-13708
▁율	-13709
▁유인	-13710
▁코치	-13711
▁히트	-13712
▁발생해	-13713
▁낙찰	-13714
▁장치	-13715
▁요구한	-13716
▁관련이	-13717
▁schools	-13718
함께	-13719
▁일선	-13720
▁positive	-13721
トリ	-13722
학대	-13723
aff	-13724
팀장은	-13725
▁감사를	-13726
▁대상에	-13727
▁Will	-13728
▁지속가능한	-13729
▁한자	-13730
▁지속될	-13731
▁제조업체	-13732
▁뮤직비디오	-13733
▁생각합니다	-13734
▁modern	-13735
年間	-13736
▁연평균	-13737
두는	-13738
▁돕기	-13739
▁영원	-13740
▁전사	-13741
▁encou	-13742
▁출하	-13743
▁lif	-13744
▁당시의	-13745
▁지니고	-13746
▁근본적인	-13747
▁가요	-13748
▁뭐가	-13749
스러워	-13750
▁보호를	-13751
▁시가총	-13752
▁특별법	-13753
▁1981	-13754
▁built	-13755
▁슈팅	-13756
と呼ば	-13757
(-0.	-13758
▁효과적인	-13759
家の	-13760
▁고무	-13761
▁시세	-13762
共和	-13763
▁중화	-13764
▁취지로	-13765
▁집행유예	-13766
키퍼	-13767
▁거대	-13768
▁과감	-13769
▁랭킹	-13770
▁복수	-13771
▁찍어	-13772
제품을	-13773
케미칼	-13774
▁재미를	-13775
▁--	-13776
▁후에도	-13777
▁넘어섰다	-13778
함은	-13779
▁지키기	-13780
▁지급하는	-13781
사업자	-13782
의로	-13783
▁사용을	-13784
▁접종을	-13785
.’	-13786
로스	-13787
▁전신	-13788
▁분석된다	-13789
▁전력을	-13790
▁전체가	-13791
▁국민에게	-13792
▁득표	-13793
▁수산	-13794
▁영등	-13795
▁인문	-13796
공동체	-13797
▁불어넣	-13798
▁학생의	-13799
▁법제	-13800
▁장성	-13801
▁민주화	-13802
▁프로그램에	-13803
▁yet	-13804
가루	-13805
▁deb	-13806
▁의원들은	-13807
들여	-13808
そして	-13809
으려고	-13810
홀딩	-13811
▁고가	-13812
▁묘사	-13813
▁축적	-13814
▁키우	-13815
포스트	-13816
▁꼬집었다	-13817
▁걸맞	-13818
▁모터	-13819
자금을	-13820
▁처분을	-13821
▁걸친	-13822
▁비극	-13823
かつて	-13824
해서는	-13825
onse	-13826
▁Other	-13827
통일	-13828
▁체류	-13829
ティー	-13830
이익을	-13831
▁삼성은	-13832
▁자유를	-13833
▁Cons	-13834
년은	-13835
▁청원	-13836
▁원자재	-13837
▁Austral	-13838
계와	-13839
구매	-13840
▁효율적인	-13841
ternet	-13842
▁점유율	-13843
▁협조를	-13844
ender	-13845
▁Tw	-13846
▁시골	-13847
▁공유하고	-13848
▁줬다	-13849
▁공기업	-13850
ights	-13851
▁마감했다	-13852
▁Count	-13853
VD	-13854
▁김준	-13855
▁사물	-13856
人口	-13857
나를	-13858
두를	-13859
파를	-13860
▁이경	-13861
▁쿠팡	-13862
▁밖에도	-13863
▁곱	-13864
cient	-13865
▁점령	-13866
▁현장의	-13867
영향	-13868
▁당진	-13869
스토랑	-13870
▁regular	-13871
월의	-13872
협회는	-13873
▁Mus	-13874
▁걸렸다	-13875
▁경제를	-13876
▁보여줄	-13877
▁불러일으	-13878
機関	-13879
▁수색	-13880
▁육상	-13881
▁한우	-13882
デュー	-13883
▁인터뷰를	-13884
▁적용된다	-13885
▁전반적인	-13886
▁includes	-13887
上げ	-13888
병이	-13889
▁THE	-13890
江戸	-13891
▁겨울철	-13892
▁높아진	-13893
▁만약에	-13894
▁유럽연합	-13895
▁이끌었다	-13896
▁contact	-13897
▁되자	-13898
▁tar	-13899
▁비율을	-13900
▁의혹에	-13901
▁내용으로	-13902
▁출시했다	-13903
▁region	-13904
アナ	-13905
한을	-13906
▁막판	-13907
주거	-13908
het	-13909
▁오해	-13910
하므로	-13911
▁속도로	-13912
▁이상한	-13913
▁necessary	-13914
위권	-13915
▁임직	-13916
집에서	-13917
▁bur	-13918
▁식사를	-13919
▁안된다	-13920
▁역사상	-13921
▁첼	-13922
▁길게	-13923
화장	-13924
▁ᅲᅲ	-13925
▁박상	-13926
▁발표를	-13927
▁longer	-13928
nov	-13929
하자면	-13930
▁earth	-13931
중의	-13932
▁보복	-13933
▁식민	-13934
에서다	-13935
▁공정한	-13936
▁마음의	-13937
▁온라인으로	-13938
▁규탄	-13939
fully	-13940
路線	-13941
▁플랜	-13942
라비아	-13943
▁종합적으로	-13944
itation	-13945
산과	-13946
▁86	-13947
▁Tra	-13948
▁방식이	-13949
▁장려	-13950
부르크	-13951
中心	-13952
法人	-13953
▁헐	-13954
본을	-13955
▁러브	-13956
윤석열	-13957
▁론칭	-13958
▁신형	-13959
▁etc	-13960
▁준비가	-13961
▁환경부	-13962
特別	-13963
▁구축하고	-13964
▁확대하는	-13965
▁신기	-13966
部の	-13967
▁어둠	-13968
pid	-13969
▁해방	-13970
▁From	-13971
▁이해하고	-13972
AD	-13973
여대	-13974
▁돼서	-13975
▁write	-13976
▁받았고	-13977
▁불과했다	-13978
주면	-13979
▁의미로	-13980
▁share	-13981
▁기자회견에서	-13982
▁?	-13983
高校	-13984
▁제네	-13985
cean	-13986
▁took	-13987
되게	-13988
▁세련	-13989
영화제	-13990
▁현상을	-13991
▁西	-13992
町村	-13993
▁논란에	-13994
▁헛	-13995
민과	-13996
▁Ac	-13997
▁上	-13998
사스	-13999
인수	-14000
▁자리잡	-14001
▁플레이오프	-14002
▁action	-14003
▁役	-14004
▁金	-14005
낙연	-14006
▁봤을	-14007
▁없지	-14008
▁일로	-14009
▁혐오	-14010
측의	-14011
▁개발하고	-14012
▁회피	-14013
キング	-14014
▁지역이	-14015
▁한동안	-14016
▁금액을	-14017
▁비전을	-14018
』,	-14019
지노	-14020
▁끈다	-14021
▁불투	-14022
▁포토	-14023
▁나타난다	-14024
최고	-14025
▁선대	-14026
▁확대에	-14027
▁선고했다	-14028
▁4·	-14029
▁승점	-14030
문에서	-14031
▁수원시	-14032
▁해양수산	-14033
▁간주	-14034
수당	-14035
포트	-14036
▁비트코	-14037
▁공사가	-14038
▁작가가	-14039
▁doesn	-14040
견이	-14041
▁애로	-14042
▁버리고	-14043
빨리	-14044
▁용의	-14045
▁증대	-14046
▁그랜드	-14047
▁등장한다	-14048
▁나눴	-14049
▁적시	-14050
▁rights	-14051
응답	-14052
▁IB	-14053
▁탈북	-14054
hold	-14055
istics	-14056
▁박종	-14057
▁번에	-14058
▁오면	-14059
▁contain	-14060
▁bring	-14061
▁뇌물	-14062
▁몰래	-14063
システ	-14064
▁적용할	-14065
▁개교	-14066
▁버디	-14067
▁His	-14068
▁six	-14069
인프라	-14070
▁충남도	-14071
동생	-14072
됐을	-14073
▁수익률	-14074
▁작업이	-14075
▁투자해	-14076
쿼터	-14077
▁page	-14078
マイ	-14079
명도	-14080
패로	-14081
질랜드	-14082
▁170	-14083
らの	-14084
벨트	-14085
▁광산	-14086
▁드래곤	-14087
▁기대감이	-14088
▁형식으로	-14089
EX	-14090
▁구별	-14091
▁푸틴	-14092
▁문제도	-14093
▁영화는	-14094
▁우려도	-14095
▁서비스는	-14096
활성	-14097
▁페르	-14098
유플러스	-14099
▁무엇인지	-14100
▁이젠	-14101
▁도대체	-14102
▁준비해	-14103
조달	-14104
▁대개	-14105
▁정통	-14106
▁essay	-14107
議会	-14108
▁빨간	-14109
▁활동하고	-14110
▁structure	-14111
合併	-14112
▁82	-14113
▁단어	-14114
증권은	-14115
▁uses	-14116
イギ	-14117
▁페이	-14118
.......	-14119
▁service	-14120
▁퀴	-14121
지나	-14122
▁공백	-14123
▁타율	-14124
스트로	-14125
reng	-14126
▁폐기물	-14127
▁1,000	-14128
▁외무	-14129
▁일주	-14130
▁나누는	-14131
경과	-14132
▁증상	-14133
▁해고	-14134
지원을	-14135
래프트	-14136
▁이뤄진다	-14137
かり	-14138
▁전제	-14139
▁팔아	-14140
▁헌신	-14141
▁surv	-14142
▁아르헨티	-14143
▁눈치	-14144
▁침수	-14145
에다	-14146
▁fig	-14147
▁기숙	-14148
▁소매	-14149
▁주신	-14150
▁개선에	-14151
▁pict	-14152
층은	-14153
과정을	-14154
▁대전시	-14155
美術	-14156
둥이	-14157
gar	-14158
▁까다	-14159
▁던져	-14160
▁신년	-14161
만명이	-14162
▁노조는	-14163
主義	-14164
▁수단	-14165
▁재산을	-14166
▁않는다고	-14167
▁주목받고	-14168
▁Techn	-14169
▁SC	-14170
▁경기는	-14171
▁1978	-14172
▁국도	-14173
▁많을	-14174
▁짓는	-14175
▁피할	-14176
▁ste	-14177
▁사망한	-14178
▁주무	-14179
▁주부	-14180
도시로	-14181
▁시청률	-14182
▁정신적	-14183
▁face	-14184
▁conduct	-14185
プレ	-14186
었어	-14187
회말	-14188
▁behavior	-14189
チャン	-14190
▁범행을	-14191
▁poll	-14192
▁83	-14193
▁법령	-14194
システム	-14195
▁프로그램으로	-14196
漫画	-14197
▁당해	-14198
▁번의	-14199
▁완벽하게	-14200
AE	-14201
▁급속	-14202
▁정세	-14203
rapy	-14204
▁감독을	-14205
▁쉼	-14206
조작	-14207
▁드디어	-14208
▁영역을	-14209
▁했으며	-14210
지역으로	-14211
▁97	-14212
▁외모	-14213
▁청정	-14214
센터와	-14215
▁해주는	-14216
리나	-14217
▁언젠	-14218
▁언론에	-14219
▁있었기	-14220
▁believe	-14221
▁바꿨	-14222
sequ	-14223
▁Dis	-14224
▁힘들어	-14225
▁젊은이	-14226
천히	-14227
umb	-14228
シャル	-14229
▁수사가	-14230
▁최고경영자	-14231
▁킬	-14232
구간	-14233
(23	-14234
▁호기	-14235
pose	-14236
▁허가를	-14237
▁공존	-14238
▁상태에	-14239
▁갇	-14240
▁모금	-14241
▁신발	-14242
▁씨를	-14243
기관인	-14244
▁럭	-14245
テル	-14246
방울	-14247
▁방탄소년	-14248
▁arr	-14249
▁사태로	-14250
▁하도	-14251
▁아마존	-14252
lands	-14253
▁배후	-14254
▁떨어질	-14255
▁중이며	-14256
▁선수들은	-14257
▁began	-14258
▁뻗	-14259
산단	-14260
하긴	-14261
▁군인	-14262
▁도입해	-14263
▁threat	-14264
유아	-14265
▁이윤	-14266
겠느냐	-14267
▁개정안을	-14268
▁Although	-14269
슨은	-14270
▁Br	-14271
▁외식	-14272
▁이해가	-14273
多い	-14274
▁증여	-14275
▁하나도	-14276
▁존재한다	-14277
레드	-14278
만원이	-14279
ades	-14280
▁배우는	-14281
▁편하게	-14282
▁slow	-14283
▁제임	-14284
▁sam	-14285
▁확보에	-14286
▁training	-14287
▁미루	-14288
▁보령	-14289
▁전송	-14290
さら	-14291
公開	-14292
▁사냥	-14293
가게	-14294
▁주저	-14295
▁오리지널	-14296
하러	-14297
▁걸릴	-14298
▁자이	-14299
▁doing	-14300
비즈	-14301
att	-14302
▁부른다	-14303
▁들어간다	-14304
ography	-14305
자격	-14306
타수	-14307
▁유포	-14308
▁역사의	-14309
▁이루고	-14310
▁까닭	-14311
▁집어	-14312
▁정책의	-14313
▁쾌적한	-14314
▁하루에	-14315
▁Child	-14316
▁불참	-14317
▁매장을	-14318
▁정부를	-14319
▁path	-14320
▁싹	-14321
▁허브	-14322
▁원가	-14323
▁기관은	-14324
▁선정돼	-14325
▁previous	-14326
調査	-14327
이동	-14328
▁선관	-14329
▁이순	-14330
▁포스터	-14331
▁증액	-14332
▁생각보다	-14333
▁말하면	-14334
랑이	-14335
안과	-14336
▁나뉘	-14337
▁자리가	-14338
▁아버지의	-14339
▁correct	-14340
?'	-14341
로에	-14342
▁몰입	-14343
▁분담	-14344
▁가벼운	-14345
▁단일화	-14346
▁창원시	-14347
▁편의를	-14348
▁El	-14349
▁방지를	-14350
>(	-14351
▁당연한	-14352
▁있다가	-14353
▁컨트롤	-14354
れている	-14355
▁톤	-14356
호에	-14357
▁국적	-14358
▁슬픔	-14359
▁Her	-14360
小説	-14361
▁주전	-14362
버렸다	-14363
▁아니에요	-14364
~9	-14365
헬스	-14366
▁"(	-14367
▁programs	-14368
라인을	-14369
ners	-14370
▁학력	-14371
홈쇼핑	-14372
▁sat	-14373
▁누구도	-14374
▁지원과	-14375
역량	-14376
▁보면은	-14377
투쟁	-14378
ging	-14379
▁늘리는	-14380
▁활력을	-14381
수영	-14382
▁유성	-14383
▁출자	-14384
시간에	-14385
▁이해를	-14386
▁생각하지	-14387
オリンピック	-14388
르다	-14389
▁동향	-14390
▁만일	-14391
▁두려워	-14392
▁지역별	-14393
▁최선의	-14394
▁폭으로	-14395
▁협력업체	-14396
▁낡	-14397
▁날카	-14398
▁영구	-14399
hood	-14400
▁튼	-14401
▁유독	-14402
▁블록체인	-14403
計画	-14404
프의	-14405
▁어떨	-14406
▁과거의	-14407
▁이하로	-14408
▁나타내는	-14409
▁아파트를	-14410
コミ	-14411
전화	-14412
▁87	-14413
▁유학	-14414
usion	-14415
▁itself	-14416
방은	-14417
▁김장	-14418
▁저자는	-14419
▁getting	-14420
▁탄력	-14421
▁통영	-14422
lear	-14423
▁사망자	-14424
경찰서는	-14425
▁conc	-14426
県出身の人物	-14427
▁연루	-14428
▁입소	-14429
▁의무를	-14430
▁이상은	-14431
▁회장을	-14432
▁서비스가	-14433
▁System	-14434
집이	-14435
▁TF	-14436
▁1200	-14437
▁보여줬다	-14438
▁싼	-14439
▁연초	-14440
▁결정한	-14441
▁보험료	-14442
상한	-14443
아니	-14444
억여	-14445
▁트럭	-14446
▁문화가	-14447
aling	-14448
법률	-14449
지표	-14450
▁부추	-14451
▁재학생	-14452
▁독립운동	-14453
ana	-14454
▁임용	-14455
▁카운	-14456
베스트	-14457
▁결혼을	-14458
▁벌어졌다	-14459
▁Institute	-14460
대변	-14461
hel	-14462
▁나눈	-14463
▁놓여	-14464
▁인디	-14465
▁일괄	-14466
▁선물을	-14467
▁성폭행	-14468
▁JTBC	-14469
▁결정하는	-14470
▁시작된다	-14471
▁draw	-14472
셔야	-14473
▁배터	-14474
▁앱을	-14475
▁싶다는	-14476
▁들어서는	-14477
トラ	-14478
조리	-14479
▁선수를	-14480
▁꿀	-14481
舞台	-14482
▁나타날	-14483
▁image	-14484
▁덤	-14485
▁부임	-14486
▁승부를	-14487
담보대출	-14488
▁fire	-14489
▁virus	-14490
▁developing	-14491
내야	-14492
시절	-14493
▁동영	-14494
▁답변을	-14495
▁증권사	-14496
▁Educ	-14497
도서	-14498
준은	-14499
타가	-14500
▁배를	-14501
▁가능해	-14502
my	-14503
청을	-14504
▁남한	-14505
▁bal	-14506
▁결정이	-14507
▁남편이	-14508
▁등장했다	-14509
▁않는다면	-14510
▁天	-14511
▁화제	-14512
▁ago	-14513
▁움직임을	-14514
2022	-14515
▁감동을	-14516
▁자격을	-14517
▁Pres	-14518
▁issue	-14519
▁년간	-14520
▁전술	-14521
▁집합	-14522
대병원	-14523
모바일	-14524
▁아이스	-14525
▁정상적인	-14526
▁참여한다	-14527
군에서	-14528
erson	-14529
▁부드러운	-14530
eration	-14531
▁막는	-14532
미술관	-14533
ched	-14534
▁solar	-14535
▁국토교통부	-14536
▁윌리	-14537
▁장면이	-14538
いく	-14539
거를	-14540
▁많은데	-14541
보로	-14542
▁부상을	-14543
▁뚜렷한	-14544
▁일상생활	-14545
ジー	-14546
一般	-14547
▁콜라	-14548
▁가능성에	-14549
▁아버지는	-14550
▁미사	-14551
▁정치를	-14552
▁시민들에게	-14553
▁review	-14554
▁기대할	-14555
르며	-14556
지부	-14557
▁같고	-14558
▁뜻이	-14559
▁선수로	-14560
▁넉	-14561
▁학생부	-14562
ister	-14563
국립	-14564
▁대입	-14565
▁상의	-14566
▁빌딩	-14567
▁저질	-14568
▁장점이	-14569
▁기후변화	-14570
▁수준인	-14571
ropri	-14572
▁노벨	-14573
자마자	-14574
▁신한은행	-14575
(22	-14576
▁구직	-14577
▁고려할	-14578
▁골키퍼	-14579
▁장기간	-14580
ength	-14581
▁print	-14582
ml	-14583
전통	-14584
▁Gr	-14585
▁교장	-14586
▁갖췄다	-14587
▁harm	-14588
PP	-14589
▁성수	-14590
▁이씨는	-14591
▁그들	-14592
▁든든	-14593
행사를	-14594
▁되었고	-14595
ternal	-14596
▁크리스마스	-14597
기인	-14598
▁골라	-14599
▁수상한	-14600
▁롯데백화점	-14601
▁900	-14602
▁결과로	-14603
▁기쁘다	-14604
ulate	-14605
▁삼성전자가	-14606
행동	-14607
ech	-14608
▁의원도	-14609
▁않았다고	-14610
▁일어나는	-14611
▁있으니까	-14612
▁귀농	-14613
▁금방	-14614
▁맺은	-14615
온라인	-14616
▁안전사고	-14617
▁명확히	-14618
▁시점에	-14619
▁아마도	-14620
▁장비를	-14621
ustom	-14622
バン	-14623
책이	-14624
총회	-14625
▁김은	-14626
朝鮮	-14627
드라	-14628
▁마켓	-14629
까지의	-14630
▁영화의	-14631
▁시민사회	-14632
▁강아	-14633
▁않나	-14634
▁입단	-14635
▁늘리고	-14636
▁성범죄	-14637
▁somet	-14638
류에	-14639
배에	-14640
▁잃고	-14641
▁논의할	-14642
▁물량이	-14643
の大	-14644
0%)	-14645
▁대가	-14646
▁기술개발	-14647
심리	-14648
▁눈으로	-14649
をも	-14650
▁교육의	-14651
이었습니다	-14652
원인	-14653
기간을	-14654
▁website	-14655
、2	-14656
▁이럴	-14657
リース	-14658
▁부산의	-14659
▁성적이	-14660
▁요인이	-14661
▁천천히	-14662
▁제출했다	-14663
px	-14664
눈에	-14665
▁79	-14666
▁노르	-14667
▁아쉽	-14668
▁금융위	-14669
▁위안부	-14670
▁총력을	-14671
번의	-14672
▁궁극	-14673
AL	-14674
(26	-14675
▁시술	-14676
▁takes	-14677
▁일산	-14678
▁내년에	-14679
▁않다고	-14680
▁deep	-14681
·1	-14682
▁얇	-14683
useum	-14684
▁인프라를	-14685
▁trees	-14686
ても	-14687
デザ	-14688
▁곤란	-14689
▁달간	-14690
▁편지를	-14691
sc	-14692
님께	-14693
변을	-14694
인상	-14695
行われた	-14696
연수	-14697
▁공매	-14698
▁날을	-14699
▁톡톡	-14700
▁똑같이	-14701
▁다중	-14702
▁설립한	-14703
▁워크숍	-14704
▁현황을	-14705
▁daily	-14706
警察	-14707
먹는	-14708
▁줄을	-14709
▁통증	-14710
▁이번엔	-14711
▁animal	-14712
예를	-14713
타점	-14714
되었던	-14715
▁순이었다	-14716
▁最	-14717
▁오사카	-14718
▁최대의	-14719
겠습니까	-14720
▁아시아나	-14721
▁젤	-14722
写真	-14723
건설이	-14724
▁テレビ	-14725
▁놀라운	-14726
▁이곳에	-14727
▁http	-14728
▁대응하기	-14729
▁남쪽	-14730
▁잡지	-14731
elling	-14732
fect	-14733
▁공급을	-14734
▁후보에	-14735
▁어머니가	-14736
大学出身の人物	-14737
▁identify	-14738
専門	-14739
ino	-14740
▁나오면	-14741
▁동남아	-14742
▁아르바	-14743
▁중대한	-14744
▁때문이었다	-14745
비한	-14746
▁개소	-14747
▁성우	-14748
▁수료	-14749
▁의외	-14750
▁멍	-14751
udd	-14752
▁절실	-14753
음으로	-14754
프라이	-14755
▁1973	-14756
▁깨끗한	-14757
▁문제다	-14758
▁성격이	-14759
▁프라이	-14760
▁First	-14761
▁쉴	-14762
▁그해	-14763
▁때에	-14764
리에서	-14765
셨어요	-14766
청에서	-14767
▁개념을	-14768
▁대학에	-14769
▁지도자	-14770
▁헌법재판	-14771
▁한두	-14772
회사의	-14773
▁움직임이	-14774
▁진단했다	-14775
▁diseases	-14776
さい	-14777
ジン	-14778
교과	-14779
비서	-14780
▁여신	-14781
ricult	-14782
테일	-14783
▁속속	-14784
▁가족을	-14785
▁어쩌면	-14786
방법	-14787
▁믿을	-14788
または	-14789
▁micro	-14790
▁LNG	-14791
▁정해진	-14792
▁sense	-14793
공유	-14794
광장	-14795
작품	-14796
지속	-14797
▁일어날	-14798
기후	-14799
▁태도	-14800
▁르노	-14801
▁challeng	-14802
교의	-14803
▁신화	-14804
렸다는	-14805
2009	-14806
▁연구소	-14807
그렇	-14808
지던	-14809
▁겨냥한	-14810
▁여론이	-14811
▁재검토	-14812
케스트라	-14813
강에	-14814
▁중재	-14815
▁exc	-14816
▁바뀌었다	-14817
▁사용한다	-14818
男子	-14819
차게	-14820
ube	-14821
▁방통	-14822
▁써야	-14823
베이터	-14824
nces	-14825
▁서로의	-14826
▁vacc	-14827
▁헝	-14828
▁떠났다	-14829
▁지위를	-14830
▁주민등록	-14831
▁political	-14832
두로	-14833
▁잃어버	-14834
▁유지했다	-14835
▁psych	-14836
항만	-14837
▁박스	-14838
▁메모리	-14839
▁솔직히	-14840
▁감사합니다	-14841
学生	-14842
▁목표는	-14843
▁당신은	-14844
▁active	-14845
교실	-14846
▁날짜	-14847
ソフト	-14848
▁떨어뜨	-14849
▁이후로	-14850
▁의료기관	-14851
종으로	-14852
▁만하다	-14853
minist	-14854
▁video	-14855
▁남을	-14856
▁extreme	-14857
방식	-14858
▁mor	-14859
▁공약을	-14860
▁손쉽게	-14861
▁중점을	-14862
▁패러다	-14863
▁일방적으로	-14864
▁written	-14865
▁India	-14866
マル	-14867
방해	-14868
▁돌아와	-14869
成績	-14870
전철	-14871
주의를	-14872
▁저지른	-14873
uk	-14874
▁겪은	-14875
▁로켓	-14876
▁소재를	-14877
▁compan	-14878
タン	-14879
ius	-14880
▁서서히	-14881
▁실시할	-14882
▁warm	-14883
▁모빌리티	-14884
▁프로그램이다	-14885
포스	-14886
▁암호	-14887
▁Why	-14888
▁기금	-14889
▁신경을	-14890
▁제공하기	-14891
▁5,	-14892
▁돼지	-14893
▁만의	-14894
▁합의했다	-14895
▁중소기업의	-14896
SP	-14897
▁증진	-14898
▁청산	-14899
▁기준에	-14900
▁중국인	-14901
▁하겠다는	-14902
▁serious	-14903
규칙	-14904
▁하계	-14905
하고도	-14906
으면서도	-14907
▁다음으로	-14908
▁메타버스	-14909
막이	-14910
▁할까	-14911
▁핵실험	-14912
aches	-14913
"|	-14914
를린	-14915
▁달러를	-14916
▁소비자의	-14917
estern	-14918
▁matter	-14919
古屋	-14920
디에	-14921
▁새끼	-14922
▁광범위	-14923
▁최소한	-14924
▁호흡을	-14925
▁feet	-14926
▁유명하다	-14927
▁이뤄지고	-14928
▁growing	-14929
▁감성	-14930
▁드물	-14931
ストラ	-14932
▁아들을	-14933
インター	-14934
얀마	-14935
자녀	-14936
▁분들	-14937
▁알바	-14938
▁관리가	-14939
▁사용하지	-14940
▁observ	-14941
▁methods	-14942
▁탕	-14943
어와	-14944
▁과잉	-14945
▁김희	-14946
▁재판을	-14947
▁본부장은	-14948
▁지난해에는	-14949
▁safety	-14950
生活	-14951
슬러	-14952
▁박사는	-14953
▁제치고	-14954
▁조속히	-14955
▁경신	-14956
▁노란	-14957
▁priv	-14958
▁대통령실	-14959
▁카카오톡	-14960
ッツ	-14961
면허	-14962
목표	-14963
▁글이	-14964
▁리조	-14965
주의적	-14966
▁wood	-14967
돈을	-14968
vey	-14969
▁Inc	-14970
▁누군가	-14971
▁원인으로	-14972
ミー	-14973
▁여지가	-14974
工業	-14975
산업을	-14976
▁대회는	-14977
언을	-14978
▁그릇	-14979
▁탁월한	-14980
▁조건으로	-14981
▁mental	-14982
▁적었다	-14983
▁작품이다	-14984
▁끌려	-14985
▁월급	-14986
▁350	-14987
▁relig	-14988
▁프리미어리그	-14989
경험	-14990
투갈	-14991
해보	-14992
▁더했다	-14993
▁때로는	-14994
▁기술력을	-14995
▁창단	-14996
▁불편한	-14997
▁시험을	-14998
▁someone	-14999
▁사적	-15000
▁팀장은	-15001
▁전체적으로	-15002
受賞	-15003
▁81	-15004
▁랜드	-15005
▁버려	-15006
タイト	-15007
했다면	-15008
▁브레이	-15009
itary	-15010
▁픽	-15011
여러	-15012
ony	-15013
▁저를	-15014
▁현수	-15015
▁sust	-15016
~1	-15017
▁꽂	-15018
場所	-15019
▁개발과	-15020
▁뜻하는	-15021
▁진실을	-15022
▁붓	-15023
▁폰	-15024
戦争	-15025
회원	-15026
거래소	-15027
▁방송에서	-15028
OM	-15029
양은	-15030
▁‘3	-15031
▁덜어	-15032
▁박찬	-15033
プロデュー	-15034
▁펠	-15035
ダイ	-15036
마일	-15037
▁상세	-15038
構成	-15039
joy	-15040
▁부하	-15041
▁가입자	-15042
istance	-15043
▁꾸려	-15044
▁영장	-15045
▁basic	-15046
▁looking	-15047
니의	-15048
▁승격	-15049
▁재택	-15050
▁커버	-15051
▁추세다	-15052
運動	-15053
업이	-15054
▁휩싸	-15055
▁위상을	-15056
색의	-15057
자이	-15058
net	-15059
▁文	-15060
▁Bo	-15061
▁달에	-15062
▁역설	-15063
▁흩	-15064
uge	-15065
▁생계	-15066
▁불공정	-15067
코올	-15068
▁단말	-15069
▁농어촌	-15070
▁업체는	-15071
▁의사가	-15072
▁연체	-15073
▁해킹	-15074
▁미국을	-15075
▁밝히고	-15076
▁series	-15077
▁simply	-15078
공식	-15079
움과	-15080
▁쳐다	-15081
지역을	-15082
▁사업과	-15083
억원에서	-15084
▁manufact	-15085
>,	-15086
バル	-15087
▁떠나는	-15088
▁emot	-15089
▁병원에서	-15090
▁순차적으로	-15091
끄럽	-15092
▁나고	-15093
스바	-15094
▁나누어	-15095
verse	-15096
▁heav	-15097
▁news	-15098
▁유상	-15099
▁미래의	-15100
▁반려동물	-15101
▁천재	-15102
▁매치	-15103
▁모듈	-15104
번째로	-15105
▁롯데마트	-15106
▁제품이다	-15107
必要	-15108
▁ox	-15109
▁기기	-15110
▁불펜	-15111
지니어링	-15112
▁numbers	-15113
▁발병	-15114
▁separ	-15115
▁브리핑에서	-15116
▁기성	-15117
훈련을	-15118
新聞	-15119
조치를	-15120
차전지	-15121
▁GDP	-15122
オリ	-15123
배가	-15124
▁싶지	-15125
▁유흥	-15126
공간을	-15127
▁강렬한	-15128
▁팬데믹	-15129
▁효율적으로	-15130
민간	-15131
▁사라진	-15132
issions	-15133
考え	-15134
관왕	-15135
하듯	-15136
▁좋게	-15137
▁양질의	-15138
BI	-15139
わり	-15140
정기	-15141
▁삶에	-15142
▁키우고	-15143
어스	-15144
▁등재	-15145
▁발레	-15146
▁시속	-15147
▁좋았다	-15148
irm	-15149
▁98	-15150
▁감독과	-15151
▁않으며	-15152
▁의견도	-15153
▁이창	-15154
バンド	-15155
▁teeth	-15156
▁약물	-15157
▁주축	-15158
▁알아야	-15159
▁정상회의	-15160
▁롱	-15161
지급	-15162
▁과천	-15163
▁식량	-15164
▁1972	-15165
▁サ	-15166
oes	-15167
▁수신	-15168
▁판정	-15169
▁이루는	-15170
iforn	-15171
▁시스템이	-15172
▁양식	-15173
▁시간과	-15174
▁실시하는	-15175
▁remov	-15176
▁신생	-15177
▁0.5	-15178
▁드러난	-15179
▁삼성물	-15180
▁수산물	-15181
(27	-15182
졌으며	-15183
▁hyd	-15184
▁홈페이지에서	-15185
4,	-15186
퍼런스	-15187
▁안전성	-15188
▁ensure	-15189
념을	-15190
일인	-15191
형사	-15192
EFA	-15193
인데요	-15194
▁시대가	-15195
전망	-15196
▁viol	-15197
ederal	-15198
▁veget	-15199
중을	-15200
▁둔화	-15201
▁열차	-15202
▁고려대	-15203
▁받으면	-15204
▁흠	-15205
▁전락	-15206
、18	-15207
▁사례는	-15208
▁제안한	-15209
선택	-15210
▁고지	-15211
▁맥락	-15212
ろう	-15213
▁sex	-15214
▁유나이	-15215
▁밝혀졌다	-15216
편에	-15217
▁가축	-15218
▁의왕	-15219
▁기술로	-15220
▁업계의	-15221
▁페이지	-15222
▁sometimes	-15223
▁쉽고	-15224
▁と	-15225
바라	-15226
▁출제	-15227
그러나	-15228
기업을	-15229
하니까	-15230
▁분야는	-15231
▁체결했다고	-15232
内の	-15233
▁프라	-15234
▁회전	-15235
루션을	-15236
▁신속히	-15237
▁night	-15238
▁outside	-15239
진한	-15240
▁느낀다	-15241
▁도입한	-15242
자에게는	-15243
ellow	-15244
▁Prog	-15245
▁어머니는	-15246
▁teachers	-15247
組織	-15248
련의	-15249
▁받으	-15250
▁숨어	-15251
▁목적을	-15252
▁혜택이	-15253
▁흐르는	-15254
▁홈페이지에	-15255
동기	-15256
▁経歴	-15257
▁제국	-15258
▁말부터	-15259
▁여성은	-15260
▁작업에	-15261
▁easily	-15262
심판	-15263
왔고	-15264
▁Read	-15265
▁‘2021	-15266
레나	-15267
렉스	-15268
▁96	-15269
드에서	-15270
▁출시된	-15271
▁lack	-15272
▁실질적으로	-15273
-18	-15274
amed	-15275
▁건물을	-15276
▁걸었다	-15277
▁달라진	-15278
▁편리하게	-15279
EL	-15280
RT	-15281
체와	-15282
티아	-15283
▁독도	-15284
▁하여금	-15285
스틴	-15286
▁좀더	-15287
▁뜻한다	-15288
론은	-15289
음의	-15290
▁의학	-15291
▁내놓고	-15292
▁total	-15293
アイ	-15294
▁스펙	-15295
▁내용에	-15296
업소	-15297
▁글로	-15298
▁보이스	-15299
rs	-15300
이든	-15301
▁2)	-15302
▁숨을	-15303
▁각자의	-15304
▁방안에	-15305
しており	-15306
중계	-15307
▁강사	-15308
▁불황	-15309
▁심상	-15310
▁arg	-15311
▁다루는	-15312
▁생각도	-15313
▁제도가	-15314
▁society	-15315
▁한도	-15316
▁한류	-15317
▁지나지	-15318
▁이뤄지는	-15319
▁산출	-15320
▁그녀를	-15321
行政	-15322
특례	-15323
hol	-15324
▁확인된	-15325
rage	-15326
공자	-15327
▁파일	-15328
名古屋	-15329
▁compl	-15330
외국	-15331
▁귀여	-15332
▁나노	-15333
네스코	-15334
▁교육과정	-15335
▁involved	-15336
引き	-15337
▁간판	-15338
▁규명	-15339
▁종류의	-15340
▁prop	-15341
▁인정하고	-15342
▁주먹	-15343
▁대책이	-15344
▁자금이	-15345
▁박수	-15346
▁소극	-15347
▁유동성	-15348
▁레스토랑	-15349
▁1975	-15350
▁대부분은	-15351
▁streng	-15352
빌딩	-15353
▁단백질	-15354
▁하기도	-15355
▁대구경북	-15356
NC	-15357
선생	-15358
▁입맛	-15359
▁가지는	-15360
PD	-15361
▁급감	-15362
▁sea	-15363
▁금액은	-15364
▁신청한	-15365
차피	-15366
통계	-15367
▁치른	-15368
▁총선에서	-15369
gn	-15370
▁답을	-15371
▁반해	-15372
▁공급망	-15373
▁gard	-15374
군사	-15375
▁리버	-15376
▁차량이	-15377
▁만들어야	-15378
▁aware	-15379
▁백성	-15380
▁그들을	-15381
해줄	-15382
희의	-15383
···	-15384
▁시그	-15385
상공회의	-15386
▁소비자들이	-15387
순실	-15388
▁4%	-15389
▁Mon	-15390
▁비로소	-15391
▁심의를	-15392
패션	-15393
▁대회에	-15394
▁올해의	-15395
▁전반적으로	-15396
▁(0	-15397
▁이루어진	-15398
반도	-15399
손해	-15400
bor	-15401
▁우편	-15402
▁해보	-15403
▁2.0	-15404
▁계신	-15405
▁아저	-15406
▁지수는	-15407
리얼	-15408
▁존경	-15409
▁컬렉	-15410
▁환자를	-15411
스톱	-15412
▁먹으면	-15413
▁vari	-15414
▁건전	-15415
▁김형	-15416
▁신천	-15417
▁저축	-15418
▁강화에	-15419
▁높아질	-15420
▁사건과	-15421
▁장관을	-15422
▁긍정적으로	-15423
동력	-15424
변경	-15425
크가	-15426
▁조짐	-15427
ises	-15428
▁vit	-15429
▁바람을	-15430
▁가능하도록	-15431
に伴	-15432
커스	-15433
▁大阪	-15434
▁주방	-15435
교육감	-15436
▁British	-15437
ると	-15438
。「	-15439
▁스승	-15440
uted	-15441
오카	-15442
▁부양	-15443
▁sources	-15444
겨레	-15445
▁막고	-15446
▁원고	-15447
▁농식품	-15448
▁사건으로	-15449
▁김천	-15450
▁침공	-15451
▁혼합	-15452
이므로	-15453
▁근거가	-15454
▁magn	-15455
▁경고했다	-15456
▁normal	-15457
▁continue	-15458
ガー	-15459
▁벤치	-15460
▁상품은	-15461
기보다는	-15462
▁신재생에너지	-15463
대리	-15464
▁Cor	-15465
▁강력히	-15466
▁협업을	-15467
▁started	-15468
▁무의	-15469
▁환승	-15470
▁나서야	-15471
▁법안을	-15472
▁tree	-15473
▁부상으로	-15474
▁쿨	-15475
▁우유	-15476
▁위헌	-15477
디는	-15478
▁강진	-15479
▁타자	-15480
▁Serv	-15481
마토	-15482
모터	-15483
속을	-15484
▁벌여	-15485
▁결국은	-15486
▁위주의	-15487
gency	-15488
수리	-15489
으론	-15490
▁공화당	-15491
▁아래로	-15492
▁terms	-15493
▁History	-15494
終了	-15495
▁유럽의	-15496
ancial	-15497
▁forest	-15498
▁근절	-15499
▁대항	-15500
▁잠을	-15501
▁led	-15502
▁개최된	-15503
▁맛있는	-15504
▁서둘러	-15505
▁true	-15506
▁저소득층	-15507
▁철저하게	-15508
▁필요성이	-15509
유행	-15510
기간이	-15511
orks	-15512
▁교과서	-15513
▁벌이는	-15514
▁fem	-15515
▁규정에	-15516
▁요인으로	-15517
に改	-15518
미로	-15519
▁편안한	-15520
rior	-15521
▁cover	-15522
▁culture	-15523
▁가산	-15524
▁우회	-15525
▁흑자	-15526
▁높다는	-15527
▁고객들이	-15528
alu	-15529
▁산업단지	-15530
ifornia	-15531
비행	-15532
▁소지	-15533
▁성격을	-15534
政府	-15535
▁나지	-15536
▁응모	-15537
▁정진	-15538
기업에	-15539
▁대학원	-15540
▁되겠다	-15541
right	-15542
합병	-15543
▁부를	-15544
▁있거나	-15545
▁효과는	-15546
It	-15547
▁“3	-15548
▁스포	-15549
▁출연한	-15550
▁1976	-15551
▁내용이다	-15552
▁ideas	-15553
▁target	-15554
わせ	-15555
▁계획에	-15556
▁명령을	-15557
▁체제를	-15558
▁철수	-15559
석에서	-15560
▁King	-15561
강남	-15562
itution	-15563
son	-15564
▁전염	-15565
▁지식을	-15566
▁관련해서는	-15567
단장	-15568
됐으나	-15569
시켜야	-15570
▁SSG	-15571
▁자가격	-15572
▁자치단체	-15573
WS	-15574
▁가정의	-15575
▁위원회	-15576
▁patient	-15577
formation	-15578
なり	-15579
▁강구	-15580
▁이화	-15581
문제를	-15582
imately	-15583
航空	-15584
대형	-15585
인식	-15586
▁홍성	-15587
▁가톨릭	-15588
▁거리에	-15589
▁광고를	-15590
▁뜻으로	-15591
▁유학생	-15592
▁shown	-15593
▁Department	-15594
)3	-15595
GC	-15596
自治	-15597
▁근접	-15598
▁사면	-15599
▁ISBN	-15600
▁강조하는	-15601
▁フ	-15602
▁뜯	-15603
타자	-15604
▁권역	-15605
▁휘발	-15606
지사는	-15607
TM	-15608
▁인종	-15609
▁걱정이	-15610
해준	-15611
▁면허	-15612
▁바쁜	-15613
▁짓고	-15614
▁청주시	-15615
만으로도	-15616
강의	-15617
▁감찰	-15618
노동조합	-15619
▁안전하고	-15620
▁compet	-15621
▁inside	-15622
▁대부	-15623
▁여전	-15624
▁구조조	-15625
▁절차가	-15626
▁’	-15627
▁공판	-15628
▁무언	-15629
-9	-15630
너무	-15631
▁쓰이는	-15632
▁불꽃	-15633
▁장병	-15634
▁베르	-15635
▁심어	-15636
체스터	-15637
▁가득한	-15638
▁것일까	-15639
▁부가가	-15640
▁difference	-15641
▁パ	-15642
ユニ	-15643
십자	-15644
프랑	-15645
▁89	-15646
과대학	-15647
▁시리아	-15648
▁국민의힘은	-15649
기초	-15650
해수	-15651
▁동원해	-15652
▁순이익	-15653
▁poor	-15654
배출	-15655
분기에	-15656
"...	-15657
▁토로했다	-15658
그라	-15659
예금	-15660
▁양의	-15661
▁처한	-15662
이랑	-15663
▁공제	-15664
▁도시로	-15665
▁삼고	-15666
였다고	-15667
주의의	-15668
▁서울시가	-15669
太郎	-15670
(28	-15671
iot	-15672
▁약한	-15673
▁도시의	-15674
▁정권의	-15675
▁처벌을	-15676
▁사회에서	-15677
▁provided	-15678
아를	-15679
▁느꼈다	-15680
▁사람들도	-15681
▁events	-15682
초를	-15683
elt	-15684
권에서	-15685
▁작성한	-15686
▁1971	-15687
▁upon	-15688
이노베이션	-15689
▁불가능하다	-15690
▁세븐	-15691
▁compon	-15692
よく	-15693
난을	-15694
▁넘어선	-15695
▁이낙연	-15696
▁standard	-15697
愛知	-15698
니를	-15699
루스	-15700
ica	-15701
▁성명	-15702
▁해명	-15703
업계의	-15704
MP	-15705
学科	-15706
지휘	-15707
테랑	-15708
▁일요일	-15709
▁구성된다	-15710
만금	-15711
내셔널	-15712
▁exercise	-15713
▁제압	-15714
▁공급이	-15715
▁끝나는	-15716
▁주택을	-15717
▁added	-15718
장학	-15719
arr	-15720
▁인쇄	-15721
▁표명	-15722
▁보궐선거	-15723
▁신한금융	-15724
▁integ	-15725
과장	-15726
주자	-15727
▁휴게	-15728
병원은	-15729
▁squ	-15730
▁받았던	-15731
▁부모가	-15732
▁하려고	-15733
백신	-15734
이죠	-15735
조례	-15736
▁그러니	-15737
▁되돌아	-15738
▁일부는	-15739
▁seem	-15740
결혼	-15741
수학	-15742
▁매립	-15743
▁염려	-15744
▁손잡고	-15745
▁이라크	-15746
▁전보다	-15747
▁학생을	-15748
▁response	-15749
bre	-15750
▁부평	-15751
rast	-15752
▁veh	-15753
▁대통령에	-15754
드럽	-15755
영웅	-15756
▁외곽	-15757
만큼은	-15758
▁되기를	-15759
に行	-15760
르몬	-15761
상도	-15762
▁기지	-15763
테크노	-15764
회장은	-15765
▁되살	-15766
▁answer	-15767
▁attention	-15768
▁모험	-15769
▁미드필	-15770
▁성추행	-15771
나도	-15772
콘서트	-15773
▁log	-15774
▁않았을	-15775
~12	-15776
かけて	-15777
▁남다른	-15778
▁mess	-15779
abetes	-15780
▁계획이라고	-15781
▁ec	-15782
스타일	-15783
▁성과가	-15784
▁내놓았다	-15785
▁넣은	-15786
▁유혹	-15787
▁금융투자	-15788
▁운영된다	-15789
rought	-15790
▁걸그룹	-15791
▁prep	-15792
▁시점에서	-15793
▁humans	-15794
감시	-15795
▁물려	-15796
▁regard	-15797
▁コ	-15798
열을	-15799
플라	-15800
▁우호	-15801
▁황제	-15802
▁흡연	-15803
これは	-15804
단계로	-15805
▁마이클	-15806
▁있었을	-15807
▁나름대로	-15808
▁movement	-15809
oo	-15810
스틱	-15811
호기	-15812
▁배울	-15813
▁성취	-15814
▁이룰	-15815
동으로	-15816
일부	-15817
▁각국	-15818
▁아이들에게	-15819
레저	-15820
블릿	-15821
cell	-15822
▁소장은	-15823
▁아닌데	-15824
ᅮᅮ	-15825
▁대치	-15826
▁저감	-15827
▁가르쳐	-15828
▁성남시	-15829
▁인구는	-15830
▁선보이며	-15831
▁우리은행	-15832
님과	-15833
메시	-15834
종목	-15835
▁추측	-15836
▁장학금	-15837
대책본부	-15838
▁전통적인	-15839
▁China	-15840
かい	-15841
(50	-15842
▁하나금융	-15843
심에	-15844
▁MS	-15845
▁건네	-15846
▁김일	-15847
▁밥을	-15848
▁조성해	-15849
▁북쪽	-15850
ecause	-15851
터널	-15852
▁다녔	-15853
▁열정	-15854
스트를	-15855
▁예산안	-15856
기업으로	-15857
▁achieve	-15858
르의	-15859
크의	-15860
ift	-15861
▁극심한	-15862
▁생산을	-15863
▁네트워크를	-15864
특구	-15865
rim	-15866
▁나빠	-15867
▁대단히	-15868
로와	-15869
-12	-15870
▁92	-15871
보고서	-15872
▁각각의	-15873
▁늘면서	-15874
▁몰랐다	-15875
▁열악한	-15876
할까	-15877
▁실감	-15878
▁해가	-15879
해준다	-15880
▁어렵고	-15881
▁의미하는	-15882
▁반납	-15883
▁종로구	-15884
▁camp	-15885
▁우즈	-15886
▁Let	-15887
▁Reg	-15888
▁가슴이	-15889
▁성능을	-15890
▁잇달아	-15891
▁환경에서	-15892
육성	-15893
공학과	-15894
▁부지에	-15895
▁있잖아요	-15896
▁계급	-15897
▁stay	-15898
인들	-15899
▁관행	-15900
▁메디	-15901
▁바둑	-15902
▁증가로	-15903
▁프로모션	-15904
▁メ	-15905
▁특성화	-15906
where	-15907
議院	-15908
등한	-15909
청사	-15910
▁보충	-15911
▁경제에	-15912
▁영업을	-15913
▁확인하는	-15914
▁minutes	-15915
▁アメリカ合衆国の	-15916
▁기술은	-15917
무가	-15918
진핑	-15919
폴리	-15920
활용	-15921
▁스태	-15922
군으로	-15923
▁기관의	-15924
▁다짐했다	-15925
스피	-15926
▁bit	-15927
▁물량을	-15928
기관으로	-15929
▁앞으로는	-15930
▁뭐냐	-15931
▁아일랜드	-15932
타지	-15933
▁박탈	-15934
▁일할	-15935
만원에서	-15936
형에	-15937
▁덕분	-15938
▁eye	-15939
정상회담	-15940
▁감사드린다	-15941
DB	-15942
ブロ	-15943
결이	-15944
고로	-15945
커피	-15946
▁아이는	-15947
▁회복을	-15948
▁자유로운	-15949
▁삼성전자의	-15950
食べ	-15951
▁탈퇴	-15952
empt	-15953
▁됐다고	-15954
ビル	-15955
back	-15956
▁나이에	-15957
▁살리기	-15958
▁윌리엄	-15959
차전에서	-15960
トン	-15961
彼女	-15962
▁일회	-15963
▁네이	-15964
▁버전	-15965
▁안드로	-15966
ky	-15967
뮌헨	-15968
KBS	-15969
▁브로	-15970
▁동의를	-15971
▁매출액은	-15972
開業	-15973
리바	-15974
약한	-15975
▁처방	-15976
▁애플리케이션	-15977
론의	-15978
▁같애	-15979
▁최하	-15980
캠퍼스	-15981
▁뛰었다	-15982
▁배우고	-15983
▁제공된다	-15984
リオ	-15985
노트	-15986
오롱	-15987
▁없다면	-15988
▁병원으로	-15989
▁복용	-15990
▁중지	-15991
▁실시해	-15992
▁종사자	-15993
▁tools	-15994
▁오스트리아	-15995
공무	-15996
루수	-15997
분부터	-15998
▁정하고	-15999
▁캐스팅	-16000
rated	-16001
▁청와대는	-16002
계에서	-16003
▁und	-16004
▁화장실	-16005
▁공식적으로	-16006
決勝	-16007
지배	-16008
▁공소	-16009
▁교도	-16010
▁부드럽	-16011
▁dang	-16012
▁국경	-16013
▁신도	-16014
inks	-16015
▁개인이	-16016
▁수출이	-16017
▁California	-16018
▁걸음	-16019
▁말아야	-16020
▁여부는	-16021
▁하도록	-16022
iques	-16023
▁probably	-16024
개와	-16025
▁지고	-16026
▁같아서	-16027
▁관계에	-16028
▁차례로	-16029
▁Associ	-16030
▁mechan	-16031
▁군의	-16032
▁사육	-16033
▁경기장	-16034
▁과거에	-16035
▁인생의	-16036
▁defin	-16037
bl	-16038
ウォ	-16039
▁공지	-16040
▁서술	-16041
▁신성장	-16042
▁않아서	-16043
▁관련해서	-16044
▁media	-16045
ガン	-16046
▁낮춰	-16047
▁해남	-16048
주세요	-16049
▁bad	-16050
▁appl	-16051
ゅう	-16052
▁동아리	-16053
▁출퇴근	-16054
▁pack	-16055
▁발견됐다	-16056
▁점검하고	-16057
마에	-16058
창출	-16059
투수	-16060
자유구역	-16061
▁국가대표팀	-16062
ops	-16063
▁역학	-16064
▁주된	-16065
카드는	-16066
▁싣	-16067
の地	-16068
▁사격	-16069
▁어디에	-16070
▁summer	-16071
▁내면	-16072
▁유저	-16073
▁조용히	-16074
fl	-16075
▁IC	-16076
지기도	-16077
▁우연히	-16078
교육지원	-16079
▁후쿠시마	-16080
▁붐	-16081
여건	-16082
▁탐방	-16083
▁개정을	-16084
▁반영된	-16085
▁병원을	-16086
iency	-16087
▁지시했다	-16088
인공	-16089
▁병역	-16090
▁블룸	-16091
효과를	-16092
life	-16093
▁알았다	-16094
지식	-16095
▁전성	-16096
▁대표로	-16097
▁참가해	-16098
▁행보를	-16099
▁claim	-16100
▁부탁드린다	-16101
▁generally	-16102
▁좌절	-16103
▁서로를	-16104
▁지었다	-16105
文庫	-16106
집단	-16107
▁이인	-16108
공화국	-16109
▁것이기	-16110
water	-16111
통이	-16112
▁온도	-16113
▁의식을	-16114
▁demon	-16115
▁중소벤처기업	-16116
▁relative	-16117
▁南	-16118
▁일하고	-16119
(29	-16120
▁소아	-16121
▁Bar	-16122
▁CNN	-16123
▁발굴해	-16124
▁색다른	-16125
▁아니야	-16126
▁추진에	-16127
▁때문으로	-16128
劇場	-16129
▁lo	-16130
▁개선이	-16131
▁투자에	-16132
강을	-16133
걸음	-16134
문과	-16135
영을	-16136
▁1945	-16137
▁강조하고	-16138
▁doctor	-16139
창원	-16140
▁경과	-16141
▁particularly	-16142
’)	-16143
언이	-16144
유는	-16145
지정	-16146
▁민관	-16147
▁그룹의	-16148
▁입지를	-16149
MB	-16150
감치	-16151
대우	-16152
▁가상자산	-16153
前に	-16154
▁반전	-16155
만원씩	-16156
▁만나볼	-16157
▁금융위기	-16158
▁allows	-16159
위생	-16160
킨다	-16161
▁국악	-16162
▁나가고	-16163
▁잘하는	-16164
카드를	-16165
▁Ant	-16166
▁사과를	-16167
▁현대차는	-16168
▁implement	-16169
▁명에	-16170
▁1977	-16171
▁업데이트	-16172
▁정교	-16173
に就任	-16174
の一部	-16175
多くの	-16176
년간의	-16177
▁개발이	-16178
▁1974	-16179
▁뚝	-16180
▁양평	-16181
▁위원장의	-16182
▁critical	-16183
ビス	-16184
과세	-16185
시쯤	-16186
▁1/	-16187
▁살기	-16188
▁아침에	-16189
▁울산시	-16190
▁이곳은	-16191
▁입장에	-16192
▁제외하면	-16193
▁forms	-16194
▁unique	-16195
▁듯이	-16196
▁이진	-16197
▁경험과	-16198
▁기준금리	-16199
▁벌어지는	-16200
▁ク	-16201
▁보람	-16202
▁전장	-16203
▁참모	-16204
▁노선을	-16205
▁요즘은	-16206
▁어울리는	-16207
▁달린	-16208
▁잠수	-16209
▁그레이	-16210
▁박람회	-16211
▁devices	-16212
연승	-16213
▁지친	-16214
part	-16215
▁손해를	-16216
▁처리를	-16217
▁제기된	-16218
▁받았다고	-16219
▁서울특별	-16220
▁accept	-16221
▁잎	-16222
체적	-16223
▁귀를	-16224
atives	-16225
2(	-16226
▁낯선	-16227
▁분포	-16228
▁한전	-16229
시설과	-16230
▁불필요한	-16231
▁캐릭터를	-16232
▁꽉	-16233
数の	-16234
단독	-16235
상가	-16236
▁신곡	-16237
▁많았고	-16238
▁walk	-16239
aly	-16240
▁93	-16241
▁민감	-16242
▁케이스	-16243
▁2500	-16244
▁road	-16245
▁い	-16246
업은	-16247
와이	-16248
회초	-16249
▁남의	-16250
▁식의	-16251
とともに	-16252
▁행사에는	-16253
▁촌	-16254
자재	-16255
dom	-16256
▁미성	-16257
▁양보	-16258
▁많다는	-16259
▁문화적	-16260
▁남는	-16261
업체가	-16262
▁Jan	-16263
▁목표다	-16264
▁신공항	-16265
▁절차에	-16266
▁정당한	-16267
ワールド	-16268
▁인정받아	-16269
저축	-16270
▁Sch	-16271
▁만나고	-16272
▁만만치	-16273
▁오르고	-16274
タイトル	-16275
▁선보이고	-16276
▁가기	-16277
▁무단	-16278
▁무거운	-16279
▁법원은	-16280
▁사정이	-16281
▁설치를	-16282
▁탄탄한	-16283
が発	-16284
오일	-16285
▁김혜	-16286
▁다저	-16287
▁der	-16288
▁육성을	-16289
▁출전해	-16290
朝日	-16291
어떤	-16292
▁쪽에	-16293
▁임대료	-16294
▁국가안보	-16295
▁예상보다	-16296
▁발동	-16297
업체인	-16298
▁egg	-16299
▁greater	-16300
load	-16301
▁지냈다	-16302
▁들어오는	-16303
▁books	-16304
사다	-16305
▁둘이	-16306
▁불행	-16307
▁히어로	-16308
||0||	-16309
▁만들겠다	-16310
▁파트너십	-16311
▁origin	-16312
▁결과다	-16313
▁고민이	-16314
▁집단감염	-16315
▁offer	-16316
▁produced	-16317
TC	-16318
▁발라	-16319
ancy	-16320
Hz	-16321
환이	-16322
▁견해	-16323
▁모순	-16324
▁펄	-16325
自身	-16326
들만	-16327
▁수목	-16328
▁초고	-16329
오프라인	-16330
▁산업혁명	-16331
ハン	-16332
경주	-16333
▁도요	-16334
▁손꼽	-16335
▁하라	-16336
▁경우를	-16337
▁가격으로	-16338
▁국제사회	-16339
운송	-16340
▁터널	-16341
▁노동조합	-16342
▁Ju	-16343
▁무덤	-16344
▁배운	-16345
▁신의	-16346
▁공격수	-16347
▁분양가	-16348
▁인물이	-16349
민주연합	-16350
EF	-16351
블루	-16352
점인	-16353
▁사외	-16354
▁MOU	-16355
▁과제로	-16356
▁최소한의	-16357
▁눈높	-16358
▁송치	-16359
▁정답	-16360
▁긴밀한	-16361
▁보도에	-16362
▁빈곤	-16363
랍니다	-16364
▁1968	-16365
▁late	-16366
▁솔루션을	-16367
▁하나하나	-16368
▁Black	-16369
찌감치	-16370
▁되어야	-16371
ディング	-16372
더라구요	-16373
▁선제적으로	-16374
▁예정이라고	-16375
▁position	-16376
서부	-16377
전북	-16378
텍스	-16379
▁하수	-16380
▁이렇다	-16381
▁논술	-16382
▁대안을	-16383
▁마드리	-16384
졌기	-16385
▁삼십	-16386
▁통치	-16387
▁Colle	-16388
▁drink	-16389
▁同	-16390
단다	-16391
링을	-16392
모집	-16393
▁기다려	-16394
▁서울과	-16395
▁extra	-16396
▁과징	-16397
▁꿈꾸는	-16398
▁역사와	-16399
라를	-16400
▁두는	-16401
を受け	-16402
스토어	-16403
지자체	-16404
...“	-16405
▁당국이	-16406
▁타당성	-16407
▁회장과	-16408
들에게도	-16409
▁전달하는	-16410
구리	-16411
발이	-16412
▁맞다	-16413
▁중학생	-16414
▁참으로	-16415
▁우리나라는	-16416
の子	-16417
날레	-16418
화물	-16419
▁쌍용	-16420
▁훌쩍	-16421
프로젝	-16422
▁예산은	-16423
▁주장에	-16424
▁심사위원	-16425
▁자신만의	-16426
▁沿	-16427
▁셔	-16428
발생	-16429
日から	-16430
▁교육은	-16431
▁전국에	-16432
勉強	-16433
보전	-16434
▁걷기	-16435
▁식약	-16436
문화의	-16437
▁뉴질랜드	-16438
▁방문하는	-16439
번지	-16440
쳤고	-16441
▁공조	-16442
▁로스	-16443
▁토끼	-16444
했으면	-16445
▁민감한	-16446
▁젠	-16447
진으로	-16448
▁당기순	-16449
▁백악관	-16450
▁서울에	-16451
▁instead	-16452
▁찔	-16453
고리	-16454
uth	-16455
이라서	-16456
ington	-16457
▁waste	-16458
▁체계적으로	-16459
▁지붕	-16460
▁NAS	-16461
▁체결한	-16462
▁Char	-16463
▁rev	-16464
▁Park	-16465
全国	-16466
격으로	-16467
▁강의를	-16468
▁선정한	-16469
ヨー	-16470
성적	-16471
시께	-16472
째를	-16473
▁대검	-16474
▁신앙	-16475
を経て	-16476
olec	-16477
▁없었고	-16478
▁예컨대	-16479
人は	-16480
주교	-16481
▁안정적	-16482
▁이뤘다	-16483
▁않겠다는	-16484
▁질병관리	-16485
▁고추	-16486
▁모르게	-16487
▁못지않	-16488
▁주어진	-16489
사회복지	-16490
ching	-16491
▁설명하고	-16492
시피	-16493
나가는	-16494
입니까	-16495
▁작용할	-16496
▁토론회	-16497
▁disco	-16498
▁estim	-16499
▁quickly	-16500
▁유재	-16501
▁골프장	-16502
▁이야기는	-16503
▁determine	-16504
ビア	-16505
처음	-16506
▁짐작	-16507
▁후회	-16508
▁Are	-16509
▁정책과	-16510
▁목소리도	-16511
▁발생한다	-16512
決定	-16513
동부	-16514
▁하얀	-16515
라디오	-16516
▁느끼게	-16517
▁한복	-16518
▁feed	-16519
シェ	-16520
▁공연은	-16521
▁나누고	-16522
▁사운드	-16523
▁요소를	-16524
▁엔터테인먼트	-16525
▁삶이	-16526
님께서	-16527
▁Sw	-16528
▁양쪽	-16529
▁Vol	-16530
▁공개됐다	-16531
▁기다리는	-16532
▁설치하고	-16533
▁자아냈다	-16534
ディア	-16535
▁공모전	-16536
▁꼼꼼히	-16537
ルス	-16538
▁94	-16539
▁SW	-16540
▁배워	-16541
▁이다	-16542
ille	-16543
▁모두를	-16544
▁파라	-16545
ニング	-16546
▁타이틀곡	-16547
▁평균자책	-16548
독한	-16549
▁일일이	-16550
▁성별	-16551
단에서	-16552
일에도	-16553
▁hot	-16554
▁경기침	-16555
▁During	-16556
▁infection	-16557
メダ	-16558
▁선언한	-16559
▁챔피언스리그	-16560
▁칩	-16561
bit	-16562
일수록	-16563
▁판단해	-16564
▁Even	-16565
MD	-16566
結婚	-16567
▁돕고	-16568
▁112	-16569
▁결과적으로	-16570
ただ	-16571
千葉	-16572
構造	-16573
따라	-16574
▁박병	-16575
▁dry	-16576
▁미소를	-16577
▁요청을	-16578
▁대선후보	-16579
▁포르투갈	-16580
▁ミ	-16581
▁왠	-16582
前の	-16583
▁확정된	-16584
▁Trans	-16585
とう	-16586
▁이색	-16587
▁dou	-16588
▁동성	-16589
뿐이다	-16590
셀로나	-16591
edia	-16592
▁기술의	-16593
폭을	-16594
bol	-16595
▁측면이	-16596
▁피해자가	-16597
▁등교	-16598
▁묶어	-16599
▁policy	-16600
▁communities	-16601
▁주장한다	-16602
▁지급한다	-16603
▁enjoy	-16604
강도	-16605
▁번씩	-16606
▁컴백	-16607
▁companies	-16608
업의	-16609
▁당대표	-16610
▁막내	-16611
▁파고	-16612
▁상당수	-16613
▁유네스코	-16614
개편	-16615
▁예수	-16616
비서관	-16617
▁균형을	-16618
▁역사가	-16619
▁차라리	-16620
rition	-16621
추천	-16622
▁마디	-16623
▁뮌헨	-16624
▁이길	-16625
yp	-16626
▁Mc	-16627
▁길은	-16628
▁허락	-16629
▁대학을	-16630
▁방문을	-16631
▁91	-16632
하지도	-16633
▁LTE	-16634
▁조기에	-16635
指導	-16636
기정	-16637
▁개를	-16638
▁거울	-16639
▁채취	-16640
시설에	-16641
▁나와서	-16642
▁문화의	-16643
▁불린다	-16644
▁클러스터	-16645
론가	-16646
수행	-16647
▁ir	-16648
ider	-16649
aries	-16650
▁자체적으로	-16651
▁햄	-16652
▁세우	-16653
▁속한	-16654
▁터져	-16655
임대주택	-16656
osing	-16657
▁한국은행	-16658
▁북핵	-16659
avor	-16660
▁법원에	-16661
▁셀트리	-16662
▁중소형	-16663
▁추진한	-16664
▁적용되는	-16665
곳은	-16666
공모	-16667
▁가뭄	-16668
▁구는	-16669
▁청탁	-16670
사업과	-16671
arily	-16672
▁현실적으로	-16673
▁박주	-16674
테이션	-16675
LPGA	-16676
▁기여한	-16677
회의실에서	-16678
간접	-16679
버드	-16680
인원	-16681
▁물고	-16682
でした	-16683
▁부부가	-16684
▁Over	-16685
▁reported	-16686
▁performance	-16687
プラ	-16688
▁상을	-16689
▁차원	-16690
▁펼친다	-16691
ror	-16692
▁권익	-16693
▁포도	-16694
대책을	-16695
▁당시에	-16696
ブリ	-16697
윤리	-16698
기업인	-16699
▁사교육	-16700
▁이산화	-16701
▁지방의	-16702
▁기울이고	-16703
カン	-16704
▁원화	-16705
▁이광	-16706
▁Don	-16707
▁초청해	-16708
우와	-16709
▁좁은	-16710
▁도의회	-16711
▁방식은	-16712
▁초대형	-16713
5,	-16714
▁“4	-16715
ッシュ	-16716
▁폼	-16717
第一	-16718
▁HD	-16719
メート	-16720
東京都	-16721
▁자녀를	-16722
▁사람들과	-16723
▁시작되는	-16724
▁엮	-16725
教員	-16726
▁마시고	-16727
▁예고했다	-16728
▁있겠지만	-16729
”.	-16730
환을	-16731
▁전과	-16732
▁폭탄	-16733
▁국가를	-16734
▁사용이	-16735
▁스프링	-16736
▁신선한	-16737
▁추정되는	-16738
▁룰	-16739
▁업무에	-16740
▁minim	-16741
▁권위	-16742
▁영세	-16743
▁응용	-16744
▁위기가	-16745
▁찾아볼	-16746
▁미드필더	-16747
MBC	-16748
▁산다	-16749
는다고	-16750
▁하늘을	-16751
▁부사장은	-16752
▁해석된다	-16753
동화	-16754
파는	-16755
urg	-16756
▁교차	-16757
▁유감	-16758
▁클리	-16759
▁비공개	-16760
▁실장은	-16761
특별자치	-16762
▁방송되는	-16763
▁지원했다	-16764
▁행정안전부	-16765
▁감싸	-16766
▁세일	-16767
▁재편	-16768
▁예쁘	-16769
▁남자가	-16770
▁노력해	-16771
▁완전한	-16772
▁집중할	-16773
▁tiss	-16774
▁확정했다	-16775
▁compared	-16776
력도	-16777
eks	-16778
▁방류	-16779
コード	-16780
▁넘어가	-16781
▁Press	-16782
▁Develop	-16783
▁私	-16784
▁용이	-16785
커머스	-16786
ying	-16787
▁나갔다	-16788
사원	-16789
▁사직	-16790
▁lat	-16791
▁조별리그	-16792
▁thinking	-16793
▁traditional	-16794
가리	-16795
▁수익성	-16796
▁원인은	-16797
▁sound	-16798
업체의	-16799
화했다	-16800
▁수행할	-16801
▁고집	-16802
▁위장	-16803
▁European	-16804
점도	-16805
▁베네	-16806
▁증설	-16807
▁기억을	-16808
▁어두운	-16809
▁참고로	-16810
リリース	-16811
▁근무하는	-16812
보유	-16813
차원	-16814
▁합산	-16815
▁전제로	-16816
▁points	-16817
▁multiple	-16818
▁곳도	-16819
▁공헌	-16820
▁문경	-16821
▁오랜만에	-16822
▁탔	-16823
되었	-16824
멘트	-16825
전선	-16826
패스	-16827
▁소액	-16828
▁여부가	-16829
▁휴식을	-16830
▁대표적이다	-16831
2.	-16832
スー	-16833
있고	-16834
▁번호	-16835
▁진흥	-16836
▁파산	-16837
라이더	-16838
anks	-16839
term	-16840
▁Red	-16841
▁메시지	-16842
▁인간은	-16843
▁wall	-16844
▁인물이다	-16845
▁전문성을	-16846
에어	-16847
▁거창	-16848
▁바닥에	-16849
▁cool	-16850
▁가평	-16851
▁가만히	-16852
▁신입생	-16853
▁좀처럼	-16854
▁결정적인	-16855
▁해외에서	-16856
▁침입	-16857
▁대응에	-16858
▁판매량	-16859
▁수행하는	-16860
▁무섭	-16861
▁스킨	-16862
▁조현	-16863
▁동아시아	-16864
▁“2	-16865
ties	-16866
▁생긴다	-16867
만원까지	-16868
▁Prof	-16869
▁refer	-16870
▁화폐	-16871
겠는가	-16872
▁미분양	-16873
▁저렇게	-16874
▁조사가	-16875
▁행복을	-16876
▁확대될	-16877
▁1930	-16878
▁concent	-16879
▁크레	-16880
층에서	-16881
▁注	-16882
업종	-16883
▁외신	-16884
▁최장	-16885
▁파생	-16886
われる	-16887
▁그렇기	-16888
▁select	-16889
名の	-16890
학부	-16891
▁늦은	-16892
▁데서	-16893
▁버린	-16894
▁국무총	-16895
▁규제가	-16896
▁시위를	-16897
▁점검을	-16898
▁제임스	-16899
다양	-16900
호영	-16901
▁기탁	-16902
▁놓인	-16903
▁행위가	-16904
▁개발하는	-16905
욕장	-16906
▁불렀다	-16907
▁주장이다	-16908
사정	-16909
▁박용	-16910
▁일정이	-16911
▁제작된	-16912
▁태평양	-16913
▁card	-16914
▁경찰관	-16915
後は	-16916
컴퍼	-16917
▁늘리	-16918
▁스틸	-16919
さらに	-16920
病院	-16921
한화	-16922
▁실습	-16923
가에서	-16924
▁끊이지	-16925
▁사우디	-16926
▁이태원	-16927
만원이다	-16928
▁images	-16929
란이	-16930
▁곡을	-16931
▁보라	-16932
▁학교의	-16933
▁공유하는	-16934
▁무대에서	-16935
▁달콤	-16936
▁척추	-16937
▁bacteria	-16938
고사	-16939
다음	-16940
비상	-16941
주신	-16942
▁재임	-16943
オープ	-16944
▁권력을	-16945
ctions	-16946
▁cross	-16947
LE	-16948
▁과반	-16949
▁Dav	-16950
▁계획은	-16951
▁늙	-16952
▁aff	-16953
▁여성을	-16954
▁오로지	-16955
▁고객들의	-16956
▁분석됐다	-16957
▁브랜드로	-16958
▁솟	-16959
찬을	-16960
ext	-16961
▁무서운	-16962
▁자격증	-16963
▁처음에	-16964
▁있었으나	-16965
ザー	-16966
▁고사	-16967
▁머릿	-16968
▁예매	-16969
研究所	-16970
▁got	-16971
▁차질이	-16972
▁추억을	-16973
▁행사로	-16974
▁진행되며	-16975
세안	-16976
코는	-16977
▁강수	-16978
▁귀가	-16979
▁역동	-16980
▁착한	-16981
▁IMF	-16982
▁연이어	-16983
▁태어났다	-16984
▁scientific	-16985
間の	-16986
▁총력	-16987
기에서	-16988
▁공연이	-16989
▁신기술	-16990
▁주목할	-16991
▁투표를	-16992
RS	-16993
▁썰	-16994
セル	-16995
文学	-16996
매치	-16997
사관	-16998
채용	-16999
▁차이는	-17000
무라	-17001
▁불량	-17002
▁실수	-17003
▁original	-17004
▁볼넷	-17005
▁순식	-17006
▁크림	-17007
으로만	-17008
회사가	-17009
▁들어올	-17010
▁조성에	-17011
▁보건복지부	-17012
전당	-17013
라이브	-17014
▁Use	-17015
▁자세를	-17016
▁レ	-17017
ero	-17018
▁동호	-17019
▁소모	-17020
▁봅니다	-17021
▁관광객이	-17022
▁활동하는	-17023
isions	-17024
의사	-17025
▁끝날	-17026
▁스파	-17027
친환경	-17028
▁미국인	-17029
▁엄격한	-17030
▁친구들이	-17031
九州	-17032
▁꺾고	-17033
▁성실	-17034
공사의	-17035
▁Mod	-17036
▁Sim	-17037
▁예정돼	-17038
▁사라졌다	-17039
IB	-17040
면세	-17041
밴드	-17042
포항	-17043
▁각광	-17044
▁될지	-17045
▁아파	-17046
▁절약	-17047
rench	-17048
트에서	-17049
▁연락을	-17050
自由	-17051
▁아리	-17052
▁끝나면	-17053
▁충청권	-17054
▁appropri	-17055
담한	-17056
▁쓴다	-17057
▁학생과	-17058
▁감사하다	-17059
박이	-17060
주며	-17061
enc	-17062
▁일간	-17063
▁항암	-17064
▁내리고	-17065
ding	-17066
▁던졌다	-17067
▁보다는	-17068
▁싶어요	-17069
▁인용해	-17070
▁주택담보대출	-17071
▁primary	-17072
だが	-17073
영어	-17074
▁카이	-17075
▁정리해	-17076
카르	-17077
▁복무	-17078
지역은	-17079
▁고객은	-17080
▁중심에	-17081
▁speak	-17082
▁구속영장을	-17083
루미	-17084
미세	-17085
▁전작	-17086
▁함양	-17087
▁건수는	-17088
▁베를린	-17089
석과	-17090
▁고창	-17091
▁뛰는	-17092
평가를	-17093
▁걸리는	-17094
▁더구나	-17095
▁권장	-17096
▁대원	-17097
ided	-17098
▁東京都	-17099
▁국회가	-17100
▁도시를	-17101
▁초부터	-17102
▁웹사이트	-17103
ension	-17104
▁leading	-17105
che	-17106
としては	-17107
▁Kore	-17108
트릭	-17109
▁구경	-17110
▁덴마크	-17111
▁마운드	-17112
▁비핵화	-17113
▁시설이	-17114
▁habit	-17115
더블	-17116
합을	-17117
vention	-17118
▁침몰	-17119
결과를	-17120
▁ast	-17121
▁韓	-17122
▁땅에	-17123
▁로이터	-17124
▁미얀마	-17125
▁선수의	-17126
▁엑스포	-17127
▁은메달	-17128
▁지나면	-17129
▁혁신적인	-17130
▁People	-17131
텃밭	-17132
▁거를	-17133
▁딸이	-17134
▁부가	-17135
▁아냐	-17136
소리를	-17137
▁작품으로	-17138
▁Africa	-17139
名は	-17140
CS	-17141
▁일명	-17142
合衆国	-17143
상황을	-17144
itis	-17145
▁임대주택	-17146
▁서브	-17147
.0%)	-17148
▁전쟁이	-17149
▁하겠습니다	-17150
▁network	-17151
MO	-17152
연도	-17153
▁간절	-17154
▁콘서	-17155
▁tri	-17156
▁라이트	-17157
▁마라톤	-17158
▁있기를	-17159
▁해운대	-17160
▁Since	-17161
ND	-17162
있어	-17163
▁과다	-17164
▁여왕	-17165
▁금감원	-17166
▁이번에도	-17167
▁har	-17168
▁전주시	-17169
▁경제성장	-17170
▁force	-17171
보육	-17172
▁후손	-17173
▁분석하고	-17174
▁시내버스	-17175
▁지방자치	-17176
▁컷	-17177
郵便	-17178
▁납치	-17179
▁대조	-17180
▁던진	-17181
▁쉽다	-17182
▁넌	-17183
▁검토할	-17184
상인	-17185
▁낮다	-17186
▁빚을	-17187
▁서산	-17188
▁푸드	-17189
▁시원한	-17190
▁학교가	-17191
企画	-17192
横浜	-17193
묘한	-17194
특수	-17195
▁신작	-17196
▁오십	-17197
기준을	-17198
▁선보여	-17199
▁배럴	-17200
▁비치	-17201
などを	-17202
놓았다	-17203
uman	-17204
▁cold	-17205
▁빼고	-17206
▁소각	-17207
▁일러	-17208
▁sil	-17209
▁주민이	-17210
그리	-17211
저널	-17212
asons	-17213
▁떠올랐다	-17214
▁analy	-17215
명씩	-17216
▁바퀴	-17217
▁버튼	-17218
▁압축	-17219
협동조합	-17220
▁연구팀은	-17221
▁일찌감치	-17222
icated	-17223
▁윗	-17224
▁구로	-17225
▁1969	-17226
▁당선인은	-17227
▁quite	-17228
분한	-17229
aur	-17230
▁긴축	-17231
▁요새	-17232
▁Jew	-17233
▁aim	-17234
▁즐겁게	-17235
▁동계올림픽	-17236
▁고립	-17237
▁어긋	-17238
2008	-17239
▁emb	-17240
▁명목으로	-17241
ibrary	-17242
▁그로	-17243
▁편지	-17244
に位置	-17245
민들의	-17246
▁검찰총	-17247
▁이거는	-17248
▁인문학	-17249
▁제재를	-17250
▁foot	-17251
▁prec	-17252
~2	-17253
影響	-17254
시픽	-17255
▁LS	-17256
▁전철	-17257
▁후임	-17258
...”	-17259
▁제기된다	-17260
▁progress	-17261
ほど	-17262
혈압	-17263
▁이시	-17264
▁탈당	-17265
▁뒤에는	-17266
▁전년보다	-17267
▁proced	-17268
가장	-17269
파워	-17270
▁거고	-17271
▁High	-17272
▁thous	-17273
인한	-17274
취약	-17275
▁강동	-17276
fort	-17277
▁mother	-17278
PR	-17279
▁DJ	-17280
▁커진	-17281
▁동대문	-17282
▁승용차	-17283
▁크루즈	-17284
▁behind	-17285
▁document	-17286
미애	-17287
소녀	-17288
팅을	-17289
▁분명한	-17290
▁추가적인	-17291
▁재원	-17292
キャラ	-17293
▁아내가	-17294
▁일부러	-17295
▁증가에	-17296
리던	-17297
학이	-17298
▁고양시	-17299
▁교육이	-17300
▁정상에	-17301
▁기본계획	-17302
▁시행하고	-17303
▁조성하는	-17304
섬유	-17305
신탁	-17306
▁팽팽	-17307
▁대가로	-17308
▁졸업생	-17309
▁졸업한	-17310
▁집회를	-17311
ologies	-17312
▁investig	-17313
周辺	-17314
部分	-17315
선도	-17316
식당	-17317
データ	-17318
년보다	-17319
▁장점을	-17320
uries	-17321
▁Water	-17322
▁발족	-17323
▁증폭	-17324
年まで	-17325
▁고양이	-17326
▁OECD	-17327
PT	-17328
남북	-17329
음료	-17330
▁국고	-17331
▁included	-17332
OW	-17333
▁VR	-17334
▁군포	-17335
▁안방	-17336
▁해산	-17337
▁한눈에	-17338
▁정규리그	-17339
仕事	-17340
▁학업	-17341
마당	-17342
특정	-17343
해야만	-17344
▁ice	-17345
▁벨기에	-17346
▁국토부는	-17347
▁반발하고	-17348
▁블룸버그	-17349
ulated	-17350
우로	-17351
▁나갔	-17352
▁납득	-17353
▁보건소	-17354
▁모두에게	-17355
▁상징하는	-17356
▁reflect	-17357
미르	-17358
형과	-17359
▁방과	-17360
▁탐구	-17361
▁소나무	-17362
▁이외에	-17363
▁활발하게	-17364
내외	-17365
발로	-17366
방문	-17367
외과	-17368
▁일곱	-17369
▁1.2	-17370
▁일부가	-17371
▁지방세	-17372
▁브랜드의	-17373
학술	-17374
▁해소를	-17375
▁예방접종	-17376
▁오미크론	-17377
▁official	-17378
비대	-17379
앨범	-17380
▁높인	-17381
▁방출	-17382
▁야기	-17383
▁재학	-17384
루에서	-17385
▁체험할	-17386
▁City	-17387
▁Because	-17388
▁단단	-17389
▁검토해	-17390
▁그러고	-17391
플러스는	-17392
▁당시에는	-17393
▁altern	-17394
▁yourself	-17395
선물	-17396
혜택	-17397
(40	-17398
▁늘릴	-17399
센터의	-17400
▁국민적	-17401
▁game	-17402
▁딸을	-17403
▁불만	-17404
と共に	-17405
▁경기도는	-17406
ダム	-17407
벽을	-17408
▁부른	-17409
▁해지	-17410
주었다	-17411
▁목적이	-17412
▁지상파	-17413
▁포인트를	-17414
▁features	-17415
하죠	-17416
▁달고	-17417
▁악성	-17418
▁펼치는	-17419
▁supply	-17420
공이	-17421
부상	-17422
▁6.	-17423
▁진도	-17424
ファン	-17425
▁말이야	-17426
▁하나씩	-17427
▁홈런을	-17428
▁맞붙	-17429
▁비결	-17430
▁예의	-17431
▁이장	-17432
▁주장은	-17433
▁front	-17434
大正	-17435
死去	-17436
타의	-17437
플래	-17438
▁끝이	-17439
▁잡기	-17440
▁조화	-17441
▁중진	-17442
절차를	-17443
▁직원을	-17444
▁취약한	-17445
▁피의자	-17446
▁개발했다	-17447
".	-17448
果た	-17449
일지	-17450
책으로	-17451
▁101	-17452
▁경쟁력이	-17453
▁전문가들의	-17454
▁nation	-17455
oud	-17456
を持つ	-17457
▁업체의	-17458
▁선거운동	-17459
PU	-17460
인인	-17461
▁건지	-17462
▁ang	-17463
▁헬스케어	-17464
▁나눌	-17465
상품을	-17466
자리를	-17467
▁과정은	-17468
문화재단	-17469
oming	-17470
▁weather	-17471
▁찢	-17472
▁이리	-17473
▁직결	-17474
마저도	-17475
▁전망을	-17476
스트리트	-17477
istry	-17478
▁보고서는	-17479
▁search	-17480
▁는	-17481
▁영농	-17482
▁울릉	-17483
▁정시	-17484
▁대대적인	-17485
▁wa	-17486
▁수직	-17487
▁질을	-17488
갤럭시	-17489
▁분석도	-17490
▁distrib	-17491
FF	-17492
編集	-17493
년차	-17494
▁뜨거	-17495
▁직권	-17496
▁드러내	-17497
▁인건비	-17498
▁아시아나항공	-17499
사상	-17500
▁충주	-17501
ホール	-17502
初めて	-17503
▁우리도	-17504
▁음식점	-17505
▁중간에	-17506
▁goal	-17507
▁고등학생	-17508
▁선수들을	-17509
▁adults	-17510
네가	-17511
▁디젤	-17512
▁갤러리	-17513
に対して	-17514
▁우려했다	-17515
▁사정	-17516
▁이현	-17517
모비스	-17518
연했다	-17519
▁(1)	-17520
▁산업을	-17521
▁여자가	-17522
▁이준석	-17523
▁힘으로	-17524
모빌리티	-17525
▁coun	-17526
▁실패했다	-17527
▁힙	-17528
해당	-17529
▁국외	-17530
▁시계	-17531
▁안을	-17532
업계는	-17533
イタリア	-17534
▁금융기관	-17535
▁이해관계	-17536
▁증정한다	-17537
▁책이	-17538
▁학대	-17539
▁협회	-17540
▁급격한	-17541
▁다큐멘	-17542
▁만전을	-17543
▁인정하는	-17544
oe	-17545
▁데도	-17546
▁명확한	-17547
▁아쉬운	-17548
製造	-17549
▁파급	-17550
▁넘었다	-17551
▁출시를	-17552
ached	-17553
▁제시하고	-17554
블랙	-17555
용의	-17556
▁공론	-17557
▁교실	-17558
▁수호	-17559
▁아키	-17560
작업을	-17561
▁됐다는	-17562
▁불과한	-17563
▁additional	-17564
▁알레	-17565
▁법원이	-17566
▁멜로	-17567
▁게이트	-17568
▁신용등급	-17569
▁severe	-17570
▁transport	-17571
▁넓혀	-17572
▁박재	-17573
▁지역과	-17574
▁software	-17575
▁장기화	-17576
▁촬영한	-17577
ワー	-17578
▁근거를	-17579
▁express	-17580
IR	-17581
”(	-17582
배로	-17583
벌이	-17584
쟁이	-17585
희롱	-17586
▁AD	-17587
▁비닐	-17588
▁헤드	-17589
▁맞습니다	-17590
됐기	-17591
부세	-17592
연습	-17593
▁다리를	-17594
▁자신과	-17595
▁정신이	-17596
▁합리적	-17597
▁공수처	-17598
▁문의하면	-17599
모씨	-17600
타당	-17601
▁고장	-17602
▁한결	-17603
▁핵심은	-17604
▁부총리는	-17605
겁다	-17606
받게	-17607
vest	-17608
▁evalu	-17609
▁eating	-17610
▁security	-17611
▁来	-17612
무성	-17613
요양	-17614
▁등극	-17615
석으로	-17616
▁스타벅	-17617
▁트렌드	-17618
▁집중하고	-17619
뮤직	-17620
テーマ	-17621
보디아	-17622
▁순식간에	-17623
엄마	-17624
▁얼음	-17625
▁적자를	-17626
▁sustain	-17627
▁international	-17628
あた	-17629
▁원산	-17630
itude	-17631
▁언급하며	-17632
▁정도였다	-17633
▁스트레스를	-17634
▁어리	-17635
관계망	-17636
▁건강에	-17637
▁조직의	-17638
▁항공사	-17639
문으로	-17640
▁어차피	-17641
▁소개한다	-17642
▁directly	-17643
작전	-17644
)’,	-17645
▁주춤	-17646
▁장관과	-17647
▁평가는	-17648
▁earl	-17649
즈니	-17650
스바겐	-17651
▁마음은	-17652
▁버렸다	-17653
▁준비에	-17654
▁어머니의	-17655
▁즐거움을	-17656
と同	-17657
▁유닛	-17658
▁요구가	-17659
▁입었다	-17660
▁1967	-17661
▁calc	-17662
▁에너	-17663
▁온다	-17664
▁지났	-17665
시설의	-17666
▁말하며	-17667
海軍	-17668
線の	-17669
사전	-17670
곳으로	-17671
▁ful	-17672
▁fast	-17673
▁썩	-17674
▁DB	-17675
▁영화가	-17676
▁birth	-17677
ハイ	-17678
보라	-17679
▁도의	-17680
▁취향	-17681
▁변화와	-17682
▁속하는	-17683
▁시청자	-17684
▁연구에	-17685
▁인사가	-17686
▁시청자들의	-17687
奈川	-17688
미와	-17689
용역	-17690
태를	-17691
▁원리	-17692
▁남기고	-17693
▁특성에	-17694
」,	-17695
環境	-17696
도전	-17697
▁공작	-17698
▁부친	-17699
중앙회	-17700
▁대상자	-17701
EV	-17702
▁왕복	-17703
▁왠지	-17704
▁정우	-17705
▁Tod	-17706
▁대다수	-17707
▁부모의	-17708
▁소개하는	-17709
▁지지율이	-17710
区の	-17711
개교	-17712
▁될까	-17713
▁초록	-17714
▁표현한	-17715
MZ	-17716
조사에	-17717
▁베테랑	-17718
▁주장한	-17719
▁태블릿	-17720
▁전형적인	-17721
▁전문가들이	-17722
▁season	-17723
▁아사	-17724
▁松	-17725
도르	-17726
오리	-17727
▁불출	-17728
▁애국	-17729
스타트	-17730
▁것이냐	-17731
▁브라운	-17732
▁패스트	-17733
▁도시계획	-17734
▁풋	-17735
記事	-17736
재와	-17737
▁고위험	-17738
▁reve	-17739
▁아닙니까	-17740
▁hands	-17741
▁다툼	-17742
▁라면	-17743
▁타는	-17744
▁Aug	-17745
▁돌아갈	-17746
のが	-17747
urt	-17748
▁임진	-17749
▁rain	-17750
▁soon	-17751
▁tests	-17752
총괄	-17753
▁다스	-17754
▁유적	-17755
▁전진	-17756
효과가	-17757
▁찾는다	-17758
▁Education	-17759
하를	-17760
▁외출	-17761
▁판로	-17762
▁해를	-17763
を行う	-17764
▁개최를	-17765
▁대구의	-17766
▁대국민	-17767
▁대비한	-17768
▁Just	-17769
▁돌아가는	-17770
▁실제로는	-17771
ひと	-17772
現代	-17773
自然	-17774
ベース	-17775
레이터	-17776
▁박원순	-17777
▁제도다	-17778
▁판단이	-17779
▁주인공이	-17780
노미	-17781
ief	-17782
▁집착	-17783
▁충실	-17784
▁순매수	-17785
▁여기는	-17786
▁예전에	-17787
▁mount	-17788
▁>	-17789
▁넘은	-17790
▁맑은	-17791
▁생일	-17792
▁이석	-17793
▁cit	-17794
▁tax	-17795
▁않기로	-17796
▁decre	-17797
온이	-17798
학력	-17799
▁폭락	-17800
▁영상이	-17801
▁조화를	-17802
▁중심이	-17803
▁마련하는	-17804
▁aud	-17805
▁박정희	-17806
▁발표하고	-17807
등이	-17808
▁펼친	-17809
들한테	-17810
하겠습니다	-17811
ハー	-17812
차와	-17813
▁계곡	-17814
▁기구	-17815
▁탄압	-17816
인들을	-17817
▁pan	-17818
▁업체에	-17819
적으로도	-17820
cohol	-17821
청장	-17822
▁아름답	-17823
▁줄줄이	-17824
연장	-17825
▁정주	-17826
▁Che	-17827
▁빛나는	-17828
▁조사하고	-17829
▁기저	-17830
▁라운드	-17831
▁전망도	-17832
▁custom	-17833
6,	-17834
女優	-17835
불을	-17836
용지	-17837
▁노예	-17838
▁기능성	-17839
▁동메달	-17840
▁실질적	-17841
▁신청하면	-17842
동네	-17843
유기	-17844
▁저런	-17845
atur	-17846
▁시기가	-17847
▁시진핑	-17848
デザイン	-17849
中に	-17850
▁금산	-17851
▁엑스	-17852
▁컨셉	-17853
라이프	-17854
▁사진이	-17855
▁퍼센트	-17856
▁합법	-17857
▁후유	-17858
시키며	-17859
▁개최하고	-17860
▁중요하다고	-17861
▁highly	-17862
▁largest	-17863
드릴	-17864
▁비춰	-17865
▁맺었다	-17866
▁발전과	-17867
▁일본을	-17868
▁후보자가	-17869
▁leaders	-17870
銀行	-17871
기간은	-17872
FTA	-17873
▁구사	-17874
▁입체	-17875
▁hope	-17876
봉을	-17877
클리	-17878
▁국책	-17879
▁판교	-17880
기간에	-17881
▁상승을	-17882
▁요청한	-17883
▁교육부는	-17884
▁해결하는	-17885
▁install	-17886
けど	-17887
▁들지	-17888
차례에	-17889
▁명으로	-17890
▁이어서	-17891
▁마케팅을	-17892
▁expect	-17893
ダン	-17894
▁SS	-17895
▁끝났	-17896
▁만료	-17897
버스터	-17898
▁방법이다	-17899
▁뱀	-17900
、1	-17901
もう	-17902
月の	-17903
間に	-17904
▁낡은	-17905
속에서	-17906
▁작곡가	-17907
▁둘러싸고	-17908
▁의미에서	-17909
정수	-17910
교육의	-17911
▁“20	-17912
▁rout	-17913
▁부장판사	-17914
▁commit	-17915
위성	-17916
~15	-17917
▁CBS	-17918
▁다음은	-17919
▁제공한	-17920
위원회와	-17921
━━	-17922
試験	-17923
ama	-17924
▁상식	-17925
▁KCC	-17926
▁등록을	-17927
▁불만이	-17928
▁구성했다	-17929
▁마이너스	-17930
▁석유화학	-17931
천의	-17932
モデル	-17933
▁계약이	-17934
▁국제적	-17935
▁분야별	-17936
▁정도에	-17937
しました	-17938
▁dark	-17939
▁매력적인	-17940
▁전당대회	-17941
▁털어놨다	-17942
▁larger	-17943
두산	-17944
ste	-17945
▁감옥	-17946
▁반짝	-17947
▁삼척	-17948
▁효능	-17949
놓을	-17950
점유	-17951
▁삶과	-17952
▁상습	-17953
▁안돼	-17954
▁날씨가	-17955
rogen	-17956
▁공직선거	-17957
▁궁금증을	-17958
EM	-17959
▁줄곧	-17960
▁지냈	-17961
uary	-17962
▁피부를	-17963
PM	-17964
▁시군	-17965
▁쓰기	-17966
▁어머	-17967
▁특집	-17968
민주화	-17969
▁진출한	-17970
▁sold	-17971
ipment	-17972
紹介	-17973
▁화를	-17974
▁실현을	-17975
▁tend	-17976
▁몰고	-17977
▁문헌	-17978
▁도저히	-17979
▁추첨을	-17980
잡이	-17981
-15	-17982
▁이득	-17983
▁인삼	-17984
▁과감한	-17985
▁보상을	-17986
▁촬영을	-17987
▁계속되고	-17988
と思います	-17989
OK	-17990
불이	-17991
스포	-17992
▁Bi	-17993
▁똑같	-17994
▁보태	-17995
▁휩쓸	-17996
스트는	-17997
▁Fin	-17998
▁부끄러	-17999
▁장거리	-18000
란시	-18001
롭다	-18002
cks	-18003
▁귀족	-18004
▁바가	-18005
▁싸우	-18006
▁경제부	-18007
▁구호	-18008
▁안착	-18009
▁온몸	-18010
▁카테	-18011
▁파란	-18012
소방서	-18013
▁매니저	-18014
▁수익률을	-18015
▁쉐	-18016
▁김제	-18017
▁미용	-18018
▁사실에	-18019
▁모집한다	-18020
▁사람이다	-18021
▁creating	-18022
에겐	-18023
▁구형	-18024
▁여야가	-18025
▁지켜야	-18026
▁전략이다	-18027
▁friends	-18028
▁김명	-18029
▁멈춰	-18030
▁유세	-18031
▁주파	-18032
▁진압	-18033
▁자기의	-18034
▁방송통신	-18035
▁exact	-18036
▁projects	-18037
선진	-18038
▁맡게	-18039
vant	-18040
▁평가하는	-18041
방과	-18042
▁대지	-18043
▁연중	-18044
▁않아요	-18045
▁작품의	-18046
▁평화를	-18047
実施	-18048
▁내장	-18049
▁리듬	-18050
▁각오를	-18051
도미사일	-18052
오를	-18053
iki	-18054
▁앓고	-18055
▁워터	-18056
▁teacher	-18057
▁금요일	-18058
값을	-18059
▁누워	-18060
▁단편	-18061
ords	-18062
▁실리콘	-18063
▁일상을	-18064
(...)	-18065
▁돌파했다	-18066
▁보답	-18067
▁연쇄	-18068
▁(2)	-18069
-17	-18070
▁アル	-18071
▁실전	-18072
▁파크	-18073
▁전하는	-18074
▁rock	-18075
▁갯	-18076
림의	-18077
▁세상이	-18078
▁base	-18079
▁cele	-18080
▁지자체가	-18081
충전	-18082
▁광장	-18083
▁나주	-18084
금리가	-18085
상이다	-18086
▁자세로	-18087
▁확보하는	-18088
선수권대회	-18089
▁ᄏᄏᄏᄏᄏ	-18090
▁샷	-18091
벚꽃	-18092
▁시ᆞ	-18093
▁시일	-18094
▁되기도	-18095
▁코오롱	-18096
▁투자할	-18097
alt	-18098
ara	-18099
ico	-18100
▁되풀이	-18101
▁1920	-18102
▁acid	-18103
▁breat	-18104
▁fight	-18105
균관	-18106
▁기적	-18107
▁높을	-18108
▁이보다	-18109
▁들어왔다	-18110
営業	-18111
▁데에	-18112
만명의	-18113
수산물	-18114
▁내용도	-18115
▁해왔다	-18116
▁Also	-18117
가공	-18118
과에	-18119
▁마인	-18120
▁보류	-18121
▁절망	-18122
▁희귀	-18123
▁총리의	-18124
▁OLED	-18125
▁leaves	-18126
▁오름	-18127
▁줘야	-18128
컨설팅	-18129
▁의원들의	-18130
▁있어서는	-18131
와도	-18132
▁남지	-18133
▁자의	-18134
▁합계	-18135
▁사회주의	-18136
▁contains	-18137
▁techniques	-18138
이요	-18139
▁교육에	-18140
▁내세워	-18141
▁아직은	-18142
▁정권이	-18143
▁상해	-18144
ーター	-18145
체육회	-18146
축산식품	-18147
▁받아들일	-18148
▁weeks	-18149
가을	-18150
시도	-18151
외선	-18152
▁걸림	-18153
▁옵션	-18154
▁중산	-18155
インド	-18156
▁겪었다	-18157
▁시간도	-18158
▁체험을	-18159
배당	-18160
상금	-18161
▁드릴	-18162
해주고	-18163
▁대학이	-18164
만으로는	-18165
に分	-18166
교도	-18167
니와	-18168
미스	-18169
반대	-18170
스케	-18171
▁폭을	-18172
▁Vir	-18173
▁도착한	-18174
이었다고	-18175
▁후보자의	-18176
라운드에서	-18177
교섭	-18178
▁문체	-18179
▁비유	-18180
'...	-18181
yond	-18182
▁달랐다	-18183
▁전라남도	-18184
▁진행한다고	-18185
▁노트북	-18186
▁절대로	-18187
▁천안함	-18188
이라고도	-18189
’.	-18190
▁도청	-18191
▁쇼트	-18192
▁잦은	-18193
▁mom	-18194
▁가처분	-18195
▁편리한	-18196
브로	-18197
▁특화된	-18198
osure	-18199
▁length	-18200
론에	-18201
▁부자	-18202
▁잘라	-18203
▁요건을	-18204
▁진단을	-18205
포지	-18206
▁정말로	-18207
▁protection	-18208
団体	-18209
결승	-18210
어붙	-18211
았어요	-18212
▁두번째	-18213
ively	-18214
▁상하	-18215
▁나눴다	-18216
▁맡는다	-18217
取得	-18218
▁수감	-18219
▁정동	-18220
▁개최한	-18221
▁구성을	-18222
▁마련에	-18223
▁유치에	-18224
▁행위에	-18225
▁극복하고	-18226
특위	-18227
티스	-18228
▁월간	-18229
期の	-18230
스럽고	-18231
▁speed	-18232
레는	-18233
박사	-18234
▁쌓여	-18235
▁준우승	-18236
公式サイト	-18237
분권	-18238
▁CG	-18239
▁Aut	-18240
▁발언은	-18241
▁재미있는	-18242
を含	-18243
▁sn	-18244
▁沿革	-18245
▁고쳐	-18246
한국의	-18247
mosp	-18248
resh	-18249
페스티벌	-18250
oring	-18251
▁개최되는	-18252
▁Commun	-18253
▁학문	-18254
방으로	-18255
품으로	-18256
▁행정부	-18257
▁beaut	-18258
▁현대백화점	-18259
월호	-18260
확산	-18261
▁가사	-18262
▁서초구	-18263
▁원칙에	-18264
▁뛴	-18265
부패	-18266
▁경호	-18267
iers	-18268
▁완성차	-18269
억원이다	-18270
▁consist	-18271
▁ᄏᄏᄏᄏᄏᄏᄏᄏ	-18272
국토	-18273
▁각기	-18274
▁건설을	-18275
▁수단으로	-18276
outhern	-18277
GO	-18278
▁私は	-18279
▁먹은	-18280
▁선점	-18281
산업이	-18282
소상공	-18283
MOU	-18284
haps	-18285
year	-18286
▁사태에	-18287
▁accur	-18288
공립	-18289
승점	-18290
▁군수	-18291
▁안겨	-18292
▁오산	-18293
▁팔을	-18294
속으로	-18295
▁내려가	-18296
▁통과한	-18297
▁첩	-18298
▁관악	-18299
▁창출을	-18300
埼玉	-18301
동계	-18302
의의	-18303
▁살피	-18304
▁전한다	-18305
▁떨어지고	-18306
말이	-18307
▁내밀	-18308
▁목을	-18309
▁우아	-18310
▁치안	-18311
▁역으로	-18312
▁지적을	-18313
▁혼란을	-18314
undred	-18315
▁밭	-18316
▁넘기	-18317
しない	-18318
北海道	-18319
iter	-18320
▁이틀간	-18321
▁활발히	-18322
芸術	-18323
식물	-18324
▁입양	-18325
▁쪽은	-18326
ベスト	-18327
生まれ	-18328
▁개정안은	-18329
투스	-18330
▁김윤	-18331
▁막상	-18332
▁시를	-18333
▁징수	-18334
▁풍경	-18335
화에서	-18336
▁기록이	-18337
▁성공할	-18338
▁조금만	-18339
▁조선의	-18340
▁표정을	-18341
▁Then	-18342
hens	-18343
▁사람으로	-18344
▁적용하는	-18345
orders	-18346
▁March	-18347
▁useful	-18348
内容	-18349
ロシア	-18350
▁비용은	-18351
▁은행의	-18352
▁임무를	-18353
인들에게	-18354
▁eyes	-18355
▁마련해야	-18356
▁새정치민주연합	-18357
일드	-18358
▁집이	-18359
▁치는	-18360
▁심리적	-18361
▁확대와	-18362
▁있거든요	-18363
▁third	-18364
면접	-18365
▁설립을	-18366
▁조사는	-18367
▁봐요	-18368
▁예쁜	-18369
▁isn	-18370
▁넣었다	-18371
▁밖에서	-18372
▁성매매	-18373
▁모양새다	-18374
▁block	-18375
▁그까	-18376
▁비하	-18377
▁자릿	-18378
▁장군	-18379
▁고부가	-18380
[...]
