{
  "version": "1.0",
  "truncation": null,
  "padding": null,
  "added_tokens": [
    {
      "id": 576,
      "content": "[BOHJ]",
      "single_word": false,
      "lstrip": false,
      "rstrip": false,
      "normalized": false,
      "special": true
    },
    {
      "id": 577,
      "content": "[EOHJ]",
      "single_word": false,
      "lstrip": false,
      "rstrip": false,
      "normalized": false,
      "special": true
    }
  ],
  "normalizer": null,
  "pre_tokenizer": {
    "type": "ByteLevel",
    "add_prefix_space": false,
    "trim_offsets": true,
    "use_regex": true
  },
  "post_processor": null,
  "decoder": {
    "type": "ByteLevel",
    "add_prefix_space": true,
    "trim_offsets": true,
    "use_regex": true
  },
  "model": {
    "type": "BPE",
    "dropout": null,
    "unk_token": "[UNK]",
    "continuing_subword_prefix": null,
    "end_of_word_suffix": null,
    "fuse_unk": false,
    "byte_fallback": false,
    "ignore_merges": false,
    "vocab": {
      "[PAD]": 0,
      "[UNK]": 1,
      "[BOS]": 2,
      "[EOS]": 3,
      "[SEP]": 4,
      "[CLS]": 5,
      "[MASK]": 6,
      "[UNUSED0]": 7,
      "[UNUSED1]": 8,
      "[UNUSED2]": 9,
      "[UNUSED3]": 10,
      "[UNUSED4]": 11,
      "[UNUSED5]": 12,
      "[UNUSED6]": 13,
      "[UNUSED7]": 14,
      "[UNUSED8]": 15,
      "[UNUSED9]": 16,
      "Ā": 17,
      "ā": 18,
      "Ă": 19,
      "ă": 20,
      "Ą": 21,
      "ą": 22,
      "Ć": 23,
      "ć": 24,
      "Ĉ": 25,
      "ĉ": 26,
      "Ċ": 27,
      "ċ": 28,
      "Č": 29,
      "č": 30,
      "Ď": 31,
      "ď": 32,
      "Đ": 33,
      "đ": 34,
      "Ē": 35,
      "ē": 36,
      "Ĕ": 37,
      "ĕ": 38,
      "Ė": 39,
      "ė": 40,
      "Ę": 41,
      "ę": 42,
      "Ě": 43,
      "ě": 44,
      "Ĝ": 45,
      "ĝ": 46,
      "Ğ": 47,
      "ğ": 48,
      "Ġ": 49,
      "!": 50,
      "\"": 51,
      "#": 52,
      "$": 53,
      "%": 54,
      "&": 55,
      "'": 56,
      "(": 57,
      ")": 58,
      "*": 59,
      "+": 60,
      ",": 61,
      "-": 62,
      ".": 63,
      "/": 64,
      "0": 65,
      "1": 66,
      "2": 67,
      "3": 68,
      "4": 69,
      "5": 70,
      "6": 71,
      "7": 72,
      "8": 73,
      "9": 74,
      ":": 75,
      ";": 76,
      "<": 77,
      "=": 78,
      ">": 79,
      "?": 80,
      "@": 81,
      "A": 82,
      "B": 83,
      "C": 84,
      "D": 85,
      "E": 86,
      "F": 87,
      "G": 88,
      "H": 89,
      "I": 90,
      "J": 91,
      "K": 92,
      "L": 93,
      "M": 94,
      "N": 95,
      "O": 96,
      "P": 97,
      "Q": 98,
      "R": 99,
      "S": 100,
      "T": 101,
      "U": 102,
      "V": 103,
      "W": 104,
      "X": 105,
      "Y": 106,
      "Z": 107,
      "[": 108,
      "\\": 109,
      "]": 110,
      "^": 111,
      "_": 112,
      "`": 113,
      "a": 114,
      "b": 115,
      "c": 116,
      "d": 117,
      "e": 118,
      "f": 119,
      "g": 120,
      "h": 121,
      "i": 122,
      "j": 123,
      "k": 124,
      "l": 125,
      "m": 126,
      "n": 127,
      "o": 128,
      "p": 129,
      "q": 130,
      "r": 131,
      "s": 132,
      "t": 133,
      "u": 134,
      "v": 135,
      "w": 136,
      "x": 137,
      "y": 138,
      "z": 139,
      "{": 140,
      "|": 141,
      "}": 142,
      "~": 143,
      "ġ": 144,
      "Ģ": 145,
      "ģ": 146,
      "Ĥ": 147,
      "ĥ": 148,
      "Ħ": 149,
      "ħ": 150,
      "Ĩ": 151,
      "ĩ": 152,
      "Ī": 153,
      "ī": 154,
      "Ĭ": 155,
      "ĭ": 156,
      "Į": 157,
      "į": 158,
      "İ": 159,
      "ı": 160,
      "Ĳ": 161,
      "ĳ": 162,
      "Ĵ": 163,
      "ĵ": 164,
      "Ķ": 165,
      "ķ": 166,
      "ĸ": 167,
      "Ĺ": 168,
      "ĺ": 169,
      "Ļ": 170,
      "ļ": 171,
      "Ľ": 172,
      "ľ": 173,
      "Ŀ": 174,
      "ŀ": 175,
      "Ł": 176,
      "ł": 177,
      "¡": 178,
      "¢": 179,
      "£": 180,
      "¤": 181,
      "¥": 182,
      "¦": 183,
      "§": 184,
      "¨": 185,
      "©": 186,
      "ª": 187,
      "«": 188,
      "¬": 189,
      "Ń": 190,
      "®": 191,
      "¯": 192,
      "°": 193,
      "±": 194,
      "²": 195,
      "³": 196,
      "´": 197,
      "µ": 198,
      "¶": 199,
      "·": 200,
      "¸": 201,
      "¹": 202,
      "º": 203,
      "»": 204,
      "¼": 205,
      "½": 206,
      "¾": 207,
      "¿": 208,
      "À": 209,
      "Á": 210,
      "Â": 211,
      "Ã": 212,
      "Ä": 213,
      "Å": 214,
      "Æ": 215,
      "Ç": 216,
      "È": 217,
      "É": 218,
      "Ê": 219,
      "Ë": 220,
      "Ì": 221,
      "Í": 222,
      "Î": 223,
      "Ï": 224,
      "Ð": 225,
      "Ñ": 226,
      "Ò": 227,
      "Ó": 228,
      "Ô": 229,
      "Õ": 230,
      "Ö": 231,
      "×": 232,
      "Ø": 233,
      "Ù": 234,
      "Ú": 235,
      "Û": 236,
      "Ü": 237,
      "Ý": 238,
      "Þ": 239,
      "ß": 240,
      "à": 241,
      "á": 242,
      "â": 243,
      "ã": 244,
      "ä": 245,
      "å": 246,
      "æ": 247,
      "ç": 248,
      "è": 249,
      "é": 250,
      "ê": 251,
      "ë": 252,
      "ì": 253,
      "í": 254,
      "î": 255,
      "ï": 256,
      "ð": 257,
      "ñ": 258,
      "ò": 259,
      "ó": 260,
      "ô": 261,
      "õ": 262,
      "ö": 263,
      "÷": 264,
      "ø": 265,
      "ù": 266,
      "ú": 267,
      "û": 268,
      "ü": 269,
      "ý": 270,
      "þ": 271,
      "ÿ": 272,
      "áĦ": 273,
      "áĦĢ": 274,
      "áĦģ": 275,
      "áĦĤ": 276,
      "áĦĥ": 277,
      "áĦĦ": 278,
      "áĦħ": 279,
      "áĦĨ": 280,
      "áĦĩ": 281,
      "áĦĪ": 282,
      "áĦī": 283,
      "áĦĬ": 284,
      "áĦĭ": 285,
      "áĦĮ": 286,
      "áĦį": 287,
      "áĦİ": 288,
      "áĦı": 289,
      "áĦĲ": 290,
      "áĦĳ": 291,
      "áĦĴ": 292,
      "áħ": 293,
      "áħ¡": 294,
      "áħ¢": 295,
      "áħ£": 296,
      "áħ¤": 297,
      "áħ¥": 298,
      "áħ¦": 299,
      "áħ§": 300,
      "áħ¨": 301,
      "áħ©": 302,
      "áħª": 303,
      "áħ«": 304,
      "áħ¬": 305,
      "áħŃ": 306,
      "áħ®": 307,
      "áħ¯": 308,
      "áħ°": 309,
      "áħ±": 310,
      "áħ²": 311,
      "áħ³": 312,
      "áħ´": 313,
      "áħµ": 314,
      "áĨ": 315,
      "áĨ¨": 316,
      "áĨ©": 317,
      "áĨª": 318,
      "áĨ«": 319,
      "áĨ¬": 320,
      "áĨŃ": 321,
      "áĨ®": 322,
      "áĨ¯": 323,
      "áĨ°": 324,
      "áĨ±": 325,
      "áĨ²": 326,
      "áĨ³": 327,
      "áĨ´": 328,
      "áĨµ": 329,
      "áĨ¶": 330,
      "áĨ·": 331,
      "áĨ¸": 332,
      "áĨ¹": 333,
      "áĨº": 334,
      "áĨ»": 335,
      "áĨ¼": 336,
      "áĨ½": 337,
      "áĨ¾": 338,
      "áĨ¿": 339,
      "áĩ": 340,
      "áĩĢ": 341,
      "áĩģ": 342,
      "áĩĤ": 343,
      "ãĦ": 344,
      "ãĦ±": 345,
      "ãĦ²": 346,
      "ãĦ³": 347,
      "ãĦ´": 348,
      "ãĦµ": 349,
      "ãĦ¶": 350,
      "ãĦ·": 351,
      "ãĦ¸": 352,
      "ãĦ¹": 353,
      "ãĦº": 354,
      "ãĦ»": 355,
      "ãĦ¼": 356,
      "ãĦ½": 357,
      "ãĦ¾": 358,
      "ãĦ¿": 359,
      "ãħ": 360,
      "ãħĢ": 361,
      "ãħģ": 362,
      "ãħĤ": 363,
      "ãħĥ": 364,
      "ãħĦ": 365,
      "ãħħ": 366,
      "ãħĨ": 367,
      "ãħĩ": 368,
      "ãħĪ": 369,
      "ãħī": 370,
      "ãħĬ": 371,
      "ãħĭ": 372,
      "ãħĮ": 373,
      "ãħį": 374,
      "ãħİ": 375,
      "ãħı": 376,
      "ãħĲ": 377,
      "ãħĳ": 378,
      "ãħĴ": 379,
      "ãħĵ": 380,
      "ãħĶ": 381,
      "ãħķ": 382,
      "ãħĸ": 383,
      "ãħĹ": 384,
      "ãħĺ": 385,
      "ãħĻ": 386,
      "ãħļ": 387,
      "ãħĽ": 388,
      "ãħľ": 389,
      "ãħĿ": 390,
      "ãħŀ": 391,
      "ãħŁ": 392,
      "ãħł": 393,
      "ãħ¡": 394,
      "ãħ¢": 395,
      "ãħ£": 396,
      "ãģ": 397,
      "ãģģ": 398,
      "ãģĤ": 399,
      "ãģĥ": 400,
      "ãģĦ": 401,
      "ãģħ": 402,
      "ãģĨ": 403,
      "ãģĩ": 404,
      "ãģĪ": 405,
      "ãģī": 406,
      "ãģĬ": 407,
      "ãģĭ": 408,
      "ãģĮ": 409,
      "ãģį": 410,
      "ãģİ": 411,
      "ãģı": 412,
      "ãģĲ": 413,
      "ãģĳ": 414,
      "ãģĴ": 415,
      "ãģĵ": 416,
      "ãģĶ": 417,
      "ãģķ": 418,
      "ãģĸ": 419,
      "ãģĹ": 420,
      "ãģĺ": 421,
      "ãģĻ": 422,
      "ãģļ": 423,
      "ãģĽ": 424,
      "ãģľ": 425,
      "ãģĿ": 426,
      "ãģŀ": 427,
      "ãģŁ": 428,
      "ãģł": 429,
      "ãģ¡": 430,
      "ãģ¢": 431,
      "ãģ£": 432,
      "ãģ¤": 433,
      "ãģ¥": 434,
      "ãģ¦": 435,
      "ãģ§": 436,
      "ãģ¨": 437,
      "ãģ©": 438,
      "ãģª": 439,
      "ãģ«": 440,
      "ãģ¬": 441,
      "ãģŃ": 442,
      "ãģ®": 443,
      "ãģ¯": 444,
      "ãģ°": 445,
      "ãģ±": 446,
      "ãģ²": 447,
      "ãģ³": 448,
      "ãģ´": 449,
      "ãģµ": 450,
      "ãģ¶": 451,
      "ãģ·": 452,
      "ãģ¸": 453,
      "ãģ¹": 454,
      "ãģº": 455,
      "ãģ»": 456,
      "ãģ¼": 457,
      "ãģ½": 458,
      "ãģ¾": 459,
      "ãģ¿": 460,
      "ãĤ": 461,
      "ãĤĢ": 462,
      "ãĤģ": 463,
      "ãĤĤ": 464,
      "ãĤĥ": 465,
      "ãĤĦ": 466,
      "ãĤħ": 467,
      "ãĤĨ": 468,
      "ãĤĩ": 469,
      "ãĤĪ": 470,
      "ãĤī": 471,
      "ãĤĬ": 472,
      "ãĤĭ": 473,
      "ãĤĮ": 474,
      "ãĤį": 475,
      "ãĤİ": 476,
      "ãĤı": 477,
      "ãĤĲ": 478,
      "ãĤĳ": 479,
      "ãĤĴ": 480,
      "ãĤĵ": 481,
      "ãĤĶ": 482,
      "ãĤķ": 483,
      "ãĤĸ": 484,
      "ãĤ¡": 485,
      "ãĤ¢": 486,
      "ãĤ£": 487,
      "ãĤ¤": 488,
      "ãĤ¥": 489,
      "ãĤ¦": 490,
      "ãĤ§": 491,
      "ãĤ¨": 492,
      "ãĤ©": 493,
      "ãĤª": 494,
      "ãĤ«": 495,
      "ãĤ¬": 496,
      "ãĤŃ": 497,
      "ãĤ®": 498,
      "ãĤ¯": 499,
      "ãĤ°": 500,
      "ãĤ±": 501,
      "ãĤ²": 502,
      "ãĤ³": 503,
      "ãĤ´": 504,
      "ãĤµ": 505,
      "ãĤ¶": 506,
      "ãĤ·": 507,
      "ãĤ¸": 508,
      "ãĤ¹": 509,
      "ãĤº": 510,
      "ãĤ»": 511,
      "ãĤ¼": 512,
      "ãĤ½": 513,
      "ãĤ¾": 514,
      "ãĤ¿": 515,
      "ãĥ": 516,
      "ãĥĢ": 517,
      "ãĥģ": 518,
      "ãĥĤ": 519,
      "ãĥĥ": 520,
      "ãĥĦ": 521,
      "ãĥħ": 522,
      "ãĥĨ": 523,
      "ãĥĩ": 524,
      "ãĥĪ": 525,
      "ãĥī": 526,
      "ãĥĬ": 527,
      "ãĥĭ": 528,
      "ãĥĮ": 529,
      "ãĥį": 530,
      "ãĥİ": 531,
      "ãĥı": 532,
      "ãĥĲ": 533,
      "ãĥĳ": 534,
      "ãĥĴ": 535,
      "ãĥĵ": 536,
      "ãĥĶ": 537,
      "ãĥķ": 538,
      "ãĥĸ": 539,
      "ãĥĹ": 540,
      "ãĥĺ": 541,
      "ãĥĻ": 542,
      "ãĥļ": 543,
      "ãĥĽ": 544,
      "ãĥľ": 545,
      "ãĥĿ": 546,
      "ãĥŀ": 547,
      "ãĥŁ": 548,
      "ãĥł": 549,
      "ãĥ¡": 550,
      "ãĥ¢": 551,
      "ãĥ£": 552,
      "ãĥ¤": 553,
      "ãĥ¥": 554,
      "ãĥ¦": 555,
      "ãĥ§": 556,
      "ãĥ¨": 557,
      "ãĥ©": 558,
      "ãĥª": 559,
      "ãĥ«": 560,
      "ãĥ¬": 561,
      "ãĥŃ": 562,
      "ãĥ®": 563,
      "ãĥ¯": 564,
      "ãĥ°": 565,
      "ãĥ±": 566,
      "ãĥ²": 567,
      "ãĥ³": 568,
      "ãĥ´": 569,
      "ãĥµ": 570,
      "ãĥ¶": 571,
      "ãĥ·": 572,
      "ãĥ¸": 573,
      "ãĥ¹": 574,
      "ãĥº": 575
    },
    "merges": [
      [
        "á",
        "Ħ"
      ],
      [
        "áĦ",
        "Ģ"
      ],
      [
        "áĦ",
        "ģ"
      ],
      [
        "áĦ",
        "Ĥ"
      ],
      [
        "áĦ",
        "ĥ"
      ],
      [
        "áĦ",
        "Ħ"
      ],
      [
        "áĦ",
        "ħ"
      ],
      [
        "áĦ",
        "Ĩ"
      ],
      [
        "áĦ",
        "ĩ"
      ],
      [
        "áĦ",
        "Ī"
      ],
      [
        "áĦ",
        "ī"
      ],
      [
        "áĦ",
        "Ĭ"
      ],
      [
        "áĦ",
        "ĭ"
      ],
      [
        "áĦ",
        "Į"
      ],
      [
        "áĦ",
        "į"
      ],
      [
        "áĦ",
        "İ"
      ],
      [
        "áĦ",
        "ı"
      ],
      [
        "áĦ",
        "Ĳ"
      ],
      [
        "áĦ",
        "ĳ"
      ],
      [
        "áĦ",
        "Ĵ"
      ],
      [
        "á",
        "ħ"
      ],
      [
        "áħ",
        "¡"
      ],
      [
        "áħ",
        "¢"
      ],
      [
        "áħ",
        "£"
      ],
      [
        "áħ",
        "¤"
      ],
      [
        "áħ",
        "¥"
      ],
      [
        "áħ",
        "¦"
      ],
      [
        "áħ",
        "§"
      ],
      [
        "áħ",
        "¨"
      ],
      [
        "áħ",
        "©"
      ],
      [
        "áħ",
        "ª"
      ],
      [
        "áħ",
        "«"
      ],
      [
        "áħ",
        "¬"
      ],
      [
        "áħ",
        "Ń"
      ],
      [
        "áħ",
        "®"
      ],
      [
        "áħ",
        "¯"
      ],
      [
        "áħ",
        "°"
      ],
      [
        "áħ",
        "±"
      ],
      [
        "áħ",
        "²"
      ],
      [
        "áħ",
        "³"
      ],
      [
        "áħ",
        "´"
      ],
      [
        "áħ",
        "µ"
      ],
      [
        "á",
        "Ĩ"
      ],
      [
        "áĨ",
        "¨"
      ],
      [
        "áĨ",
        "©"
      ],
      [
        "áĨ",
        "ª"
      ],
      [
        "áĨ",
        "«"
      ],
      [
        "áĨ",
        "¬"
      ],
      [
        "áĨ",
        "Ń"
      ],
      [
        "áĨ",
        "®"
      ],
      [
        "áĨ",
        "¯"
      ],
      [
        "áĨ",
        "°"
      ],
      [
        "áĨ",
        "±"
      ],
      [
        "áĨ",
        "²"
      ],
      [
        "áĨ",
        "³"
      ],
      [
        "áĨ",
        "´"
      ],
      [
        "áĨ",
        "µ"
      ],
      [
        "áĨ",
        "¶"
      ],
      [
        "áĨ",
        "·"
      ],
      [
        "áĨ",
        "¸"
      ],
      [
        "áĨ",
        "¹"
      ],
      [
        "áĨ",
        "º"
      ],
      [
        "áĨ",
        "»"
      ],
      [
        "áĨ",
        "¼"
      ],
      [
        "áĨ",
        "½"
      ],
      [
        "áĨ",
        "¾"
      ],
      [
        "áĨ",
        "¿"
      ],
      [
        "á",
        "ĩ"
      ],
      [
        "áĩ",
        "Ģ"
      ],
      [
        "áĩ",
        "ģ"
      ],
      [
        "áĩ",
        "Ĥ"
      ],
      [
        "ã",
        "Ħ"
      ],
      [
        "ãĦ",
        "±"
      ],
      [
        "ãĦ",
        "²"
      ],
      [
        "ãĦ",
        "³"
      ],
      [
        "ãĦ",
        "´"
      ],
      [
        "ãĦ",
        "µ"
      ],
      [
        "ãĦ",
        "¶"
      ],
      [
        "ãĦ",
        "·"
      ],
      [
        "ãĦ",
        "¸"
      ],
      [
        "ãĦ",
        "¹"
      ],
      [
        "ãĦ",
        "º"
      ],
      [
        "ãĦ",
        "»"
      ],
      [
        "ãĦ",
        "¼"
      ],
      [
        "ãĦ",
        "½"
      ],
      [
        "ãĦ",
        "¾"
      ],
      [
        "ãĦ",
        "¿"
      ],
      [
        "ã",
        "ħ"
      ],
      [
        "ãħ",
        "Ģ"
      ],
      [
        "ãħ",
        "ģ"
      ],
      [
        "ãħ",
        "Ĥ"
      ],
      [
        "ãħ",
        "ĥ"
      ],
      [
        "ãħ",
        "Ħ"
      ],
      [
        "ãħ",
        "ħ"
      ],
      [
        "ãħ",
        "Ĩ"
      ],
      [
        "ãħ",
        "ĩ"
      ],
      [
        "ãħ",
        "Ī"
      ],
      [
        "ãħ",
        "ī"
      ],
      [
        "ãħ",
        "Ĭ"
      ],
      [
        "ãħ",
        "ĭ"
      ],
      [
        "ãħ",
        "Į"
      ],
      [
        "ãħ",
        "į"
      ],
      [
        "ãħ",
        "İ"
      ],
      [
        "ãħ",
        "ı"
      ],
      [
        "ãħ",
        "Ĳ"
      ],
      [
        "ãħ",
        "ĳ"
      ],
      [
        "ãħ",
        "Ĵ"
      ],
      [
        "ãħ",
        "ĵ"
      ],
      [
        "ãħ",
        "Ķ"
      ],
      [
        "ãħ",
        "ķ"
      ],
      [
        "ãħ",
        "ĸ"
      ],
      [
        "ãħ",
        "Ĺ"
      ],
      [
        "ãħ",
        "ĺ"
      ],
      [
        "ãħ",
        "Ļ"
      ],
      [
        "ãħ",
        "ļ"
      ],
      [
        "ãħ",
        "Ľ"
      ],
      [
        "ãħ",
        "ľ"
      ],
      [
        "ãħ",
        "Ŀ"
      ],
      [
        "ãħ",
        "ŀ"
      ],
      [
        "ãħ",
        "Ł"
      ],
      [
        "ãħ",
        "ł"
      ],
      [
        "ãħ",
        "¡"
      ],
      [
        "ãħ",
        "¢"
      ],
      [
        "ãħ",
        "£"
      ],
      [
        "ã",
        "ģ"
      ],
      [
        "ãģ",
        "ģ"
      ],
      [
        "ãģ",
        "Ĥ"
      ],
      [
        "ãģ",
        "ĥ"
      ],
      [
        "ãģ",
        "Ħ"
      ],
      [
        "ãģ",
        "ħ"
      ],
      [
        "ãģ",
        "Ĩ"
      ],
      [
        "ãģ",
        "ĩ"
      ],
      [
        "ãģ",
        "Ī"
      ],
      [
        "ãģ",
        "ī"
      ],
      [
        "ãģ",
        "Ĭ"
      ],
      [
        "ãģ",
        "ĭ"
      ],
      [
        "ãģ",
        "Į"
      ],
      [
        "ãģ",
        "į"
      ],
      [
        "ãģ",
        "İ"
      ],
      [
        "ãģ",
        "ı"
      ],
      [
        "ãģ",
        "Ĳ"
      ],
      [
        "ãģ",
        "ĳ"
      ],
      [
        "ãģ",
        "Ĵ"
      ],
      [
        "ãģ",
        "ĵ"
      ],
      [
        "ãģ",
        "Ķ"
      ],
      [
        "ãģ",
        "ķ"
      ],
      [
        "ãģ",
        "ĸ"
      ],
      [
        "ãģ",
        "Ĺ"
      ],
      [
        "ãģ",
        "ĺ"
      ],
      [
        "ãģ",
        "Ļ"
      ],
      [
        "ãģ",
        "ļ"
      ],
      [
        "ãģ",
        "Ľ"
      ],
      [
        "ãģ",
        "ľ"
      ],
      [
        "ãģ",
        "Ŀ"
      ],
      [
        "ãģ",
        "ŀ"
      ],
      [
        "ãģ",
        "Ł"
      ],
      [
        "ãģ",
        "ł"
      ],
      [
        "ãģ",
        "¡"
      ],
      [
        "ãģ",
        "¢"
      ],
      [
        "ãģ",
        "£"
      ],
      [
        "ãģ",
        "¤"
      ],
      [
        "ãģ",
        "¥"
      ],
      [
        "ãģ",
        "¦"
      ],
      [
        "ãģ",
        "§"
      ],
      [
        "ãģ",
        "¨"
      ],
      [
        "ãģ",
        "©"
      ],
      [
        "ãģ",
        "ª"
      ],
      [
        "ãģ",
        "«"
      ],
      [
        "ãģ",
        "¬"
      ],
      [
        "ãģ",
        "Ń"
      ],
      [
        "ãģ",
        "®"
      ],
      [
        "ãģ",
        "¯"
      ],
      [
        "ãģ",
        "°"
      ],
      [
        "ãģ",
        "±"
      ],
      [
        "ãģ",
        "²"
      ],
      [
        "ãģ",
        "³"
      ],
      [
        "ãģ",
        "´"
      ],
      [
        "ãģ",
        "µ"
      ],
      [
        "ãģ",
        "¶"
      ],
      [
        "ãģ",
        "·"
      ],
      [
        "ãģ",
        "¸"
      ],
      [
        "ãģ",
        "¹"
      ],
      [
        "ãģ",
        "º"
      ],
      [
        "ãģ",
        "»"
      ],
      [
        "ãģ",
        "¼"
      ],
      [
        "ãģ",
        "½"
      ],
      [
        "ãģ",
        "¾"
      ],
      [
        "ãģ",
        "¿"
      ],
      [
        "ã",
        "Ĥ"
      ],
      [
        "ãĤ",
        "Ģ"
      ],
      [
        "ãĤ",
        "ģ"
      ],
      [
        "ãĤ",
        "Ĥ"
      ],
      [
        "ãĤ",
        "ĥ"
      ],
      [
        "ãĤ",
        "Ħ"
      ],
      [
        "ãĤ",
        "ħ"
      ],
      [
        "ãĤ",
        "Ĩ"
      ],
      [
        "ãĤ",
        "ĩ"
      ],
      [
        "ãĤ",
        "Ī"
      ],
      [
        "ãĤ",
        "ī"
      ],
      [
        "ãĤ",
        "Ĭ"
      ],
      [
        "ãĤ",
        "ĭ"
      ],
      [
        "ãĤ",
        "Į"
      ],
      [
        "ãĤ",
        "į"
      ],
      [
        "ãĤ",
        "İ"
      ],
      [
        "ãĤ",
        "ı"
      ],
      [
        "ãĤ",
        "Ĳ"
      ],
      [
        "ãĤ",
        "ĳ"
      ],
      [
        "ãĤ",
        "Ĵ"
      ],
      [
        "ãĤ",
        "ĵ"
      ],
      [
        "ãĤ",
        "Ķ"
      ],
      [
        "ãĤ",
        "ķ"
      ],
      [
        "ãĤ",
        "ĸ"
      ],
      [
        "ãĤ",
        "¡"
      ],
      [
        "ãĤ",
        "¢"
      ],
      [
        "ãĤ",
        "£"
      ],
      [
        "ãĤ",
        "¤"
      ],
      [
        "ãĤ",
        "¥"
      ],
      [
        "ãĤ",
        "¦"
      ],
      [
        "ãĤ",
        "§"
      ],
      [
        "ãĤ",
        "¨"
      ],
      [
        "ãĤ",
        "©"
      ],
      [
        "ãĤ",
        "ª"
      ],
      [
        "ãĤ",
        "«"
      ],
      [
        "ãĤ",
        "¬"
      ],
      [
        "ãĤ",
        "Ń"
      ],
      [
        "ãĤ",
        "®"
      ],
      [
        "ãĤ",
        "¯"
      ],
      [
        "ãĤ",
        "°"
      ],
      [
        "ãĤ",
        "±"
      ],
      [
        "ãĤ",
        "²"
      ],
      [
        "ãĤ",
        "³"
      ],
      [
        "ãĤ",
        "´"
      ],
      [
        "ãĤ",
        "µ"
      ],
      [
        "ãĤ",
        "¶"
      ],
      [
        "ãĤ",
        "·"
      ],
      [
        "ãĤ",
        "¸"
      ],
      [
        "ãĤ",
        "¹"
      ],
      [
        "ãĤ",
        "º"
      ],
      [
        "ãĤ",
        "»"
      ],
      [
        "ãĤ",
        "¼"
      ],
      [
        "ãĤ",
        "½"
      ],
      [
        "ãĤ",
        "¾"
      ],
      [
        "ãĤ",
        "¿"
      ],
      [
        "ã",
        "ĥ"
      ],
      [
        "ãĥ",
        "Ģ"
      ],
      [
        "ãĥ",
        "ģ"
      ],
      [
        "ãĥ",
        "Ĥ"
      ],
      [
        "ãĥ",
        "ĥ"
      ],
      [
        "ãĥ",
        "Ħ"
      ],
      [
        "ãĥ",
        "ħ"
      ],
      [
        "ãĥ",
        "Ĩ"
      ],
      [
        "ãĥ",
        "ĩ"
      ],
      [
        "ãĥ",
        "Ī"
      ],
      [
        "ãĥ",
        "ī"
      ],
      [
        "ãĥ",
        "Ĭ"
      ],
      [
        "ãĥ",
        "ĭ"
      ],
      [
        "ãĥ",
        "Į"
      ],
      [
        "ãĥ",
        "į"
      ],
      [
        "ãĥ",
        "İ"
      ],
      [
        "ãĥ",
        "ı"
      ],
      [
        "ãĥ",
        "Ĳ"
      ],
      [
        "ãĥ",
        "ĳ"
      ],
      [
        "ãĥ",
        "Ĵ"
      ],
      [
        "ãĥ",
        "ĵ"
      ],
      [
        "ãĥ",
        "Ķ"
      ],
      [
        "ãĥ",
        "ķ"
      ],
      [
        "ãĥ",
        "ĸ"
      ],
      [
        "ãĥ",
        "Ĺ"
      ],
      [
        "ãĥ",
        "ĺ"
      ],
      [
        "ãĥ",
        "Ļ"
      ],
      [
        "ãĥ",
        "ļ"
      ],
      [
        "ãĥ",
        "Ľ"
      ],
      [
        "ãĥ",
        "ľ"
      ],
      [
        "ãĥ",
        "Ŀ"
      ],
      [
        "ãĥ",
        "ŀ"
      ],
      [
        "ãĥ",
        "Ł"
      ],
      [
        "ãĥ",
        "ł"
      ],
      [
        "ãĥ",
        "¡"
      ],
      [
        "ãĥ",
        "¢"
      ],
      [
        "ãĥ",
        "£"
      ],
      [
        "ãĥ",
        "¤"
      ],
      [
        "ãĥ",
        "¥"
      ],
      [
        "ãĥ",
        "¦"
      ],
      [
        "ãĥ",
        "§"
      ],
      [
        "ãĥ",
        "¨"
      ],
      [
        "ãĥ",
        "©"
      ],
      [
        "ãĥ",
        "ª"
      ],
      [
        "ãĥ",
        "«"
      ],
      [
        "ãĥ",
        "¬"
      ],
      [
        "ãĥ",
        "Ń"
      ],
      [
        "ãĥ",
        "®"
      ],
      [
        "ãĥ",
        "¯"
      ],
      [
        "ãĥ",
        "°"
      ],
      [
        "ãĥ",
        "±"
      ],
      [
        "ãĥ",
        "²"
      ],
      [
        "ãĥ",
        "³"
      ],
      [
        "ãĥ",
        "´"
      ],
      [
        "ãĥ",
        "µ"
      ],
      [
        "ãĥ",
        "¶"
      ],
      [
        "ãĥ",
        "·"
      ],
      [
        "ãĥ",
        "¸"
      ],
      [
        "ãĥ",
        "¹"
      ],
      [
        "ãĥ",
        "º"
      ]
    ]
  }
}