{
  "version": "1.0",
  "truncation": null,
  "padding": null,
  "added_tokens": [
    {
      "id": 5,
      "content": "[MASK]",
      "single_word": false,
      "lstrip": false,
      "rstrip": false,
      "normalized": false,
      "special": true
    },
    {
      "id": 565,
      "content": "<|BOHJ|>",
      "single_word": false,
      "lstrip": false,
      "rstrip": false,
      "normalized": false,
      "special": true
    },
    {
      "id": 566,
      "content": "<|EOHJ|>",
      "single_word": false,
      "lstrip": false,
      "rstrip": false,
      "normalized": false,
      "special": true
    }
  ],
  "normalizer": null,
  "pre_tokenizer": {
    "type": "ByteLevel",
    "add_prefix_space": false,
    "trim_offsets": true,
    "use_regex": true
  },
  "post_processor": null,
  "decoder": {
    "type": "ByteLevel",
    "add_prefix_space": true,
    "trim_offsets": true,
    "use_regex": true
  },
  "model": {
    "type": "BPE",
    "dropout": null,
    "unk_token": "[UNK]",
    "continuing_subword_prefix": null,
    "end_of_word_suffix": null,
    "fuse_unk": false,
    "byte_fallback": false,
    "ignore_merges": false,
    "vocab": {
      "[UNK]": 0,
      "[BOS]": 1,
      "[EOS]": 2,
      "[PAD]": 3,
      "[SEP]": 4,
      "[MASK]": 5,
      "Ā": 6,
      "ā": 7,
      "Ă": 8,
      "ă": 9,
      "Ą": 10,
      "ą": 11,
      "Ć": 12,
      "ć": 13,
      "Ĉ": 14,
      "ĉ": 15,
      "Ċ": 16,
      "ċ": 17,
      "Č": 18,
      "č": 19,
      "Ď": 20,
      "ď": 21,
      "Đ": 22,
      "đ": 23,
      "Ē": 24,
      "ē": 25,
      "Ĕ": 26,
      "ĕ": 27,
      "Ė": 28,
      "ė": 29,
      "Ę": 30,
      "ę": 31,
      "Ě": 32,
      "ě": 33,
      "Ĝ": 34,
      "ĝ": 35,
      "Ğ": 36,
      "ğ": 37,
      "Ġ": 38,
      "!": 39,
      "\"": 40,
      "#": 41,
      "$": 42,
      "%": 43,
      "&": 44,
      "'": 45,
      "(": 46,
      ")": 47,
      "*": 48,
      "+": 49,
      ",": 50,
      "-": 51,
      ".": 52,
      "/": 53,
      "0": 54,
      "1": 55,
      "2": 56,
      "3": 57,
      "4": 58,
      "5": 59,
      "6": 60,
      "7": 61,
      "8": 62,
      "9": 63,
      ":": 64,
      ";": 65,
      "<": 66,
      "=": 67,
      ">": 68,
      "?": 69,
      "@": 70,
      "A": 71,
      "B": 72,
      "C": 73,
      "D": 74,
      "E": 75,
      "F": 76,
      "G": 77,
      "H": 78,
      "I": 79,
      "J": 80,
      "K": 81,
      "L": 82,
      "M": 83,
      "N": 84,
      "O": 85,
      "P": 86,
      "Q": 87,
      "R": 88,
      "S": 89,
      "T": 90,
      "U": 91,
      "V": 92,
      "W": 93,
      "X": 94,
      "Y": 95,
      "Z": 96,
      "[": 97,
      "\\": 98,
      "]": 99,
      "^": 100,
      "_": 101,
      "`": 102,
      "a": 103,
      "b": 104,
      "c": 105,
      "d": 106,
      "e": 107,
      "f": 108,
      "g": 109,
      "h": 110,
      "i": 111,
      "j": 112,
      "k": 113,
      "l": 114,
      "m": 115,
      "n": 116,
      "o": 117,
      "p": 118,
      "q": 119,
      "r": 120,
      "s": 121,
      "t": 122,
      "u": 123,
      "v": 124,
      "w": 125,
      "x": 126,
      "y": 127,
      "z": 128,
      "{": 129,
      "|": 130,
      "}": 131,
      "~": 132,
      "ġ": 133,
      "Ģ": 134,
      "ģ": 135,
      "Ĥ": 136,
      "ĥ": 137,
      "Ħ": 138,
      "ħ": 139,
      "Ĩ": 140,
      "ĩ": 141,
      "Ī": 142,
      "ī": 143,
      "Ĭ": 144,
      "ĭ": 145,
      "Į": 146,
      "į": 147,
      "İ": 148,
      "ı": 149,
      "Ĳ": 150,
      "ĳ": 151,
      "Ĵ": 152,
      "ĵ": 153,
      "Ķ": 154,
      "ķ": 155,
      "ĸ": 156,
      "Ĺ": 157,
      "ĺ": 158,
      "Ļ": 159,
      "ļ": 160,
      "Ľ": 161,
      "ľ": 162,
      "Ŀ": 163,
      "ŀ": 164,
      "Ł": 165,
      "ł": 166,
      "¡": 167,
      "¢": 168,
      "£": 169,
      "¤": 170,
      "¥": 171,
      "¦": 172,
      "§": 173,
      "¨": 174,
      "©": 175,
      "ª": 176,
      "«": 177,
      "¬": 178,
      "Ń": 179,
      "®": 180,
      "¯": 181,
      "°": 182,
      "±": 183,
      "²": 184,
      "³": 185,
      "´": 186,
      "µ": 187,
      "¶": 188,
      "·": 189,
      "¸": 190,
      "¹": 191,
      "º": 192,
      "»": 193,
      "¼": 194,
      "½": 195,
      "¾": 196,
      "¿": 197,
      "À": 198,
      "Á": 199,
      "Â": 200,
      "Ã": 201,
      "Ä": 202,
      "Å": 203,
      "Æ": 204,
      "Ç": 205,
      "È": 206,
      "É": 207,
      "Ê": 208,
      "Ë": 209,
      "Ì": 210,
      "Í": 211,
      "Î": 212,
      "Ï": 213,
      "Ð": 214,
      "Ñ": 215,
      "Ò": 216,
      "Ó": 217,
      "Ô": 218,
      "Õ": 219,
      "Ö": 220,
      "×": 221,
      "Ø": 222,
      "Ù": 223,
      "Ú": 224,
      "Û": 225,
      "Ü": 226,
      "Ý": 227,
      "Þ": 228,
      "ß": 229,
      "à": 230,
      "á": 231,
      "â": 232,
      "ã": 233,
      "ä": 234,
      "å": 235,
      "æ": 236,
      "ç": 237,
      "è": 238,
      "é": 239,
      "ê": 240,
      "ë": 241,
      "ì": 242,
      "í": 243,
      "î": 244,
      "ï": 245,
      "ð": 246,
      "ñ": 247,
      "ò": 248,
      "ó": 249,
      "ô": 250,
      "õ": 251,
      "ö": 252,
      "÷": 253,
      "ø": 254,
      "ù": 255,
      "ú": 256,
      "û": 257,
      "ü": 258,
      "ý": 259,
      "þ": 260,
      "ÿ": 261,
      "áĦ": 262,
      "áĦĢ": 263,
      "áĦģ": 264,
      "áĦĤ": 265,
      "áĦĥ": 266,
      "áĦĦ": 267,
      "áĦħ": 268,
      "áĦĨ": 269,
      "áĦĩ": 270,
      "áĦĪ": 271,
      "áĦī": 272,
      "áĦĬ": 273,
      "áĦĭ": 274,
      "áĦĮ": 275,
      "áĦį": 276,
      "áĦİ": 277,
      "áĦı": 278,
      "áĦĲ": 279,
      "áĦĳ": 280,
      "áĦĴ": 281,
      "áħ": 282,
      "áħ¡": 283,
      "áħ¢": 284,
      "áħ£": 285,
      "áħ¤": 286,
      "áħ¥": 287,
      "áħ¦": 288,
      "áħ§": 289,
      "áħ¨": 290,
      "áħ©": 291,
      "áħª": 292,
      "áħ«": 293,
      "áħ¬": 294,
      "áħŃ": 295,
      "áħ®": 296,
      "áħ¯": 297,
      "áħ°": 298,
      "áħ±": 299,
      "áħ²": 300,
      "áħ³": 301,
      "áħ´": 302,
      "áħµ": 303,
      "áĨ": 304,
      "áĨ¨": 305,
      "áĨ©": 306,
      "áĨª": 307,
      "áĨ«": 308,
      "áĨ¬": 309,
      "áĨŃ": 310,
      "áĨ®": 311,
      "áĨ¯": 312,
      "áĨ°": 313,
      "áĨ±": 314,
      "áĨ²": 315,
      "áĨ³": 316,
      "áĨ´": 317,
      "áĨµ": 318,
      "áĨ¶": 319,
      "áĨ·": 320,
      "áĨ¸": 321,
      "áĨ¹": 322,
      "áĨº": 323,
      "áĨ»": 324,
      "áĨ¼": 325,
      "áĨ½": 326,
      "áĨ¾": 327,
      "áĨ¿": 328,
      "áĩ": 329,
      "áĩĢ": 330,
      "áĩģ": 331,
      "áĩĤ": 332,
      "ãĦ": 333,
      "ãĦ±": 334,
      "ãĦ²": 335,
      "ãĦ³": 336,
      "ãĦ´": 337,
      "ãĦµ": 338,
      "ãĦ¶": 339,
      "ãĦ·": 340,
      "ãĦ¸": 341,
      "ãĦ¹": 342,
      "ãĦº": 343,
      "ãĦ»": 344,
      "ãĦ¼": 345,
      "ãĦ½": 346,
      "ãĦ¾": 347,
      "ãĦ¿": 348,
      "ãħ": 349,
      "ãħĢ": 350,
      "ãħģ": 351,
      "ãħĤ": 352,
      "ãħĥ": 353,
      "ãħĦ": 354,
      "ãħħ": 355,
      "ãħĨ": 356,
      "ãħĩ": 357,
      "ãħĪ": 358,
      "ãħī": 359,
      "ãħĬ": 360,
      "ãħĭ": 361,
      "ãħĮ": 362,
      "ãħį": 363,
      "ãħİ": 364,
      "ãħı": 365,
      "ãħĲ": 366,
      "ãħĳ": 367,
      "ãħĴ": 368,
      "ãħĵ": 369,
      "ãħĶ": 370,
      "ãħķ": 371,
      "ãħĸ": 372,
      "ãħĹ": 373,
      "ãħĺ": 374,
      "ãħĻ": 375,
      "ãħļ": 376,
      "ãħĽ": 377,
      "ãħľ": 378,
      "ãħĿ": 379,
      "ãħŀ": 380,
      "ãħŁ": 381,
      "ãħł": 382,
      "ãħ¡": 383,
      "ãħ¢": 384,
      "ãħ£": 385,
      "ãģ": 386,
      "ãģģ": 387,
      "ãģĤ": 388,
      "ãģĥ": 389,
      "ãģĦ": 390,
      "ãģħ": 391,
      "ãģĨ": 392,
      "ãģĩ": 393,
      "ãģĪ": 394,
      "ãģī": 395,
      "ãģĬ": 396,
      "ãģĭ": 397,
      "ãģĮ": 398,
      "ãģį": 399,
      "ãģİ": 400,
      "ãģı": 401,
      "ãģĲ": 402,
      "ãģĳ": 403,
      "ãģĴ": 404,
      "ãģĵ": 405,
      "ãģĶ": 406,
      "ãģķ": 407,
      "ãģĸ": 408,
      "ãģĹ": 409,
      "ãģĺ": 410,
      "ãģĻ": 411,
      "ãģļ": 412,
      "ãģĽ": 413,
      "ãģľ": 414,
      "ãģĿ": 415,
      "ãģŀ": 416,
      "ãģŁ": 417,
      "ãģł": 418,
      "ãģ¡": 419,
      "ãģ¢": 420,
      "ãģ£": 421,
      "ãģ¤": 422,
      "ãģ¥": 423,
      "ãģ¦": 424,
      "ãģ§": 425,
      "ãģ¨": 426,
      "ãģ©": 427,
      "ãģª": 428,
      "ãģ«": 429,
      "ãģ¬": 430,
      "ãģŃ": 431,
      "ãģ®": 432,
      "ãģ¯": 433,
      "ãģ°": 434,
      "ãģ±": 435,
      "ãģ²": 436,
      "ãģ³": 437,
      "ãģ´": 438,
      "ãģµ": 439,
      "ãģ¶": 440,
      "ãģ·": 441,
      "ãģ¸": 442,
      "ãģ¹": 443,
      "ãģº": 444,
      "ãģ»": 445,
      "ãģ¼": 446,
      "ãģ½": 447,
      "ãģ¾": 448,
      "ãģ¿": 449,
      "ãĤ": 450,
      "ãĤĢ": 451,
      "ãĤģ": 452,
      "ãĤĤ": 453,
      "ãĤĥ": 454,
      "ãĤĦ": 455,
      "ãĤħ": 456,
      "ãĤĨ": 457,
      "ãĤĩ": 458,
      "ãĤĪ": 459,
      "ãĤī": 460,
      "ãĤĬ": 461,
      "ãĤĭ": 462,
      "ãĤĮ": 463,
      "ãĤį": 464,
      "ãĤİ": 465,
      "ãĤı": 466,
      "ãĤĲ": 467,
      "ãĤĳ": 468,
      "ãĤĴ": 469,
      "ãĤĵ": 470,
      "ãĤĶ": 471,
      "ãĤķ": 472,
      "ãĤĸ": 473,
      "ãĤ¡": 474,
      "ãĤ¢": 475,
      "ãĤ£": 476,
      "ãĤ¤": 477,
      "ãĤ¥": 478,
      "ãĤ¦": 479,
      "ãĤ§": 480,
      "ãĤ¨": 481,
      "ãĤ©": 482,
      "ãĤª": 483,
      "ãĤ«": 484,
      "ãĤ¬": 485,
      "ãĤŃ": 486,
      "ãĤ®": 487,
      "ãĤ¯": 488,
      "ãĤ°": 489,
      "ãĤ±": 490,
      "ãĤ²": 491,
      "ãĤ³": 492,
      "ãĤ´": 493,
      "ãĤµ": 494,
      "ãĤ¶": 495,
      "ãĤ·": 496,
      "ãĤ¸": 497,
      "ãĤ¹": 498,
      "ãĤº": 499,
      "ãĤ»": 500,
      "ãĤ¼": 501,
      "ãĤ½": 502,
      "ãĤ¾": 503,
      "ãĤ¿": 504,
      "ãĥ": 505,
      "ãĥĢ": 506,
      "ãĥģ": 507,
      "ãĥĤ": 508,
      "ãĥĥ": 509,
      "ãĥĦ": 510,
      "ãĥħ": 511,
      "ãĥĨ": 512,
      "ãĥĩ": 513,
      "ãĥĪ": 514,
      "ãĥī": 515,
      "ãĥĬ": 516,
      "ãĥĭ": 517,
      "ãĥĮ": 518,
      "ãĥį": 519,
      "ãĥİ": 520,
      "ãĥı": 521,
      "ãĥĲ": 522,
      "ãĥĳ": 523,
      "ãĥĴ": 524,
      "ãĥĵ": 525,
      "ãĥĶ": 526,
      "ãĥķ": 527,
      "ãĥĸ": 528,
      "ãĥĹ": 529,
      "ãĥĺ": 530,
      "ãĥĻ": 531,
      "ãĥļ": 532,
      "ãĥĽ": 533,
      "ãĥľ": 534,
      "ãĥĿ": 535,
      "ãĥŀ": 536,
      "ãĥŁ": 537,
      "ãĥł": 538,
      "ãĥ¡": 539,
      "ãĥ¢": 540,
      "ãĥ£": 541,
      "ãĥ¤": 542,
      "ãĥ¥": 543,
      "ãĥ¦": 544,
      "ãĥ§": 545,
      "ãĥ¨": 546,
      "ãĥ©": 547,
      "ãĥª": 548,
      "ãĥ«": 549,
      "ãĥ¬": 550,
      "ãĥŃ": 551,
      "ãĥ®": 552,
      "ãĥ¯": 553,
      "ãĥ°": 554,
      "ãĥ±": 555,
      "ãĥ²": 556,
      "ãĥ³": 557,
      "ãĥ´": 558,
      "ãĥµ": 559,
      "ãĥ¶": 560,
      "ãĥ·": 561,
      "ãĥ¸": 562,
      "ãĥ¹": 563,
      "ãĥº": 564
    },
    "merges": [
      [
        "á",
        "Ħ"
      ],
      [
        "áĦ",
        "Ģ"
      ],
      [
        "áĦ",
        "ģ"
      ],
      [
        "áĦ",
        "Ĥ"
      ],
      [
        "áĦ",
        "ĥ"
      ],
      [
        "áĦ",
        "Ħ"
      ],
      [
        "áĦ",
        "ħ"
      ],
      [
        "áĦ",
        "Ĩ"
      ],
      [
        "áĦ",
        "ĩ"
      ],
      [
        "áĦ",
        "Ī"
      ],
      [
        "áĦ",
        "ī"
      ],
      [
        "áĦ",
        "Ĭ"
      ],
      [
        "áĦ",
        "ĭ"
      ],
      [
        "áĦ",
        "Į"
      ],
      [
        "áĦ",
        "į"
      ],
      [
        "áĦ",
        "İ"
      ],
      [
        "áĦ",
        "ı"
      ],
      [
        "áĦ",
        "Ĳ"
      ],
      [
        "áĦ",
        "ĳ"
      ],
      [
        "áĦ",
        "Ĵ"
      ],
      [
        "á",
        "ħ"
      ],
      [
        "áħ",
        "¡"
      ],
      [
        "áħ",
        "¢"
      ],
      [
        "áħ",
        "£"
      ],
      [
        "áħ",
        "¤"
      ],
      [
        "áħ",
        "¥"
      ],
      [
        "áħ",
        "¦"
      ],
      [
        "áħ",
        "§"
      ],
      [
        "áħ",
        "¨"
      ],
      [
        "áħ",
        "©"
      ],
      [
        "áħ",
        "ª"
      ],
      [
        "áħ",
        "«"
      ],
      [
        "áħ",
        "¬"
      ],
      [
        "áħ",
        "Ń"
      ],
      [
        "áħ",
        "®"
      ],
      [
        "áħ",
        "¯"
      ],
      [
        "áħ",
        "°"
      ],
      [
        "áħ",
        "±"
      ],
      [
        "áħ",
        "²"
      ],
      [
        "áħ",
        "³"
      ],
      [
        "áħ",
        "´"
      ],
      [
        "áħ",
        "µ"
      ],
      [
        "á",
        "Ĩ"
      ],
      [
        "áĨ",
        "¨"
      ],
      [
        "áĨ",
        "©"
      ],
      [
        "áĨ",
        "ª"
      ],
      [
        "áĨ",
        "«"
      ],
      [
        "áĨ",
        "¬"
      ],
      [
        "áĨ",
        "Ń"
      ],
      [
        "áĨ",
        "®"
      ],
      [
        "áĨ",
        "¯"
      ],
      [
        "áĨ",
        "°"
      ],
      [
        "áĨ",
        "±"
      ],
      [
        "áĨ",
        "²"
      ],
      [
        "áĨ",
        "³"
      ],
      [
        "áĨ",
        "´"
      ],
      [
        "áĨ",
        "µ"
      ],
      [
        "áĨ",
        "¶"
      ],
      [
        "áĨ",
        "·"
      ],
      [
        "áĨ",
        "¸"
      ],
      [
        "áĨ",
        "¹"
      ],
      [
        "áĨ",
        "º"
      ],
      [
        "áĨ",
        "»"
      ],
      [
        "áĨ",
        "¼"
      ],
      [
        "áĨ",
        "½"
      ],
      [
        "áĨ",
        "¾"
      ],
      [
        "áĨ",
        "¿"
      ],
      [
        "á",
        "ĩ"
      ],
      [
        "áĩ",
        "Ģ"
      ],
      [
        "áĩ",
        "ģ"
      ],
      [
        "áĩ",
        "Ĥ"
      ],
      [
        "ã",
        "Ħ"
      ],
      [
        "ãĦ",
        "±"
      ],
      [
        "ãĦ",
        "²"
      ],
      [
        "ãĦ",
        "³"
      ],
      [
        "ãĦ",
        "´"
      ],
      [
        "ãĦ",
        "µ"
      ],
      [
        "ãĦ",
        "¶"
      ],
      [
        "ãĦ",
        "·"
      ],
      [
        "ãĦ",
        "¸"
      ],
      [
        "ãĦ",
        "¹"
      ],
      [
        "ãĦ",
        "º"
      ],
      [
        "ãĦ",
        "»"
      ],
      [
        "ãĦ",
        "¼"
      ],
      [
        "ãĦ",
        "½"
      ],
      [
        "ãĦ",
        "¾"
      ],
      [
        "ãĦ",
        "¿"
      ],
      [
        "ã",
        "ħ"
      ],
      [
        "ãħ",
        "Ģ"
      ],
      [
        "ãħ",
        "ģ"
      ],
      [
        "ãħ",
        "Ĥ"
      ],
      [
        "ãħ",
        "ĥ"
      ],
      [
        "ãħ",
        "Ħ"
      ],
      [
        "ãħ",
        "ħ"
      ],
      [
        "ãħ",
        "Ĩ"
      ],
      [
        "ãħ",
        "ĩ"
      ],
      [
        "ãħ",
        "Ī"
      ],
      [
        "ãħ",
        "ī"
      ],
      [
        "ãħ",
        "Ĭ"
      ],
      [
        "ãħ",
        "ĭ"
      ],
      [
        "ãħ",
        "Į"
      ],
      [
        "ãħ",
        "į"
      ],
      [
        "ãħ",
        "İ"
      ],
      [
        "ãħ",
        "ı"
      ],
      [
        "ãħ",
        "Ĳ"
      ],
      [
        "ãħ",
        "ĳ"
      ],
      [
        "ãħ",
        "Ĵ"
      ],
      [
        "ãħ",
        "ĵ"
      ],
      [
        "ãħ",
        "Ķ"
      ],
      [
        "ãħ",
        "ķ"
      ],
      [
        "ãħ",
        "ĸ"
      ],
      [
        "ãħ",
        "Ĺ"
      ],
      [
        "ãħ",
        "ĺ"
      ],
      [
        "ãħ",
        "Ļ"
      ],
      [
        "ãħ",
        "ļ"
      ],
      [
        "ãħ",
        "Ľ"
      ],
      [
        "ãħ",
        "ľ"
      ],
      [
        "ãħ",
        "Ŀ"
      ],
      [
        "ãħ",
        "ŀ"
      ],
      [
        "ãħ",
        "Ł"
      ],
      [
        "ãħ",
        "ł"
      ],
      [
        "ãħ",
        "¡"
      ],
      [
        "ãħ",
        "¢"
      ],
      [
        "ãħ",
        "£"
      ],
      [
        "ã",
        "ģ"
      ],
      [
        "ãģ",
        "ģ"
      ],
      [
        "ãģ",
        "Ĥ"
      ],
      [
        "ãģ",
        "ĥ"
      ],
      [
        "ãģ",
        "Ħ"
      ],
      [
        "ãģ",
        "ħ"
      ],
      [
        "ãģ",
        "Ĩ"
      ],
      [
        "ãģ",
        "ĩ"
      ],
      [
        "ãģ",
        "Ī"
      ],
      [
        "ãģ",
        "ī"
      ],
      [
        "ãģ",
        "Ĭ"
      ],
      [
        "ãģ",
        "ĭ"
      ],
      [
        "ãģ",
        "Į"
      ],
      [
        "ãģ",
        "į"
      ],
      [
        "ãģ",
        "İ"
      ],
      [
        "ãģ",
        "ı"
      ],
      [
        "ãģ",
        "Ĳ"
      ],
      [
        "ãģ",
        "ĳ"
      ],
      [
        "ãģ",
        "Ĵ"
      ],
      [
        "ãģ",
        "ĵ"
      ],
      [
        "ãģ",
        "Ķ"
      ],
      [
        "ãģ",
        "ķ"
      ],
      [
        "ãģ",
        "ĸ"
      ],
      [
        "ãģ",
        "Ĺ"
      ],
      [
        "ãģ",
        "ĺ"
      ],
      [
        "ãģ",
        "Ļ"
      ],
      [
        "ãģ",
        "ļ"
      ],
      [
        "ãģ",
        "Ľ"
      ],
      [
        "ãģ",
        "ľ"
      ],
      [
        "ãģ",
        "Ŀ"
      ],
      [
        "ãģ",
        "ŀ"
      ],
      [
        "ãģ",
        "Ł"
      ],
      [
        "ãģ",
        "ł"
      ],
      [
        "ãģ",
        "¡"
      ],
      [
        "ãģ",
        "¢"
      ],
      [
        "ãģ",
        "£"
      ],
      [
        "ãģ",
        "¤"
      ],
      [
        "ãģ",
        "¥"
      ],
      [
        "ãģ",
        "¦"
      ],
      [
        "ãģ",
        "§"
      ],
      [
        "ãģ",
        "¨"
      ],
      [
        "ãģ",
        "©"
      ],
      [
        "ãģ",
        "ª"
      ],
      [
        "ãģ",
        "«"
      ],
      [
        "ãģ",
        "¬"
      ],
      [
        "ãģ",
        "Ń"
      ],
      [
        "ãģ",
        "®"
      ],
      [
        "ãģ",
        "¯"
      ],
      [
        "ãģ",
        "°"
      ],
      [
        "ãģ",
        "±"
      ],
      [
        "ãģ",
        "²"
      ],
      [
        "ãģ",
        "³"
      ],
      [
        "ãģ",
        "´"
      ],
      [
        "ãģ",
        "µ"
      ],
      [
        "ãģ",
        "¶"
      ],
      [
        "ãģ",
        "·"
      ],
      [
        "ãģ",
        "¸"
      ],
      [
        "ãģ",
        "¹"
      ],
      [
        "ãģ",
        "º"
      ],
      [
        "ãģ",
        "»"
      ],
      [
        "ãģ",
        "¼"
      ],
      [
        "ãģ",
        "½"
      ],
      [
        "ãģ",
        "¾"
      ],
      [
        "ãģ",
        "¿"
      ],
      [
        "ã",
        "Ĥ"
      ],
      [
        "ãĤ",
        "Ģ"
      ],
      [
        "ãĤ",
        "ģ"
      ],
      [
        "ãĤ",
        "Ĥ"
      ],
      [
        "ãĤ",
        "ĥ"
      ],
      [
        "ãĤ",
        "Ħ"
      ],
      [
        "ãĤ",
        "ħ"
      ],
      [
        "ãĤ",
        "Ĩ"
      ],
      [
        "ãĤ",
        "ĩ"
      ],
      [
        "ãĤ",
        "Ī"
      ],
      [
        "ãĤ",
        "ī"
      ],
      [
        "ãĤ",
        "Ĭ"
      ],
      [
        "ãĤ",
        "ĭ"
      ],
      [
        "ãĤ",
        "Į"
      ],
      [
        "ãĤ",
        "į"
      ],
      [
        "ãĤ",
        "İ"
      ],
      [
        "ãĤ",
        "ı"
      ],
      [
        "ãĤ",
        "Ĳ"
      ],
      [
        "ãĤ",
        "ĳ"
      ],
      [
        "ãĤ",
        "Ĵ"
      ],
      [
        "ãĤ",
        "ĵ"
      ],
      [
        "ãĤ",
        "Ķ"
      ],
      [
        "ãĤ",
        "ķ"
      ],
      [
        "ãĤ",
        "ĸ"
      ],
      [
        "ãĤ",
        "¡"
      ],
      [
        "ãĤ",
        "¢"
      ],
      [
        "ãĤ",
        "£"
      ],
      [
        "ãĤ",
        "¤"
      ],
      [
        "ãĤ",
        "¥"
      ],
      [
        "ãĤ",
        "¦"
      ],
      [
        "ãĤ",
        "§"
      ],
      [
        "ãĤ",
        "¨"
      ],
      [
        "ãĤ",
        "©"
      ],
      [
        "ãĤ",
        "ª"
      ],
      [
        "ãĤ",
        "«"
      ],
      [
        "ãĤ",
        "¬"
      ],
      [
        "ãĤ",
        "Ń"
      ],
      [
        "ãĤ",
        "®"
      ],
      [
        "ãĤ",
        "¯"
      ],
      [
        "ãĤ",
        "°"
      ],
      [
        "ãĤ",
        "±"
      ],
      [
        "ãĤ",
        "²"
      ],
      [
        "ãĤ",
        "³"
      ],
      [
        "ãĤ",
        "´"
      ],
      [
        "ãĤ",
        "µ"
      ],
      [
        "ãĤ",
        "¶"
      ],
      [
        "ãĤ",
        "·"
      ],
      [
        "ãĤ",
        "¸"
      ],
      [
        "ãĤ",
        "¹"
      ],
      [
        "ãĤ",
        "º"
      ],
      [
        "ãĤ",
        "»"
      ],
      [
        "ãĤ",
        "¼"
      ],
      [
        "ãĤ",
        "½"
      ],
      [
        "ãĤ",
        "¾"
      ],
      [
        "ãĤ",
        "¿"
      ],
      [
        "ã",
        "ĥ"
      ],
      [
        "ãĥ",
        "Ģ"
      ],
      [
        "ãĥ",
        "ģ"
      ],
      [
        "ãĥ",
        "Ĥ"
      ],
      [
        "ãĥ",
        "ĥ"
      ],
      [
        "ãĥ",
        "Ħ"
      ],
      [
        "ãĥ",
        "ħ"
      ],
      [
        "ãĥ",
        "Ĩ"
      ],
      [
        "ãĥ",
        "ĩ"
      ],
      [
        "ãĥ",
        "Ī"
      ],
      [
        "ãĥ",
        "ī"
      ],
      [
        "ãĥ",
        "Ĭ"
      ],
      [
        "ãĥ",
        "ĭ"
      ],
      [
        "ãĥ",
        "Į"
      ],
      [
        "ãĥ",
        "į"
      ],
      [
        "ãĥ",
        "İ"
      ],
      [
        "ãĥ",
        "ı"
      ],
      [
        "ãĥ",
        "Ĳ"
      ],
      [
        "ãĥ",
        "ĳ"
      ],
      [
        "ãĥ",
        "Ĵ"
      ],
      [
        "ãĥ",
        "ĵ"
      ],
      [
        "ãĥ",
        "Ķ"
      ],
      [
        "ãĥ",
        "ķ"
      ],
      [
        "ãĥ",
        "ĸ"
      ],
      [
        "ãĥ",
        "Ĺ"
      ],
      [
        "ãĥ",
        "ĺ"
      ],
      [
        "ãĥ",
        "Ļ"
      ],
      [
        "ãĥ",
        "ļ"
      ],
      [
        "ãĥ",
        "Ľ"
      ],
      [
        "ãĥ",
        "ľ"
      ],
      [
        "ãĥ",
        "Ŀ"
      ],
      [
        "ãĥ",
        "ŀ"
      ],
      [
        "ãĥ",
        "Ł"
      ],
      [
        "ãĥ",
        "ł"
      ],
      [
        "ãĥ",
        "¡"
      ],
      [
        "ãĥ",
        "¢"
      ],
      [
        "ãĥ",
        "£"
      ],
      [
        "ãĥ",
        "¤"
      ],
      [
        "ãĥ",
        "¥"
      ],
      [
        "ãĥ",
        "¦"
      ],
      [
        "ãĥ",
        "§"
      ],
      [
        "ãĥ",
        "¨"
      ],
      [
        "ãĥ",
        "©"
      ],
      [
        "ãĥ",
        "ª"
      ],
      [
        "ãĥ",
        "«"
      ],
      [
        "ãĥ",
        "¬"
      ],
      [
        "ãĥ",
        "Ń"
      ],
      [
        "ãĥ",
        "®"
      ],
      [
        "ãĥ",
        "¯"
      ],
      [
        "ãĥ",
        "°"
      ],
      [
        "ãĥ",
        "±"
      ],
      [
        "ãĥ",
        "²"
      ],
      [
        "ãĥ",
        "³"
      ],
      [
        "ãĥ",
        "´"
      ],
      [
        "ãĥ",
        "µ"
      ],
      [
        "ãĥ",
        "¶"
      ],
      [
        "ãĥ",
        "·"
      ],
      [
        "ãĥ",
        "¸"
      ],
      [
        "ãĥ",
        "¹"
      ],
      [
        "ãĥ",
        "º"
      ]
    ]
  }
}