{
  "version": "1.0",
  "truncation": null,
  "padding": null,
  "added_tokens": [
    {
      "id": 564,
      "content": "<|BOHJ|>",
      "single_word": false,
      "lstrip": false,
      "rstrip": false,
      "normalized": false,
      "special": true
    },
    {
      "id": 565,
      "content": "<|EOHJ|>",
      "single_word": false,
      "lstrip": false,
      "rstrip": false,
      "normalized": false,
      "special": true
    }
  ],
  "normalizer": null,
  "pre_tokenizer": {
    "type": "ByteLevel",
    "add_prefix_space": false,
    "trim_offsets": true,
    "use_regex": true
  },
  "post_processor": null,
  "decoder": {
    "type": "ByteLevel",
    "add_prefix_space": true,
    "trim_offsets": true,
    "use_regex": true
  },
  "model": {
    "type": "BPE",
    "dropout": null,
    "unk_token": "[UNK]",
    "continuing_subword_prefix": null,
    "end_of_word_suffix": null,
    "fuse_unk": false,
    "byte_fallback": false,
    "ignore_merges": false,
    "vocab": {
      "[UNK]": 0,
      "[BOS]": 1,
      "[EOS]": 2,
      "[PAD]": 3,
      "[SEP]": 4,
      "Ā": 5,
      "ā": 6,
      "Ă": 7,
      "ă": 8,
      "Ą": 9,
      "ą": 10,
      "Ć": 11,
      "ć": 12,
      "Ĉ": 13,
      "ĉ": 14,
      "Ċ": 15,
      "ċ": 16,
      "Č": 17,
      "č": 18,
      "Ď": 19,
      "ď": 20,
      "Đ": 21,
      "đ": 22,
      "Ē": 23,
      "ē": 24,
      "Ĕ": 25,
      "ĕ": 26,
      "Ė": 27,
      "ė": 28,
      "Ę": 29,
      "ę": 30,
      "Ě": 31,
      "ě": 32,
      "Ĝ": 33,
      "ĝ": 34,
      "Ğ": 35,
      "ğ": 36,
      "Ġ": 37,
      "!": 38,
      "\"": 39,
      "#": 40,
      "$": 41,
      "%": 42,
      "&": 43,
      "'": 44,
      "(": 45,
      ")": 46,
      "*": 47,
      "+": 48,
      ",": 49,
      "-": 50,
      ".": 51,
      "/": 52,
      "0": 53,
      "1": 54,
      "2": 55,
      "3": 56,
      "4": 57,
      "5": 58,
      "6": 59,
      "7": 60,
      "8": 61,
      "9": 62,
      ":": 63,
      ";": 64,
      "<": 65,
      "=": 66,
      ">": 67,
      "?": 68,
      "@": 69,
      "A": 70,
      "B": 71,
      "C": 72,
      "D": 73,
      "E": 74,
      "F": 75,
      "G": 76,
      "H": 77,
      "I": 78,
      "J": 79,
      "K": 80,
      "L": 81,
      "M": 82,
      "N": 83,
      "O": 84,
      "P": 85,
      "Q": 86,
      "R": 87,
      "S": 88,
      "T": 89,
      "U": 90,
      "V": 91,
      "W": 92,
      "X": 93,
      "Y": 94,
      "Z": 95,
      "[": 96,
      "\\": 97,
      "]": 98,
      "^": 99,
      "_": 100,
      "`": 101,
      "a": 102,
      "b": 103,
      "c": 104,
      "d": 105,
      "e": 106,
      "f": 107,
      "g": 108,
      "h": 109,
      "i": 110,
      "j": 111,
      "k": 112,
      "l": 113,
      "m": 114,
      "n": 115,
      "o": 116,
      "p": 117,
      "q": 118,
      "r": 119,
      "s": 120,
      "t": 121,
      "u": 122,
      "v": 123,
      "w": 124,
      "x": 125,
      "y": 126,
      "z": 127,
      "{": 128,
      "|": 129,
      "}": 130,
      "~": 131,
      "ġ": 132,
      "Ģ": 133,
      "ģ": 134,
      "Ĥ": 135,
      "ĥ": 136,
      "Ħ": 137,
      "ħ": 138,
      "Ĩ": 139,
      "ĩ": 140,
      "Ī": 141,
      "ī": 142,
      "Ĭ": 143,
      "ĭ": 144,
      "Į": 145,
      "į": 146,
      "İ": 147,
      "ı": 148,
      "Ĳ": 149,
      "ĳ": 150,
      "Ĵ": 151,
      "ĵ": 152,
      "Ķ": 153,
      "ķ": 154,
      "ĸ": 155,
      "Ĺ": 156,
      "ĺ": 157,
      "Ļ": 158,
      "ļ": 159,
      "Ľ": 160,
      "ľ": 161,
      "Ŀ": 162,
      "ŀ": 163,
      "Ł": 164,
      "ł": 165,
      "¡": 166,
      "¢": 167,
      "£": 168,
      "¤": 169,
      "¥": 170,
      "¦": 171,
      "§": 172,
      "¨": 173,
      "©": 174,
      "ª": 175,
      "«": 176,
      "¬": 177,
      "Ń": 178,
      "®": 179,
      "¯": 180,
      "°": 181,
      "±": 182,
      "²": 183,
      "³": 184,
      "´": 185,
      "µ": 186,
      "¶": 187,
      "·": 188,
      "¸": 189,
      "¹": 190,
      "º": 191,
      "»": 192,
      "¼": 193,
      "½": 194,
      "¾": 195,
      "¿": 196,
      "À": 197,
      "Á": 198,
      "Â": 199,
      "Ã": 200,
      "Ä": 201,
      "Å": 202,
      "Æ": 203,
      "Ç": 204,
      "È": 205,
      "É": 206,
      "Ê": 207,
      "Ë": 208,
      "Ì": 209,
      "Í": 210,
      "Î": 211,
      "Ï": 212,
      "Ð": 213,
      "Ñ": 214,
      "Ò": 215,
      "Ó": 216,
      "Ô": 217,
      "Õ": 218,
      "Ö": 219,
      "×": 220,
      "Ø": 221,
      "Ù": 222,
      "Ú": 223,
      "Û": 224,
      "Ü": 225,
      "Ý": 226,
      "Þ": 227,
      "ß": 228,
      "à": 229,
      "á": 230,
      "â": 231,
      "ã": 232,
      "ä": 233,
      "å": 234,
      "æ": 235,
      "ç": 236,
      "è": 237,
      "é": 238,
      "ê": 239,
      "ë": 240,
      "ì": 241,
      "í": 242,
      "î": 243,
      "ï": 244,
      "ð": 245,
      "ñ": 246,
      "ò": 247,
      "ó": 248,
      "ô": 249,
      "õ": 250,
      "ö": 251,
      "÷": 252,
      "ø": 253,
      "ù": 254,
      "ú": 255,
      "û": 256,
      "ü": 257,
      "ý": 258,
      "þ": 259,
      "ÿ": 260,
      "áĦ": 261,
      "áĦĢ": 262,
      "áĦģ": 263,
      "áĦĤ": 264,
      "áĦĥ": 265,
      "áĦĦ": 266,
      "áĦħ": 267,
      "áĦĨ": 268,
      "áĦĩ": 269,
      "áĦĪ": 270,
      "áĦī": 271,
      "áĦĬ": 272,
      "áĦĭ": 273,
      "áĦĮ": 274,
      "áĦį": 275,
      "áĦİ": 276,
      "áĦı": 277,
      "áĦĲ": 278,
      "áĦĳ": 279,
      "áĦĴ": 280,
      "áħ": 281,
      "áħ¡": 282,
      "áħ¢": 283,
      "áħ£": 284,
      "áħ¤": 285,
      "áħ¥": 286,
      "áħ¦": 287,
      "áħ§": 288,
      "áħ¨": 289,
      "áħ©": 290,
      "áħª": 291,
      "áħ«": 292,
      "áħ¬": 293,
      "áħŃ": 294,
      "áħ®": 295,
      "áħ¯": 296,
      "áħ°": 297,
      "áħ±": 298,
      "áħ²": 299,
      "áħ³": 300,
      "áħ´": 301,
      "áħµ": 302,
      "áĨ": 303,
      "áĨ¨": 304,
      "áĨ©": 305,
      "áĨª": 306,
      "áĨ«": 307,
      "áĨ¬": 308,
      "áĨŃ": 309,
      "áĨ®": 310,
      "áĨ¯": 311,
      "áĨ°": 312,
      "áĨ±": 313,
      "áĨ²": 314,
      "áĨ³": 315,
      "áĨ´": 316,
      "áĨµ": 317,
      "áĨ¶": 318,
      "áĨ·": 319,
      "áĨ¸": 320,
      "áĨ¹": 321,
      "áĨº": 322,
      "áĨ»": 323,
      "áĨ¼": 324,
      "áĨ½": 325,
      "áĨ¾": 326,
      "áĨ¿": 327,
      "áĩ": 328,
      "áĩĢ": 329,
      "áĩģ": 330,
      "áĩĤ": 331,
      "ãĦ": 332,
      "ãĦ±": 333,
      "ãĦ²": 334,
      "ãĦ³": 335,
      "ãĦ´": 336,
      "ãĦµ": 337,
      "ãĦ¶": 338,
      "ãĦ·": 339,
      "ãĦ¸": 340,
      "ãĦ¹": 341,
      "ãĦº": 342,
      "ãĦ»": 343,
      "ãĦ¼": 344,
      "ãĦ½": 345,
      "ãĦ¾": 346,
      "ãĦ¿": 347,
      "ãħ": 348,
      "ãħĢ": 349,
      "ãħģ": 350,
      "ãħĤ": 351,
      "ãħĥ": 352,
      "ãħĦ": 353,
      "ãħħ": 354,
      "ãħĨ": 355,
      "ãħĩ": 356,
      "ãħĪ": 357,
      "ãħī": 358,
      "ãħĬ": 359,
      "ãħĭ": 360,
      "ãħĮ": 361,
      "ãħį": 362,
      "ãħİ": 363,
      "ãħı": 364,
      "ãħĲ": 365,
      "ãħĳ": 366,
      "ãħĴ": 367,
      "ãħĵ": 368,
      "ãħĶ": 369,
      "ãħķ": 370,
      "ãħĸ": 371,
      "ãħĹ": 372,
      "ãħĺ": 373,
      "ãħĻ": 374,
      "ãħļ": 375,
      "ãħĽ": 376,
      "ãħľ": 377,
      "ãħĿ": 378,
      "ãħŀ": 379,
      "ãħŁ": 380,
      "ãħł": 381,
      "ãħ¡": 382,
      "ãħ¢": 383,
      "ãħ£": 384,
      "ãģ": 385,
      "ãģģ": 386,
      "ãģĤ": 387,
      "ãģĥ": 388,
      "ãģĦ": 389,
      "ãģħ": 390,
      "ãģĨ": 391,
      "ãģĩ": 392,
      "ãģĪ": 393,
      "ãģī": 394,
      "ãģĬ": 395,
      "ãģĭ": 396,
      "ãģĮ": 397,
      "ãģį": 398,
      "ãģİ": 399,
      "ãģı": 400,
      "ãģĲ": 401,
      "ãģĳ": 402,
      "ãģĴ": 403,
      "ãģĵ": 404,
      "ãģĶ": 405,
      "ãģķ": 406,
      "ãģĸ": 407,
      "ãģĹ": 408,
      "ãģĺ": 409,
      "ãģĻ": 410,
      "ãģļ": 411,
      "ãģĽ": 412,
      "ãģľ": 413,
      "ãģĿ": 414,
      "ãģŀ": 415,
      "ãģŁ": 416,
      "ãģł": 417,
      "ãģ¡": 418,
      "ãģ¢": 419,
      "ãģ£": 420,
      "ãģ¤": 421,
      "ãģ¥": 422,
      "ãģ¦": 423,
      "ãģ§": 424,
      "ãģ¨": 425,
      "ãģ©": 426,
      "ãģª": 427,
      "ãģ«": 428,
      "ãģ¬": 429,
      "ãģŃ": 430,
      "ãģ®": 431,
      "ãģ¯": 432,
      "ãģ°": 433,
      "ãģ±": 434,
      "ãģ²": 435,
      "ãģ³": 436,
      "ãģ´": 437,
      "ãģµ": 438,
      "ãģ¶": 439,
      "ãģ·": 440,
      "ãģ¸": 441,
      "ãģ¹": 442,
      "ãģº": 443,
      "ãģ»": 444,
      "ãģ¼": 445,
      "ãģ½": 446,
      "ãģ¾": 447,
      "ãģ¿": 448,
      "ãĤ": 449,
      "ãĤĢ": 450,
      "ãĤģ": 451,
      "ãĤĤ": 452,
      "ãĤĥ": 453,
      "ãĤĦ": 454,
      "ãĤħ": 455,
      "ãĤĨ": 456,
      "ãĤĩ": 457,
      "ãĤĪ": 458,
      "ãĤī": 459,
      "ãĤĬ": 460,
      "ãĤĭ": 461,
      "ãĤĮ": 462,
      "ãĤį": 463,
      "ãĤİ": 464,
      "ãĤı": 465,
      "ãĤĲ": 466,
      "ãĤĳ": 467,
      "ãĤĴ": 468,
      "ãĤĵ": 469,
      "ãĤĶ": 470,
      "ãĤķ": 471,
      "ãĤĸ": 472,
      "ãĤ¡": 473,
      "ãĤ¢": 474,
      "ãĤ£": 475,
      "ãĤ¤": 476,
      "ãĤ¥": 477,
      "ãĤ¦": 478,
      "ãĤ§": 479,
      "ãĤ¨": 480,
      "ãĤ©": 481,
      "ãĤª": 482,
      "ãĤ«": 483,
      "ãĤ¬": 484,
      "ãĤŃ": 485,
      "ãĤ®": 486,
      "ãĤ¯": 487,
      "ãĤ°": 488,
      "ãĤ±": 489,
      "ãĤ²": 490,
      "ãĤ³": 491,
      "ãĤ´": 492,
      "ãĤµ": 493,
      "ãĤ¶": 494,
      "ãĤ·": 495,
      "ãĤ¸": 496,
      "ãĤ¹": 497,
      "ãĤº": 498,
      "ãĤ»": 499,
      "ãĤ¼": 500,
      "ãĤ½": 501,
      "ãĤ¾": 502,
      "ãĤ¿": 503,
      "ãĥ": 504,
      "ãĥĢ": 505,
      "ãĥģ": 506,
      "ãĥĤ": 507,
      "ãĥĥ": 508,
      "ãĥĦ": 509,
      "ãĥħ": 510,
      "ãĥĨ": 511,
      "ãĥĩ": 512,
      "ãĥĪ": 513,
      "ãĥī": 514,
      "ãĥĬ": 515,
      "ãĥĭ": 516,
      "ãĥĮ": 517,
      "ãĥį": 518,
      "ãĥİ": 519,
      "ãĥı": 520,
      "ãĥĲ": 521,
      "ãĥĳ": 522,
      "ãĥĴ": 523,
      "ãĥĵ": 524,
      "ãĥĶ": 525,
      "ãĥķ": 526,
      "ãĥĸ": 527,
      "ãĥĹ": 528,
      "ãĥĺ": 529,
      "ãĥĻ": 530,
      "ãĥļ": 531,
      "ãĥĽ": 532,
      "ãĥľ": 533,
      "ãĥĿ": 534,
      "ãĥŀ": 535,
      "ãĥŁ": 536,
      "ãĥł": 537,
      "ãĥ¡": 538,
      "ãĥ¢": 539,
      "ãĥ£": 540,
      "ãĥ¤": 541,
      "ãĥ¥": 542,
      "ãĥ¦": 543,
      "ãĥ§": 544,
      "ãĥ¨": 545,
      "ãĥ©": 546,
      "ãĥª": 547,
      "ãĥ«": 548,
      "ãĥ¬": 549,
      "ãĥŃ": 550,
      "ãĥ®": 551,
      "ãĥ¯": 552,
      "ãĥ°": 553,
      "ãĥ±": 554,
      "ãĥ²": 555,
      "ãĥ³": 556,
      "ãĥ´": 557,
      "ãĥµ": 558,
      "ãĥ¶": 559,
      "ãĥ·": 560,
      "ãĥ¸": 561,
      "ãĥ¹": 562,
      "ãĥº": 563
    },
    "merges": [
      [
        "á",
        "Ħ"
      ],
      [
        "áĦ",
        "Ģ"
      ],
      [
        "áĦ",
        "ģ"
      ],
      [
        "áĦ",
        "Ĥ"
      ],
      [
        "áĦ",
        "ĥ"
      ],
      [
        "áĦ",
        "Ħ"
      ],
      [
        "áĦ",
        "ħ"
      ],
      [
        "áĦ",
        "Ĩ"
      ],
      [
        "áĦ",
        "ĩ"
      ],
      [
        "áĦ",
        "Ī"
      ],
      [
        "áĦ",
        "ī"
      ],
      [
        "áĦ",
        "Ĭ"
      ],
      [
        "áĦ",
        "ĭ"
      ],
      [
        "áĦ",
        "Į"
      ],
      [
        "áĦ",
        "į"
      ],
      [
        "áĦ",
        "İ"
      ],
      [
        "áĦ",
        "ı"
      ],
      [
        "áĦ",
        "Ĳ"
      ],
      [
        "áĦ",
        "ĳ"
      ],
      [
        "áĦ",
        "Ĵ"
      ],
      [
        "á",
        "ħ"
      ],
      [
        "áħ",
        "¡"
      ],
      [
        "áħ",
        "¢"
      ],
      [
        "áħ",
        "£"
      ],
      [
        "áħ",
        "¤"
      ],
      [
        "áħ",
        "¥"
      ],
      [
        "áħ",
        "¦"
      ],
      [
        "áħ",
        "§"
      ],
      [
        "áħ",
        "¨"
      ],
      [
        "áħ",
        "©"
      ],
      [
        "áħ",
        "ª"
      ],
      [
        "áħ",
        "«"
      ],
      [
        "áħ",
        "¬"
      ],
      [
        "áħ",
        "Ń"
      ],
      [
        "áħ",
        "®"
      ],
      [
        "áħ",
        "¯"
      ],
      [
        "áħ",
        "°"
      ],
      [
        "áħ",
        "±"
      ],
      [
        "áħ",
        "²"
      ],
      [
        "áħ",
        "³"
      ],
      [
        "áħ",
        "´"
      ],
      [
        "áħ",
        "µ"
      ],
      [
        "á",
        "Ĩ"
      ],
      [
        "áĨ",
        "¨"
      ],
      [
        "áĨ",
        "©"
      ],
      [
        "áĨ",
        "ª"
      ],
      [
        "áĨ",
        "«"
      ],
      [
        "áĨ",
        "¬"
      ],
      [
        "áĨ",
        "Ń"
      ],
      [
        "áĨ",
        "®"
      ],
      [
        "áĨ",
        "¯"
      ],
      [
        "áĨ",
        "°"
      ],
      [
        "áĨ",
        "±"
      ],
      [
        "áĨ",
        "²"
      ],
      [
        "áĨ",
        "³"
      ],
      [
        "áĨ",
        "´"
      ],
      [
        "áĨ",
        "µ"
      ],
      [
        "áĨ",
        "¶"
      ],
      [
        "áĨ",
        "·"
      ],
      [
        "áĨ",
        "¸"
      ],
      [
        "áĨ",
        "¹"
      ],
      [
        "áĨ",
        "º"
      ],
      [
        "áĨ",
        "»"
      ],
      [
        "áĨ",
        "¼"
      ],
      [
        "áĨ",
        "½"
      ],
      [
        "áĨ",
        "¾"
      ],
      [
        "áĨ",
        "¿"
      ],
      [
        "á",
        "ĩ"
      ],
      [
        "áĩ",
        "Ģ"
      ],
      [
        "áĩ",
        "ģ"
      ],
      [
        "áĩ",
        "Ĥ"
      ],
      [
        "ã",
        "Ħ"
      ],
      [
        "ãĦ",
        "±"
      ],
      [
        "ãĦ",
        "²"
      ],
      [
        "ãĦ",
        "³"
      ],
      [
        "ãĦ",
        "´"
      ],
      [
        "ãĦ",
        "µ"
      ],
      [
        "ãĦ",
        "¶"
      ],
      [
        "ãĦ",
        "·"
      ],
      [
        "ãĦ",
        "¸"
      ],
      [
        "ãĦ",
        "¹"
      ],
      [
        "ãĦ",
        "º"
      ],
      [
        "ãĦ",
        "»"
      ],
      [
        "ãĦ",
        "¼"
      ],
      [
        "ãĦ",
        "½"
      ],
      [
        "ãĦ",
        "¾"
      ],
      [
        "ãĦ",
        "¿"
      ],
      [
        "ã",
        "ħ"
      ],
      [
        "ãħ",
        "Ģ"
      ],
      [
        "ãħ",
        "ģ"
      ],
      [
        "ãħ",
        "Ĥ"
      ],
      [
        "ãħ",
        "ĥ"
      ],
      [
        "ãħ",
        "Ħ"
      ],
      [
        "ãħ",
        "ħ"
      ],
      [
        "ãħ",
        "Ĩ"
      ],
      [
        "ãħ",
        "ĩ"
      ],
      [
        "ãħ",
        "Ī"
      ],
      [
        "ãħ",
        "ī"
      ],
      [
        "ãħ",
        "Ĭ"
      ],
      [
        "ãħ",
        "ĭ"
      ],
      [
        "ãħ",
        "Į"
      ],
      [
        "ãħ",
        "į"
      ],
      [
        "ãħ",
        "İ"
      ],
      [
        "ãħ",
        "ı"
      ],
      [
        "ãħ",
        "Ĳ"
      ],
      [
        "ãħ",
        "ĳ"
      ],
      [
        "ãħ",
        "Ĵ"
      ],
      [
        "ãħ",
        "ĵ"
      ],
      [
        "ãħ",
        "Ķ"
      ],
      [
        "ãħ",
        "ķ"
      ],
      [
        "ãħ",
        "ĸ"
      ],
      [
        "ãħ",
        "Ĺ"
      ],
      [
        "ãħ",
        "ĺ"
      ],
      [
        "ãħ",
        "Ļ"
      ],
      [
        "ãħ",
        "ļ"
      ],
      [
        "ãħ",
        "Ľ"
      ],
      [
        "ãħ",
        "ľ"
      ],
      [
        "ãħ",
        "Ŀ"
      ],
      [
        "ãħ",
        "ŀ"
      ],
      [
        "ãħ",
        "Ł"
      ],
      [
        "ãħ",
        "ł"
      ],
      [
        "ãħ",
        "¡"
      ],
      [
        "ãħ",
        "¢"
      ],
      [
        "ãħ",
        "£"
      ],
      [
        "ã",
        "ģ"
      ],
      [
        "ãģ",
        "ģ"
      ],
      [
        "ãģ",
        "Ĥ"
      ],
      [
        "ãģ",
        "ĥ"
      ],
      [
        "ãģ",
        "Ħ"
      ],
      [
        "ãģ",
        "ħ"
      ],
      [
        "ãģ",
        "Ĩ"
      ],
      [
        "ãģ",
        "ĩ"
      ],
      [
        "ãģ",
        "Ī"
      ],
      [
        "ãģ",
        "ī"
      ],
      [
        "ãģ",
        "Ĭ"
      ],
      [
        "ãģ",
        "ĭ"
      ],
      [
        "ãģ",
        "Į"
      ],
      [
        "ãģ",
        "į"
      ],
      [
        "ãģ",
        "İ"
      ],
      [
        "ãģ",
        "ı"
      ],
      [
        "ãģ",
        "Ĳ"
      ],
      [
        "ãģ",
        "ĳ"
      ],
      [
        "ãģ",
        "Ĵ"
      ],
      [
        "ãģ",
        "ĵ"
      ],
      [
        "ãģ",
        "Ķ"
      ],
      [
        "ãģ",
        "ķ"
      ],
      [
        "ãģ",
        "ĸ"
      ],
      [
        "ãģ",
        "Ĺ"
      ],
      [
        "ãģ",
        "ĺ"
      ],
      [
        "ãģ",
        "Ļ"
      ],
      [
        "ãģ",
        "ļ"
      ],
      [
        "ãģ",
        "Ľ"
      ],
      [
        "ãģ",
        "ľ"
      ],
      [
        "ãģ",
        "Ŀ"
      ],
      [
        "ãģ",
        "ŀ"
      ],
      [
        "ãģ",
        "Ł"
      ],
      [
        "ãģ",
        "ł"
      ],
      [
        "ãģ",
        "¡"
      ],
      [
        "ãģ",
        "¢"
      ],
      [
        "ãģ",
        "£"
      ],
      [
        "ãģ",
        "¤"
      ],
      [
        "ãģ",
        "¥"
      ],
      [
        "ãģ",
        "¦"
      ],
      [
        "ãģ",
        "§"
      ],
      [
        "ãģ",
        "¨"
      ],
      [
        "ãģ",
        "©"
      ],
      [
        "ãģ",
        "ª"
      ],
      [
        "ãģ",
        "«"
      ],
      [
        "ãģ",
        "¬"
      ],
      [
        "ãģ",
        "Ń"
      ],
      [
        "ãģ",
        "®"
      ],
      [
        "ãģ",
        "¯"
      ],
      [
        "ãģ",
        "°"
      ],
      [
        "ãģ",
        "±"
      ],
      [
        "ãģ",
        "²"
      ],
      [
        "ãģ",
        "³"
      ],
      [
        "ãģ",
        "´"
      ],
      [
        "ãģ",
        "µ"
      ],
      [
        "ãģ",
        "¶"
      ],
      [
        "ãģ",
        "·"
      ],
      [
        "ãģ",
        "¸"
      ],
      [
        "ãģ",
        "¹"
      ],
      [
        "ãģ",
        "º"
      ],
      [
        "ãģ",
        "»"
      ],
      [
        "ãģ",
        "¼"
      ],
      [
        "ãģ",
        "½"
      ],
      [
        "ãģ",
        "¾"
      ],
      [
        "ãģ",
        "¿"
      ],
      [
        "ã",
        "Ĥ"
      ],
      [
        "ãĤ",
        "Ģ"
      ],
      [
        "ãĤ",
        "ģ"
      ],
      [
        "ãĤ",
        "Ĥ"
      ],
      [
        "ãĤ",
        "ĥ"
      ],
      [
        "ãĤ",
        "Ħ"
      ],
      [
        "ãĤ",
        "ħ"
      ],
      [
        "ãĤ",
        "Ĩ"
      ],
      [
        "ãĤ",
        "ĩ"
      ],
      [
        "ãĤ",
        "Ī"
      ],
      [
        "ãĤ",
        "ī"
      ],
      [
        "ãĤ",
        "Ĭ"
      ],
      [
        "ãĤ",
        "ĭ"
      ],
      [
        "ãĤ",
        "Į"
      ],
      [
        "ãĤ",
        "į"
      ],
      [
        "ãĤ",
        "İ"
      ],
      [
        "ãĤ",
        "ı"
      ],
      [
        "ãĤ",
        "Ĳ"
      ],
      [
        "ãĤ",
        "ĳ"
      ],
      [
        "ãĤ",
        "Ĵ"
      ],
      [
        "ãĤ",
        "ĵ"
      ],
      [
        "ãĤ",
        "Ķ"
      ],
      [
        "ãĤ",
        "ķ"
      ],
      [
        "ãĤ",
        "ĸ"
      ],
      [
        "ãĤ",
        "¡"
      ],
      [
        "ãĤ",
        "¢"
      ],
      [
        "ãĤ",
        "£"
      ],
      [
        "ãĤ",
        "¤"
      ],
      [
        "ãĤ",
        "¥"
      ],
      [
        "ãĤ",
        "¦"
      ],
      [
        "ãĤ",
        "§"
      ],
      [
        "ãĤ",
        "¨"
      ],
      [
        "ãĤ",
        "©"
      ],
      [
        "ãĤ",
        "ª"
      ],
      [
        "ãĤ",
        "«"
      ],
      [
        "ãĤ",
        "¬"
      ],
      [
        "ãĤ",
        "Ń"
      ],
      [
        "ãĤ",
        "®"
      ],
      [
        "ãĤ",
        "¯"
      ],
      [
        "ãĤ",
        "°"
      ],
      [
        "ãĤ",
        "±"
      ],
      [
        "ãĤ",
        "²"
      ],
      [
        "ãĤ",
        "³"
      ],
      [
        "ãĤ",
        "´"
      ],
      [
        "ãĤ",
        "µ"
      ],
      [
        "ãĤ",
        "¶"
      ],
      [
        "ãĤ",
        "·"
      ],
      [
        "ãĤ",
        "¸"
      ],
      [
        "ãĤ",
        "¹"
      ],
      [
        "ãĤ",
        "º"
      ],
      [
        "ãĤ",
        "»"
      ],
      [
        "ãĤ",
        "¼"
      ],
      [
        "ãĤ",
        "½"
      ],
      [
        "ãĤ",
        "¾"
      ],
      [
        "ãĤ",
        "¿"
      ],
      [
        "ã",
        "ĥ"
      ],
      [
        "ãĥ",
        "Ģ"
      ],
      [
        "ãĥ",
        "ģ"
      ],
      [
        "ãĥ",
        "Ĥ"
      ],
      [
        "ãĥ",
        "ĥ"
      ],
      [
        "ãĥ",
        "Ħ"
      ],
      [
        "ãĥ",
        "ħ"
      ],
      [
        "ãĥ",
        "Ĩ"
      ],
      [
        "ãĥ",
        "ĩ"
      ],
      [
        "ãĥ",
        "Ī"
      ],
      [
        "ãĥ",
        "ī"
      ],
      [
        "ãĥ",
        "Ĭ"
      ],
      [
        "ãĥ",
        "ĭ"
      ],
      [
        "ãĥ",
        "Į"
      ],
      [
        "ãĥ",
        "į"
      ],
      [
        "ãĥ",
        "İ"
      ],
      [
        "ãĥ",
        "ı"
      ],
      [
        "ãĥ",
        "Ĳ"
      ],
      [
        "ãĥ",
        "ĳ"
      ],
      [
        "ãĥ",
        "Ĵ"
      ],
      [
        "ãĥ",
        "ĵ"
      ],
      [
        "ãĥ",
        "Ķ"
      ],
      [
        "ãĥ",
        "ķ"
      ],
      [
        "ãĥ",
        "ĸ"
      ],
      [
        "ãĥ",
        "Ĺ"
      ],
      [
        "ãĥ",
        "ĺ"
      ],
      [
        "ãĥ",
        "Ļ"
      ],
      [
        "ãĥ",
        "ļ"
      ],
      [
        "ãĥ",
        "Ľ"
      ],
      [
        "ãĥ",
        "ľ"
      ],
      [
        "ãĥ",
        "Ŀ"
      ],
      [
        "ãĥ",
        "ŀ"
      ],
      [
        "ãĥ",
        "Ł"
      ],
      [
        "ãĥ",
        "ł"
      ],
      [
        "ãĥ",
        "¡"
      ],
      [
        "ãĥ",
        "¢"
      ],
      [
        "ãĥ",
        "£"
      ],
      [
        "ãĥ",
        "¤"
      ],
      [
        "ãĥ",
        "¥"
      ],
      [
        "ãĥ",
        "¦"
      ],
      [
        "ãĥ",
        "§"
      ],
      [
        "ãĥ",
        "¨"
      ],
      [
        "ãĥ",
        "©"
      ],
      [
        "ãĥ",
        "ª"
      ],
      [
        "ãĥ",
        "«"
      ],
      [
        "ãĥ",
        "¬"
      ],
      [
        "ãĥ",
        "Ń"
      ],
      [
        "ãĥ",
        "®"
      ],
      [
        "ãĥ",
        "¯"
      ],
      [
        "ãĥ",
        "°"
      ],
      [
        "ãĥ",
        "±"
      ],
      [
        "ãĥ",
        "²"
      ],
      [
        "ãĥ",
        "³"
      ],
      [
        "ãĥ",
        "´"
      ],
      [
        "ãĥ",
        "µ"
      ],
      [
        "ãĥ",
        "¶"
      ],
      [
        "ãĥ",
        "·"
      ],
      [
        "ãĥ",
        "¸"
      ],
      [
        "ãĥ",
        "¹"
      ],
      [
        "ãĥ",
        "º"
      ]
    ]
  }
}