{
  "version": "1.0",
  "truncation": null,
  "padding": null,
  "added_tokens": [
    {
      "id": 0,
      "content": "[PAD]",
      "single_word": false,
      "lstrip": false,
      "rstrip": false,
      "normalized": false,
      "special": true
    },
    {
      "id": 1,
      "content": "[UNK]",
      "single_word": false,
      "lstrip": false,
      "rstrip": false,
      "normalized": false,
      "special": true
    },
    {
      "id": 2,
      "content": "[BOS]",
      "single_word": false,
      "lstrip": false,
      "rstrip": false,
      "normalized": false,
      "special": true
    },
    {
      "id": 3,
      "content": "[EOS]",
      "single_word": false,
      "lstrip": false,
      "rstrip": false,
      "normalized": false,
      "special": true
    },
    {
      "id": 4,
      "content": "[SEP]",
      "single_word": false,
      "lstrip": false,
      "rstrip": false,
      "normalized": false,
      "special": true
    },
    {
      "id": 5,
      "content": "[MASK]",
      "single_word": false,
      "lstrip": false,
      "rstrip": false,
      "normalized": false,
      "special": true
    }
  ],
  "normalizer": null,
  "pre_tokenizer": {
    "type": "ByteLevel",
    "add_prefix_space": false,
    "trim_offsets": true,
    "use_regex": true
  },
  "post_processor": null,
  "decoder": {
    "type": "ByteLevel",
    "add_prefix_space": true,
    "trim_offsets": true,
    "use_regex": true
  },
  "model": {
    "type": "BPE",
    "dropout": null,
    "unk_token": "[UNK]",
    "continuing_subword_prefix": null,
    "end_of_word_suffix": null,
    "fuse_unk": false,
    "byte_fallback": false,
    "ignore_merges": false,
    "vocab": {
      "[PAD]": 0,
      "[UNK]": 1,
      "[BOS]": 2,
      "[EOS]": 3,
      "[SEP]": 4,
      "[MASK]": 5,
      "Ā": 6,
      "ā": 7,
      "Ă": 8,
      "ă": 9,
      "Ą": 10,
      "ą": 11,
      "Ć": 12,
      "ć": 13,
      "Ĉ": 14,
      "ĉ": 15,
      "Ċ": 16,
      "ċ": 17,
      "Č": 18,
      "č": 19,
      "Ď": 20,
      "ď": 21,
      "Đ": 22,
      "đ": 23,
      "Ē": 24,
      "ē": 25,
      "Ĕ": 26,
      "ĕ": 27,
      "Ė": 28,
      "ė": 29,
      "Ę": 30,
      "ę": 31,
      "Ě": 32,
      "ě": 33,
      "Ĝ": 34,
      "ĝ": 35,
      "Ğ": 36,
      "ğ": 37,
      "Ġ": 38,
      "!": 39,
      "\"": 40,
      "#": 41,
      "$": 42,
      "%": 43,
      "&": 44,
      "'": 45,
      "(": 46,
      ")": 47,
      "*": 48,
      "+": 49,
      ",": 50,
      "-": 51,
      ".": 52,
      "/": 53,
      "0": 54,
      "1": 55,
      "2": 56,
      "3": 57,
      "4": 58,
      "5": 59,
      "6": 60,
      "7": 61,
      "8": 62,
      "9": 63,
      ":": 64,
      ";": 65,
      "<": 66,
      "=": 67,
      ">": 68,
      "?": 69,
      "@": 70,
      "A": 71,
      "B": 72,
      "C": 73,
      "D": 74,
      "E": 75,
      "F": 76,
      "G": 77,
      "H": 78,
      "I": 79,
      "J": 80,
      "K": 81,
      "L": 82,
      "M": 83,
      "N": 84,
      "O": 85,
      "P": 86,
      "Q": 87,
      "R": 88,
      "S": 89,
      "T": 90,
      "U": 91,
      "V": 92,
      "W": 93,
      "X": 94,
      "Y": 95,
      "Z": 96,
      "[": 97,
      "\\": 98,
      "]": 99,
      "^": 100,
      "_": 101,
      "`": 102,
      "a": 103,
      "b": 104,
      "c": 105,
      "d": 106,
      "e": 107,
      "f": 108,
      "g": 109,
      "h": 110,
      "i": 111,
      "j": 112,
      "k": 113,
      "l": 114,
      "m": 115,
      "n": 116,
      "o": 117,
      "p": 118,
      "q": 119,
      "r": 120,
      "s": 121,
      "t": 122,
      "u": 123,
      "v": 124,
      "w": 125,
      "x": 126,
      "y": 127,
      "z": 128,
      "{": 129,
      "|": 130,
      "}": 131,
      "~": 132,
      "ġ": 133,
      "Ģ": 134,
      "ģ": 135,
      "Ĥ": 136,
      "ĥ": 137,
      "Ħ": 138,
      "ħ": 139,
      "Ĩ": 140,
      "ĩ": 141,
      "Ī": 142,
      "ī": 143,
      "Ĭ": 144,
      "ĭ": 145,
      "Į": 146,
      "į": 147,
      "İ": 148,
      "ı": 149,
      "Ĳ": 150,
      "ĳ": 151,
      "Ĵ": 152,
      "ĵ": 153,
      "Ķ": 154,
      "ķ": 155,
      "ĸ": 156,
      "Ĺ": 157,
      "ĺ": 158,
      "Ļ": 159,
      "ļ": 160,
      "Ľ": 161,
      "ľ": 162,
      "Ŀ": 163,
      "ŀ": 164,
      "Ł": 165,
      "ł": 166,
      "¡": 167,
      "¢": 168,
      "£": 169,
      "¤": 170,
      "¥": 171,
      "¦": 172,
      "§": 173,
      "¨": 174,
      "©": 175,
      "ª": 176,
      "«": 177,
      "¬": 178,
      "Ń": 179,
      "®": 180,
      "¯": 181,
      "°": 182,
      "±": 183,
      "²": 184,
      "³": 185,
      "´": 186,
      "µ": 187,
      "¶": 188,
      "·": 189,
      "¸": 190,
      "¹": 191,
      "º": 192,
      "»": 193,
      "¼": 194,
      "½": 195,
      "¾": 196,
      "¿": 197,
      "À": 198,
      "Á": 199,
      "Â": 200,
      "Ã": 201,
      "Ä": 202,
      "Å": 203,
      "Æ": 204,
      "Ç": 205,
      "È": 206,
      "É": 207,
      "Ê": 208,
      "Ë": 209,
      "Ì": 210,
      "Í": 211,
      "Î": 212,
      "Ï": 213,
      "Ð": 214,
      "Ñ": 215,
      "Ò": 216,
      "Ó": 217,
      "Ô": 218,
      "Õ": 219,
      "Ö": 220,
      "×": 221,
      "Ø": 222,
      "Ù": 223,
      "Ú": 224,
      "Û": 225,
      "Ü": 226,
      "Ý": 227,
      "Þ": 228,
      "ß": 229,
      "à": 230,
      "á": 231,
      "â": 232,
      "ã": 233,
      "ä": 234,
      "å": 235,
      "æ": 236,
      "ç": 237,
      "è": 238,
      "é": 239,
      "ê": 240,
      "ë": 241,
      "ì": 242,
      "í": 243,
      "î": 244,
      "ï": 245,
      "ð": 246,
      "ñ": 247,
      "ò": 248,
      "ó": 249,
      "ô": 250,
      "õ": 251,
      "ö": 252,
      "÷": 253,
      "ø": 254,
      "ù": 255,
      "ú": 256,
      "û": 257,
      "ü": 258,
      "ý": 259,
      "þ": 260,
      "ÿ": 261,
      "ê°": 262,
      "ê°Ģ": 263,
      "ê°ģ": 264,
      "ê°Ĥ": 265,
      "ê°ĥ": 266,
      "ê°Ħ": 267,
      "ê°ħ": 268,
      "ê°Ĩ": 269,
      "ê°ĩ": 270,
      "ê°Ī": 271,
      "ê°ī": 272,
      "ê°Ĭ": 273,
      "ê°ĭ": 274,
      "ê°Į": 275,
      "ê°į": 276,
      "ê°İ": 277,
      "ê°ı": 278,
      "ê°Ĳ": 279,
      "ê°ĳ": 280,
      "ê°Ĵ": 281,
      "ê°ĵ": 282,
      "ê°Ķ": 283,
      "ê°ķ": 284,
      "ê°ĸ": 285,
      "ê°Ĺ": 286,
      "ê°ĺ": 287,
      "ê°Ļ": 288,
      "ê°ļ": 289,
      "ê°Ľ": 290,
      "ê°ľ": 291,
      "ê°Ŀ": 292,
      "ê°ŀ": 293,
      "ê°Ł": 294,
      "ê°ł": 295,
      "ê°¡": 296,
      "ê°¢": 297,
      "ê°£": 298,
      "ê°¤": 299,
      "ê°¥": 300,
      "ê°¦": 301,
      "ê°§": 302,
      "ê°¨": 303,
      "ê°©": 304,
      "ê°ª": 305,
      "ê°«": 306,
      "ê°¬": 307,
      "ê°Ń": 308,
      "ê°®": 309,
      "ê°¯": 310,
      "ê°°": 311,
      "ê°±": 312,
      "ê°²": 313,
      "ê°³": 314,
      "ê°´": 315,
      "ê°µ": 316,
      "ê°¶": 317,
      "ê°·": 318,
      "ê°¸": 319,
      "ê°¹": 320,
      "ê°º": 321,
      "ê°»": 322,
      "ê°¼": 323,
      "ê°½": 324,
      "ê°¾": 325,
      "ê°¿": 326,
      "ê±": 327,
      "ê±Ģ": 328,
      "ê±ģ": 329,
      "ê±Ĥ": 330,
      "ê±ĥ": 331,
      "ê±Ħ": 332,
      "ê±ħ": 333,
      "ê±Ĩ": 334,
      "ê±ĩ": 335,
      "ê±Ī": 336,
      "ê±ī": 337,
      "ê±Ĭ": 338,
      "ê±ĭ": 339,
      "ê±Į": 340,
      "ê±į": 341,
      "ê±İ": 342,
      "ê±ı": 343,
      "ê±Ĳ": 344,
      "ê±ĳ": 345,
      "ê±Ĵ": 346,
      "ê±ĵ": 347,
      "ê±Ķ": 348,
      "ê±ķ": 349,
      "ê±ĸ": 350,
      "ê±Ĺ": 351,
      "ê±ĺ": 352,
      "ê±Ļ": 353,
      "ê±ļ": 354,
      "ê±Ľ": 355,
      "ê±ľ": 356,
      "ê±Ŀ": 357,
      "ê±ŀ": 358,
      "ê±Ł": 359,
      "ê±ł": 360,
      "ê±¡": 361,
      "ê±¢": 362,
      "ê±£": 363,
      "ê±¤": 364,
      "ê±¥": 365,
      "ê±¦": 366,
      "ê±§": 367,
      "ê±¨": 368,
      "ê±©": 369,
      "ê±ª": 370,
      "ê±«": 371,
      "ê±¬": 372,
      "ê±Ń": 373,
      "ê±®": 374,
      "ê±¯": 375,
      "ê±°": 376,
      "ê±±": 377,
      "ê±²": 378,
      "ê±³": 379,
      "ê±´": 380,
      "ê±µ": 381,
      "ê±¶": 382,
      "ê±·": 383,
      "ê±¸": 384,
      "ê±¹": 385,
      "ê±º": 386,
      "ê±»": 387,
      "ê±¼": 388,
      "ê±½": 389,
      "ê±¾": 390,
      "ê±¿": 391,
      "ê²": 392,
      "ê²Ģ": 393,
      "ê²ģ": 394,
      "ê²Ĥ": 395,
      "ê²ĥ": 396,
      "ê²Ħ": 397,
      "ê²ħ": 398,
      "ê²Ĩ": 399,
      "ê²ĩ": 400,
      "ê²Ī": 401,
      "ê²ī": 402,
      "ê²Ĭ": 403,
      "ê²ĭ": 404,
      "ê²Į": 405,
      "ê²į": 406,
      "ê²İ": 407,
      "ê²ı": 408,
      "ê²Ĳ": 409,
      "ê²ĳ": 410,
      "ê²Ĵ": 411,
      "ê²ĵ": 412,
      "ê²Ķ": 413,
      "ê²ķ": 414,
      "ê²ĸ": 415,
      "ê²Ĺ": 416,
      "ê²ĺ": 417,
      "ê²Ļ": 418,
      "ê²ļ": 419,
      "ê²Ľ": 420,
      "ê²ľ": 421,
      "ê²Ŀ": 422,
      "ê²ŀ": 423,
      "ê²Ł": 424,
      "ê²ł": 425,
      "ê²¡": 426,
      "ê²¢": 427,
      "ê²£": 428,
      "ê²¤": 429,
      "ê²¥": 430,
      "ê²¦": 431,
      "ê²§": 432,
      "ê²¨": 433,
      "ê²©": 434,
      "ê²ª": 435,
      "ê²«": 436,
      "ê²¬": 437,
      "ê²Ń": 438,
      "ê²®": 439,
      "ê²¯": 440,
      "ê²°": 441,
      "ê²±": 442,
      "ê²²": 443,
      "ê²³": 444,
      "ê²´": 445,
      "ê²µ": 446,
      "ê²¶": 447,
      "ê²·": 448,
      "ê²¸": 449,
      "ê²¹": 450,
      "ê²º": 451,
      "ê²»": 452,
      "ê²¼": 453,
      "ê²½": 454,
      "ê²¾": 455,
      "ê²¿": 456,
      "ê³": 457,
      "ê³Ģ": 458,
      "ê³ģ": 459,
      "ê³Ĥ": 460,
      "ê³ĥ": 461,
      "ê³Ħ": 462,
      "ê³ħ": 463,
      "ê³Ĩ": 464,
      "ê³ĩ": 465,
      "ê³Ī": 466,
      "ê³ī": 467,
      "ê³Ĭ": 468,
      "ê³ĭ": 469,
      "ê³Į": 470,
      "ê³į": 471,
      "ê³İ": 472,
      "ê³ı": 473,
      "ê³Ĳ": 474,
      "ê³ĳ": 475,
      "ê³Ĵ": 476,
      "ê³ĵ": 477,
      "ê³Ķ": 478,
      "ê³ķ": 479,
      "ê³ĸ": 480,
      "ê³Ĺ": 481,
      "ê³ĺ": 482,
      "ê³Ļ": 483,
      "ê³ļ": 484,
      "ê³Ľ": 485,
      "ê³ľ": 486,
      "ê³Ŀ": 487,
      "ê³ŀ": 488,
      "ê³Ł": 489,
      "ê³ł": 490,
      "ê³¡": 491,
      "ê³¢": 492,
      "ê³£": 493,
      "ê³¤": 494,
      "ê³¥": 495,
      "ê³¦": 496,
      "ê³§": 497,
      "ê³¨": 498,
      "ê³©": 499,
      "ê³ª": 500,
      "ê³«": 501,
      "ê³¬": 502,
      "ê³Ń": 503,
      "ê³®": 504,
      "ê³¯": 505,
      "ê³°": 506,
      "ê³±": 507,
      "ê³²": 508,
      "ê³³": 509,
      "ê³´": 510,
      "ê³µ": 511,
      "ê³¶": 512,
      "ê³·": 513,
      "ê³¸": 514,
      "ê³¹": 515,
      "ê³º": 516,
      "ê³»": 517,
      "ê³¼": 518,
      "ê³½": 519,
      "ê³¾": 520,
      "ê³¿": 521,
      "ê´": 522,
      "ê´Ģ": 523,
      "ê´ģ": 524,
      "ê´Ĥ": 525,
      "ê´ĥ": 526,
      "ê´Ħ": 527,
      "ê´ħ": 528,
      "ê´Ĩ": 529,
      "ê´ĩ": 530,
      "ê´Ī": 531,
      "ê´ī": 532,
      "ê´Ĭ": 533,
      "ê´ĭ": 534,
      "ê´Į": 535,
      "ê´į": 536,
      "ê´İ": 537,
      "ê´ı": 538,
      "ê´Ĳ": 539,
      "ê´ĳ": 540,
      "ê´Ĵ": 541,
      "ê´ĵ": 542,
      "ê´Ķ": 543,
      "ê´ķ": 544,
      "ê´ĸ": 545,
      "ê´Ĺ": 546,
      "ê´ĺ": 547,
      "ê´Ļ": 548,
      "ê´ļ": 549,
      "ê´Ľ": 550,
      "ê´ľ": 551,
      "ê´Ŀ": 552,
      "ê´ŀ": 553,
      "ê´Ł": 554,
      "ê´ł": 555,
      "ê´¡": 556,
      "ê´¢": 557,
      "ê´£": 558,
      "ê´¤": 559,
      "ê´¥": 560,
      "ê´¦": 561,
      "ê´§": 562,
      "ê´¨": 563,
      "ê´©": 564,
      "ê´ª": 565,
      "ê´«": 566,
      "ê´¬": 567,
      "ê´Ń": 568,
      "ê´®": 569,
      "ê´¯": 570,
      "ê´°": 571,
      "ê´±": 572,
      "ê´²": 573,
      "ê´³": 574,
      "ê´´": 575,
      "ê´µ": 576,
      "ê´¶": 577,
      "ê´·": 578,
      "ê´¸": 579,
      "ê´¹": 580,
      "ê´º": 581,
      "ê´»": 582,
      "ê´¼": 583,
      "ê´½": 584,
      "ê´¾": 585,
      "ê´¿": 586,
      "êµ": 587,
      "êµĢ": 588,
      "êµģ": 589,
      "êµĤ": 590,
      "êµĥ": 591,
      "êµĦ": 592,
      "êµħ": 593,
      "êµĨ": 594,
      "êµĩ": 595,
      "êµĪ": 596,
      "êµī": 597,
      "êµĬ": 598,
      "êµĭ": 599,
      "êµĮ": 600,
      "êµį": 601,
      "êµİ": 602,
      "êµı": 603,
      "êµĲ": 604,
      "êµĳ": 605,
      "êµĴ": 606,
      "êµĵ": 607,
      "êµĶ": 608,
      "êµķ": 609,
      "êµĸ": 610,
      "êµĹ": 611,
      "êµĺ": 612,
      "êµĻ": 613,
      "êµļ": 614,
      "êµĽ": 615,
      "êµľ": 616,
      "êµĿ": 617,
      "êµŀ": 618,
      "êµŁ": 619,
      "êµł": 620,
      "êµ¡": 621,
      "êµ¢": 622,
      "êµ£": 623,
      "êµ¤": 624,
      "êµ¥": 625,
      "êµ¦": 626,
      "êµ§": 627,
      "êµ¨": 628,
      "êµ©": 629,
      "êµª": 630,
      "êµ«": 631,
      "êµ¬": 632,
      "êµŃ": 633,
      "êµ®": 634,
      "êµ¯": 635,
      "êµ°": 636,
      "êµ±": 637,
      "êµ²": 638,
      "êµ³": 639,
      "êµ´": 640,
      "êµµ": 641,
      "êµ¶": 642,
      "êµ·": 643,
      "êµ¸": 644,
      "êµ¹": 645,
      "êµº": 646,
      "êµ»": 647,
      "êµ¼": 648,
      "êµ½": 649,
      "êµ¾": 650,
      "êµ¿": 651,
      "ê¶": 652,
      "ê¶Ģ": 653,
      "ê¶ģ": 654,
      "ê¶Ĥ": 655,
      "ê¶ĥ": 656,
      "ê¶Ħ": 657,
      "ê¶ħ": 658,
      "ê¶Ĩ": 659,
      "ê¶ĩ": 660,
      "ê¶Ī": 661,
      "ê¶ī": 662,
      "ê¶Ĭ": 663,
      "ê¶ĭ": 664,
      "ê¶Į": 665,
      "ê¶į": 666,
      "ê¶İ": 667,
      "ê¶ı": 668,
      "ê¶Ĳ": 669,
      "ê¶ĳ": 670,
      "ê¶Ĵ": 671,
      "ê¶ĵ": 672,
      "ê¶Ķ": 673,
      "ê¶ķ": 674,
      "ê¶ĸ": 675,
      "ê¶Ĺ": 676,
      "ê¶ĺ": 677,
      "ê¶Ļ": 678,
      "ê¶ļ": 679,
      "ê¶Ľ": 680,
      "ê¶ľ": 681,
      "ê¶Ŀ": 682,
      "ê¶ŀ": 683,
      "ê¶Ł": 684,
      "ê¶ł": 685,
      "ê¶¡": 686,
      "ê¶¢": 687,
      "ê¶£": 688,
      "ê¶¤": 689,
      "ê¶¥": 690,
      "ê¶¦": 691,
      "ê¶§": 692,
      "ê¶¨": 693,
      "ê¶©": 694,
      "ê¶ª": 695,
      "ê¶«": 696,
      "ê¶¬": 697,
      "ê¶Ń": 698,
      "ê¶®": 699,
      "ê¶¯": 700,
      "ê¶°": 701,
      "ê¶±": 702,
      "ê¶²": 703,
      "ê¶³": 704,
      "ê¶´": 705,
      "ê¶µ": 706,
      "ê¶¶": 707,
      "ê¶·": 708,
      "ê¶¸": 709,
      "ê¶¹": 710,
      "ê¶º": 711,
      "ê¶»": 712,
      "ê¶¼": 713,
      "ê¶½": 714,
      "ê¶¾": 715,
      "ê¶¿": 716,
      "ê·": 717,
      "ê·Ģ": 718,
      "ê·ģ": 719,
      "ê·Ĥ": 720,
      "ê·ĥ": 721,
      "ê·Ħ": 722,
      "ê·ħ": 723,
      "ê·Ĩ": 724,
      "ê·ĩ": 725,
      "ê·Ī": 726,
      "ê·ī": 727,
      "ê·Ĭ": 728,
      "ê·ĭ": 729,
      "ê·Į": 730,
      "ê·į": 731,
      "ê·İ": 732,
      "ê·ı": 733,
      "ê·Ĳ": 734,
      "ê·ĳ": 735,
      "ê·Ĵ": 736,
      "ê·ĵ": 737,
      "ê·Ķ": 738,
      "ê·ķ": 739,
      "ê·ĸ": 740,
      "ê·Ĺ": 741,
      "ê·ĺ": 742,
      "ê·Ļ": 743,
      "ê·ļ": 744,
      "ê·Ľ": 745,
      "ê·ľ": 746,
      "ê·Ŀ": 747,
      "ê·ŀ": 748,
      "ê·Ł": 749,
      "ê·ł": 750,
      "ê·¡": 751,
      "ê·¢": 752,
      "ê·£": 753,
      "ê·¤": 754,
      "ê·¥": 755,
      "ê·¦": 756,
      "ê·§": 757,
      "ê·¨": 758,
      "ê·©": 759,
      "ê·ª": 760,
      "ê·«": 761,
      "ê·¬": 762,
      "ê·Ń": 763,
      "ê·®": 764,
      "ê·¯": 765,
      "ê·°": 766,
      "ê·±": 767,
      "ê·²": 768,
      "ê·³": 769,
      "ê·´": 770,
      "ê·µ": 771,
      "ê·¶": 772,
      "ê··": 773,
      "ê·¸": 774,
      "ê·¹": 775,
      "ê·º": 776,
      "ê·»": 777,
      "ê·¼": 778,
      "ê·½": 779,
      "ê·¾": 780,
      "ê·¿": 781,
      "ê¸": 782,
      "ê¸Ģ": 783,
      "ê¸ģ": 784,
      "ê¸Ĥ": 785,
      "ê¸ĥ": 786,
      "ê¸Ħ": 787,
      "ê¸ħ": 788,
      "ê¸Ĩ": 789,
      "ê¸ĩ": 790,
      "ê¸Ī": 791,
      "ê¸ī": 792,
      "ê¸Ĭ": 793,
      "ê¸ĭ": 794,
      "ê¸Į": 795,
      "ê¸į": 796,
      "ê¸İ": 797,
      "ê¸ı": 798,
      "ê¸Ĳ": 799,
      "ê¸ĳ": 800,
      "ê¸Ĵ": 801,
      "ê¸ĵ": 802,
      "ê¸Ķ": 803,
      "ê¸ķ": 804,
      "ê¸ĸ": 805,
      "ê¸Ĺ": 806,
      "ê¸ĺ": 807,
      "ê¸Ļ": 808,
      "ê¸ļ": 809,
      "ê¸Ľ": 810,
      "ê¸ľ": 811,
      "ê¸Ŀ": 812,
      "ê¸ŀ": 813,
      "ê¸Ł": 814,
      "ê¸ł": 815,
      "ê¸¡": 816,
      "ê¸¢": 817,
      "ê¸£": 818,
      "ê¸¤": 819,
      "ê¸¥": 820,
      "ê¸¦": 821,
      "ê¸§": 822,
      "ê¸¨": 823,
      "ê¸©": 824,
      "ê¸ª": 825,
      "ê¸«": 826,
      "ê¸¬": 827,
      "ê¸Ń": 828,
      "ê¸®": 829,
      "ê¸¯": 830,
      "ê¸°": 831,
      "ê¸±": 832,
      "ê¸²": 833,
      "ê¸³": 834,
      "ê¸´": 835,
      "ê¸µ": 836,
      "ê¸¶": 837,
      "ê¸·": 838,
      "ê¸¸": 839,
      "ê¸¹": 840,
      "ê¸º": 841,
      "ê¸»": 842,
      "ê¸¼": 843,
      "ê¸½": 844,
      "ê¸¾": 845,
      "ê¸¿": 846,
      "ê¹": 847,
      "ê¹Ģ": 848,
      "ê¹ģ": 849,
      "ê¹Ĥ": 850,
      "ê¹ĥ": 851,
      "ê¹Ħ": 852,
      "ê¹ħ": 853,
      "ê¹Ĩ": 854,
      "ê¹ĩ": 855,
      "ê¹Ī": 856,
      "ê¹ī": 857,
      "ê¹Ĭ": 858,
      "ê¹ĭ": 859,
      "ê¹Į": 860,
      "ê¹į": 861,
      "ê¹İ": 862,
      "ê¹ı": 863,
      "ê¹Ĳ": 864,
      "ê¹ĳ": 865,
      "ê¹Ĵ": 866,
      "ê¹ĵ": 867,
      "ê¹Ķ": 868,
      "ê¹ķ": 869,
      "ê¹ĸ": 870,
      "ê¹Ĺ": 871,
      "ê¹ĺ": 872,
      "ê¹Ļ": 873,
      "ê¹ļ": 874,
      "ê¹Ľ": 875,
      "ê¹ľ": 876,
      "ê¹Ŀ": 877,
      "ê¹ŀ": 878,
      "ê¹Ł": 879,
      "ê¹ł": 880,
      "ê¹¡": 881,
      "ê¹¢": 882,
      "ê¹£": 883,
      "ê¹¤": 884,
      "ê¹¥": 885,
      "ê¹¦": 886,
      "ê¹§": 887,
      "ê¹¨": 888,
      "ê¹©": 889,
      "ê¹ª": 890,
      "ê¹«": 891,
      "ê¹¬": 892,
      "ê¹Ń": 893,
      "ê¹®": 894,
      "ê¹¯": 895,
      "ê¹°": 896,
      "ê¹±": 897,
      "ê¹²": 898,
      "ê¹³": 899,
      "ê¹´": 900,
      "ê¹µ": 901,
      "ê¹¶": 902,
      "ê¹·": 903,
      "ê¹¸": 904,
      "ê¹¹": 905,
      "ê¹º": 906,
      "ê¹»": 907,
      "ê¹¼": 908,
      "ê¹½": 909,
      "ê¹¾": 910,
      "ê¹¿": 911,
      "êº": 912,
      "êºĢ": 913,
      "êºģ": 914,
      "êºĤ": 915,
      "êºĥ": 916,
      "êºĦ": 917,
      "êºħ": 918,
      "êºĨ": 919,
      "êºĩ": 920,
      "êºĪ": 921,
      "êºī": 922,
      "êºĬ": 923,
      "êºĭ": 924,
      "êºĮ": 925,
      "êºį": 926,
      "êºİ": 927,
      "êºı": 928,
      "êºĲ": 929,
      "êºĳ": 930,
      "êºĴ": 931,
      "êºĵ": 932,
      "êºĶ": 933,
      "êºķ": 934,
      "êºĸ": 935,
      "êºĹ": 936,
      "êºĺ": 937,
      "êºĻ": 938,
      "êºļ": 939,
      "êºĽ": 940,
      "êºľ": 941,
      "êºĿ": 942,
      "êºŀ": 943,
      "êºŁ": 944,
      "êºł": 945,
      "êº¡": 946,
      "êº¢": 947,
      "êº£": 948,
      "êº¤": 949,
      "êº¥": 950,
      "êº¦": 951,
      "êº§": 952,
      "êº¨": 953,
      "êº©": 954,
      "êºª": 955,
      "êº«": 956,
      "êº¬": 957,
      "êºŃ": 958,
      "êº®": 959,
      "êº¯": 960,
      "êº°": 961,
      "êº±": 962,
      "êº²": 963,
      "êº³": 964,
      "êº´": 965,
      "êºµ": 966,
      "êº¶": 967,
      "êº·": 968,
      "êº¸": 969,
      "êº¹": 970,
      "êºº": 971,
      "êº»": 972,
      "êº¼": 973,
      "êº½": 974,
      "êº¾": 975,
      "êº¿": 976,
      "ê»": 977,
      "ê»Ģ": 978,
      "ê»ģ": 979,
      "ê»Ĥ": 980,
      "ê»ĥ": 981,
      "ê»Ħ": 982,
      "ê»ħ": 983,
      "ê»Ĩ": 984,
      "ê»ĩ": 985,
      "ê»Ī": 986,
      "ê»ī": 987,
      "ê»Ĭ": 988,
      "ê»ĭ": 989,
      "ê»Į": 990,
      "ê»į": 991,
      "ê»İ": 992,
      "ê»ı": 993,
      "ê»Ĳ": 994,
      "ê»ĳ": 995,
      "ê»Ĵ": 996,
      "ê»ĵ": 997,
      "ê»Ķ": 998,
      "ê»ķ": 999,
      "ê»ĸ": 1000,
      "ê»Ĺ": 1001,
      "ê»ĺ": 1002,
      "ê»Ļ": 1003,
      "ê»ļ": 1004,
      "ê»Ľ": 1005,
      "ê»ľ": 1006,
      "ê»Ŀ": 1007,
      "ê»ŀ": 1008,
      "ê»Ł": 1009,
      "ê»ł": 1010,
      "ê»¡": 1011,
      "ê»¢": 1012,
      "ê»£": 1013,
      "ê»¤": 1014,
      "ê»¥": 1015,
      "ê»¦": 1016,
      "ê»§": 1017,
      "ê»¨": 1018,
      "ê»©": 1019,
      "ê»ª": 1020,
      "ê»«": 1021,
      "ê»¬": 1022,
      "ê»Ń": 1023,
      "ê»®": 1024,
      "ê»¯": 1025,
      "ê»°": 1026,
      "ê»±": 1027,
      "ê»²": 1028,
      "ê»³": 1029,
      "ê»´": 1030,
      "ê»µ": 1031,
      "ê»¶": 1032,
      "ê»·": 1033,
      "ê»¸": 1034,
      "ê»¹": 1035,
      "ê»º": 1036,
      "ê»»": 1037,
      "ê»¼": 1038,
      "ê»½": 1039,
      "ê»¾": 1040,
      "ê»¿": 1041,
      "ê¼": 1042,
      "ê¼Ģ": 1043,
      "ê¼ģ": 1044,
      "ê¼Ĥ": 1045,
      "ê¼ĥ": 1046,
      "ê¼Ħ": 1047,
      "ê¼ħ": 1048,
      "ê¼Ĩ": 1049,
      "ê¼ĩ": 1050,
      "ê¼Ī": 1051,
      "ê¼ī": 1052,
      "ê¼Ĭ": 1053,
      "ê¼ĭ": 1054,
      "ê¼Į": 1055,
      "ê¼į": 1056,
      "ê¼İ": 1057,
      "ê¼ı": 1058,
      "ê¼Ĳ": 1059,
      "ê¼ĳ": 1060,
      "ê¼Ĵ": 1061,
      "ê¼ĵ": 1062,
      "ê¼Ķ": 1063,
      "ê¼ķ": 1064,
      "ê¼ĸ": 1065,
      "ê¼Ĺ": 1066,
      "ê¼ĺ": 1067,
      "ê¼Ļ": 1068,
      "ê¼ļ": 1069,
      "ê¼Ľ": 1070,
      "ê¼ľ": 1071,
      "ê¼Ŀ": 1072,
      "ê¼ŀ": 1073,
      "ê¼Ł": 1074,
      "ê¼ł": 1075,
      "ê¼¡": 1076,
      "ê¼¢": 1077,
      "ê¼£": 1078,
      "ê¼¤": 1079,
      "ê¼¥": 1080,
      "ê¼¦": 1081,
      "ê¼§": 1082,
      "ê¼¨": 1083,
      "ê¼©": 1084,
      "ê¼ª": 1085,
      "ê¼«": 1086,
      "ê¼¬": 1087,
      "ê¼Ń": 1088,
      "ê¼®": 1089,
      "ê¼¯": 1090,
      "ê¼°": 1091,
      "ê¼±": 1092,
      "ê¼²": 1093,
      "ê¼³": 1094,
      "ê¼´": 1095,
      "ê¼µ": 1096,
      "ê¼¶": 1097,
      "ê¼·": 1098,
      "ê¼¸": 1099,
      "ê¼¹": 1100,
      "ê¼º": 1101,
      "ê¼»": 1102,
      "ê¼¼": 1103,
      "ê¼½": 1104,
      "ê¼¾": 1105,
      "ê¼¿": 1106,
      "ê½": 1107,
      "ê½Ģ": 1108,
      "ê½ģ": 1109,
      "ê½Ĥ": 1110,
      "ê½ĥ": 1111,
      "ê½Ħ": 1112,
      "ê½ħ": 1113,
      "ê½Ĩ": 1114,
      "ê½ĩ": 1115,
      "ê½Ī": 1116,
      "ê½ī": 1117,
      "ê½Ĭ": 1118,
      "ê½ĭ": 1119,
      "ê½Į": 1120,
      "ê½į": 1121,
      "ê½İ": 1122,
      "ê½ı": 1123,
      "ê½Ĳ": 1124,
      "ê½ĳ": 1125,
      "ê½Ĵ": 1126,
      "ê½ĵ": 1127,
      "ê½Ķ": 1128,
      "ê½ķ": 1129,
      "ê½ĸ": 1130,
      "ê½Ĺ": 1131,
      "ê½ĺ": 1132,
      "ê½Ļ": 1133,
      "ê½ļ": 1134,
      "ê½Ľ": 1135,
      "ê½ľ": 1136,
      "ê½Ŀ": 1137,
      "ê½ŀ": 1138,
      "ê½Ł": 1139,
      "ê½ł": 1140,
      "ê½¡": 1141,
      "ê½¢": 1142,
      "ê½£": 1143,
      "ê½¤": 1144,
      "ê½¥": 1145,
      "ê½¦": 1146,
      "ê½§": 1147,
      "ê½¨": 1148,
      "ê½©": 1149,
      "ê½ª": 1150,
      "ê½«": 1151,
      "ê½¬": 1152,
      "ê½Ń": 1153,
      "ê½®": 1154,
      "ê½¯": 1155,
      "ê½°": 1156,
      "ê½±": 1157,
      "ê½²": 1158,
      "ê½³": 1159,
      "ê½´": 1160,
      "ê½µ": 1161,
      "ê½¶": 1162,
      "ê½·": 1163,
      "ê½¸": 1164,
      "ê½¹": 1165,
      "ê½º": 1166,
      "ê½»": 1167,
      "ê½¼": 1168,
      "ê½½": 1169,
      "ê½¾": 1170,
      "ê½¿": 1171,
      "ê¾": 1172,
      "ê¾Ģ": 1173,
      "ê¾ģ": 1174,
      "ê¾Ĥ": 1175,
      "ê¾ĥ": 1176,
      "ê¾Ħ": 1177,
      "ê¾ħ": 1178,
      "ê¾Ĩ": 1179,
      "ê¾ĩ": 1180,
      "ê¾Ī": 1181,
      "ê¾ī": 1182,
      "ê¾Ĭ": 1183,
      "ê¾ĭ": 1184,
      "ê¾Į": 1185,
      "ê¾į": 1186,
      "ê¾İ": 1187,
      "ê¾ı": 1188,
      "ê¾Ĳ": 1189,
      "ê¾ĳ": 1190,
      "ê¾Ĵ": 1191,
      "ê¾ĵ": 1192,
      "ê¾Ķ": 1193,
      "ê¾ķ": 1194,
      "ê¾ĸ": 1195,
      "ê¾Ĺ": 1196,
      "ê¾ĺ": 1197,
      "ê¾Ļ": 1198,
      "ê¾ļ": 1199,
      "ê¾Ľ": 1200,
      "ê¾ľ": 1201,
      "ê¾Ŀ": 1202,
      "ê¾ŀ": 1203,
      "ê¾Ł": 1204,
      "ê¾ł": 1205,
      "ê¾¡": 1206,
      "ê¾¢": 1207,
      "ê¾£": 1208,
      "ê¾¤": 1209,
      "ê¾¥": 1210,
      "ê¾¦": 1211,
      "ê¾§": 1212,
      "ê¾¨": 1213,
      "ê¾©": 1214,
      "ê¾ª": 1215,
      "ê¾«": 1216,
      "ê¾¬": 1217,
      "ê¾Ń": 1218,
      "ê¾®": 1219,
      "ê¾¯": 1220,
      "ê¾°": 1221,
      "ê¾±": 1222,
      "ê¾²": 1223,
      "ê¾³": 1224,
      "ê¾´": 1225,
      "ê¾µ": 1226,
      "ê¾¶": 1227,
      "ê¾·": 1228,
      "ê¾¸": 1229,
      "ê¾¹": 1230,
      "ê¾º": 1231,
      "ê¾»": 1232,
      "ê¾¼": 1233,
      "ê¾½": 1234,
      "ê¾¾": 1235,
      "ê¾¿": 1236,
      "ê¿": 1237,
      "ê¿Ģ": 1238,
      "ê¿ģ": 1239,
      "ê¿Ĥ": 1240,
      "ê¿ĥ": 1241,
      "ê¿Ħ": 1242,
      "ê¿ħ": 1243,
      "ê¿Ĩ": 1244,
      "ê¿ĩ": 1245,
      "ê¿Ī": 1246,
      "ê¿ī": 1247,
      "ê¿Ĭ": 1248,
      "ê¿ĭ": 1249,
      "ê¿Į": 1250,
      "ê¿į": 1251,
      "ê¿İ": 1252,
      "ê¿ı": 1253,
      "ê¿Ĳ": 1254,
      "ê¿ĳ": 1255,
      "ê¿Ĵ": 1256,
      "ê¿ĵ": 1257,
      "ê¿Ķ": 1258,
      "ê¿ķ": 1259,
      "ê¿ĸ": 1260,
      "ê¿Ĺ": 1261,
      "ê¿ĺ": 1262,
      "ê¿Ļ": 1263,
      "ê¿ļ": 1264,
      "ê¿Ľ": 1265,
      "ê¿ľ": 1266,
      "ê¿Ŀ": 1267,
      "ê¿ŀ": 1268,
      "ê¿Ł": 1269,
      "ê¿ł": 1270,
      "ê¿¡": 1271,
      "ê¿¢": 1272,
      "ê¿£": 1273,
      "ê¿¤": 1274,
      "ê¿¥": 1275,
      "ê¿¦": 1276,
      "ê¿§": 1277,
      "ê¿¨": 1278,
      "ê¿©": 1279,
      "ê¿ª": 1280,
      "ê¿«": 1281,
      "ê¿¬": 1282,
      "ê¿Ń": 1283,
      "ê¿®": 1284,
      "ê¿¯": 1285,
      "ê¿°": 1286,
      "ê¿±": 1287,
      "ê¿²": 1288,
      "ê¿³": 1289,
      "ê¿´": 1290,
      "ê¿µ": 1291,
      "ê¿¶": 1292,
      "ê¿·": 1293,
      "ê¿¸": 1294,
      "ê¿¹": 1295,
      "ê¿º": 1296,
      "ê¿»": 1297,
      "ê¿¼": 1298,
      "ê¿½": 1299,
      "ê¿¾": 1300,
      "ê¿¿": 1301,
      "ëĢ": 1302,
      "ëĢĢ": 1303,
      "ëĢģ": 1304,
      "ëĢĤ": 1305,
      "ëĢĥ": 1306,
      "ëĢĦ": 1307,
      "ëĢħ": 1308,
      "ëĢĨ": 1309,
      "ëĢĩ": 1310,
      "ëĢĪ": 1311,
      "ëĢī": 1312,
      "ëĢĬ": 1313,
      "ëĢĭ": 1314,
      "ëĢĮ": 1315,
      "ëĢį": 1316,
      "ëĢİ": 1317,
      "ëĢı": 1318,
      "ëĢĲ": 1319,
      "ëĢĳ": 1320,
      "ëĢĴ": 1321,
      "ëĢĵ": 1322,
      "ëĢĶ": 1323,
      "ëĢķ": 1324,
      "ëĢĸ": 1325,
      "ëĢĹ": 1326,
      "ëĢĺ": 1327,
      "ëĢĻ": 1328,
      "ëĢļ": 1329,
      "ëĢĽ": 1330,
      "ëĢľ": 1331,
      "ëĢĿ": 1332,
      "ëĢŀ": 1333,
      "ëĢŁ": 1334,
      "ëĢł": 1335,
      "ëĢ¡": 1336,
      "ëĢ¢": 1337,
      "ëĢ£": 1338,
      "ëĢ¤": 1339,
      "ëĢ¥": 1340,
      "ëĢ¦": 1341,
      "ëĢ§": 1342,
      "ëĢ¨": 1343,
      "ëĢ©": 1344,
      "ëĢª": 1345,
      "ëĢ«": 1346,
      "ëĢ¬": 1347,
      "ëĢŃ": 1348,
      "ëĢ®": 1349,
      "ëĢ¯": 1350,
      "ëĢ°": 1351,
      "ëĢ±": 1352,
      "ëĢ²": 1353,
      "ëĢ³": 1354,
      "ëĢ´": 1355,
      "ëĢµ": 1356,
      "ëĢ¶": 1357,
      "ëĢ·": 1358,
      "ëĢ¸": 1359,
      "ëĢ¹": 1360,
      "ëĢº": 1361,
      "ëĢ»": 1362,
      "ëĢ¼": 1363,
      "ëĢ½": 1364,
      "ëĢ¾": 1365,
      "ëĢ¿": 1366,
      "ëģ": 1367,
      "ëģĢ": 1368,
      "ëģģ": 1369,
      "ëģĤ": 1370,
      "ëģĥ": 1371,
      "ëģĦ": 1372,
      "ëģħ": 1373,
      "ëģĨ": 1374,
      "ëģĩ": 1375,
      "ëģĪ": 1376,
      "ëģī": 1377,
      "ëģĬ": 1378,
      "ëģĭ": 1379,
      "ëģĮ": 1380,
      "ëģį": 1381,
      "ëģİ": 1382,
      "ëģı": 1383,
      "ëģĲ": 1384,
      "ëģĳ": 1385,
      "ëģĴ": 1386,
      "ëģĵ": 1387,
      "ëģĶ": 1388,
      "ëģķ": 1389,
      "ëģĸ": 1390,
      "ëģĹ": 1391,
      "ëģĺ": 1392,
      "ëģĻ": 1393,
      "ëģļ": 1394,
      "ëģĽ": 1395,
      "ëģľ": 1396,
      "ëģĿ": 1397,
      "ëģŀ": 1398,
      "ëģŁ": 1399,
      "ëģł": 1400,
      "ëģ¡": 1401,
      "ëģ¢": 1402,
      "ëģ£": 1403,
      "ëģ¤": 1404,
      "ëģ¥": 1405,
      "ëģ¦": 1406,
      "ëģ§": 1407,
      "ëģ¨": 1408,
      "ëģ©": 1409,
      "ëģª": 1410,
      "ëģ«": 1411,
      "ëģ¬": 1412,
      "ëģŃ": 1413,
      "ëģ®": 1414,
      "ëģ¯": 1415,
      "ëģ°": 1416,
      "ëģ±": 1417,
      "ëģ²": 1418,
      "ëģ³": 1419,
      "ëģ´": 1420,
      "ëģµ": 1421,
      "ëģ¶": 1422,
      "ëģ·": 1423,
      "ëģ¸": 1424,
      "ëģ¹": 1425,
      "ëģº": 1426,
      "ëģ»": 1427,
      "ëģ¼": 1428,
      "ëģ½": 1429,
      "ëģ¾": 1430,
      "ëģ¿": 1431,
      "ëĤ": 1432,
      "ëĤĢ": 1433,
      "ëĤģ": 1434,
      "ëĤĤ": 1435,
      "ëĤĥ": 1436,
      "ëĤĦ": 1437,
      "ëĤħ": 1438,
      "ëĤĨ": 1439,
      "ëĤĩ": 1440,
      "ëĤĪ": 1441,
      "ëĤī": 1442,
      "ëĤĬ": 1443,
      "ëĤĭ": 1444,
      "ëĤĮ": 1445,
      "ëĤį": 1446,
      "ëĤİ": 1447,
      "ëĤı": 1448,
      "ëĤĲ": 1449,
      "ëĤĳ": 1450,
      "ëĤĴ": 1451,
      "ëĤĵ": 1452,
      "ëĤĶ": 1453,
      "ëĤķ": 1454,
      "ëĤĸ": 1455,
      "ëĤĹ": 1456,
      "ëĤĺ": 1457,
      "ëĤĻ": 1458,
      "ëĤļ": 1459,
      "ëĤĽ": 1460,
      "ëĤľ": 1461,
      "ëĤĿ": 1462,
      "ëĤŀ": 1463,
      "ëĤŁ": 1464,
      "ëĤł": 1465,
      "ëĤ¡": 1466,
      "ëĤ¢": 1467,
      "ëĤ£": 1468,
      "ëĤ¤": 1469,
      "ëĤ¥": 1470,
      "ëĤ¦": 1471,
      "ëĤ§": 1472,
      "ëĤ¨": 1473,
      "ëĤ©": 1474,
      "ëĤª": 1475,
      "ëĤ«": 1476,
      "ëĤ¬": 1477,
      "ëĤŃ": 1478,
      "ëĤ®": 1479,
      "ëĤ¯": 1480,
      "ëĤ°": 1481,
      "ëĤ±": 1482,
      "ëĤ²": 1483,
      "ëĤ³": 1484,
      "ëĤ´": 1485,
      "ëĤµ": 1486,
      "ëĤ¶": 1487,
      "ëĤ·": 1488,
      "ëĤ¸": 1489,
      "ëĤ¹": 1490,
      "ëĤº": 1491,
      "ëĤ»": 1492,
      "ëĤ¼": 1493,
      "ëĤ½": 1494,
      "ëĤ¾": 1495,
      "ëĤ¿": 1496,
      "ëĥ": 1497,
      "ëĥĢ": 1498,
      "ëĥģ": 1499,
      "ëĥĤ": 1500,
      "ëĥĥ": 1501,
      "ëĥĦ": 1502,
      "ëĥħ": 1503,
      "ëĥĨ": 1504,
      "ëĥĩ": 1505,
      "ëĥĪ": 1506,
      "ëĥī": 1507,
      "ëĥĬ": 1508,
      "ëĥĭ": 1509,
      "ëĥĮ": 1510,
      "ëĥį": 1511,
      "ëĥİ": 1512,
      "ëĥı": 1513,
      "ëĥĲ": 1514,
      "ëĥĳ": 1515,
      "ëĥĴ": 1516,
      "ëĥĵ": 1517,
      "ëĥĶ": 1518,
      "ëĥķ": 1519,
      "ëĥĸ": 1520,
      "ëĥĹ": 1521,
      "ëĥĺ": 1522,
      "ëĥĻ": 1523,
      "ëĥļ": 1524,
      "ëĥĽ": 1525,
      "ëĥľ": 1526,
      "ëĥĿ": 1527,
      "ëĥŀ": 1528,
      "ëĥŁ": 1529,
      "ëĥł": 1530,
      "ëĥ¡": 1531,
      "ëĥ¢": 1532,
      "ëĥ£": 1533,
      "ëĥ¤": 1534,
      "ëĥ¥": 1535,
      "ëĥ¦": 1536,
      "ëĥ§": 1537,
      "ëĥ¨": 1538,
      "ëĥ©": 1539,
      "ëĥª": 1540,
      "ëĥ«": 1541,
      "ëĥ¬": 1542,
      "ëĥŃ": 1543,
      "ëĥ®": 1544,
      "ëĥ¯": 1545,
      "ëĥ°": 1546,
      "ëĥ±": 1547,
      "ëĥ²": 1548,
      "ëĥ³": 1549,
      "ëĥ´": 1550,
      "ëĥµ": 1551,
      "ëĥ¶": 1552,
      "ëĥ·": 1553,
      "ëĥ¸": 1554,
      "ëĥ¹": 1555,
      "ëĥº": 1556,
      "ëĥ»": 1557,
      "ëĥ¼": 1558,
      "ëĥ½": 1559,
      "ëĥ¾": 1560,
      "ëĥ¿": 1561,
      "ëĦ": 1562,
      "ëĦĢ": 1563,
      "ëĦģ": 1564,
      "ëĦĤ": 1565,
      "ëĦĥ": 1566,
      "ëĦĦ": 1567,
      "ëĦħ": 1568,
      "ëĦĨ": 1569,
      "ëĦĩ": 1570,
      "ëĦĪ": 1571,
      "ëĦī": 1572,
      "ëĦĬ": 1573,
      "ëĦĭ": 1574,
      "ëĦĮ": 1575,
      "ëĦį": 1576,
      "ëĦİ": 1577,
      "ëĦı": 1578,
      "ëĦĲ": 1579,
      "ëĦĳ": 1580,
      "ëĦĴ": 1581,
      "ëĦĵ": 1582,
      "ëĦĶ": 1583,
      "ëĦķ": 1584,
      "ëĦĸ": 1585,
      "ëĦĹ": 1586,
      "ëĦĺ": 1587,
      "ëĦĻ": 1588,
      "ëĦļ": 1589,
      "ëĦĽ": 1590,
      "ëĦľ": 1591,
      "ëĦĿ": 1592,
      "ëĦŀ": 1593,
      "ëĦŁ": 1594,
      "ëĦł": 1595,
      "ëĦ¡": 1596,
      "ëĦ¢": 1597,
      "ëĦ£": 1598,
      "ëĦ¤": 1599,
      "ëĦ¥": 1600,
      "ëĦ¦": 1601,
      "ëĦ§": 1602,
      "ëĦ¨": 1603,
      "ëĦ©": 1604,
      "ëĦª": 1605,
      "ëĦ«": 1606,
      "ëĦ¬": 1607,
      "ëĦŃ": 1608,
      "ëĦ®": 1609,
      "ëĦ¯": 1610,
      "ëĦ°": 1611,
      "ëĦ±": 1612,
      "ëĦ²": 1613,
      "ëĦ³": 1614,
      "ëĦ´": 1615,
      "ëĦµ": 1616,
      "ëĦ¶": 1617,
      "ëĦ·": 1618,
      "ëĦ¸": 1619,
      "ëĦ¹": 1620,
      "ëĦº": 1621,
      "ëĦ»": 1622,
      "ëĦ¼": 1623,
      "ëĦ½": 1624,
      "ëĦ¾": 1625,
      "ëĦ¿": 1626,
      "ëħ": 1627,
      "ëħĢ": 1628,
      "ëħģ": 1629,
      "ëħĤ": 1630,
      "ëħĥ": 1631,
      "ëħĦ": 1632,
      "ëħħ": 1633,
      "ëħĨ": 1634,
      "ëħĩ": 1635,
      "ëħĪ": 1636,
      "ëħī": 1637,
      "ëħĬ": 1638,
      "ëħĭ": 1639,
      "ëħĮ": 1640,
      "ëħį": 1641,
      "ëħİ": 1642,
      "ëħı": 1643,
      "ëħĲ": 1644,
      "ëħĳ": 1645,
      "ëħĴ": 1646,
      "ëħĵ": 1647,
      "ëħĶ": 1648,
      "ëħķ": 1649,
      "ëħĸ": 1650,
      "ëħĹ": 1651,
      "ëħĺ": 1652,
      "ëħĻ": 1653,
      "ëħļ": 1654,
      "ëħĽ": 1655,
      "ëħľ": 1656,
      "ëħĿ": 1657,
      "ëħŀ": 1658,
      "ëħŁ": 1659,
      "ëħł": 1660,
      "ëħ¡": 1661,
      "ëħ¢": 1662,
      "ëħ£": 1663,
      "ëħ¤": 1664,
      "ëħ¥": 1665,
      "ëħ¦": 1666,
      "ëħ§": 1667,
      "ëħ¨": 1668,
      "ëħ©": 1669,
      "ëħª": 1670,
      "ëħ«": 1671,
      "ëħ¬": 1672,
      "ëħŃ": 1673,
      "ëħ®": 1674,
      "ëħ¯": 1675,
      "ëħ°": 1676,
      "ëħ±": 1677,
      "ëħ²": 1678,
      "ëħ³": 1679,
      "ëħ´": 1680,
      "ëħµ": 1681,
      "ëħ¶": 1682,
      "ëħ·": 1683,
      "ëħ¸": 1684,
      "ëħ¹": 1685,
      "ëħº": 1686,
      "ëħ»": 1687,
      "ëħ¼": 1688,
      "ëħ½": 1689,
      "ëħ¾": 1690,
      "ëħ¿": 1691,
      "ëĨ": 1692,
      "ëĨĢ": 1693,
      "ëĨģ": 1694,
      "ëĨĤ": 1695,
      "ëĨĥ": 1696,
      "ëĨĦ": 1697,
      "ëĨħ": 1698,
      "ëĨĨ": 1699,
      "ëĨĩ": 1700,
      "ëĨĪ": 1701,
      "ëĨī": 1702,
      "ëĨĬ": 1703,
      "ëĨĭ": 1704,
      "ëĨĮ": 1705,
      "ëĨį": 1706,
      "ëĨİ": 1707,
      "ëĨı": 1708,
      "ëĨĲ": 1709,
      "ëĨĳ": 1710,
      "ëĨĴ": 1711,
      "ëĨĵ": 1712,
      "ëĨĶ": 1713,
      "ëĨķ": 1714,
      "ëĨĸ": 1715,
      "ëĨĹ": 1716,
      "ëĨĺ": 1717,
      "ëĨĻ": 1718,
      "ëĨļ": 1719,
      "ëĨĽ": 1720,
      "ëĨľ": 1721,
      "ëĨĿ": 1722,
      "ëĨŀ": 1723,
      "ëĨŁ": 1724,
      "ëĨł": 1725,
      "ëĨ¡": 1726,
      "ëĨ¢": 1727,
      "ëĨ£": 1728,
      "ëĨ¤": 1729,
      "ëĨ¥": 1730,
      "ëĨ¦": 1731,
      "ëĨ§": 1732,
      "ëĨ¨": 1733,
      "ëĨ©": 1734,
      "ëĨª": 1735,
      "ëĨ«": 1736,
      "ëĨ¬": 1737,
      "ëĨŃ": 1738,
      "ëĨ®": 1739,
      "ëĨ¯": 1740,
      "ëĨ°": 1741,
      "ëĨ±": 1742,
      "ëĨ²": 1743,
      "ëĨ³": 1744,
      "ëĨ´": 1745,
      "ëĨµ": 1746,
      "ëĨ¶": 1747,
      "ëĨ·": 1748,
      "ëĨ¸": 1749,
      "ëĨ¹": 1750,
      "ëĨº": 1751,
      "ëĨ»": 1752,
      "ëĨ¼": 1753,
      "ëĨ½": 1754,
      "ëĨ¾": 1755,
      "ëĨ¿": 1756,
      "ëĩ": 1757,
      "ëĩĢ": 1758,
      "ëĩģ": 1759,
      "ëĩĤ": 1760,
      "ëĩĥ": 1761,
      "ëĩĦ": 1762,
      "ëĩħ": 1763,
      "ëĩĨ": 1764,
      "ëĩĩ": 1765,
      "ëĩĪ": 1766,
      "ëĩī": 1767,
      "ëĩĬ": 1768,
      "ëĩĭ": 1769,
      "ëĩĮ": 1770,
      "ëĩį": 1771,
      "ëĩİ": 1772,
      "ëĩı": 1773,
      "ëĩĲ": 1774,
      "ëĩĳ": 1775,
      "ëĩĴ": 1776,
      "ëĩĵ": 1777,
      "ëĩĶ": 1778,
      "ëĩķ": 1779,
      "ëĩĸ": 1780,
      "ëĩĹ": 1781,
      "ëĩĺ": 1782,
      "ëĩĻ": 1783,
      "ëĩļ": 1784,
      "ëĩĽ": 1785,
      "ëĩľ": 1786,
      "ëĩĿ": 1787,
      "ëĩŀ": 1788,
      "ëĩŁ": 1789,
      "ëĩł": 1790,
      "ëĩ¡": 1791,
      "ëĩ¢": 1792,
      "ëĩ£": 1793,
      "ëĩ¤": 1794,
      "ëĩ¥": 1795,
      "ëĩ¦": 1796,
      "ëĩ§": 1797,
      "ëĩ¨": 1798,
      "ëĩ©": 1799,
      "ëĩª": 1800,
      "ëĩ«": 1801,
      "ëĩ¬": 1802,
      "ëĩŃ": 1803,
      "ëĩ®": 1804,
      "ëĩ¯": 1805,
      "ëĩ°": 1806,
      "ëĩ±": 1807,
      "ëĩ²": 1808,
      "ëĩ³": 1809,
      "ëĩ´": 1810,
      "ëĩµ": 1811,
      "ëĩ¶": 1812,
      "ëĩ·": 1813,
      "ëĩ¸": 1814,
      "ëĩ¹": 1815,
      "ëĩº": 1816,
      "ëĩ»": 1817,
      "ëĩ¼": 1818,
      "ëĩ½": 1819,
      "ëĩ¾": 1820,
      "ëĩ¿": 1821,
      "ëĪ": 1822,
      "ëĪĢ": 1823,
      "ëĪģ": 1824,
      "ëĪĤ": 1825,
      "ëĪĥ": 1826,
      "ëĪĦ": 1827,
      "ëĪħ": 1828,
      "ëĪĨ": 1829,
      "ëĪĩ": 1830,
      "ëĪĪ": 1831,
      "ëĪī": 1832,
      "ëĪĬ": 1833,
      "ëĪĭ": 1834,
      "ëĪĮ": 1835,
      "ëĪį": 1836,
      "ëĪİ": 1837,
      "ëĪı": 1838,
      "ëĪĲ": 1839,
      "ëĪĳ": 1840,
      "ëĪĴ": 1841,
      "ëĪĵ": 1842,
      "ëĪĶ": 1843,
      "ëĪķ": 1844,
      "ëĪĸ": 1845,
      "ëĪĹ": 1846,
      "ëĪĺ": 1847,
      "ëĪĻ": 1848,
      "ëĪļ": 1849,
      "ëĪĽ": 1850,
      "ëĪľ": 1851,
      "ëĪĿ": 1852,
      "ëĪŀ": 1853,
      "ëĪŁ": 1854,
      "ëĪł": 1855,
      "ëĪ¡": 1856,
      "ëĪ¢": 1857,
      "ëĪ£": 1858,
      "ëĪ¤": 1859,
      "ëĪ¥": 1860,
      "ëĪ¦": 1861,
      "ëĪ§": 1862,
      "ëĪ¨": 1863,
      "ëĪ©": 1864,
      "ëĪª": 1865,
      "ëĪ«": 1866,
      "ëĪ¬": 1867,
      "ëĪŃ": 1868,
      "ëĪ®": 1869,
      "ëĪ¯": 1870,
      "ëĪ°": 1871,
      "ëĪ±": 1872,
      "ëĪ²": 1873,
      "ëĪ³": 1874,
      "ëĪ´": 1875,
      "ëĪµ": 1876,
      "ëĪ¶": 1877,
      "ëĪ·": 1878,
      "ëĪ¸": 1879,
      "ëĪ¹": 1880,
      "ëĪº": 1881,
      "ëĪ»": 1882,
      "ëĪ¼": 1883,
      "ëĪ½": 1884,
      "ëĪ¾": 1885,
      "ëĪ¿": 1886,
      "ëī": 1887,
      "ëīĢ": 1888,
      "ëīģ": 1889,
      "ëīĤ": 1890,
      "ëīĥ": 1891,
      "ëīĦ": 1892,
      "ëīħ": 1893,
      "ëīĨ": 1894,
      "ëīĩ": 1895,
      "ëīĪ": 1896,
      "ëīī": 1897,
      "ëīĬ": 1898,
      "ëīĭ": 1899,
      "ëīĮ": 1900,
      "ëīį": 1901,
      "ëīİ": 1902,
      "ëīı": 1903,
      "ëīĲ": 1904,
      "ëīĳ": 1905,
      "ëīĴ": 1906,
      "ëīĵ": 1907,
      "ëīĶ": 1908,
      "ëīķ": 1909,
      "ëīĸ": 1910,
      "ëīĹ": 1911,
      "ëīĺ": 1912,
      "ëīĻ": 1913,
      "ëīļ": 1914,
      "ëīĽ": 1915,
      "ëīľ": 1916,
      "ëīĿ": 1917,
      "ëīŀ": 1918,
      "ëīŁ": 1919,
      "ëīł": 1920,
      "ëī¡": 1921,
      "ëī¢": 1922,
      "ëī£": 1923,
      "ëī¤": 1924,
      "ëī¥": 1925,
      "ëī¦": 1926,
      "ëī§": 1927,
      "ëī¨": 1928,
      "ëī©": 1929,
      "ëīª": 1930,
      "ëī«": 1931,
      "ëī¬": 1932,
      "ëīŃ": 1933,
      "ëī®": 1934,
      "ëī¯": 1935,
      "ëī°": 1936,
      "ëī±": 1937,
      "ëī²": 1938,
      "ëī³": 1939,
      "ëī´": 1940,
      "ëīµ": 1941,
      "ëī¶": 1942,
      "ëī·": 1943,
      "ëī¸": 1944,
      "ëī¹": 1945,
      "ëīº": 1946,
      "ëī»": 1947,
      "ëī¼": 1948,
      "ëī½": 1949,
      "ëī¾": 1950,
      "ëī¿": 1951,
      "ëĬ": 1952,
      "ëĬĢ": 1953,
      "ëĬģ": 1954,
      "ëĬĤ": 1955,
      "ëĬĥ": 1956,
      "ëĬĦ": 1957,
      "ëĬħ": 1958,
      "ëĬĨ": 1959,
      "ëĬĩ": 1960,
      "ëĬĪ": 1961,
      "ëĬī": 1962,
      "ëĬĬ": 1963,
      "ëĬĭ": 1964,
      "ëĬĮ": 1965,
      "ëĬį": 1966,
      "ëĬİ": 1967,
      "ëĬı": 1968,
      "ëĬĲ": 1969,
      "ëĬĳ": 1970,
      "ëĬĴ": 1971,
      "ëĬĵ": 1972,
      "ëĬĶ": 1973,
      "ëĬķ": 1974,
      "ëĬĸ": 1975,
      "ëĬĹ": 1976,
      "ëĬĺ": 1977,
      "ëĬĻ": 1978,
      "ëĬļ": 1979,
      "ëĬĽ": 1980,
      "ëĬľ": 1981,
      "ëĬĿ": 1982,
      "ëĬŀ": 1983,
      "ëĬŁ": 1984,
      "ëĬł": 1985,
      "ëĬ¡": 1986,
      "ëĬ¢": 1987,
      "ëĬ£": 1988,
      "ëĬ¤": 1989,
      "ëĬ¥": 1990,
      "ëĬ¦": 1991,
      "ëĬ§": 1992,
      "ëĬ¨": 1993,
      "ëĬ©": 1994,
      "ëĬª": 1995,
      "ëĬ«": 1996,
      "ëĬ¬": 1997,
      "ëĬŃ": 1998,
      "ëĬ®": 1999,
      "ëĬ¯": 2000,
      "ëĬ°": 2001,
      "ëĬ±": 2002,
      "ëĬ²": 2003,
      "ëĬ³": 2004,
      "ëĬ´": 2005,
      "ëĬµ": 2006,
      "ëĬ¶": 2007,
      "ëĬ·": 2008,
      "ëĬ¸": 2009,
      "ëĬ¹": 2010,
      "ëĬº": 2011,
      "ëĬ»": 2012,
      "ëĬ¼": 2013,
      "ëĬ½": 2014,
      "ëĬ¾": 2015,
      "ëĬ¿": 2016,
      "ëĭ": 2017,
      "ëĭĢ": 2018,
      "ëĭģ": 2019,
      "ëĭĤ": 2020,
      "ëĭĥ": 2021,
      "ëĭĦ": 2022,
      "ëĭħ": 2023,
      "ëĭĨ": 2024,
      "ëĭĩ": 2025,
      "ëĭĪ": 2026,
      "ëĭī": 2027,
      "ëĭĬ": 2028,
      "ëĭĭ": 2029,
      "ëĭĮ": 2030,
      "ëĭį": 2031,
      "ëĭİ": 2032,
      "ëĭı": 2033,
      "ëĭĲ": 2034,
      "ëĭĳ": 2035,
      "ëĭĴ": 2036,
      "ëĭĵ": 2037,
      "ëĭĶ": 2038,
      "ëĭķ": 2039,
      "ëĭĸ": 2040,
      "ëĭĹ": 2041,
      "ëĭĺ": 2042,
      "ëĭĻ": 2043,
      "ëĭļ": 2044,
      "ëĭĽ": 2045,
      "ëĭľ": 2046,
      "ëĭĿ": 2047,
      "ëĭŀ": 2048,
      "ëĭŁ": 2049,
      "ëĭł": 2050,
      "ëĭ¡": 2051,
      "ëĭ¢": 2052,
      "ëĭ£": 2053,
      "ëĭ¤": 2054,
      "ëĭ¥": 2055,
      "ëĭ¦": 2056,
      "ëĭ§": 2057,
      "ëĭ¨": 2058,
      "ëĭ©": 2059,
      "ëĭª": 2060,
      "ëĭ«": 2061,
      "ëĭ¬": 2062,
      "ëĭŃ": 2063,
      "ëĭ®": 2064,
      "ëĭ¯": 2065,
      "ëĭ°": 2066,
      "ëĭ±": 2067,
      "ëĭ²": 2068,
      "ëĭ³": 2069,
      "ëĭ´": 2070,
      "ëĭµ": 2071,
      "ëĭ¶": 2072,
      "ëĭ·": 2073,
      "ëĭ¸": 2074,
      "ëĭ¹": 2075,
      "ëĭº": 2076,
      "ëĭ»": 2077,
      "ëĭ¼": 2078,
      "ëĭ½": 2079,
      "ëĭ¾": 2080,
      "ëĭ¿": 2081,
      "ëĮ": 2082,
      "ëĮĢ": 2083,
      "ëĮģ": 2084,
      "ëĮĤ": 2085,
      "ëĮĥ": 2086,
      "ëĮĦ": 2087,
      "ëĮħ": 2088,
      "ëĮĨ": 2089,
      "ëĮĩ": 2090,
      "ëĮĪ": 2091,
      "ëĮī": 2092,
      "ëĮĬ": 2093,
      "ëĮĭ": 2094,
      "ëĮĮ": 2095,
      "ëĮį": 2096,
      "ëĮİ": 2097,
      "ëĮı": 2098,
      "ëĮĲ": 2099,
      "ëĮĳ": 2100,
      "ëĮĴ": 2101,
      "ëĮĵ": 2102,
      "ëĮĶ": 2103,
      "ëĮķ": 2104,
      "ëĮĸ": 2105,
      "ëĮĹ": 2106,
      "ëĮĺ": 2107,
      "ëĮĻ": 2108,
      "ëĮļ": 2109,
      "ëĮĽ": 2110,
      "ëĮľ": 2111,
      "ëĮĿ": 2112,
      "ëĮŀ": 2113,
      "ëĮŁ": 2114,
      "ëĮł": 2115,
      "ëĮ¡": 2116,
      "ëĮ¢": 2117,
      "ëĮ£": 2118,
      "ëĮ¤": 2119,
      "ëĮ¥": 2120,
      "ëĮ¦": 2121,
      "ëĮ§": 2122,
      "ëĮ¨": 2123,
      "ëĮ©": 2124,
      "ëĮª": 2125,
      "ëĮ«": 2126,
      "ëĮ¬": 2127,
      "ëĮŃ": 2128,
      "ëĮ®": 2129,
      "ëĮ¯": 2130,
      "ëĮ°": 2131,
      "ëĮ±": 2132,
      "ëĮ²": 2133,
      "ëĮ³": 2134,
      "ëĮ´": 2135,
      "ëĮµ": 2136,
      "ëĮ¶": 2137,
      "ëĮ·": 2138,
      "ëĮ¸": 2139,
      "ëĮ¹": 2140,
      "ëĮº": 2141,
      "ëĮ»": 2142,
      "ëĮ¼": 2143,
      "ëĮ½": 2144,
      "ëĮ¾": 2145,
      "ëĮ¿": 2146,
      "ëį": 2147,
      "ëįĢ": 2148,
      "ëįģ": 2149,
      "ëįĤ": 2150,
      "ëįĥ": 2151,
      "ëįĦ": 2152,
      "ëįħ": 2153,
      "ëįĨ": 2154,
      "ëįĩ": 2155,
      "ëįĪ": 2156,
      "ëįī": 2157,
      "ëįĬ": 2158,
      "ëįĭ": 2159,
      "ëįĮ": 2160,
      "ëįį": 2161,
      "ëįİ": 2162,
      "ëįı": 2163,
      "ëįĲ": 2164,
      "ëįĳ": 2165,
      "ëįĴ": 2166,
      "ëįĵ": 2167,
      "ëįĶ": 2168,
      "ëįķ": 2169,
      "ëįĸ": 2170,
      "ëįĹ": 2171,
      "ëįĺ": 2172,
      "ëįĻ": 2173,
      "ëįļ": 2174,
      "ëįĽ": 2175,
      "ëįľ": 2176,
      "ëįĿ": 2177,
      "ëįŀ": 2178,
      "ëįŁ": 2179,
      "ëįł": 2180,
      "ëį¡": 2181,
      "ëį¢": 2182,
      "ëį£": 2183,
      "ëį¤": 2184,
      "ëį¥": 2185,
      "ëį¦": 2186,
      "ëį§": 2187,
      "ëį¨": 2188,
      "ëį©": 2189,
      "ëįª": 2190,
      "ëį«": 2191,
      "ëį¬": 2192,
      "ëįŃ": 2193,
      "ëį®": 2194,
      "ëį¯": 2195,
      "ëį°": 2196,
      "ëį±": 2197,
      "ëį²": 2198,
      "ëį³": 2199,
      "ëį´": 2200,
      "ëįµ": 2201,
      "ëį¶": 2202,
      "ëį·": 2203,
      "ëį¸": 2204,
      "ëį¹": 2205,
      "ëįº": 2206,
      "ëį»": 2207,
      "ëį¼": 2208,
      "ëį½": 2209,
      "ëį¾": 2210,
      "ëį¿": 2211,
      "ëİ": 2212,
      "ëİĢ": 2213,
      "ëİģ": 2214,
      "ëİĤ": 2215,
      "ëİĥ": 2216,
      "ëİĦ": 2217,
      "ëİħ": 2218,
      "ëİĨ": 2219,
      "ëİĩ": 2220,
      "ëİĪ": 2221,
      "ëİī": 2222,
      "ëİĬ": 2223,
      "ëİĭ": 2224,
      "ëİĮ": 2225,
      "ëİį": 2226,
      "ëİİ": 2227,
      "ëİı": 2228,
      "ëİĲ": 2229,
      "ëİĳ": 2230,
      "ëİĴ": 2231,
      "ëİĵ": 2232,
      "ëİĶ": 2233,
      "ëİķ": 2234,
      "ëİĸ": 2235,
      "ëİĹ": 2236,
      "ëİĺ": 2237,
      "ëİĻ": 2238,
      "ëİļ": 2239,
      "ëİĽ": 2240,
      "ëİľ": 2241,
      "ëİĿ": 2242,
      "ëİŀ": 2243,
      "ëİŁ": 2244,
      "ëİł": 2245,
      "ëİ¡": 2246,
      "ëİ¢": 2247,
      "ëİ£": 2248,
      "ëİ¤": 2249,
      "ëİ¥": 2250,
      "ëİ¦": 2251,
      "ëİ§": 2252,
      "ëİ¨": 2253,
      "ëİ©": 2254,
      "ëİª": 2255,
      "ëİ«": 2256,
      "ëİ¬": 2257,
      "ëİŃ": 2258,
      "ëİ®": 2259,
      "ëİ¯": 2260,
      "ëİ°": 2261,
      "ëİ±": 2262,
      "ëİ²": 2263,
      "ëİ³": 2264,
      "ëİ´": 2265,
      "ëİµ": 2266,
      "ëİ¶": 2267,
      "ëİ·": 2268,
      "ëİ¸": 2269,
      "ëİ¹": 2270,
      "ëİº": 2271,
      "ëİ»": 2272,
      "ëİ¼": 2273,
      "ëİ½": 2274,
      "ëİ¾": 2275,
      "ëİ¿": 2276,
      "ëı": 2277,
      "ëıĢ": 2278,
      "ëıģ": 2279,
      "ëıĤ": 2280,
      "ëıĥ": 2281,
      "ëıĦ": 2282,
      "ëıħ": 2283,
      "ëıĨ": 2284,
      "ëıĩ": 2285,
      "ëıĪ": 2286,
      "ëıī": 2287,
      "ëıĬ": 2288,
      "ëıĭ": 2289,
      "ëıĮ": 2290,
      "ëıį": 2291,
      "ëıİ": 2292,
      "ëıı": 2293,
      "ëıĲ": 2294,
      "ëıĳ": 2295,
      "ëıĴ": 2296,
      "ëıĵ": 2297,
      "ëıĶ": 2298,
      "ëıķ": 2299,
      "ëıĸ": 2300,
      "ëıĹ": 2301,
      "ëıĺ": 2302,
      "ëıĻ": 2303,
      "ëıļ": 2304,
      "ëıĽ": 2305,
      "ëıľ": 2306,
      "ëıĿ": 2307,
      "ëıŀ": 2308,
      "ëıŁ": 2309,
      "ëıł": 2310,
      "ëı¡": 2311,
      "ëı¢": 2312,
      "ëı£": 2313,
      "ëı¤": 2314,
      "ëı¥": 2315,
      "ëı¦": 2316,
      "ëı§": 2317,
      "ëı¨": 2318,
      "ëı©": 2319,
      "ëıª": 2320,
      "ëı«": 2321,
      "ëı¬": 2322,
      "ëıŃ": 2323,
      "ëı®": 2324,
      "ëı¯": 2325,
      "ëı°": 2326,
      "ëı±": 2327,
      "ëı²": 2328,
      "ëı³": 2329,
      "ëı´": 2330,
      "ëıµ": 2331,
      "ëı¶": 2332,
      "ëı·": 2333,
      "ëı¸": 2334,
      "ëı¹": 2335,
      "ëıº": 2336,
      "ëı»": 2337,
      "ëı¼": 2338,
      "ëı½": 2339,
      "ëı¾": 2340,
      "ëı¿": 2341,
      "ëĲ": 2342,
      "ëĲĢ": 2343,
      "ëĲģ": 2344,
      "ëĲĤ": 2345,
      "ëĲĥ": 2346,
      "ëĲĦ": 2347,
      "ëĲħ": 2348,
      "ëĲĨ": 2349,
      "ëĲĩ": 2350,
      "ëĲĪ": 2351,
      "ëĲī": 2352,
      "ëĲĬ": 2353,
      "ëĲĭ": 2354,
      "ëĲĮ": 2355,
      "ëĲį": 2356,
      "ëĲİ": 2357,
      "ëĲı": 2358,
      "ëĲĲ": 2359,
      "ëĲĳ": 2360,
      "ëĲĴ": 2361,
      "ëĲĵ": 2362,
      "ëĲĶ": 2363,
      "ëĲķ": 2364,
      "ëĲĸ": 2365,
      "ëĲĹ": 2366,
      "ëĲĺ": 2367,
      "ëĲĻ": 2368,
      "ëĲļ": 2369,
      "ëĲĽ": 2370,
      "ëĲľ": 2371,
      "ëĲĿ": 2372,
      "ëĲŀ": 2373,
      "ëĲŁ": 2374,
      "ëĲł": 2375,
      "ëĲ¡": 2376,
      "ëĲ¢": 2377,
      "ëĲ£": 2378,
      "ëĲ¤": 2379,
      "ëĲ¥": 2380,
      "ëĲ¦": 2381,
      "ëĲ§": 2382,
      "ëĲ¨": 2383,
      "ëĲ©": 2384,
      "ëĲª": 2385,
      "ëĲ«": 2386,
      "ëĲ¬": 2387,
      "ëĲŃ": 2388,
      "ëĲ®": 2389,
      "ëĲ¯": 2390,
      "ëĲ°": 2391,
      "ëĲ±": 2392,
      "ëĲ²": 2393,
      "ëĲ³": 2394,
      "ëĲ´": 2395,
      "ëĲµ": 2396,
      "ëĲ¶": 2397,
      "ëĲ·": 2398,
      "ëĲ¸": 2399,
      "ëĲ¹": 2400,
      "ëĲº": 2401,
      "ëĲ»": 2402,
      "ëĲ¼": 2403,
      "ëĲ½": 2404,
      "ëĲ¾": 2405,
      "ëĲ¿": 2406,
      "ëĳ": 2407,
      "ëĳĢ": 2408,
      "ëĳģ": 2409,
      "ëĳĤ": 2410,
      "ëĳĥ": 2411,
      "ëĳĦ": 2412,
      "ëĳħ": 2413,
      "ëĳĨ": 2414,
      "ëĳĩ": 2415,
      "ëĳĪ": 2416,
      "ëĳī": 2417,
      "ëĳĬ": 2418,
      "ëĳĭ": 2419,
      "ëĳĮ": 2420,
      "ëĳį": 2421,
      "ëĳİ": 2422,
      "ëĳı": 2423,
      "ëĳĲ": 2424,
      "ëĳĳ": 2425,
      "ëĳĴ": 2426,
      "ëĳĵ": 2427,
      "ëĳĶ": 2428,
      "ëĳķ": 2429,
      "ëĳĸ": 2430,
      "ëĳĹ": 2431,
      "ëĳĺ": 2432,
      "ëĳĻ": 2433,
      "ëĳļ": 2434,
      "ëĳĽ": 2435,
      "ëĳľ": 2436,
      "ëĳĿ": 2437,
      "ëĳŀ": 2438,
      "ëĳŁ": 2439,
      "ëĳł": 2440,
      "ëĳ¡": 2441,
      "ëĳ¢": 2442,
      "ëĳ£": 2443,
      "ëĳ¤": 2444,
      "ëĳ¥": 2445,
      "ëĳ¦": 2446,
      "ëĳ§": 2447,
      "ëĳ¨": 2448,
      "ëĳ©": 2449,
      "ëĳª": 2450,
      "ëĳ«": 2451,
      "ëĳ¬": 2452,
      "ëĳŃ": 2453,
      "ëĳ®": 2454,
      "ëĳ¯": 2455,
      "ëĳ°": 2456,
      "ëĳ±": 2457,
      "ëĳ²": 2458,
      "ëĳ³": 2459,
      "ëĳ´": 2460,
      "ëĳµ": 2461,
      "ëĳ¶": 2462,
      "ëĳ·": 2463,
      "ëĳ¸": 2464,
      "ëĳ¹": 2465,
      "ëĳº": 2466,
      "ëĳ»": 2467,
      "ëĳ¼": 2468,
      "ëĳ½": 2469,
      "ëĳ¾": 2470,
      "ëĳ¿": 2471,
      "ëĴ": 2472,
      "ëĴĢ": 2473,
      "ëĴģ": 2474,
      "ëĴĤ": 2475,
      "ëĴĥ": 2476,
      "ëĴĦ": 2477,
      "ëĴħ": 2478,
      "ëĴĨ": 2479,
      "ëĴĩ": 2480,
      "ëĴĪ": 2481,
      "ëĴī": 2482,
      "ëĴĬ": 2483,
      "ëĴĭ": 2484,
      "ëĴĮ": 2485,
      "ëĴį": 2486,
      "ëĴİ": 2487,
      "ëĴı": 2488,
      "ëĴĲ": 2489,
      "ëĴĳ": 2490,
      "ëĴĴ": 2491,
      "ëĴĵ": 2492,
      "ëĴĶ": 2493,
      "ëĴķ": 2494,
      "ëĴĸ": 2495,
      "ëĴĹ": 2496,
      "ëĴĺ": 2497,
      "ëĴĻ": 2498,
      "ëĴļ": 2499,
      "ëĴĽ": 2500,
      "ëĴľ": 2501,
      "ëĴĿ": 2502,
      "ëĴŀ": 2503,
      "ëĴŁ": 2504,
      "ëĴł": 2505,
      "ëĴ¡": 2506,
      "ëĴ¢": 2507,
      "ëĴ£": 2508,
      "ëĴ¤": 2509,
      "ëĴ¥": 2510,
      "ëĴ¦": 2511,
      "ëĴ§": 2512,
      "ëĴ¨": 2513,
      "ëĴ©": 2514,
      "ëĴª": 2515,
      "ëĴ«": 2516,
      "ëĴ¬": 2517,
      "ëĴŃ": 2518,
      "ëĴ®": 2519,
      "ëĴ¯": 2520,
      "ëĴ°": 2521,
      "ëĴ±": 2522,
      "ëĴ²": 2523,
      "ëĴ³": 2524,
      "ëĴ´": 2525,
      "ëĴµ": 2526,
      "ëĴ¶": 2527,
      "ëĴ·": 2528,
      "ëĴ¸": 2529,
      "ëĴ¹": 2530,
      "ëĴº": 2531,
      "ëĴ»": 2532,
      "ëĴ¼": 2533,
      "ëĴ½": 2534,
      "ëĴ¾": 2535,
      "ëĴ¿": 2536,
      "ëĵ": 2537,
      "ëĵĢ": 2538,
      "ëĵģ": 2539,
      "ëĵĤ": 2540,
      "ëĵĥ": 2541,
      "ëĵĦ": 2542,
      "ëĵħ": 2543,
      "ëĵĨ": 2544,
      "ëĵĩ": 2545,
      "ëĵĪ": 2546,
      "ëĵī": 2547,
      "ëĵĬ": 2548,
      "ëĵĭ": 2549,
      "ëĵĮ": 2550,
      "ëĵį": 2551,
      "ëĵİ": 2552,
      "ëĵı": 2553,
      "ëĵĲ": 2554,
      "ëĵĳ": 2555,
      "ëĵĴ": 2556,
      "ëĵĵ": 2557,
      "ëĵĶ": 2558,
      "ëĵķ": 2559,
      "ëĵĸ": 2560,
      "ëĵĹ": 2561,
      "ëĵĺ": 2562,
      "ëĵĻ": 2563,
      "ëĵļ": 2564,
      "ëĵĽ": 2565,
      "ëĵľ": 2566,
      "ëĵĿ": 2567,
      "ëĵŀ": 2568,
      "ëĵŁ": 2569,
      "ëĵł": 2570,
      "ëĵ¡": 2571,
      "ëĵ¢": 2572,
      "ëĵ£": 2573,
      "ëĵ¤": 2574,
      "ëĵ¥": 2575,
      "ëĵ¦": 2576,
      "ëĵ§": 2577,
      "ëĵ¨": 2578,
      "ëĵ©": 2579,
      "ëĵª": 2580,
      "ëĵ«": 2581,
      "ëĵ¬": 2582,
      "ëĵŃ": 2583,
      "ëĵ®": 2584,
      "ëĵ¯": 2585,
      "ëĵ°": 2586,
      "ëĵ±": 2587,
      "ëĵ²": 2588,
      "ëĵ³": 2589,
      "ëĵ´": 2590,
      "ëĵµ": 2591,
      "ëĵ¶": 2592,
      "ëĵ·": 2593,
      "ëĵ¸": 2594,
      "ëĵ¹": 2595,
      "ëĵº": 2596,
      "ëĵ»": 2597,
      "ëĵ¼": 2598,
      "ëĵ½": 2599,
      "ëĵ¾": 2600,
      "ëĵ¿": 2601,
      "ëĶ": 2602,
      "ëĶĢ": 2603,
      "ëĶģ": 2604,
      "ëĶĤ": 2605,
      "ëĶĥ": 2606,
      "ëĶĦ": 2607,
      "ëĶħ": 2608,
      "ëĶĨ": 2609,
      "ëĶĩ": 2610,
      "ëĶĪ": 2611,
      "ëĶī": 2612,
      "ëĶĬ": 2613,
      "ëĶĭ": 2614,
      "ëĶĮ": 2615,
      "ëĶį": 2616,
      "ëĶİ": 2617,
      "ëĶı": 2618,
      "ëĶĲ": 2619,
      "ëĶĳ": 2620,
      "ëĶĴ": 2621,
      "ëĶĵ": 2622,
      "ëĶĶ": 2623,
      "ëĶķ": 2624,
      "ëĶĸ": 2625,
      "ëĶĹ": 2626,
      "ëĶĺ": 2627,
      "ëĶĻ": 2628,
      "ëĶļ": 2629,
      "ëĶĽ": 2630,
      "ëĶľ": 2631,
      "ëĶĿ": 2632,
      "ëĶŀ": 2633,
      "ëĶŁ": 2634,
      "ëĶł": 2635,
      "ëĶ¡": 2636,
      "ëĶ¢": 2637,
      "ëĶ£": 2638,
      "ëĶ¤": 2639,
      "ëĶ¥": 2640,
      "ëĶ¦": 2641,
      "ëĶ§": 2642,
      "ëĶ¨": 2643,
      "ëĶ©": 2644,
      "ëĶª": 2645,
      "ëĶ«": 2646,
      "ëĶ¬": 2647,
      "ëĶŃ": 2648,
      "ëĶ®": 2649,
      "ëĶ¯": 2650,
      "ëĶ°": 2651,
      "ëĶ±": 2652,
      "ëĶ²": 2653,
      "ëĶ³": 2654,
      "ëĶ´": 2655,
      "ëĶµ": 2656,
      "ëĶ¶": 2657,
      "ëĶ·": 2658,
      "ëĶ¸": 2659,
      "ëĶ¹": 2660,
      "ëĶº": 2661,
      "ëĶ»": 2662,
      "ëĶ¼": 2663,
      "ëĶ½": 2664,
      "ëĶ¾": 2665,
      "ëĶ¿": 2666,
      "ëķ": 2667,
      "ëķĢ": 2668,
      "ëķģ": 2669,
      "ëķĤ": 2670,
      "ëķĥ": 2671,
      "ëķĦ": 2672,
      "ëķħ": 2673,
      "ëķĨ": 2674,
      "ëķĩ": 2675,
      "ëķĪ": 2676,
      "ëķī": 2677,
      "ëķĬ": 2678,
      "ëķĭ": 2679,
      "ëķĮ": 2680,
      "ëķį": 2681,
      "ëķİ": 2682,
      "ëķı": 2683,
      "ëķĲ": 2684,
      "ëķĳ": 2685,
      "ëķĴ": 2686,
      "ëķĵ": 2687,
      "ëķĶ": 2688,
      "ëķķ": 2689,
      "ëķĸ": 2690,
      "ëķĹ": 2691,
      "ëķĺ": 2692,
      "ëķĻ": 2693,
      "ëķļ": 2694,
      "ëķĽ": 2695,
      "ëķľ": 2696,
      "ëķĿ": 2697,
      "ëķŀ": 2698,
      "ëķŁ": 2699,
      "ëķł": 2700,
      "ëķ¡": 2701,
      "ëķ¢": 2702,
      "ëķ£": 2703,
      "ëķ¤": 2704,
      "ëķ¥": 2705,
      "ëķ¦": 2706,
      "ëķ§": 2707,
      "ëķ¨": 2708,
      "ëķ©": 2709,
      "ëķª": 2710,
      "ëķ«": 2711,
      "ëķ¬": 2712,
      "ëķŃ": 2713,
      "ëķ®": 2714,
      "ëķ¯": 2715,
      "ëķ°": 2716,
      "ëķ±": 2717,
      "ëķ²": 2718,
      "ëķ³": 2719,
      "ëķ´": 2720,
      "ëķµ": 2721,
      "ëķ¶": 2722,
      "ëķ·": 2723,
      "ëķ¸": 2724,
      "ëķ¹": 2725,
      "ëķº": 2726,
      "ëķ»": 2727,
      "ëķ¼": 2728,
      "ëķ½": 2729,
      "ëķ¾": 2730,
      "ëķ¿": 2731,
      "ëĸ": 2732,
      "ëĸĢ": 2733,
      "ëĸģ": 2734,
      "ëĸĤ": 2735,
      "ëĸĥ": 2736,
      "ëĸĦ": 2737,
      "ëĸħ": 2738,
      "ëĸĨ": 2739,
      "ëĸĩ": 2740,
      "ëĸĪ": 2741,
      "ëĸī": 2742,
      "ëĸĬ": 2743,
      "ëĸĭ": 2744,
      "ëĸĮ": 2745,
      "ëĸį": 2746,
      "ëĸİ": 2747,
      "ëĸı": 2748,
      "ëĸĲ": 2749,
      "ëĸĳ": 2750,
      "ëĸĴ": 2751,
      "ëĸĵ": 2752,
      "ëĸĶ": 2753,
      "ëĸķ": 2754,
      "ëĸĸ": 2755,
      "ëĸĹ": 2756,
      "ëĸĺ": 2757,
      "ëĸĻ": 2758,
      "ëĸļ": 2759,
      "ëĸĽ": 2760,
      "ëĸľ": 2761,
      "ëĸĿ": 2762,
      "ëĸŀ": 2763,
      "ëĸŁ": 2764,
      "ëĸł": 2765,
      "ëĸ¡": 2766,
      "ëĸ¢": 2767,
      "ëĸ£": 2768,
      "ëĸ¤": 2769,
      "ëĸ¥": 2770,
      "ëĸ¦": 2771,
      "ëĸ§": 2772,
      "ëĸ¨": 2773,
      "ëĸ©": 2774,
      "ëĸª": 2775,
      "ëĸ«": 2776,
      "ëĸ¬": 2777,
      "ëĸŃ": 2778,
      "ëĸ®": 2779,
      "ëĸ¯": 2780,
      "ëĸ°": 2781,
      "ëĸ±": 2782,
      "ëĸ²": 2783,
      "ëĸ³": 2784,
      "ëĸ´": 2785,
      "ëĸµ": 2786,
      "ëĸ¶": 2787,
      "ëĸ·": 2788,
      "ëĸ¸": 2789,
      "ëĸ¹": 2790,
      "ëĸº": 2791,
      "ëĸ»": 2792,
      "ëĸ¼": 2793,
      "ëĸ½": 2794,
      "ëĸ¾": 2795,
      "ëĸ¿": 2796,
      "ëĹ": 2797,
      "ëĹĢ": 2798,
      "ëĹģ": 2799,
      "ëĹĤ": 2800,
      "ëĹĥ": 2801,
      "ëĹĦ": 2802,
      "ëĹħ": 2803,
      "ëĹĨ": 2804,
      "ëĹĩ": 2805,
      "ëĹĪ": 2806,
      "ëĹī": 2807,
      "ëĹĬ": 2808,
      "ëĹĭ": 2809,
      "ëĹĮ": 2810,
      "ëĹį": 2811,
      "ëĹİ": 2812,
      "ëĹı": 2813,
      "ëĹĲ": 2814,
      "ëĹĳ": 2815,
      "ëĹĴ": 2816,
      "ëĹĵ": 2817,
      "ëĹĶ": 2818,
      "ëĹķ": 2819,
      "ëĹĸ": 2820,
      "ëĹĹ": 2821,
      "ëĹĺ": 2822,
      "ëĹĻ": 2823,
      "ëĹļ": 2824,
      "ëĹĽ": 2825,
      "ëĹľ": 2826,
      "ëĹĿ": 2827,
      "ëĹŀ": 2828,
      "ëĹŁ": 2829,
      "ëĹł": 2830,
      "ëĹ¡": 2831,
      "ëĹ¢": 2832,
      "ëĹ£": 2833,
      "ëĹ¤": 2834,
      "ëĹ¥": 2835,
      "ëĹ¦": 2836,
      "ëĹ§": 2837,
      "ëĹ¨": 2838,
      "ëĹ©": 2839,
      "ëĹª": 2840,
      "ëĹ«": 2841,
      "ëĹ¬": 2842,
      "ëĹŃ": 2843,
      "ëĹ®": 2844,
      "ëĹ¯": 2845,
      "ëĹ°": 2846,
      "ëĹ±": 2847,
      "ëĹ²": 2848,
      "ëĹ³": 2849,
      "ëĹ´": 2850,
      "ëĹµ": 2851,
      "ëĹ¶": 2852,
      "ëĹ·": 2853,
      "ëĹ¸": 2854,
      "ëĹ¹": 2855,
      "ëĹº": 2856,
      "ëĹ»": 2857,
      "ëĹ¼": 2858,
      "ëĹ½": 2859,
      "ëĹ¾": 2860,
      "ëĹ¿": 2861,
      "ëĺ": 2862,
      "ëĺĢ": 2863,
      "ëĺģ": 2864,
      "ëĺĤ": 2865,
      "ëĺĥ": 2866,
      "ëĺĦ": 2867,
      "ëĺħ": 2868,
      "ëĺĨ": 2869,
      "ëĺĩ": 2870,
      "ëĺĪ": 2871,
      "ëĺī": 2872,
      "ëĺĬ": 2873,
      "ëĺĭ": 2874,
      "ëĺĮ": 2875,
      "ëĺį": 2876,
      "ëĺİ": 2877,
      "ëĺı": 2878,
      "ëĺĲ": 2879,
      "ëĺĳ": 2880,
      "ëĺĴ": 2881,
      "ëĺĵ": 2882,
      "ëĺĶ": 2883,
      "ëĺķ": 2884,
      "ëĺĸ": 2885,
      "ëĺĹ": 2886,
      "ëĺĺ": 2887,
      "ëĺĻ": 2888,
      "ëĺļ": 2889,
      "ëĺĽ": 2890,
      "ëĺľ": 2891,
      "ëĺĿ": 2892,
      "ëĺŀ": 2893,
      "ëĺŁ": 2894,
      "ëĺł": 2895,
      "ëĺ¡": 2896,
      "ëĺ¢": 2897,
      "ëĺ£": 2898,
      "ëĺ¤": 2899,
      "ëĺ¥": 2900,
      "ëĺ¦": 2901,
      "ëĺ§": 2902,
      "ëĺ¨": 2903,
      "ëĺ©": 2904,
      "ëĺª": 2905,
      "ëĺ«": 2906,
      "ëĺ¬": 2907,
      "ëĺŃ": 2908,
      "ëĺ®": 2909,
      "ëĺ¯": 2910,
      "ëĺ°": 2911,
      "ëĺ±": 2912,
      "ëĺ²": 2913,
      "ëĺ³": 2914,
      "ëĺ´": 2915,
      "ëĺµ": 2916,
      "ëĺ¶": 2917,
      "ëĺ·": 2918,
      "ëĺ¸": 2919,
      "ëĺ¹": 2920,
      "ëĺº": 2921,
      "ëĺ»": 2922,
      "ëĺ¼": 2923,
      "ëĺ½": 2924,
      "ëĺ¾": 2925,
      "ëĺ¿": 2926,
      "ëĻ": 2927,
      "ëĻĢ": 2928,
      "ëĻģ": 2929,
      "ëĻĤ": 2930,
      "ëĻĥ": 2931,
      "ëĻĦ": 2932,
      "ëĻħ": 2933,
      "ëĻĨ": 2934,
      "ëĻĩ": 2935,
      "ëĻĪ": 2936,
      "ëĻī": 2937,
      "ëĻĬ": 2938,
      "ëĻĭ": 2939,
      "ëĻĮ": 2940,
      "ëĻį": 2941,
      "ëĻİ": 2942,
      "ëĻı": 2943,
      "ëĻĲ": 2944,
      "ëĻĳ": 2945,
      "ëĻĴ": 2946,
      "ëĻĵ": 2947,
      "ëĻĶ": 2948,
      "ëĻķ": 2949,
      "ëĻĸ": 2950,
      "ëĻĹ": 2951,
      "ëĻĺ": 2952,
      "ëĻĻ": 2953,
      "ëĻļ": 2954,
      "ëĻĽ": 2955,
      "ëĻľ": 2956,
      "ëĻĿ": 2957,
      "ëĻŀ": 2958,
      "ëĻŁ": 2959,
      "ëĻł": 2960,
      "ëĻ¡": 2961,
      "ëĻ¢": 2962,
      "ëĻ£": 2963,
      "ëĻ¤": 2964,
      "ëĻ¥": 2965,
      "ëĻ¦": 2966,
      "ëĻ§": 2967,
      "ëĻ¨": 2968,
      "ëĻ©": 2969,
      "ëĻª": 2970,
      "ëĻ«": 2971,
      "ëĻ¬": 2972,
      "ëĻŃ": 2973,
      "ëĻ®": 2974,
      "ëĻ¯": 2975,
      "ëĻ°": 2976,
      "ëĻ±": 2977,
      "ëĻ²": 2978,
      "ëĻ³": 2979,
      "ëĻ´": 2980,
      "ëĻµ": 2981,
      "ëĻ¶": 2982,
      "ëĻ·": 2983,
      "ëĻ¸": 2984,
      "ëĻ¹": 2985,
      "ëĻº": 2986,
      "ëĻ»": 2987,
      "ëĻ¼": 2988,
      "ëĻ½": 2989,
      "ëĻ¾": 2990,
      "ëĻ¿": 2991,
      "ëļ": 2992,
      "ëļĢ": 2993,
      "ëļģ": 2994,
      "ëļĤ": 2995,
      "ëļĥ": 2996,
      "ëļĦ": 2997,
      "ëļħ": 2998,
      "ëļĨ": 2999,
      "ëļĩ": 3000,
      "ëļĪ": 3001,
      "ëļī": 3002,
      "ëļĬ": 3003,
      "ëļĭ": 3004,
      "ëļĮ": 3005,
      "ëļį": 3006,
      "ëļİ": 3007,
      "ëļı": 3008,
      "ëļĲ": 3009,
      "ëļĳ": 3010,
      "ëļĴ": 3011,
      "ëļĵ": 3012,
      "ëļĶ": 3013,
      "ëļķ": 3014,
      "ëļĸ": 3015,
      "ëļĹ": 3016,
      "ëļĺ": 3017,
      "ëļĻ": 3018,
      "ëļļ": 3019,
      "ëļĽ": 3020,
      "ëļľ": 3021,
      "ëļĿ": 3022,
      "ëļŀ": 3023,
      "ëļŁ": 3024,
      "ëļł": 3025,
      "ëļ¡": 3026,
      "ëļ¢": 3027,
      "ëļ£": 3028,
      "ëļ¤": 3029,
      "ëļ¥": 3030,
      "ëļ¦": 3031,
      "ëļ§": 3032,
      "ëļ¨": 3033,
      "ëļ©": 3034,
      "ëļª": 3035,
      "ëļ«": 3036,
      "ëļ¬": 3037,
      "ëļŃ": 3038,
      "ëļ®": 3039,
      "ëļ¯": 3040,
      "ëļ°": 3041,
      "ëļ±": 3042,
      "ëļ²": 3043,
      "ëļ³": 3044,
      "ëļ´": 3045,
      "ëļµ": 3046,
      "ëļ¶": 3047,
      "ëļ·": 3048,
      "ëļ¸": 3049,
      "ëļ¹": 3050,
      "ëļº": 3051,
      "ëļ»": 3052,
      "ëļ¼": 3053,
      "ëļ½": 3054,
      "ëļ¾": 3055,
      "ëļ¿": 3056,
      "ëĽ": 3057,
      "ëĽĢ": 3058,
      "ëĽģ": 3059,
      "ëĽĤ": 3060,
      "ëĽĥ": 3061,
      "ëĽĦ": 3062,
      "ëĽħ": 3063,
      "ëĽĨ": 3064,
      "ëĽĩ": 3065,
      "ëĽĪ": 3066,
      "ëĽī": 3067,
      "ëĽĬ": 3068,
      "ëĽĭ": 3069,
      "ëĽĮ": 3070,
      "ëĽį": 3071,
      "ëĽİ": 3072,
      "ëĽı": 3073,
      "ëĽĲ": 3074,
      "ëĽĳ": 3075,
      "ëĽĴ": 3076,
      "ëĽĵ": 3077,
      "ëĽĶ": 3078,
      "ëĽķ": 3079,
      "ëĽĸ": 3080,
      "ëĽĹ": 3081,
      "ëĽĺ": 3082,
      "ëĽĻ": 3083,
      "ëĽļ": 3084,
      "ëĽĽ": 3085,
      "ëĽľ": 3086,
      "ëĽĿ": 3087,
      "ëĽŀ": 3088,
      "ëĽŁ": 3089,
      "ëĽł": 3090,
      "ëĽ¡": 3091,
      "ëĽ¢": 3092,
      "ëĽ£": 3093,
      "ëĽ¤": 3094,
      "ëĽ¥": 3095,
      "ëĽ¦": 3096,
      "ëĽ§": 3097,
      "ëĽ¨": 3098,
      "ëĽ©": 3099,
      "ëĽª": 3100,
      "ëĽ«": 3101,
      "ëĽ¬": 3102,
      "ëĽŃ": 3103,
      "ëĽ®": 3104,
      "ëĽ¯": 3105,
      "ëĽ°": 3106,
      "ëĽ±": 3107,
      "ëĽ²": 3108,
      "ëĽ³": 3109,
      "ëĽ´": 3110,
      "ëĽµ": 3111,
      "ëĽ¶": 3112,
      "ëĽ·": 3113,
      "ëĽ¸": 3114,
      "ëĽ¹": 3115,
      "ëĽº": 3116,
      "ëĽ»": 3117,
      "ëĽ¼": 3118,
      "ëĽ½": 3119,
      "ëĽ¾": 3120,
      "ëĽ¿": 3121,
      "ëľ": 3122,
      "ëľĢ": 3123,
      "ëľģ": 3124,
      "ëľĤ": 3125,
      "ëľĥ": 3126,
      "ëľĦ": 3127,
      "ëľħ": 3128,
      "ëľĨ": 3129,
      "ëľĩ": 3130,
      "ëľĪ": 3131,
      "ëľī": 3132,
      "ëľĬ": 3133,
      "ëľĭ": 3134,
      "ëľĮ": 3135,
      "ëľį": 3136,
      "ëľİ": 3137,
      "ëľı": 3138,
      "ëľĲ": 3139,
      "ëľĳ": 3140,
      "ëľĴ": 3141,
      "ëľĵ": 3142,
      "ëľĶ": 3143,
      "ëľķ": 3144,
      "ëľĸ": 3145,
      "ëľĹ": 3146,
      "ëľĺ": 3147,
      "ëľĻ": 3148,
      "ëľļ": 3149,
      "ëľĽ": 3150,
      "ëľľ": 3151,
      "ëľĿ": 3152,
      "ëľŀ": 3153,
      "ëľŁ": 3154,
      "ëľł": 3155,
      "ëľ¡": 3156,
      "ëľ¢": 3157,
      "ëľ£": 3158,
      "ëľ¤": 3159,
      "ëľ¥": 3160,
      "ëľ¦": 3161,
      "ëľ§": 3162,
      "ëľ¨": 3163,
      "ëľ©": 3164,
      "ëľª": 3165,
      "ëľ«": 3166,
      "ëľ¬": 3167,
      "ëľŃ": 3168,
      "ëľ®": 3169,
      "ëľ¯": 3170,
      "ëľ°": 3171,
      "ëľ±": 3172,
      "ëľ²": 3173,
      "ëľ³": 3174,
      "ëľ´": 3175,
      "ëľµ": 3176,
      "ëľ¶": 3177,
      "ëľ·": 3178,
      "ëľ¸": 3179,
      "ëľ¹": 3180,
      "ëľº": 3181,
      "ëľ»": 3182,
      "ëľ¼": 3183,
      "ëľ½": 3184,
      "ëľ¾": 3185,
      "ëľ¿": 3186,
      "ëĿ": 3187,
      "ëĿĢ": 3188,
      "ëĿģ": 3189,
      "ëĿĤ": 3190,
      "ëĿĥ": 3191,
      "ëĿĦ": 3192,
      "ëĿħ": 3193,
      "ëĿĨ": 3194,
      "ëĿĩ": 3195,
      "ëĿĪ": 3196,
      "ëĿī": 3197,
      "ëĿĬ": 3198,
      "ëĿĭ": 3199,
      "ëĿĮ": 3200,
      "ëĿį": 3201,
      "ëĿİ": 3202,
      "ëĿı": 3203,
      "ëĿĲ": 3204,
      "ëĿĳ": 3205,
      "ëĿĴ": 3206,
      "ëĿĵ": 3207,
      "ëĿĶ": 3208,
      "ëĿķ": 3209,
      "ëĿĸ": 3210,
      "ëĿĹ": 3211,
      "ëĿĺ": 3212,
      "ëĿĻ": 3213,
      "ëĿļ": 3214,
      "ëĿĽ": 3215,
      "ëĿľ": 3216,
      "ëĿĿ": 3217,
      "ëĿŀ": 3218,
      "ëĿŁ": 3219,
      "ëĿł": 3220,
      "ëĿ¡": 3221,
      "ëĿ¢": 3222,
      "ëĿ£": 3223,
      "ëĿ¤": 3224,
      "ëĿ¥": 3225,
      "ëĿ¦": 3226,
      "ëĿ§": 3227,
      "ëĿ¨": 3228,
      "ëĿ©": 3229,
      "ëĿª": 3230,
      "ëĿ«": 3231,
      "ëĿ¬": 3232,
      "ëĿŃ": 3233,
      "ëĿ®": 3234,
      "ëĿ¯": 3235,
      "ëĿ°": 3236,
      "ëĿ±": 3237,
      "ëĿ²": 3238,
      "ëĿ³": 3239,
      "ëĿ´": 3240,
      "ëĿµ": 3241,
      "ëĿ¶": 3242,
      "ëĿ·": 3243,
      "ëĿ¸": 3244,
      "ëĿ¹": 3245,
      "ëĿº": 3246,
      "ëĿ»": 3247,
      "ëĿ¼": 3248,
      "ëĿ½": 3249,
      "ëĿ¾": 3250,
      "ëĿ¿": 3251,
      "ëŀ": 3252,
      "ëŀĢ": 3253,
      "ëŀģ": 3254,
      "ëŀĤ": 3255,
      "ëŀĥ": 3256,
      "ëŀĦ": 3257,
      "ëŀħ": 3258,
      "ëŀĨ": 3259,
      "ëŀĩ": 3260,
      "ëŀĪ": 3261,
      "ëŀī": 3262,
      "ëŀĬ": 3263,
      "ëŀĭ": 3264,
      "ëŀĮ": 3265,
      "ëŀį": 3266,
      "ëŀİ": 3267,
      "ëŀı": 3268,
      "ëŀĲ": 3269,
      "ëŀĳ": 3270,
      "ëŀĴ": 3271,
      "ëŀĵ": 3272,
      "ëŀĶ": 3273,
      "ëŀķ": 3274,
      "ëŀĸ": 3275,
      "ëŀĹ": 3276,
      "ëŀĺ": 3277,
      "ëŀĻ": 3278,
      "ëŀļ": 3279,
      "ëŀĽ": 3280,
      "ëŀľ": 3281,
      "ëŀĿ": 3282,
      "ëŀŀ": 3283,
      "ëŀŁ": 3284,
      "ëŀł": 3285,
      "ëŀ¡": 3286,
      "ëŀ¢": 3287,
      "ëŀ£": 3288,
      "ëŀ¤": 3289,
      "ëŀ¥": 3290,
      "ëŀ¦": 3291,
      "ëŀ§": 3292,
      "ëŀ¨": 3293,
      "ëŀ©": 3294,
      "ëŀª": 3295,
      "ëŀ«": 3296,
      "ëŀ¬": 3297,
      "ëŀŃ": 3298,
      "ëŀ®": 3299,
      "ëŀ¯": 3300,
      "ëŀ°": 3301,
      "ëŀ±": 3302,
      "ëŀ²": 3303,
      "ëŀ³": 3304,
      "ëŀ´": 3305,
      "ëŀµ": 3306,
      "ëŀ¶": 3307,
      "ëŀ·": 3308,
      "ëŀ¸": 3309,
      "ëŀ¹": 3310,
      "ëŀº": 3311,
      "ëŀ»": 3312,
      "ëŀ¼": 3313,
      "ëŀ½": 3314,
      "ëŀ¾": 3315,
      "ëŀ¿": 3316,
      "ëŁ": 3317,
      "ëŁĢ": 3318,
      "ëŁģ": 3319,
      "ëŁĤ": 3320,
      "ëŁĥ": 3321,
      "ëŁĦ": 3322,
      "ëŁħ": 3323,
      "ëŁĨ": 3324,
      "ëŁĩ": 3325,
      "ëŁĪ": 3326,
      "ëŁī": 3327,
      "ëŁĬ": 3328,
      "ëŁĭ": 3329,
      "ëŁĮ": 3330,
      "ëŁį": 3331,
      "ëŁİ": 3332,
      "ëŁı": 3333,
      "ëŁĲ": 3334,
      "ëŁĳ": 3335,
      "ëŁĴ": 3336,
      "ëŁĵ": 3337,
      "ëŁĶ": 3338,
      "ëŁķ": 3339,
      "ëŁĸ": 3340,
      "ëŁĹ": 3341,
      "ëŁĺ": 3342,
      "ëŁĻ": 3343,
      "ëŁļ": 3344,
      "ëŁĽ": 3345,
      "ëŁľ": 3346,
      "ëŁĿ": 3347,
      "ëŁŀ": 3348,
      "ëŁŁ": 3349,
      "ëŁł": 3350,
      "ëŁ¡": 3351,
      "ëŁ¢": 3352,
      "ëŁ£": 3353,
      "ëŁ¤": 3354,
      "ëŁ¥": 3355,
      "ëŁ¦": 3356,
      "ëŁ§": 3357,
      "ëŁ¨": 3358,
      "ëŁ©": 3359,
      "ëŁª": 3360,
      "ëŁ«": 3361,
      "ëŁ¬": 3362,
      "ëŁŃ": 3363,
      "ëŁ®": 3364,
      "ëŁ¯": 3365,
      "ëŁ°": 3366,
      "ëŁ±": 3367,
      "ëŁ²": 3368,
      "ëŁ³": 3369,
      "ëŁ´": 3370,
      "ëŁµ": 3371,
      "ëŁ¶": 3372,
      "ëŁ·": 3373,
      "ëŁ¸": 3374,
      "ëŁ¹": 3375,
      "ëŁº": 3376,
      "ëŁ»": 3377,
      "ëŁ¼": 3378,
      "ëŁ½": 3379,
      "ëŁ¾": 3380,
      "ëŁ¿": 3381,
      "ëł": 3382,
      "ëłĢ": 3383,
      "ëłģ": 3384,
      "ëłĤ": 3385,
      "ëłĥ": 3386,
      "ëłĦ": 3387,
      "ëłħ": 3388,
      "ëłĨ": 3389,
      "ëłĩ": 3390,
      "ëłĪ": 3391,
      "ëłī": 3392,
      "ëłĬ": 3393,
      "ëłĭ": 3394,
      "ëłĮ": 3395,
      "ëłį": 3396,
      "ëłİ": 3397,
      "ëłı": 3398,
      "ëłĲ": 3399,
      "ëłĳ": 3400,
      "ëłĴ": 3401,
      "ëłĵ": 3402,
      "ëłĶ": 3403,
      "ëłķ": 3404,
      "ëłĸ": 3405,
      "ëłĹ": 3406,
      "ëłĺ": 3407,
      "ëłĻ": 3408,
      "ëłļ": 3409,
      "ëłĽ": 3410,
      "ëłľ": 3411,
      "ëłĿ": 3412,
      "ëłŀ": 3413,
      "ëłŁ": 3414,
      "ëłł": 3415,
      "ëł¡": 3416,
      "ëł¢": 3417,
      "ëł£": 3418,
      "ëł¤": 3419,
      "ëł¥": 3420,
      "ëł¦": 3421,
      "ëł§": 3422,
      "ëł¨": 3423,
      "ëł©": 3424,
      "ëłª": 3425,
      "ëł«": 3426,
      "ëł¬": 3427,
      "ëłŃ": 3428,
      "ëł®": 3429,
      "ëł¯": 3430,
      "ëł°": 3431,
      "ëł±": 3432,
      "ëł²": 3433,
      "ëł³": 3434,
      "ëł´": 3435,
      "ëłµ": 3436,
      "ëł¶": 3437,
      "ëł·": 3438,
      "ëł¸": 3439,
      "ëł¹": 3440,
      "ëłº": 3441,
      "ëł»": 3442,
      "ëł¼": 3443,
      "ëł½": 3444,
      "ëł¾": 3445,
      "ëł¿": 3446,
      "ë¡": 3447,
      "ë¡Ģ": 3448,
      "ë¡ģ": 3449,
      "ë¡Ĥ": 3450,
      "ë¡ĥ": 3451,
      "ë¡Ħ": 3452,
      "ë¡ħ": 3453,
      "ë¡Ĩ": 3454,
      "ë¡ĩ": 3455,
      "ë¡Ī": 3456,
      "ë¡ī": 3457,
      "ë¡Ĭ": 3458,
      "ë¡ĭ": 3459,
      "ë¡Į": 3460,
      "ë¡į": 3461,
      "ë¡İ": 3462,
      "ë¡ı": 3463,
      "ë¡Ĳ": 3464,
      "ë¡ĳ": 3465,
      "ë¡Ĵ": 3466,
      "ë¡ĵ": 3467,
      "ë¡Ķ": 3468,
      "ë¡ķ": 3469,
      "ë¡ĸ": 3470,
      "ë¡Ĺ": 3471,
      "ë¡ĺ": 3472,
      "ë¡Ļ": 3473,
      "ë¡ļ": 3474,
      "ë¡Ľ": 3475,
      "ë¡ľ": 3476,
      "ë¡Ŀ": 3477,
      "ë¡ŀ": 3478,
      "ë¡Ł": 3479,
      "ë¡ł": 3480,
      "ë¡¡": 3481,
      "ë¡¢": 3482,
      "ë¡£": 3483,
      "ë¡¤": 3484,
      "ë¡¥": 3485,
      "ë¡¦": 3486,
      "ë¡§": 3487,
      "ë¡¨": 3488,
      "ë¡©": 3489,
      "ë¡ª": 3490,
      "ë¡«": 3491,
      "ë¡¬": 3492,
      "ë¡Ń": 3493,
      "ë¡®": 3494,
      "ë¡¯": 3495,
      "ë¡°": 3496,
      "ë¡±": 3497,
      "ë¡²": 3498,
      "ë¡³": 3499,
      "ë¡´": 3500,
      "ë¡µ": 3501,
      "ë¡¶": 3502,
      "ë¡·": 3503,
      "ë¡¸": 3504,
      "ë¡¹": 3505,
      "ë¡º": 3506,
      "ë¡»": 3507,
      "ë¡¼": 3508,
      "ë¡½": 3509,
      "ë¡¾": 3510,
      "ë¡¿": 3511,
      "ë¢": 3512,
      "ë¢Ģ": 3513,
      "ë¢ģ": 3514,
      "ë¢Ĥ": 3515,
      "ë¢ĥ": 3516,
      "ë¢Ħ": 3517,
      "ë¢ħ": 3518,
      "ë¢Ĩ": 3519,
      "ë¢ĩ": 3520,
      "ë¢Ī": 3521,
      "ë¢ī": 3522,
      "ë¢Ĭ": 3523,
      "ë¢ĭ": 3524,
      "ë¢Į": 3525,
      "ë¢į": 3526,
      "ë¢İ": 3527,
      "ë¢ı": 3528,
      "ë¢Ĳ": 3529,
      "ë¢ĳ": 3530,
      "ë¢Ĵ": 3531,
      "ë¢ĵ": 3532,
      "ë¢Ķ": 3533,
      "ë¢ķ": 3534,
      "ë¢ĸ": 3535,
      "ë¢Ĺ": 3536,
      "ë¢ĺ": 3537,
      "ë¢Ļ": 3538,
      "ë¢ļ": 3539,
      "ë¢Ľ": 3540,
      "ë¢ľ": 3541,
      "ë¢Ŀ": 3542,
      "ë¢ŀ": 3543,
      "ë¢Ł": 3544,
      "ë¢ł": 3545,
      "ë¢¡": 3546,
      "ë¢¢": 3547,
      "ë¢£": 3548,
      "ë¢¤": 3549,
      "ë¢¥": 3550,
      "ë¢¦": 3551,
      "ë¢§": 3552,
      "ë¢¨": 3553,
      "ë¢©": 3554,
      "ë¢ª": 3555,
      "ë¢«": 3556,
      "ë¢¬": 3557,
      "ë¢Ń": 3558,
      "ë¢®": 3559,
      "ë¢¯": 3560,
      "ë¢°": 3561,
      "ë¢±": 3562,
      "ë¢²": 3563,
      "ë¢³": 3564,
      "ë¢´": 3565,
      "ë¢µ": 3566,
      "ë¢¶": 3567,
      "ë¢·": 3568,
      "ë¢¸": 3569,
      "ë¢¹": 3570,
      "ë¢º": 3571,
      "ë¢»": 3572,
      "ë¢¼": 3573,
      "ë¢½": 3574,
      "ë¢¾": 3575,
      "ë¢¿": 3576,
      "ë£": 3577,
      "ë£Ģ": 3578,
      "ë£ģ": 3579,
      "ë£Ĥ": 3580,
      "ë£ĥ": 3581,
      "ë£Ħ": 3582,
      "ë£ħ": 3583,
      "ë£Ĩ": 3584,
      "ë£ĩ": 3585,
      "ë£Ī": 3586,
      "ë£ī": 3587,
      "ë£Ĭ": 3588,
      "ë£ĭ": 3589,
      "ë£Į": 3590,
      "ë£į": 3591,
      "ë£İ": 3592,
      "ë£ı": 3593,
      "ë£Ĳ": 3594,
      "ë£ĳ": 3595,
      "ë£Ĵ": 3596,
      "ë£ĵ": 3597,
      "ë£Ķ": 3598,
      "ë£ķ": 3599,
      "ë£ĸ": 3600,
      "ë£Ĺ": 3601,
      "ë£ĺ": 3602,
      "ë£Ļ": 3603,
      "ë£ļ": 3604,
      "ë£Ľ": 3605,
      "ë£ľ": 3606,
      "ë£Ŀ": 3607,
      "ë£ŀ": 3608,
      "ë£Ł": 3609,
      "ë£ł": 3610,
      "ë£¡": 3611,
      "ë£¢": 3612,
      "ë££": 3613,
      "ë£¤": 3614,
      "ë£¥": 3615,
      "ë£¦": 3616,
      "ë£§": 3617,
      "ë£¨": 3618,
      "ë£©": 3619,
      "ë£ª": 3620,
      "ë£«": 3621,
      "ë£¬": 3622,
      "ë£Ń": 3623,
      "ë£®": 3624,
      "ë£¯": 3625,
      "ë£°": 3626,
      "ë£±": 3627,
      "ë£²": 3628,
      "ë£³": 3629,
      "ë£´": 3630,
      "ë£µ": 3631,
      "ë£¶": 3632,
      "ë£·": 3633,
      "ë£¸": 3634,
      "ë£¹": 3635,
      "ë£º": 3636,
      "ë£»": 3637,
      "ë£¼": 3638,
      "ë£½": 3639,
      "ë£¾": 3640,
      "ë£¿": 3641,
      "ë¤": 3642,
      "ë¤Ģ": 3643,
      "ë¤ģ": 3644,
      "ë¤Ĥ": 3645,
      "ë¤ĥ": 3646,
      "ë¤Ħ": 3647,
      "ë¤ħ": 3648,
      "ë¤Ĩ": 3649,
      "ë¤ĩ": 3650,
      "ë¤Ī": 3651,
      "ë¤ī": 3652,
      "ë¤Ĭ": 3653,
      "ë¤ĭ": 3654,
      "ë¤Į": 3655,
      "ë¤į": 3656,
      "ë¤İ": 3657,
      "ë¤ı": 3658,
      "ë¤Ĳ": 3659,
      "ë¤ĳ": 3660,
      "ë¤Ĵ": 3661,
      "ë¤ĵ": 3662,
      "ë¤Ķ": 3663,
      "ë¤ķ": 3664,
      "ë¤ĸ": 3665,
      "ë¤Ĺ": 3666,
      "ë¤ĺ": 3667,
      "ë¤Ļ": 3668,
      "ë¤ļ": 3669,
      "ë¤Ľ": 3670,
      "ë¤ľ": 3671,
      "ë¤Ŀ": 3672,
      "ë¤ŀ": 3673,
      "ë¤Ł": 3674,
      "ë¤ł": 3675,
      "ë¤¡": 3676,
      "ë¤¢": 3677,
      "ë¤£": 3678,
      "ë¤¤": 3679,
      "ë¤¥": 3680,
      "ë¤¦": 3681,
      "ë¤§": 3682,
      "ë¤¨": 3683,
      "ë¤©": 3684,
      "ë¤ª": 3685,
      "ë¤«": 3686,
      "ë¤¬": 3687,
      "ë¤Ń": 3688,
      "ë¤®": 3689,
      "ë¤¯": 3690,
      "ë¤°": 3691,
      "ë¤±": 3692,
      "ë¤²": 3693,
      "ë¤³": 3694,
      "ë¤´": 3695,
      "ë¤µ": 3696,
      "ë¤¶": 3697,
      "ë¤·": 3698,
      "ë¤¸": 3699,
      "ë¤¹": 3700,
      "ë¤º": 3701,
      "ë¤»": 3702,
      "ë¤¼": 3703,
      "ë¤½": 3704,
      "ë¤¾": 3705,
      "ë¤¿": 3706,
      "ë¥": 3707,
      "ë¥Ģ": 3708,
      "ë¥ģ": 3709,
      "ë¥Ĥ": 3710,
      "ë¥ĥ": 3711,
      "ë¥Ħ": 3712,
      "ë¥ħ": 3713,
      "ë¥Ĩ": 3714,
      "ë¥ĩ": 3715,
      "ë¥Ī": 3716,
      "ë¥ī": 3717,
      "ë¥Ĭ": 3718,
      "ë¥ĭ": 3719,
      "ë¥Į": 3720,
      "ë¥į": 3721,
      "ë¥İ": 3722,
      "ë¥ı": 3723,
      "ë¥Ĳ": 3724,
      "ë¥ĳ": 3725,
      "ë¥Ĵ": 3726,
      "ë¥ĵ": 3727,
      "ë¥Ķ": 3728,
      "ë¥ķ": 3729,
      "ë¥ĸ": 3730,
      "ë¥Ĺ": 3731,
      "ë¥ĺ": 3732,
      "ë¥Ļ": 3733,
      "ë¥ļ": 3734,
      "ë¥Ľ": 3735,
      "ë¥ľ": 3736,
      "ë¥Ŀ": 3737,
      "ë¥ŀ": 3738,
      "ë¥Ł": 3739,
      "ë¥ł": 3740,
      "ë¥¡": 3741,
      "ë¥¢": 3742,
      "ë¥£": 3743,
      "ë¥¤": 3744,
      "ë¥¥": 3745,
      "ë¥¦": 3746,
      "ë¥§": 3747,
      "ë¥¨": 3748,
      "ë¥©": 3749,
      "ë¥ª": 3750,
      "ë¥«": 3751,
      "ë¥¬": 3752,
      "ë¥Ń": 3753,
      "ë¥®": 3754,
      "ë¥¯": 3755,
      "ë¥°": 3756,
      "ë¥±": 3757,
      "ë¥²": 3758,
      "ë¥³": 3759,
      "ë¥´": 3760,
      "ë¥µ": 3761,
      "ë¥¶": 3762,
      "ë¥·": 3763,
      "ë¥¸": 3764,
      "ë¥¹": 3765,
      "ë¥º": 3766,
      "ë¥»": 3767,
      "ë¥¼": 3768,
      "ë¥½": 3769,
      "ë¥¾": 3770,
      "ë¥¿": 3771,
      "ë¦": 3772,
      "ë¦Ģ": 3773,
      "ë¦ģ": 3774,
      "ë¦Ĥ": 3775,
      "ë¦ĥ": 3776,
      "ë¦Ħ": 3777,
      "ë¦ħ": 3778,
      "ë¦Ĩ": 3779,
      "ë¦ĩ": 3780,
      "ë¦Ī": 3781,
      "ë¦ī": 3782,
      "ë¦Ĭ": 3783,
      "ë¦ĭ": 3784,
      "ë¦Į": 3785,
      "ë¦į": 3786,
      "ë¦İ": 3787,
      "ë¦ı": 3788,
      "ë¦Ĳ": 3789,
      "ë¦ĳ": 3790,
      "ë¦Ĵ": 3791,
      "ë¦ĵ": 3792,
      "ë¦Ķ": 3793,
      "ë¦ķ": 3794,
      "ë¦ĸ": 3795,
      "ë¦Ĺ": 3796,
      "ë¦ĺ": 3797,
      "ë¦Ļ": 3798,
      "ë¦ļ": 3799,
      "ë¦Ľ": 3800,
      "ë¦ľ": 3801,
      "ë¦Ŀ": 3802,
      "ë¦ŀ": 3803,
      "ë¦Ł": 3804,
      "ë¦ł": 3805,
      "ë¦¡": 3806,
      "ë¦¢": 3807,
      "ë¦£": 3808,
      "ë¦¤": 3809,
      "ë¦¥": 3810,
      "ë¦¦": 3811,
      "ë¦§": 3812,
      "ë¦¨": 3813,
      "ë¦©": 3814,
      "ë¦ª": 3815,
      "ë¦«": 3816,
      "ë¦¬": 3817,
      "ë¦Ń": 3818,
      "ë¦®": 3819,
      "ë¦¯": 3820,
      "ë¦°": 3821,
      "ë¦±": 3822,
      "ë¦²": 3823,
      "ë¦³": 3824,
      "ë¦´": 3825,
      "ë¦µ": 3826,
      "ë¦¶": 3827,
      "ë¦·": 3828,
      "ë¦¸": 3829,
      "ë¦¹": 3830,
      "ë¦º": 3831,
      "ë¦»": 3832,
      "ë¦¼": 3833,
      "ë¦½": 3834,
      "ë¦¾": 3835,
      "ë¦¿": 3836,
      "ë§": 3837,
      "ë§Ģ": 3838,
      "ë§ģ": 3839,
      "ë§Ĥ": 3840,
      "ë§ĥ": 3841,
      "ë§Ħ": 3842,
      "ë§ħ": 3843,
      "ë§Ĩ": 3844,
      "ë§ĩ": 3845,
      "ë§Ī": 3846,
      "ë§ī": 3847,
      "ë§Ĭ": 3848,
      "ë§ĭ": 3849,
      "ë§Į": 3850,
      "ë§į": 3851,
      "ë§İ": 3852,
      "ë§ı": 3853,
      "ë§Ĳ": 3854,
      "ë§ĳ": 3855,
      "ë§Ĵ": 3856,
      "ë§ĵ": 3857,
      "ë§Ķ": 3858,
      "ë§ķ": 3859,
      "ë§ĸ": 3860,
      "ë§Ĺ": 3861,
      "ë§ĺ": 3862,
      "ë§Ļ": 3863,
      "ë§ļ": 3864,
      "ë§Ľ": 3865,
      "ë§ľ": 3866,
      "ë§Ŀ": 3867,
      "ë§ŀ": 3868,
      "ë§Ł": 3869,
      "ë§ł": 3870,
      "ë§¡": 3871,
      "ë§¢": 3872,
      "ë§£": 3873,
      "ë§¤": 3874,
      "ë§¥": 3875,
      "ë§¦": 3876,
      "ë§§": 3877,
      "ë§¨": 3878,
      "ë§©": 3879,
      "ë§ª": 3880,
      "ë§«": 3881,
      "ë§¬": 3882,
      "ë§Ń": 3883,
      "ë§®": 3884,
      "ë§¯": 3885,
      "ë§°": 3886,
      "ë§±": 3887,
      "ë§²": 3888,
      "ë§³": 3889,
      "ë§´": 3890,
      "ë§µ": 3891,
      "ë§¶": 3892,
      "ë§·": 3893,
      "ë§¸": 3894,
      "ë§¹": 3895,
      "ë§º": 3896,
      "ë§»": 3897,
      "ë§¼": 3898,
      "ë§½": 3899,
      "ë§¾": 3900,
      "ë§¿": 3901,
      "ë¨": 3902,
      "ë¨Ģ": 3903,
      "ë¨ģ": 3904,
      "ë¨Ĥ": 3905,
      "ë¨ĥ": 3906,
      "ë¨Ħ": 3907,
      "ë¨ħ": 3908,
      "ë¨Ĩ": 3909,
      "ë¨ĩ": 3910,
      "ë¨Ī": 3911,
      "ë¨ī": 3912,
      "ë¨Ĭ": 3913,
      "ë¨ĭ": 3914,
      "ë¨Į": 3915,
      "ë¨į": 3916,
      "ë¨İ": 3917,
      "ë¨ı": 3918,
      "ë¨Ĳ": 3919,
      "ë¨ĳ": 3920,
      "ë¨Ĵ": 3921,
      "ë¨ĵ": 3922,
      "ë¨Ķ": 3923,
      "ë¨ķ": 3924,
      "ë¨ĸ": 3925,
      "ë¨Ĺ": 3926,
      "ë¨ĺ": 3927,
      "ë¨Ļ": 3928,
      "ë¨ļ": 3929,
      "ë¨Ľ": 3930,
      "ë¨ľ": 3931,
      "ë¨Ŀ": 3932,
      "ë¨ŀ": 3933,
      "ë¨Ł": 3934,
      "ë¨ł": 3935,
      "ë¨¡": 3936,
      "ë¨¢": 3937,
      "ë¨£": 3938,
      "ë¨¤": 3939,
      "ë¨¥": 3940,
      "ë¨¦": 3941,
      "ë¨§": 3942,
      "ë¨¨": 3943,
      "ë¨©": 3944,
      "ë¨ª": 3945,
      "ë¨«": 3946,
      "ë¨¬": 3947,
      "ë¨Ń": 3948,
      "ë¨®": 3949,
      "ë¨¯": 3950,
      "ë¨°": 3951,
      "ë¨±": 3952,
      "ë¨²": 3953,
      "ë¨³": 3954,
      "ë¨´": 3955,
      "ë¨µ": 3956,
      "ë¨¶": 3957,
      "ë¨·": 3958,
      "ë¨¸": 3959,
      "ë¨¹": 3960,
      "ë¨º": 3961,
      "ë¨»": 3962,
      "ë¨¼": 3963,
      "ë¨½": 3964,
      "ë¨¾": 3965,
      "ë¨¿": 3966,
      "ë©": 3967,
      "ë©Ģ": 3968,
      "ë©ģ": 3969,
      "ë©Ĥ": 3970,
      "ë©ĥ": 3971,
      "ë©Ħ": 3972,
      "ë©ħ": 3973,
      "ë©Ĩ": 3974,
      "ë©ĩ": 3975,
      "ë©Ī": 3976,
      "ë©ī": 3977,
      "ë©Ĭ": 3978,
      "ë©ĭ": 3979,
      "ë©Į": 3980,
      "ë©į": 3981,
      "ë©İ": 3982,
      "ë©ı": 3983,
      "ë©Ĳ": 3984,
      "ë©ĳ": 3985,
      "ë©Ĵ": 3986,
      "ë©ĵ": 3987,
      "ë©Ķ": 3988,
      "ë©ķ": 3989,
      "ë©ĸ": 3990,
      "ë©Ĺ": 3991,
      "ë©ĺ": 3992,
      "ë©Ļ": 3993,
      "ë©ļ": 3994,
      "ë©Ľ": 3995,
      "ë©ľ": 3996,
      "ë©Ŀ": 3997,
      "ë©ŀ": 3998,
      "ë©Ł": 3999,
      "ë©ł": 4000,
      "ë©¡": 4001,
      "ë©¢": 4002,
      "ë©£": 4003,
      "ë©¤": 4004,
      "ë©¥": 4005,
      "ë©¦": 4006,
      "ë©§": 4007,
      "ë©¨": 4008,
      "ë©©": 4009,
      "ë©ª": 4010,
      "ë©«": 4011,
      "ë©¬": 4012,
      "ë©Ń": 4013,
      "ë©®": 4014,
      "ë©¯": 4015,
      "ë©°": 4016,
      "ë©±": 4017,
      "ë©²": 4018,
      "ë©³": 4019,
      "ë©´": 4020,
      "ë©µ": 4021,
      "ë©¶": 4022,
      "ë©·": 4023,
      "ë©¸": 4024,
      "ë©¹": 4025,
      "ë©º": 4026,
      "ë©»": 4027,
      "ë©¼": 4028,
      "ë©½": 4029,
      "ë©¾": 4030,
      "ë©¿": 4031,
      "ëª": 4032,
      "ëªĢ": 4033,
      "ëªģ": 4034,
      "ëªĤ": 4035,
      "ëªĥ": 4036,
      "ëªĦ": 4037,
      "ëªħ": 4038,
      "ëªĨ": 4039,
      "ëªĩ": 4040,
      "ëªĪ": 4041,
      "ëªī": 4042,
      "ëªĬ": 4043,
      "ëªĭ": 4044,
      "ëªĮ": 4045,
      "ëªį": 4046,
      "ëªİ": 4047,
      "ëªı": 4048,
      "ëªĲ": 4049,
      "ëªĳ": 4050,
      "ëªĴ": 4051,
      "ëªĵ": 4052,
      "ëªĶ": 4053,
      "ëªķ": 4054,
      "ëªĸ": 4055,
      "ëªĹ": 4056,
      "ëªĺ": 4057,
      "ëªĻ": 4058,
      "ëªļ": 4059,
      "ëªĽ": 4060,
      "ëªľ": 4061,
      "ëªĿ": 4062,
      "ëªŀ": 4063,
      "ëªŁ": 4064,
      "ëªł": 4065,
      "ëª¡": 4066,
      "ëª¢": 4067,
      "ëª£": 4068,
      "ëª¤": 4069,
      "ëª¥": 4070,
      "ëª¦": 4071,
      "ëª§": 4072,
      "ëª¨": 4073,
      "ëª©": 4074,
      "ëªª": 4075,
      "ëª«": 4076,
      "ëª¬": 4077,
      "ëªŃ": 4078,
      "ëª®": 4079,
      "ëª¯": 4080,
      "ëª°": 4081,
      "ëª±": 4082,
      "ëª²": 4083,
      "ëª³": 4084,
      "ëª´": 4085,
      "ëªµ": 4086,
      "ëª¶": 4087,
      "ëª·": 4088,
      "ëª¸": 4089,
      "ëª¹": 4090,
      "ëªº": 4091,
      "ëª»": 4092,
      "ëª¼": 4093,
      "ëª½": 4094,
      "ëª¾": 4095,
      "ëª¿": 4096,
      "ë«": 4097,
      "ë«Ģ": 4098,
      "ë«ģ": 4099,
      "ë«Ĥ": 4100,
      "ë«ĥ": 4101,
      "ë«Ħ": 4102,
      "ë«ħ": 4103,
      "ë«Ĩ": 4104,
      "ë«ĩ": 4105,
      "ë«Ī": 4106,
      "ë«ī": 4107,
      "ë«Ĭ": 4108,
      "ë«ĭ": 4109,
      "ë«Į": 4110,
      "ë«į": 4111,
      "ë«İ": 4112,
      "ë«ı": 4113,
      "ë«Ĳ": 4114,
      "ë«ĳ": 4115,
      "ë«Ĵ": 4116,
      "ë«ĵ": 4117,
      "ë«Ķ": 4118,
      "ë«ķ": 4119,
      "ë«ĸ": 4120,
      "ë«Ĺ": 4121,
      "ë«ĺ": 4122,
      "ë«Ļ": 4123,
      "ë«ļ": 4124,
      "ë«Ľ": 4125,
      "ë«ľ": 4126,
      "ë«Ŀ": 4127,
      "ë«ŀ": 4128,
      "ë«Ł": 4129,
      "ë«ł": 4130,
      "ë«¡": 4131,
      "ë«¢": 4132,
      "ë«£": 4133,
      "ë«¤": 4134,
      "ë«¥": 4135,
      "ë«¦": 4136,
      "ë«§": 4137,
      "ë«¨": 4138,
      "ë«©": 4139,
      "ë«ª": 4140,
      "ë««": 4141,
      "ë«¬": 4142,
      "ë«Ń": 4143,
      "ë«®": 4144,
      "ë«¯": 4145,
      "ë«°": 4146,
      "ë«±": 4147,
      "ë«²": 4148,
      "ë«³": 4149,
      "ë«´": 4150,
      "ë«µ": 4151,
      "ë«¶": 4152,
      "ë«·": 4153,
      "ë«¸": 4154,
      "ë«¹": 4155,
      "ë«º": 4156,
      "ë«»": 4157,
      "ë«¼": 4158,
      "ë«½": 4159,
      "ë«¾": 4160,
      "ë«¿": 4161,
      "ë¬": 4162,
      "ë¬Ģ": 4163,
      "ë¬ģ": 4164,
      "ë¬Ĥ": 4165,
      "ë¬ĥ": 4166,
      "ë¬Ħ": 4167,
      "ë¬ħ": 4168,
      "ë¬Ĩ": 4169,
      "ë¬ĩ": 4170,
      "ë¬Ī": 4171,
      "ë¬ī": 4172,
      "ë¬Ĭ": 4173,
      "ë¬ĭ": 4174,
      "ë¬Į": 4175,
      "ë¬į": 4176,
      "ë¬İ": 4177,
      "ë¬ı": 4178,
      "ë¬Ĳ": 4179,
      "ë¬ĳ": 4180,
      "ë¬Ĵ": 4181,
      "ë¬ĵ": 4182,
      "ë¬Ķ": 4183,
      "ë¬ķ": 4184,
      "ë¬ĸ": 4185,
      "ë¬Ĺ": 4186,
      "ë¬ĺ": 4187,
      "ë¬Ļ": 4188,
      "ë¬ļ": 4189,
      "ë¬Ľ": 4190,
      "ë¬ľ": 4191,
      "ë¬Ŀ": 4192,
      "ë¬ŀ": 4193,
      "ë¬Ł": 4194,
      "ë¬ł": 4195,
      "ë¬¡": 4196,
      "ë¬¢": 4197,
      "ë¬£": 4198,
      "ë¬¤": 4199,
      "ë¬¥": 4200,
      "ë¬¦": 4201,
      "ë¬§": 4202,
      "ë¬¨": 4203,
      "ë¬©": 4204,
      "ë¬ª": 4205,
      "ë¬«": 4206,
      "ë¬¬": 4207,
      "ë¬Ń": 4208,
      "ë¬®": 4209,
      "ë¬¯": 4210,
      "ë¬°": 4211,
      "ë¬±": 4212,
      "ë¬²": 4213,
      "ë¬³": 4214,
      "ë¬´": 4215,
      "ë¬µ": 4216,
      "ë¬¶": 4217,
      "ë¬·": 4218,
      "ë¬¸": 4219,
      "ë¬¹": 4220,
      "ë¬º": 4221,
      "ë¬»": 4222,
      "ë¬¼": 4223,
      "ë¬½": 4224,
      "ë¬¾": 4225,
      "ë¬¿": 4226,
      "ëŃ": 4227,
      "ëŃĢ": 4228,
      "ëŃģ": 4229,
      "ëŃĤ": 4230,
      "ëŃĥ": 4231,
      "ëŃĦ": 4232,
      "ëŃħ": 4233,
      "ëŃĨ": 4234,
      "ëŃĩ": 4235,
      "ëŃĪ": 4236,
      "ëŃī": 4237,
      "ëŃĬ": 4238,
      "ëŃĭ": 4239,
      "ëŃĮ": 4240,
      "ëŃį": 4241,
      "ëŃİ": 4242,
      "ëŃı": 4243,
      "ëŃĲ": 4244,
      "ëŃĳ": 4245,
      "ëŃĴ": 4246,
      "ëŃĵ": 4247,
      "ëŃĶ": 4248,
      "ëŃķ": 4249,
      "ëŃĸ": 4250,
      "ëŃĹ": 4251,
      "ëŃĺ": 4252,
      "ëŃĻ": 4253,
      "ëŃļ": 4254,
      "ëŃĽ": 4255,
      "ëŃľ": 4256,
      "ëŃĿ": 4257,
      "ëŃŀ": 4258,
      "ëŃŁ": 4259,
      "ëŃł": 4260,
      "ëŃ¡": 4261,
      "ëŃ¢": 4262,
      "ëŃ£": 4263,
      "ëŃ¤": 4264,
      "ëŃ¥": 4265,
      "ëŃ¦": 4266,
      "ëŃ§": 4267,
      "ëŃ¨": 4268,
      "ëŃ©": 4269,
      "ëŃª": 4270,
      "ëŃ«": 4271,
      "ëŃ¬": 4272,
      "ëŃŃ": 4273,
      "ëŃ®": 4274,
      "ëŃ¯": 4275,
      "ëŃ°": 4276,
      "ëŃ±": 4277,
      "ëŃ²": 4278,
      "ëŃ³": 4279,
      "ëŃ´": 4280,
      "ëŃµ": 4281,
      "ëŃ¶": 4282,
      "ëŃ·": 4283,
      "ëŃ¸": 4284,
      "ëŃ¹": 4285,
      "ëŃº": 4286,
      "ëŃ»": 4287,
      "ëŃ¼": 4288,
      "ëŃ½": 4289,
      "ëŃ¾": 4290,
      "ëŃ¿": 4291,
      "ë®": 4292,
      "ë®Ģ": 4293,
      "ë®ģ": 4294,
      "ë®Ĥ": 4295,
      "ë®ĥ": 4296,
      "ë®Ħ": 4297,
      "ë®ħ": 4298,
      "ë®Ĩ": 4299,
      "ë®ĩ": 4300,
      "ë®Ī": 4301,
      "ë®ī": 4302,
      "ë®Ĭ": 4303,
      "ë®ĭ": 4304,
      "ë®Į": 4305,
      "ë®į": 4306,
      "ë®İ": 4307,
      "ë®ı": 4308,
      "ë®Ĳ": 4309,
      "ë®ĳ": 4310,
      "ë®Ĵ": 4311,
      "ë®ĵ": 4312,
      "ë®Ķ": 4313,
      "ë®ķ": 4314,
      "ë®ĸ": 4315,
      "ë®Ĺ": 4316,
      "ë®ĺ": 4317,
      "ë®Ļ": 4318,
      "ë®ļ": 4319,
      "ë®Ľ": 4320,
      "ë®ľ": 4321,
      "ë®Ŀ": 4322,
      "ë®ŀ": 4323,
      "ë®Ł": 4324,
      "ë®ł": 4325,
      "ë®¡": 4326,
      "ë®¢": 4327,
      "ë®£": 4328,
      "ë®¤": 4329,
      "ë®¥": 4330,
      "ë®¦": 4331,
      "ë®§": 4332,
      "ë®¨": 4333,
      "ë®©": 4334,
      "ë®ª": 4335,
      "ë®«": 4336,
      "ë®¬": 4337,
      "ë®Ń": 4338,
      "ë®®": 4339,
      "ë®¯": 4340,
      "ë®°": 4341,
      "ë®±": 4342,
      "ë®²": 4343,
      "ë®³": 4344,
      "ë®´": 4345,
      "ë®µ": 4346,
      "ë®¶": 4347,
      "ë®·": 4348,
      "ë®¸": 4349,
      "ë®¹": 4350,
      "ë®º": 4351,
      "ë®»": 4352,
      "ë®¼": 4353,
      "ë®½": 4354,
      "ë®¾": 4355,
      "ë®¿": 4356,
      "ë¯": 4357,
      "ë¯Ģ": 4358,
      "ë¯ģ": 4359,
      "ë¯Ĥ": 4360,
      "ë¯ĥ": 4361,
      "ë¯Ħ": 4362,
      "ë¯ħ": 4363,
      "ë¯Ĩ": 4364,
      "ë¯ĩ": 4365,
      "ë¯Ī": 4366,
      "ë¯ī": 4367,
      "ë¯Ĭ": 4368,
      "ë¯ĭ": 4369,
      "ë¯Į": 4370,
      "ë¯į": 4371,
      "ë¯İ": 4372,
      "ë¯ı": 4373,
      "ë¯Ĳ": 4374,
      "ë¯ĳ": 4375,
      "ë¯Ĵ": 4376,
      "ë¯ĵ": 4377,
      "ë¯Ķ": 4378,
      "ë¯ķ": 4379,
      "ë¯ĸ": 4380,
      "ë¯Ĺ": 4381,
      "ë¯ĺ": 4382,
      "ë¯Ļ": 4383,
      "ë¯ļ": 4384,
      "ë¯Ľ": 4385,
      "ë¯ľ": 4386,
      "ë¯Ŀ": 4387,
      "ë¯ŀ": 4388,
      "ë¯Ł": 4389,
      "ë¯ł": 4390,
      "ë¯¡": 4391,
      "ë¯¢": 4392,
      "ë¯£": 4393,
      "ë¯¤": 4394,
      "ë¯¥": 4395,
      "ë¯¦": 4396,
      "ë¯§": 4397,
      "ë¯¨": 4398,
      "ë¯©": 4399,
      "ë¯ª": 4400,
      "ë¯«": 4401,
      "ë¯¬": 4402,
      "ë¯Ń": 4403,
      "ë¯®": 4404,
      "ë¯¯": 4405,
      "ë¯°": 4406,
      "ë¯±": 4407,
      "ë¯²": 4408,
      "ë¯³": 4409,
      "ë¯´": 4410,
      "ë¯µ": 4411,
      "ë¯¶": 4412,
      "ë¯·": 4413,
      "ë¯¸": 4414,
      "ë¯¹": 4415,
      "ë¯º": 4416,
      "ë¯»": 4417,
      "ë¯¼": 4418,
      "ë¯½": 4419,
      "ë¯¾": 4420,
      "ë¯¿": 4421,
      "ë°": 4422,
      "ë°Ģ": 4423,
      "ë°ģ": 4424,
      "ë°Ĥ": 4425,
      "ë°ĥ": 4426,
      "ë°Ħ": 4427,
      "ë°ħ": 4428,
      "ë°Ĩ": 4429,
      "ë°ĩ": 4430,
      "ë°Ī": 4431,
      "ë°ī": 4432,
      "ë°Ĭ": 4433,
      "ë°ĭ": 4434,
      "ë°Į": 4435,
      "ë°į": 4436,
      "ë°İ": 4437,
      "ë°ı": 4438,
      "ë°Ĳ": 4439,
      "ë°ĳ": 4440,
      "ë°Ĵ": 4441,
      "ë°ĵ": 4442,
      "ë°Ķ": 4443,
      "ë°ķ": 4444,
      "ë°ĸ": 4445,
      "ë°Ĺ": 4446,
      "ë°ĺ": 4447,
      "ë°Ļ": 4448,
      "ë°ļ": 4449,
      "ë°Ľ": 4450,
      "ë°ľ": 4451,
      "ë°Ŀ": 4452,
      "ë°ŀ": 4453,
      "ë°Ł": 4454,
      "ë°ł": 4455,
      "ë°¡": 4456,
      "ë°¢": 4457,
      "ë°£": 4458,
      "ë°¤": 4459,
      "ë°¥": 4460,
      "ë°¦": 4461,
      "ë°§": 4462,
      "ë°¨": 4463,
      "ë°©": 4464,
      "ë°ª": 4465,
      "ë°«": 4466,
      "ë°¬": 4467,
      "ë°Ń": 4468,
      "ë°®": 4469,
      "ë°¯": 4470,
      "ë°°": 4471,
      "ë°±": 4472,
      "ë°²": 4473,
      "ë°³": 4474,
      "ë°´": 4475,
      "ë°µ": 4476,
      "ë°¶": 4477,
      "ë°·": 4478,
      "ë°¸": 4479,
      "ë°¹": 4480,
      "ë°º": 4481,
      "ë°»": 4482,
      "ë°¼": 4483,
      "ë°½": 4484,
      "ë°¾": 4485,
      "ë°¿": 4486,
      "ë±": 4487,
      "ë±Ģ": 4488,
      "ë±ģ": 4489,
      "ë±Ĥ": 4490,
      "ë±ĥ": 4491,
      "ë±Ħ": 4492,
      "ë±ħ": 4493,
      "ë±Ĩ": 4494,
      "ë±ĩ": 4495,
      "ë±Ī": 4496,
      "ë±ī": 4497,
      "ë±Ĭ": 4498,
      "ë±ĭ": 4499,
      "ë±Į": 4500,
      "ë±į": 4501,
      "ë±İ": 4502,
      "ë±ı": 4503,
      "ë±Ĳ": 4504,
      "ë±ĳ": 4505,
      "ë±Ĵ": 4506,
      "ë±ĵ": 4507,
      "ë±Ķ": 4508,
      "ë±ķ": 4509,
      "ë±ĸ": 4510,
      "ë±Ĺ": 4511,
      "ë±ĺ": 4512,
      "ë±Ļ": 4513,
      "ë±ļ": 4514,
      "ë±Ľ": 4515,
      "ë±ľ": 4516,
      "ë±Ŀ": 4517,
      "ë±ŀ": 4518,
      "ë±Ł": 4519,
      "ë±ł": 4520,
      "ë±¡": 4521,
      "ë±¢": 4522,
      "ë±£": 4523,
      "ë±¤": 4524,
      "ë±¥": 4525,
      "ë±¦": 4526,
      "ë±§": 4527,
      "ë±¨": 4528,
      "ë±©": 4529,
      "ë±ª": 4530,
      "ë±«": 4531,
      "ë±¬": 4532,
      "ë±Ń": 4533,
      "ë±®": 4534,
      "ë±¯": 4535,
      "ë±°": 4536,
      "ë±±": 4537,
      "ë±²": 4538,
      "ë±³": 4539,
      "ë±´": 4540,
      "ë±µ": 4541,
      "ë±¶": 4542,
      "ë±·": 4543,
      "ë±¸": 4544,
      "ë±¹": 4545,
      "ë±º": 4546,
      "ë±»": 4547,
      "ë±¼": 4548,
      "ë±½": 4549,
      "ë±¾": 4550,
      "ë±¿": 4551,
      "ë²": 4552,
      "ë²Ģ": 4553,
      "ë²ģ": 4554,
      "ë²Ĥ": 4555,
      "ë²ĥ": 4556,
      "ë²Ħ": 4557,
      "ë²ħ": 4558,
      "ë²Ĩ": 4559,
      "ë²ĩ": 4560,
      "ë²Ī": 4561,
      "ë²ī": 4562,
      "ë²Ĭ": 4563,
      "ë²ĭ": 4564,
      "ë²Į": 4565,
      "ë²į": 4566,
      "ë²İ": 4567,
      "ë²ı": 4568,
      "ë²Ĳ": 4569,
      "ë²ĳ": 4570,
      "ë²Ĵ": 4571,
      "ë²ĵ": 4572,
      "ë²Ķ": 4573,
      "ë²ķ": 4574,
      "ë²ĸ": 4575,
      "ë²Ĺ": 4576,
      "ë²ĺ": 4577,
      "ë²Ļ": 4578,
      "ë²ļ": 4579,
      "ë²Ľ": 4580,
      "ë²ľ": 4581,
      "ë²Ŀ": 4582,
      "ë²ŀ": 4583,
      "ë²Ł": 4584,
      "ë²ł": 4585,
      "ë²¡": 4586,
      "ë²¢": 4587,
      "ë²£": 4588,
      "ë²¤": 4589,
      "ë²¥": 4590,
      "ë²¦": 4591,
      "ë²§": 4592,
      "ë²¨": 4593,
      "ë²©": 4594,
      "ë²ª": 4595,
      "ë²«": 4596,
      "ë²¬": 4597,
      "ë²Ń": 4598,
      "ë²®": 4599,
      "ë²¯": 4600,
      "ë²°": 4601,
      "ë²±": 4602,
      "ë²²": 4603,
      "ë²³": 4604,
      "ë²´": 4605,
      "ë²µ": 4606,
      "ë²¶": 4607,
      "ë²·": 4608,
      "ë²¸": 4609,
      "ë²¹": 4610,
      "ë²º": 4611,
      "ë²»": 4612,
      "ë²¼": 4613,
      "ë²½": 4614,
      "ë²¾": 4615,
      "ë²¿": 4616,
      "ë³": 4617,
      "ë³Ģ": 4618,
      "ë³ģ": 4619,
      "ë³Ĥ": 4620,
      "ë³ĥ": 4621,
      "ë³Ħ": 4622,
      "ë³ħ": 4623,
      "ë³Ĩ": 4624,
      "ë³ĩ": 4625,
      "ë³Ī": 4626,
      "ë³ī": 4627,
      "ë³Ĭ": 4628,
      "ë³ĭ": 4629,
      "ë³Į": 4630,
      "ë³į": 4631,
      "ë³İ": 4632,
      "ë³ı": 4633,
      "ë³Ĳ": 4634,
      "ë³ĳ": 4635,
      "ë³Ĵ": 4636,
      "ë³ĵ": 4637,
      "ë³Ķ": 4638,
      "ë³ķ": 4639,
      "ë³ĸ": 4640,
      "ë³Ĺ": 4641,
      "ë³ĺ": 4642,
      "ë³Ļ": 4643,
      "ë³ļ": 4644,
      "ë³Ľ": 4645,
      "ë³ľ": 4646,
      "ë³Ŀ": 4647,
      "ë³ŀ": 4648,
      "ë³Ł": 4649,
      "ë³ł": 4650,
      "ë³¡": 4651,
      "ë³¢": 4652,
      "ë³£": 4653,
      "ë³¤": 4654,
      "ë³¥": 4655,
      "ë³¦": 4656,
      "ë³§": 4657,
      "ë³¨": 4658,
      "ë³©": 4659,
      "ë³ª": 4660,
      "ë³«": 4661,
      "ë³¬": 4662,
      "ë³Ń": 4663,
      "ë³®": 4664,
      "ë³¯": 4665,
      "ë³°": 4666,
      "ë³±": 4667,
      "ë³²": 4668,
      "ë³³": 4669,
      "ë³´": 4670,
      "ë³µ": 4671,
      "ë³¶": 4672,
      "ë³·": 4673,
      "ë³¸": 4674,
      "ë³¹": 4675,
      "ë³º": 4676,
      "ë³»": 4677,
      "ë³¼": 4678,
      "ë³½": 4679,
      "ë³¾": 4680,
      "ë³¿": 4681,
      "ë´": 4682,
      "ë´Ģ": 4683,
      "ë´ģ": 4684,
      "ë´Ĥ": 4685,
      "ë´ĥ": 4686,
      "ë´Ħ": 4687,
      "ë´ħ": 4688,
      "ë´Ĩ": 4689,
      "ë´ĩ": 4690,
      "ë´Ī": 4691,
      "ë´ī": 4692,
      "ë´Ĭ": 4693,
      "ë´ĭ": 4694,
      "ë´Į": 4695,
      "ë´į": 4696,
      "ë´İ": 4697,
      "ë´ı": 4698,
      "ë´Ĳ": 4699,
      "ë´ĳ": 4700,
      "ë´Ĵ": 4701,
      "ë´ĵ": 4702,
      "ë´Ķ": 4703,
      "ë´ķ": 4704,
      "ë´ĸ": 4705,
      "ë´Ĺ": 4706,
      "ë´ĺ": 4707,
      "ë´Ļ": 4708,
      "ë´ļ": 4709,
      "ë´Ľ": 4710,
      "ë´ľ": 4711,
      "ë´Ŀ": 4712,
      "ë´ŀ": 4713,
      "ë´Ł": 4714,
      "ë´ł": 4715,
      "ë´¡": 4716,
      "ë´¢": 4717,
      "ë´£": 4718,
      "ë´¤": 4719,
      "ë´¥": 4720,
      "ë´¦": 4721,
      "ë´§": 4722,
      "ë´¨": 4723,
      "ë´©": 4724,
      "ë´ª": 4725,
      "ë´«": 4726,
      "ë´¬": 4727,
      "ë´Ń": 4728,
      "ë´®": 4729,
      "ë´¯": 4730,
      "ë´°": 4731,
      "ë´±": 4732,
      "ë´²": 4733,
      "ë´³": 4734,
      "ë´´": 4735,
      "ë´µ": 4736,
      "ë´¶": 4737,
      "ë´·": 4738,
      "ë´¸": 4739,
      "ë´¹": 4740,
      "ë´º": 4741,
      "ë´»": 4742,
      "ë´¼": 4743,
      "ë´½": 4744,
      "ë´¾": 4745,
      "ë´¿": 4746,
      "ëµ": 4747,
      "ëµĢ": 4748,
      "ëµģ": 4749,
      "ëµĤ": 4750,
      "ëµĥ": 4751,
      "ëµĦ": 4752,
      "ëµħ": 4753,
      "ëµĨ": 4754,
      "ëµĩ": 4755,
      "ëµĪ": 4756,
      "ëµī": 4757,
      "ëµĬ": 4758,
      "ëµĭ": 4759,
      "ëµĮ": 4760,
      "ëµį": 4761,
      "ëµİ": 4762,
      "ëµı": 4763,
      "ëµĲ": 4764,
      "ëµĳ": 4765,
      "ëµĴ": 4766,
      "ëµĵ": 4767,
      "ëµĶ": 4768,
      "ëµķ": 4769,
      "ëµĸ": 4770,
      "ëµĹ": 4771,
      "ëµĺ": 4772,
      "ëµĻ": 4773,
      "ëµļ": 4774,
      "ëµĽ": 4775,
      "ëµľ": 4776,
      "ëµĿ": 4777,
      "ëµŀ": 4778,
      "ëµŁ": 4779,
      "ëµł": 4780,
      "ëµ¡": 4781,
      "ëµ¢": 4782,
      "ëµ£": 4783,
      "ëµ¤": 4784,
      "ëµ¥": 4785,
      "ëµ¦": 4786,
      "ëµ§": 4787,
      "ëµ¨": 4788,
      "ëµ©": 4789,
      "ëµª": 4790,
      "ëµ«": 4791,
      "ëµ¬": 4792,
      "ëµŃ": 4793,
      "ëµ®": 4794,
      "ëµ¯": 4795,
      "ëµ°": 4796,
      "ëµ±": 4797,
      "ëµ²": 4798,
      "ëµ³": 4799,
      "ëµ´": 4800,
      "ëµµ": 4801,
      "ëµ¶": 4802,
      "ëµ·": 4803,
      "ëµ¸": 4804,
      "ëµ¹": 4805,
      "ëµº": 4806,
      "ëµ»": 4807,
      "ëµ¼": 4808,
      "ëµ½": 4809,
      "ëµ¾": 4810,
      "ëµ¿": 4811,
      "ë¶": 4812,
      "ë¶Ģ": 4813,
      "ë¶ģ": 4814,
      "ë¶Ĥ": 4815,
      "ë¶ĥ": 4816,
      "ë¶Ħ": 4817,
      "ë¶ħ": 4818,
      "ë¶Ĩ": 4819,
      "ë¶ĩ": 4820,
      "ë¶Ī": 4821,
      "ë¶ī": 4822,
      "ë¶Ĭ": 4823,
      "ë¶ĭ": 4824,
      "ë¶Į": 4825,
      "ë¶į": 4826,
      "ë¶İ": 4827,
      "ë¶ı": 4828,
      "ë¶Ĳ": 4829,
      "ë¶ĳ": 4830,
      "ë¶Ĵ": 4831,
      "ë¶ĵ": 4832,
      "ë¶Ķ": 4833,
      "ë¶ķ": 4834,
      "ë¶ĸ": 4835,
      "ë¶Ĺ": 4836,
      "ë¶ĺ": 4837,
      "ë¶Ļ": 4838,
      "ë¶ļ": 4839,
      "ë¶Ľ": 4840,
      "ë¶ľ": 4841,
      "ë¶Ŀ": 4842,
      "ë¶ŀ": 4843,
      "ë¶Ł": 4844,
      "ë¶ł": 4845,
      "ë¶¡": 4846,
      "ë¶¢": 4847,
      "ë¶£": 4848,
      "ë¶¤": 4849,
      "ë¶¥": 4850,
      "ë¶¦": 4851,
      "ë¶§": 4852,
      "ë¶¨": 4853,
      "ë¶©": 4854,
      "ë¶ª": 4855,
      "ë¶«": 4856,
      "ë¶¬": 4857,
      "ë¶Ń": 4858,
      "ë¶®": 4859,
      "ë¶¯": 4860,
      "ë¶°": 4861,
      "ë¶±": 4862,
      "ë¶²": 4863,
      "ë¶³": 4864,
      "ë¶´": 4865,
      "ë¶µ": 4866,
      "ë¶¶": 4867,
      "ë¶·": 4868,
      "ë¶¸": 4869,
      "ë¶¹": 4870,
      "ë¶º": 4871,
      "ë¶»": 4872,
      "ë¶¼": 4873,
      "ë¶½": 4874,
      "ë¶¾": 4875,
      "ë¶¿": 4876,
      "ë·": 4877,
      "ë·Ģ": 4878,
      "ë·ģ": 4879,
      "ë·Ĥ": 4880,
      "ë·ĥ": 4881,
      "ë·Ħ": 4882,
      "ë·ħ": 4883,
      "ë·Ĩ": 4884,
      "ë·ĩ": 4885,
      "ë·Ī": 4886,
      "ë·ī": 4887,
      "ë·Ĭ": 4888,
      "ë·ĭ": 4889,
      "ë·Į": 4890,
      "ë·į": 4891,
      "ë·İ": 4892,
      "ë·ı": 4893,
      "ë·Ĳ": 4894,
      "ë·ĳ": 4895,
      "ë·Ĵ": 4896,
      "ë·ĵ": 4897,
      "ë·Ķ": 4898,
      "ë·ķ": 4899,
      "ë·ĸ": 4900,
      "ë·Ĺ": 4901,
      "ë·ĺ": 4902,
      "ë·Ļ": 4903,
      "ë·ļ": 4904,
      "ë·Ľ": 4905,
      "ë·ľ": 4906,
      "ë·Ŀ": 4907,
      "ë·ŀ": 4908,
      "ë·Ł": 4909,
      "ë·ł": 4910,
      "ë·¡": 4911,
      "ë·¢": 4912,
      "ë·£": 4913,
      "ë·¤": 4914,
      "ë·¥": 4915,
      "ë·¦": 4916,
      "ë·§": 4917,
      "ë·¨": 4918,
      "ë·©": 4919,
      "ë·ª": 4920,
      "ë·«": 4921,
      "ë·¬": 4922,
      "ë·Ń": 4923,
      "ë·®": 4924,
      "ë·¯": 4925,
      "ë·°": 4926,
      "ë·±": 4927,
      "ë·²": 4928,
      "ë·³": 4929,
      "ë·´": 4930,
      "ë·µ": 4931,
      "ë·¶": 4932,
      "ë··": 4933,
      "ë·¸": 4934,
      "ë·¹": 4935,
      "ë·º": 4936,
      "ë·»": 4937,
      "ë·¼": 4938,
      "ë·½": 4939,
      "ë·¾": 4940,
      "ë·¿": 4941,
      "ë¸": 4942,
      "ë¸Ģ": 4943,
      "ë¸ģ": 4944,
      "ë¸Ĥ": 4945,
      "ë¸ĥ": 4946,
      "ë¸Ħ": 4947,
      "ë¸ħ": 4948,
      "ë¸Ĩ": 4949,
      "ë¸ĩ": 4950,
      "ë¸Ī": 4951,
      "ë¸ī": 4952,
      "ë¸Ĭ": 4953,
      "ë¸ĭ": 4954,
      "ë¸Į": 4955,
      "ë¸į": 4956,
      "ë¸İ": 4957,
      "ë¸ı": 4958,
      "ë¸Ĳ": 4959,
      "ë¸ĳ": 4960,
      "ë¸Ĵ": 4961,
      "ë¸ĵ": 4962,
      "ë¸Ķ": 4963,
      "ë¸ķ": 4964,
      "ë¸ĸ": 4965,
      "ë¸Ĺ": 4966,
      "ë¸ĺ": 4967,
      "ë¸Ļ": 4968,
      "ë¸ļ": 4969,
      "ë¸Ľ": 4970,
      "ë¸ľ": 4971,
      "ë¸Ŀ": 4972,
      "ë¸ŀ": 4973,
      "ë¸Ł": 4974,
      "ë¸ł": 4975,
      "ë¸¡": 4976,
      "ë¸¢": 4977,
      "ë¸£": 4978,
      "ë¸¤": 4979,
      "ë¸¥": 4980,
      "ë¸¦": 4981,
      "ë¸§": 4982,
      "ë¸¨": 4983,
      "ë¸©": 4984,
      "ë¸ª": 4985,
      "ë¸«": 4986,
      "ë¸¬": 4987,
      "ë¸Ń": 4988,
      "ë¸®": 4989,
      "ë¸¯": 4990,
      "ë¸°": 4991,
      "ë¸±": 4992,
      "ë¸²": 4993,
      "ë¸³": 4994,
      "ë¸´": 4995,
      "ë¸µ": 4996,
      "ë¸¶": 4997,
      "ë¸·": 4998,
      "ë¸¸": 4999,
      "ë¸¹": 5000,
      "ë¸º": 5001,
      "ë¸»": 5002,
      "ë¸¼": 5003,
      "ë¸½": 5004,
      "ë¸¾": 5005,
      "ë¸¿": 5006,
      "ë¹": 5007,
      "ë¹Ģ": 5008,
      "ë¹ģ": 5009,
      "ë¹Ĥ": 5010,
      "ë¹ĥ": 5011,
      "ë¹Ħ": 5012,
      "ë¹ħ": 5013,
      "ë¹Ĩ": 5014,
      "ë¹ĩ": 5015,
      "ë¹Ī": 5016,
      "ë¹ī": 5017,
      "ë¹Ĭ": 5018,
      "ë¹ĭ": 5019,
      "ë¹Į": 5020,
      "ë¹į": 5021,
      "ë¹İ": 5022,
      "ë¹ı": 5023,
      "ë¹Ĳ": 5024,
      "ë¹ĳ": 5025,
      "ë¹Ĵ": 5026,
      "ë¹ĵ": 5027,
      "ë¹Ķ": 5028,
      "ë¹ķ": 5029,
      "ë¹ĸ": 5030,
      "ë¹Ĺ": 5031,
      "ë¹ĺ": 5032,
      "ë¹Ļ": 5033,
      "ë¹ļ": 5034,
      "ë¹Ľ": 5035,
      "ë¹ľ": 5036,
      "ë¹Ŀ": 5037,
      "ë¹ŀ": 5038,
      "ë¹Ł": 5039,
      "ë¹ł": 5040,
      "ë¹¡": 5041,
      "ë¹¢": 5042,
      "ë¹£": 5043,
      "ë¹¤": 5044,
      "ë¹¥": 5045,
      "ë¹¦": 5046,
      "ë¹§": 5047,
      "ë¹¨": 5048,
      "ë¹©": 5049,
      "ë¹ª": 5050,
      "ë¹«": 5051,
      "ë¹¬": 5052,
      "ë¹Ń": 5053,
      "ë¹®": 5054,
      "ë¹¯": 5055,
      "ë¹°": 5056,
      "ë¹±": 5057,
      "ë¹²": 5058,
      "ë¹³": 5059,
      "ë¹´": 5060,
      "ë¹µ": 5061,
      "ë¹¶": 5062,
      "ë¹·": 5063,
      "ë¹¸": 5064,
      "ë¹¹": 5065,
      "ë¹º": 5066,
      "ë¹»": 5067,
      "ë¹¼": 5068,
      "ë¹½": 5069,
      "ë¹¾": 5070,
      "ë¹¿": 5071,
      "ëº": 5072,
      "ëºĢ": 5073,
      "ëºģ": 5074,
      "ëºĤ": 5075,
      "ëºĥ": 5076,
      "ëºĦ": 5077,
      "ëºħ": 5078,
      "ëºĨ": 5079,
      "ëºĩ": 5080,
      "ëºĪ": 5081,
      "ëºī": 5082,
      "ëºĬ": 5083,
      "ëºĭ": 5084,
      "ëºĮ": 5085,
      "ëºį": 5086,
      "ëºİ": 5087,
      "ëºı": 5088,
      "ëºĲ": 5089,
      "ëºĳ": 5090,
      "ëºĴ": 5091,
      "ëºĵ": 5092,
      "ëºĶ": 5093,
      "ëºķ": 5094,
      "ëºĸ": 5095,
      "ëºĹ": 5096,
      "ëºĺ": 5097,
      "ëºĻ": 5098,
      "ëºļ": 5099,
      "ëºĽ": 5100,
      "ëºľ": 5101,
      "ëºĿ": 5102,
      "ëºŀ": 5103,
      "ëºŁ": 5104,
      "ëºł": 5105,
      "ëº¡": 5106,
      "ëº¢": 5107,
      "ëº£": 5108,
      "ëº¤": 5109,
      "ëº¥": 5110,
      "ëº¦": 5111,
      "ëº§": 5112,
      "ëº¨": 5113,
      "ëº©": 5114,
      "ëºª": 5115,
      "ëº«": 5116,
      "ëº¬": 5117,
      "ëºŃ": 5118,
      "ëº®": 5119,
      "ëº¯": 5120,
      "ëº°": 5121,
      "ëº±": 5122,
      "ëº²": 5123,
      "ëº³": 5124,
      "ëº´": 5125,
      "ëºµ": 5126,
      "ëº¶": 5127,
      "ëº·": 5128,
      "ëº¸": 5129,
      "ëº¹": 5130,
      "ëºº": 5131,
      "ëº»": 5132,
      "ëº¼": 5133,
      "ëº½": 5134,
      "ëº¾": 5135,
      "ëº¿": 5136,
      "ë»": 5137,
      "ë»Ģ": 5138,
      "ë»ģ": 5139,
      "ë»Ĥ": 5140,
      "ë»ĥ": 5141,
      "ë»Ħ": 5142,
      "ë»ħ": 5143,
      "ë»Ĩ": 5144,
      "ë»ĩ": 5145,
      "ë»Ī": 5146,
      "ë»ī": 5147,
      "ë»Ĭ": 5148,
      "ë»ĭ": 5149,
      "ë»Į": 5150,
      "ë»į": 5151,
      "ë»İ": 5152,
      "ë»ı": 5153,
      "ë»Ĳ": 5154,
      "ë»ĳ": 5155,
      "ë»Ĵ": 5156,
      "ë»ĵ": 5157,
      "ë»Ķ": 5158,
      "ë»ķ": 5159,
      "ë»ĸ": 5160,
      "ë»Ĺ": 5161,
      "ë»ĺ": 5162,
      "ë»Ļ": 5163,
      "ë»ļ": 5164,
      "ë»Ľ": 5165,
      "ë»ľ": 5166,
      "ë»Ŀ": 5167,
      "ë»ŀ": 5168,
      "ë»Ł": 5169,
      "ë»ł": 5170,
      "ë»¡": 5171,
      "ë»¢": 5172,
      "ë»£": 5173,
      "ë»¤": 5174,
      "ë»¥": 5175,
      "ë»¦": 5176,
      "ë»§": 5177,
      "ë»¨": 5178,
      "ë»©": 5179,
      "ë»ª": 5180,
      "ë»«": 5181,
      "ë»¬": 5182,
      "ë»Ń": 5183,
      "ë»®": 5184,
      "ë»¯": 5185,
      "ë»°": 5186,
      "ë»±": 5187,
      "ë»²": 5188,
      "ë»³": 5189,
      "ë»´": 5190,
      "ë»µ": 5191,
      "ë»¶": 5192,
      "ë»·": 5193,
      "ë»¸": 5194,
      "ë»¹": 5195,
      "ë»º": 5196,
      "ë»»": 5197,
      "ë»¼": 5198,
      "ë»½": 5199,
      "ë»¾": 5200,
      "ë»¿": 5201,
      "ë¼": 5202,
      "ë¼Ģ": 5203,
      "ë¼ģ": 5204,
      "ë¼Ĥ": 5205,
      "ë¼ĥ": 5206,
      "ë¼Ħ": 5207,
      "ë¼ħ": 5208,
      "ë¼Ĩ": 5209,
      "ë¼ĩ": 5210,
      "ë¼Ī": 5211,
      "ë¼ī": 5212,
      "ë¼Ĭ": 5213,
      "ë¼ĭ": 5214,
      "ë¼Į": 5215,
      "ë¼į": 5216,
      "ë¼İ": 5217,
      "ë¼ı": 5218,
      "ë¼Ĳ": 5219,
      "ë¼ĳ": 5220,
      "ë¼Ĵ": 5221,
      "ë¼ĵ": 5222,
      "ë¼Ķ": 5223,
      "ë¼ķ": 5224,
      "ë¼ĸ": 5225,
      "ë¼Ĺ": 5226,
      "ë¼ĺ": 5227,
      "ë¼Ļ": 5228,
      "ë¼ļ": 5229,
      "ë¼Ľ": 5230,
      "ë¼ľ": 5231,
      "ë¼Ŀ": 5232,
      "ë¼ŀ": 5233,
      "ë¼Ł": 5234,
      "ë¼ł": 5235,
      "ë¼¡": 5236,
      "ë¼¢": 5237,
      "ë¼£": 5238,
      "ë¼¤": 5239,
      "ë¼¥": 5240,
      "ë¼¦": 5241,
      "ë¼§": 5242,
      "ë¼¨": 5243,
      "ë¼©": 5244,
      "ë¼ª": 5245,
      "ë¼«": 5246,
      "ë¼¬": 5247,
      "ë¼Ń": 5248,
      "ë¼®": 5249,
      "ë¼¯": 5250,
      "ë¼°": 5251,
      "ë¼±": 5252,
      "ë¼²": 5253,
      "ë¼³": 5254,
      "ë¼´": 5255,
      "ë¼µ": 5256,
      "ë¼¶": 5257,
      "ë¼·": 5258,
      "ë¼¸": 5259,
      "ë¼¹": 5260,
      "ë¼º": 5261,
      "ë¼»": 5262,
      "ë¼¼": 5263,
      "ë¼½": 5264,
      "ë¼¾": 5265,
      "ë¼¿": 5266,
      "ë½": 5267,
      "ë½Ģ": 5268,
      "ë½ģ": 5269,
      "ë½Ĥ": 5270,
      "ë½ĥ": 5271,
      "ë½Ħ": 5272,
      "ë½ħ": 5273,
      "ë½Ĩ": 5274,
      "ë½ĩ": 5275,
      "ë½Ī": 5276,
      "ë½ī": 5277,
      "ë½Ĭ": 5278,
      "ë½ĭ": 5279,
      "ë½Į": 5280,
      "ë½į": 5281,
      "ë½İ": 5282,
      "ë½ı": 5283,
      "ë½Ĳ": 5284,
      "ë½ĳ": 5285,
      "ë½Ĵ": 5286,
      "ë½ĵ": 5287,
      "ë½Ķ": 5288,
      "ë½ķ": 5289,
      "ë½ĸ": 5290,
      "ë½Ĺ": 5291,
      "ë½ĺ": 5292,
      "ë½Ļ": 5293,
      "ë½ļ": 5294,
      "ë½Ľ": 5295,
      "ë½ľ": 5296,
      "ë½Ŀ": 5297,
      "ë½ŀ": 5298,
      "ë½Ł": 5299,
      "ë½ł": 5300,
      "ë½¡": 5301,
      "ë½¢": 5302,
      "ë½£": 5303,
      "ë½¤": 5304,
      "ë½¥": 5305,
      "ë½¦": 5306,
      "ë½§": 5307,
      "ë½¨": 5308,
      "ë½©": 5309,
      "ë½ª": 5310,
      "ë½«": 5311,
      "ë½¬": 5312,
      "ë½Ń": 5313,
      "ë½®": 5314,
      "ë½¯": 5315,
      "ë½°": 5316,
      "ë½±": 5317,
      "ë½²": 5318,
      "ë½³": 5319,
      "ë½´": 5320,
      "ë½µ": 5321,
      "ë½¶": 5322,
      "ë½·": 5323,
      "ë½¸": 5324,
      "ë½¹": 5325,
      "ë½º": 5326,
      "ë½»": 5327,
      "ë½¼": 5328,
      "ë½½": 5329,
      "ë½¾": 5330,
      "ë½¿": 5331,
      "ë¾": 5332,
      "ë¾Ģ": 5333,
      "ë¾ģ": 5334,
      "ë¾Ĥ": 5335,
      "ë¾ĥ": 5336,
      "ë¾Ħ": 5337,
      "ë¾ħ": 5338,
      "ë¾Ĩ": 5339,
      "ë¾ĩ": 5340,
      "ë¾Ī": 5341,
      "ë¾ī": 5342,
      "ë¾Ĭ": 5343,
      "ë¾ĭ": 5344,
      "ë¾Į": 5345,
      "ë¾į": 5346,
      "ë¾İ": 5347,
      "ë¾ı": 5348,
      "ë¾Ĳ": 5349,
      "ë¾ĳ": 5350,
      "ë¾Ĵ": 5351,
      "ë¾ĵ": 5352,
      "ë¾Ķ": 5353,
      "ë¾ķ": 5354,
      "ë¾ĸ": 5355,
      "ë¾Ĺ": 5356,
      "ë¾ĺ": 5357,
      "ë¾Ļ": 5358,
      "ë¾ļ": 5359,
      "ë¾Ľ": 5360,
      "ë¾ľ": 5361,
      "ë¾Ŀ": 5362,
      "ë¾ŀ": 5363,
      "ë¾Ł": 5364,
      "ë¾ł": 5365,
      "ë¾¡": 5366,
      "ë¾¢": 5367,
      "ë¾£": 5368,
      "ë¾¤": 5369,
      "ë¾¥": 5370,
      "ë¾¦": 5371,
      "ë¾§": 5372,
      "ë¾¨": 5373,
      "ë¾©": 5374,
      "ë¾ª": 5375,
      "ë¾«": 5376,
      "ë¾¬": 5377,
      "ë¾Ń": 5378,
      "ë¾®": 5379,
      "ë¾¯": 5380,
      "ë¾°": 5381,
      "ë¾±": 5382,
      "ë¾²": 5383,
      "ë¾³": 5384,
      "ë¾´": 5385,
      "ë¾µ": 5386,
      "ë¾¶": 5387,
      "ë¾·": 5388,
      "ë¾¸": 5389,
      "ë¾¹": 5390,
      "ë¾º": 5391,
      "ë¾»": 5392,
      "ë¾¼": 5393,
      "ë¾½": 5394,
      "ë¾¾": 5395,
      "ë¾¿": 5396,
      "ë¿": 5397,
      "ë¿Ģ": 5398,
      "ë¿ģ": 5399,
      "ë¿Ĥ": 5400,
      "ë¿ĥ": 5401,
      "ë¿Ħ": 5402,
      "ë¿ħ": 5403,
      "ë¿Ĩ": 5404,
      "ë¿ĩ": 5405,
      "ë¿Ī": 5406,
      "ë¿ī": 5407,
      "ë¿Ĭ": 5408,
      "ë¿ĭ": 5409,
      "ë¿Į": 5410,
      "ë¿į": 5411,
      "ë¿İ": 5412,
      "ë¿ı": 5413,
      "ë¿Ĳ": 5414,
      "ë¿ĳ": 5415,
      "ë¿Ĵ": 5416,
      "ë¿ĵ": 5417,
      "ë¿Ķ": 5418,
      "ë¿ķ": 5419,
      "ë¿ĸ": 5420,
      "ë¿Ĺ": 5421,
      "ë¿ĺ": 5422,
      "ë¿Ļ": 5423,
      "ë¿ļ": 5424,
      "ë¿Ľ": 5425,
      "ë¿ľ": 5426,
      "ë¿Ŀ": 5427,
      "ë¿ŀ": 5428,
      "ë¿Ł": 5429,
      "ë¿ł": 5430,
      "ë¿¡": 5431,
      "ë¿¢": 5432,
      "ë¿£": 5433,
      "ë¿¤": 5434,
      "ë¿¥": 5435,
      "ë¿¦": 5436,
      "ë¿§": 5437,
      "ë¿¨": 5438,
      "ë¿©": 5439,
      "ë¿ª": 5440,
      "ë¿«": 5441,
      "ë¿¬": 5442,
      "ë¿Ń": 5443,
      "ë¿®": 5444,
      "ë¿¯": 5445,
      "ë¿°": 5446,
      "ë¿±": 5447,
      "ë¿²": 5448,
      "ë¿³": 5449,
      "ë¿´": 5450,
      "ë¿µ": 5451,
      "ë¿¶": 5452,
      "ë¿·": 5453,
      "ë¿¸": 5454,
      "ë¿¹": 5455,
      "ë¿º": 5456,
      "ë¿»": 5457,
      "ë¿¼": 5458,
      "ë¿½": 5459,
      "ë¿¾": 5460,
      "ë¿¿": 5461,
      "ìĢ": 5462,
      "ìĢĢ": 5463,
      "ìĢģ": 5464,
      "ìĢĤ": 5465,
      "ìĢĥ": 5466,
      "ìĢĦ": 5467,
      "ìĢħ": 5468,
      "ìĢĨ": 5469,
      "ìĢĩ": 5470,
      "ìĢĪ": 5471,
      "ìĢī": 5472,
      "ìĢĬ": 5473,
      "ìĢĭ": 5474,
      "ìĢĮ": 5475,
      "ìĢį": 5476,
      "ìĢİ": 5477,
      "ìĢı": 5478,
      "ìĢĲ": 5479,
      "ìĢĳ": 5480,
      "ìĢĴ": 5481,
      "ìĢĵ": 5482,
      "ìĢĶ": 5483,
      "ìĢķ": 5484,
      "ìĢĸ": 5485,
      "ìĢĹ": 5486,
      "ìĢĺ": 5487,
      "ìĢĻ": 5488,
      "ìĢļ": 5489,
      "ìĢĽ": 5490,
      "ìĢľ": 5491,
      "ìĢĿ": 5492,
      "ìĢŀ": 5493,
      "ìĢŁ": 5494,
      "ìĢł": 5495,
      "ìĢ¡": 5496,
      "ìĢ¢": 5497,
      "ìĢ£": 5498,
      "ìĢ¤": 5499,
      "ìĢ¥": 5500,
      "ìĢ¦": 5501,
      "ìĢ§": 5502,
      "ìĢ¨": 5503,
      "ìĢ©": 5504,
      "ìĢª": 5505,
      "ìĢ«": 5506,
      "ìĢ¬": 5507,
      "ìĢŃ": 5508,
      "ìĢ®": 5509,
      "ìĢ¯": 5510,
      "ìĢ°": 5511,
      "ìĢ±": 5512,
      "ìĢ²": 5513,
      "ìĢ³": 5514,
      "ìĢ´": 5515,
      "ìĢµ": 5516,
      "ìĢ¶": 5517,
      "ìĢ·": 5518,
      "ìĢ¸": 5519,
      "ìĢ¹": 5520,
      "ìĢº": 5521,
      "ìĢ»": 5522,
      "ìĢ¼": 5523,
      "ìĢ½": 5524,
      "ìĢ¾": 5525,
      "ìĢ¿": 5526,
      "ìģ": 5527,
      "ìģĢ": 5528,
      "ìģģ": 5529,
      "ìģĤ": 5530,
      "ìģĥ": 5531,
      "ìģĦ": 5532,
      "ìģħ": 5533,
      "ìģĨ": 5534,
      "ìģĩ": 5535,
      "ìģĪ": 5536,
      "ìģī": 5537,
      "ìģĬ": 5538,
      "ìģĭ": 5539,
      "ìģĮ": 5540,
      "ìģį": 5541,
      "ìģİ": 5542,
      "ìģı": 5543,
      "ìģĲ": 5544,
      "ìģĳ": 5545,
      "ìģĴ": 5546,
      "ìģĵ": 5547,
      "ìģĶ": 5548,
      "ìģķ": 5549,
      "ìģĸ": 5550,
      "ìģĹ": 5551,
      "ìģĺ": 5552,
      "ìģĻ": 5553,
      "ìģļ": 5554,
      "ìģĽ": 5555,
      "ìģľ": 5556,
      "ìģĿ": 5557,
      "ìģŀ": 5558,
      "ìģŁ": 5559,
      "ìģł": 5560,
      "ìģ¡": 5561,
      "ìģ¢": 5562,
      "ìģ£": 5563,
      "ìģ¤": 5564,
      "ìģ¥": 5565,
      "ìģ¦": 5566,
      "ìģ§": 5567,
      "ìģ¨": 5568,
      "ìģ©": 5569,
      "ìģª": 5570,
      "ìģ«": 5571,
      "ìģ¬": 5572,
      "ìģŃ": 5573,
      "ìģ®": 5574,
      "ìģ¯": 5575,
      "ìģ°": 5576,
      "ìģ±": 5577,
      "ìģ²": 5578,
      "ìģ³": 5579,
      "ìģ´": 5580,
      "ìģµ": 5581,
      "ìģ¶": 5582,
      "ìģ·": 5583,
      "ìģ¸": 5584,
      "ìģ¹": 5585,
      "ìģº": 5586,
      "ìģ»": 5587,
      "ìģ¼": 5588,
      "ìģ½": 5589,
      "ìģ¾": 5590,
      "ìģ¿": 5591,
      "ìĤ": 5592,
      "ìĤĢ": 5593,
      "ìĤģ": 5594,
      "ìĤĤ": 5595,
      "ìĤĥ": 5596,
      "ìĤĦ": 5597,
      "ìĤħ": 5598,
      "ìĤĨ": 5599,
      "ìĤĩ": 5600,
      "ìĤĪ": 5601,
      "ìĤī": 5602,
      "ìĤĬ": 5603,
      "ìĤĭ": 5604,
      "ìĤĮ": 5605,
      "ìĤį": 5606,
      "ìĤİ": 5607,
      "ìĤı": 5608,
      "ìĤĲ": 5609,
      "ìĤĳ": 5610,
      "ìĤĴ": 5611,
      "ìĤĵ": 5612,
      "ìĤĶ": 5613,
      "ìĤķ": 5614,
      "ìĤĸ": 5615,
      "ìĤĹ": 5616,
      "ìĤĺ": 5617,
      "ìĤĻ": 5618,
      "ìĤļ": 5619,
      "ìĤĽ": 5620,
      "ìĤľ": 5621,
      "ìĤĿ": 5622,
      "ìĤŀ": 5623,
      "ìĤŁ": 5624,
      "ìĤł": 5625,
      "ìĤ¡": 5626,
      "ìĤ¢": 5627,
      "ìĤ£": 5628,
      "ìĤ¤": 5629,
      "ìĤ¥": 5630,
      "ìĤ¦": 5631,
      "ìĤ§": 5632,
      "ìĤ¨": 5633,
      "ìĤ©": 5634,
      "ìĤª": 5635,
      "ìĤ«": 5636,
      "ìĤ¬": 5637,
      "ìĤŃ": 5638,
      "ìĤ®": 5639,
      "ìĤ¯": 5640,
      "ìĤ°": 5641,
      "ìĤ±": 5642,
      "ìĤ²": 5643,
      "ìĤ³": 5644,
      "ìĤ´": 5645,
      "ìĤµ": 5646,
      "ìĤ¶": 5647,
      "ìĤ·": 5648,
      "ìĤ¸": 5649,
      "ìĤ¹": 5650,
      "ìĤº": 5651,
      "ìĤ»": 5652,
      "ìĤ¼": 5653,
      "ìĤ½": 5654,
      "ìĤ¾": 5655,
      "ìĤ¿": 5656,
      "ìĥ": 5657,
      "ìĥĢ": 5658,
      "ìĥģ": 5659,
      "ìĥĤ": 5660,
      "ìĥĥ": 5661,
      "ìĥĦ": 5662,
      "ìĥħ": 5663,
      "ìĥĨ": 5664,
      "ìĥĩ": 5665,
      "ìĥĪ": 5666,
      "ìĥī": 5667,
      "ìĥĬ": 5668,
      "ìĥĭ": 5669,
      "ìĥĮ": 5670,
      "ìĥį": 5671,
      "ìĥİ": 5672,
      "ìĥı": 5673,
      "ìĥĲ": 5674,
      "ìĥĳ": 5675,
      "ìĥĴ": 5676,
      "ìĥĵ": 5677,
      "ìĥĶ": 5678,
      "ìĥķ": 5679,
      "ìĥĸ": 5680,
      "ìĥĹ": 5681,
      "ìĥĺ": 5682,
      "ìĥĻ": 5683,
      "ìĥļ": 5684,
      "ìĥĽ": 5685,
      "ìĥľ": 5686,
      "ìĥĿ": 5687,
      "ìĥŀ": 5688,
      "ìĥŁ": 5689,
      "ìĥł": 5690,
      "ìĥ¡": 5691,
      "ìĥ¢": 5692,
      "ìĥ£": 5693,
      "ìĥ¤": 5694,
      "ìĥ¥": 5695,
      "ìĥ¦": 5696,
      "ìĥ§": 5697,
      "ìĥ¨": 5698,
      "ìĥ©": 5699,
      "ìĥª": 5700,
      "ìĥ«": 5701,
      "ìĥ¬": 5702,
      "ìĥŃ": 5703,
      "ìĥ®": 5704,
      "ìĥ¯": 5705,
      "ìĥ°": 5706,
      "ìĥ±": 5707,
      "ìĥ²": 5708,
      "ìĥ³": 5709,
      "ìĥ´": 5710,
      "ìĥµ": 5711,
      "ìĥ¶": 5712,
      "ìĥ·": 5713,
      "ìĥ¸": 5714,
      "ìĥ¹": 5715,
      "ìĥº": 5716,
      "ìĥ»": 5717,
      "ìĥ¼": 5718,
      "ìĥ½": 5719,
      "ìĥ¾": 5720,
      "ìĥ¿": 5721,
      "ìĦ": 5722,
      "ìĦĢ": 5723,
      "ìĦģ": 5724,
      "ìĦĤ": 5725,
      "ìĦĥ": 5726,
      "ìĦĦ": 5727,
      "ìĦħ": 5728,
      "ìĦĨ": 5729,
      "ìĦĩ": 5730,
      "ìĦĪ": 5731,
      "ìĦī": 5732,
      "ìĦĬ": 5733,
      "ìĦĭ": 5734,
      "ìĦĮ": 5735,
      "ìĦį": 5736,
      "ìĦİ": 5737,
      "ìĦı": 5738,
      "ìĦĲ": 5739,
      "ìĦĳ": 5740,
      "ìĦĴ": 5741,
      "ìĦĵ": 5742,
      "ìĦĶ": 5743,
      "ìĦķ": 5744,
      "ìĦĸ": 5745,
      "ìĦĹ": 5746,
      "ìĦĺ": 5747,
      "ìĦĻ": 5748,
      "ìĦļ": 5749,
      "ìĦĽ": 5750,
      "ìĦľ": 5751,
      "ìĦĿ": 5752,
      "ìĦŀ": 5753,
      "ìĦŁ": 5754,
      "ìĦł": 5755,
      "ìĦ¡": 5756,
      "ìĦ¢": 5757,
      "ìĦ£": 5758,
      "ìĦ¤": 5759,
      "ìĦ¥": 5760,
      "ìĦ¦": 5761,
      "ìĦ§": 5762,
      "ìĦ¨": 5763,
      "ìĦ©": 5764,
      "ìĦª": 5765,
      "ìĦ«": 5766,
      "ìĦ¬": 5767,
      "ìĦŃ": 5768,
      "ìĦ®": 5769,
      "ìĦ¯": 5770,
      "ìĦ°": 5771,
      "ìĦ±": 5772,
      "ìĦ²": 5773,
      "ìĦ³": 5774,
      "ìĦ´": 5775,
      "ìĦµ": 5776,
      "ìĦ¶": 5777,
      "ìĦ·": 5778,
      "ìĦ¸": 5779,
      "ìĦ¹": 5780,
      "ìĦº": 5781,
      "ìĦ»": 5782,
      "ìĦ¼": 5783,
      "ìĦ½": 5784,
      "ìĦ¾": 5785,
      "ìĦ¿": 5786,
      "ìħ": 5787,
      "ìħĢ": 5788,
      "ìħģ": 5789,
      "ìħĤ": 5790,
      "ìħĥ": 5791,
      "ìħĦ": 5792,
      "ìħħ": 5793,
      "ìħĨ": 5794,
      "ìħĩ": 5795,
      "ìħĪ": 5796,
      "ìħī": 5797,
      "ìħĬ": 5798,
      "ìħĭ": 5799,
      "ìħĮ": 5800,
      "ìħį": 5801,
      "ìħİ": 5802,
      "ìħı": 5803,
      "ìħĲ": 5804,
      "ìħĳ": 5805,
      "ìħĴ": 5806,
      "ìħĵ": 5807,
      "ìħĶ": 5808,
      "ìħķ": 5809,
      "ìħĸ": 5810,
      "ìħĹ": 5811,
      "ìħĺ": 5812,
      "ìħĻ": 5813,
      "ìħļ": 5814,
      "ìħĽ": 5815,
      "ìħľ": 5816,
      "ìħĿ": 5817,
      "ìħŀ": 5818,
      "ìħŁ": 5819,
      "ìħł": 5820,
      "ìħ¡": 5821,
      "ìħ¢": 5822,
      "ìħ£": 5823,
      "ìħ¤": 5824,
      "ìħ¥": 5825,
      "ìħ¦": 5826,
      "ìħ§": 5827,
      "ìħ¨": 5828,
      "ìħ©": 5829,
      "ìħª": 5830,
      "ìħ«": 5831,
      "ìħ¬": 5832,
      "ìħŃ": 5833,
      "ìħ®": 5834,
      "ìħ¯": 5835,
      "ìħ°": 5836,
      "ìħ±": 5837,
      "ìħ²": 5838,
      "ìħ³": 5839,
      "ìħ´": 5840,
      "ìħµ": 5841,
      "ìħ¶": 5842,
      "ìħ·": 5843,
      "ìħ¸": 5844,
      "ìħ¹": 5845,
      "ìħº": 5846,
      "ìħ»": 5847,
      "ìħ¼": 5848,
      "ìħ½": 5849,
      "ìħ¾": 5850,
      "ìħ¿": 5851,
      "ìĨ": 5852,
      "ìĨĢ": 5853,
      "ìĨģ": 5854,
      "ìĨĤ": 5855,
      "ìĨĥ": 5856,
      "ìĨĦ": 5857,
      "ìĨħ": 5858,
      "ìĨĨ": 5859,
      "ìĨĩ": 5860,
      "ìĨĪ": 5861,
      "ìĨī": 5862,
      "ìĨĬ": 5863,
      "ìĨĭ": 5864,
      "ìĨĮ": 5865,
      "ìĨį": 5866,
      "ìĨİ": 5867,
      "ìĨı": 5868,
      "ìĨĲ": 5869,
      "ìĨĳ": 5870,
      "ìĨĴ": 5871,
      "ìĨĵ": 5872,
      "ìĨĶ": 5873,
      "ìĨķ": 5874,
      "ìĨĸ": 5875,
      "ìĨĹ": 5876,
      "ìĨĺ": 5877,
      "ìĨĻ": 5878,
      "ìĨļ": 5879,
      "ìĨĽ": 5880,
      "ìĨľ": 5881,
      "ìĨĿ": 5882,
      "ìĨŀ": 5883,
      "ìĨŁ": 5884,
      "ìĨł": 5885,
      "ìĨ¡": 5886,
      "ìĨ¢": 5887,
      "ìĨ£": 5888,
      "ìĨ¤": 5889,
      "ìĨ¥": 5890,
      "ìĨ¦": 5891,
      "ìĨ§": 5892,
      "ìĨ¨": 5893,
      "ìĨ©": 5894,
      "ìĨª": 5895,
      "ìĨ«": 5896,
      "ìĨ¬": 5897,
      "ìĨŃ": 5898,
      "ìĨ®": 5899,
      "ìĨ¯": 5900,
      "ìĨ°": 5901,
      "ìĨ±": 5902,
      "ìĨ²": 5903,
      "ìĨ³": 5904,
      "ìĨ´": 5905,
      "ìĨµ": 5906,
      "ìĨ¶": 5907,
      "ìĨ·": 5908,
      "ìĨ¸": 5909,
      "ìĨ¹": 5910,
      "ìĨº": 5911,
      "ìĨ»": 5912,
      "ìĨ¼": 5913,
      "ìĨ½": 5914,
      "ìĨ¾": 5915,
      "ìĨ¿": 5916,
      "ìĩ": 5917,
      "ìĩĢ": 5918,
      "ìĩģ": 5919,
      "ìĩĤ": 5920,
      "ìĩĥ": 5921,
      "ìĩĦ": 5922,
      "ìĩħ": 5923,
      "ìĩĨ": 5924,
      "ìĩĩ": 5925,
      "ìĩĪ": 5926,
      "ìĩī": 5927,
      "ìĩĬ": 5928,
      "ìĩĭ": 5929,
      "ìĩĮ": 5930,
      "ìĩį": 5931,
      "ìĩİ": 5932,
      "ìĩı": 5933,
      "ìĩĲ": 5934,
      "ìĩĳ": 5935,
      "ìĩĴ": 5936,
      "ìĩĵ": 5937,
      "ìĩĶ": 5938,
      "ìĩķ": 5939,
      "ìĩĸ": 5940,
      "ìĩĹ": 5941,
      "ìĩĺ": 5942,
      "ìĩĻ": 5943,
      "ìĩļ": 5944,
      "ìĩĽ": 5945,
      "ìĩľ": 5946,
      "ìĩĿ": 5947,
      "ìĩŀ": 5948,
      "ìĩŁ": 5949,
      "ìĩł": 5950,
      "ìĩ¡": 5951,
      "ìĩ¢": 5952,
      "ìĩ£": 5953,
      "ìĩ¤": 5954,
      "ìĩ¥": 5955,
      "ìĩ¦": 5956,
      "ìĩ§": 5957,
      "ìĩ¨": 5958,
      "ìĩ©": 5959,
      "ìĩª": 5960,
      "ìĩ«": 5961,
      "ìĩ¬": 5962,
      "ìĩŃ": 5963,
      "ìĩ®": 5964,
      "ìĩ¯": 5965,
      "ìĩ°": 5966,
      "ìĩ±": 5967,
      "ìĩ²": 5968,
      "ìĩ³": 5969,
      "ìĩ´": 5970,
      "ìĩµ": 5971,
      "ìĩ¶": 5972,
      "ìĩ·": 5973,
      "ìĩ¸": 5974,
      "ìĩ¹": 5975,
      "ìĩº": 5976,
      "ìĩ»": 5977,
      "ìĩ¼": 5978,
      "ìĩ½": 5979,
      "ìĩ¾": 5980,
      "ìĩ¿": 5981,
      "ìĪ": 5982,
      "ìĪĢ": 5983,
      "ìĪģ": 5984,
      "ìĪĤ": 5985,
      "ìĪĥ": 5986,
      "ìĪĦ": 5987,
      "ìĪħ": 5988,
      "ìĪĨ": 5989,
      "ìĪĩ": 5990,
      "ìĪĪ": 5991,
      "ìĪī": 5992,
      "ìĪĬ": 5993,
      "ìĪĭ": 5994,
      "ìĪĮ": 5995,
      "ìĪį": 5996,
      "ìĪİ": 5997,
      "ìĪı": 5998,
      "ìĪĲ": 5999,
      "ìĪĳ": 6000,
      "ìĪĴ": 6001,
      "ìĪĵ": 6002,
      "ìĪĶ": 6003,
      "ìĪķ": 6004,
      "ìĪĸ": 6005,
      "ìĪĹ": 6006,
      "ìĪĺ": 6007,
      "ìĪĻ": 6008,
      "ìĪļ": 6009,
      "ìĪĽ": 6010,
      "ìĪľ": 6011,
      "ìĪĿ": 6012,
      "ìĪŀ": 6013,
      "ìĪŁ": 6014,
      "ìĪł": 6015,
      "ìĪ¡": 6016,
      "ìĪ¢": 6017,
      "ìĪ£": 6018,
      "ìĪ¤": 6019,
      "ìĪ¥": 6020,
      "ìĪ¦": 6021,
      "ìĪ§": 6022,
      "ìĪ¨": 6023,
      "ìĪ©": 6024,
      "ìĪª": 6025,
      "ìĪ«": 6026,
      "ìĪ¬": 6027,
      "ìĪŃ": 6028,
      "ìĪ®": 6029,
      "ìĪ¯": 6030,
      "ìĪ°": 6031,
      "ìĪ±": 6032,
      "ìĪ²": 6033,
      "ìĪ³": 6034,
      "ìĪ´": 6035,
      "ìĪµ": 6036,
      "ìĪ¶": 6037,
      "ìĪ·": 6038,
      "ìĪ¸": 6039,
      "ìĪ¹": 6040,
      "ìĪº": 6041,
      "ìĪ»": 6042,
      "ìĪ¼": 6043,
      "ìĪ½": 6044,
      "ìĪ¾": 6045,
      "ìĪ¿": 6046,
      "ìī": 6047,
      "ìīĢ": 6048,
      "ìīģ": 6049,
      "ìīĤ": 6050,
      "ìīĥ": 6051,
      "ìīĦ": 6052,
      "ìīħ": 6053,
      "ìīĨ": 6054,
      "ìīĩ": 6055,
      "ìīĪ": 6056,
      "ìīī": 6057,
      "ìīĬ": 6058,
      "ìīĭ": 6059,
      "ìīĮ": 6060,
      "ìīį": 6061,
      "ìīİ": 6062,
      "ìīı": 6063,
      "ìīĲ": 6064,
      "ìīĳ": 6065,
      "ìīĴ": 6066,
      "ìīĵ": 6067,
      "ìīĶ": 6068,
      "ìīķ": 6069,
      "ìīĸ": 6070,
      "ìīĹ": 6071,
      "ìīĺ": 6072,
      "ìīĻ": 6073,
      "ìīļ": 6074,
      "ìīĽ": 6075,
      "ìīľ": 6076,
      "ìīĿ": 6077,
      "ìīŀ": 6078,
      "ìīŁ": 6079,
      "ìīł": 6080,
      "ìī¡": 6081,
      "ìī¢": 6082,
      "ìī£": 6083,
      "ìī¤": 6084,
      "ìī¥": 6085,
      "ìī¦": 6086,
      "ìī§": 6087,
      "ìī¨": 6088,
      "ìī©": 6089,
      "ìīª": 6090,
      "ìī«": 6091,
      "ìī¬": 6092,
      "ìīŃ": 6093,
      "ìī®": 6094,
      "ìī¯": 6095,
      "ìī°": 6096,
      "ìī±": 6097,
      "ìī²": 6098,
      "ìī³": 6099,
      "ìī´": 6100,
      "ìīµ": 6101,
      "ìī¶": 6102,
      "ìī·": 6103,
      "ìī¸": 6104,
      "ìī¹": 6105,
      "ìīº": 6106,
      "ìī»": 6107,
      "ìī¼": 6108,
      "ìī½": 6109,
      "ìī¾": 6110,
      "ìī¿": 6111,
      "ìĬ": 6112,
      "ìĬĢ": 6113,
      "ìĬģ": 6114,
      "ìĬĤ": 6115,
      "ìĬĥ": 6116,
      "ìĬĦ": 6117,
      "ìĬħ": 6118,
      "ìĬĨ": 6119,
      "ìĬĩ": 6120,
      "ìĬĪ": 6121,
      "ìĬī": 6122,
      "ìĬĬ": 6123,
      "ìĬĭ": 6124,
      "ìĬĮ": 6125,
      "ìĬį": 6126,
      "ìĬİ": 6127,
      "ìĬı": 6128,
      "ìĬĲ": 6129,
      "ìĬĳ": 6130,
      "ìĬĴ": 6131,
      "ìĬĵ": 6132,
      "ìĬĶ": 6133,
      "ìĬķ": 6134,
      "ìĬĸ": 6135,
      "ìĬĹ": 6136,
      "ìĬĺ": 6137,
      "ìĬĻ": 6138,
      "ìĬļ": 6139,
      "ìĬĽ": 6140,
      "ìĬľ": 6141,
      "ìĬĿ": 6142,
      "ìĬŀ": 6143,
      "ìĬŁ": 6144,
      "ìĬł": 6145,
      "ìĬ¡": 6146,
      "ìĬ¢": 6147,
      "ìĬ£": 6148,
      "ìĬ¤": 6149,
      "ìĬ¥": 6150,
      "ìĬ¦": 6151,
      "ìĬ§": 6152,
      "ìĬ¨": 6153,
      "ìĬ©": 6154,
      "ìĬª": 6155,
      "ìĬ«": 6156,
      "ìĬ¬": 6157,
      "ìĬŃ": 6158,
      "ìĬ®": 6159,
      "ìĬ¯": 6160,
      "ìĬ°": 6161,
      "ìĬ±": 6162,
      "ìĬ²": 6163,
      "ìĬ³": 6164,
      "ìĬ´": 6165,
      "ìĬµ": 6166,
      "ìĬ¶": 6167,
      "ìĬ·": 6168,
      "ìĬ¸": 6169,
      "ìĬ¹": 6170,
      "ìĬº": 6171,
      "ìĬ»": 6172,
      "ìĬ¼": 6173,
      "ìĬ½": 6174,
      "ìĬ¾": 6175,
      "ìĬ¿": 6176,
      "ìĭ": 6177,
      "ìĭĢ": 6178,
      "ìĭģ": 6179,
      "ìĭĤ": 6180,
      "ìĭĥ": 6181,
      "ìĭĦ": 6182,
      "ìĭħ": 6183,
      "ìĭĨ": 6184,
      "ìĭĩ": 6185,
      "ìĭĪ": 6186,
      "ìĭī": 6187,
      "ìĭĬ": 6188,
      "ìĭĭ": 6189,
      "ìĭĮ": 6190,
      "ìĭį": 6191,
      "ìĭİ": 6192,
      "ìĭı": 6193,
      "ìĭĲ": 6194,
      "ìĭĳ": 6195,
      "ìĭĴ": 6196,
      "ìĭĵ": 6197,
      "ìĭĶ": 6198,
      "ìĭķ": 6199,
      "ìĭĸ": 6200,
      "ìĭĹ": 6201,
      "ìĭĺ": 6202,
      "ìĭĻ": 6203,
      "ìĭļ": 6204,
      "ìĭĽ": 6205,
      "ìĭľ": 6206,
      "ìĭĿ": 6207,
      "ìĭŀ": 6208,
      "ìĭŁ": 6209,
      "ìĭł": 6210,
      "ìĭ¡": 6211,
      "ìĭ¢": 6212,
      "ìĭ£": 6213,
      "ìĭ¤": 6214,
      "ìĭ¥": 6215,
      "ìĭ¦": 6216,
      "ìĭ§": 6217,
      "ìĭ¨": 6218,
      "ìĭ©": 6219,
      "ìĭª": 6220,
      "ìĭ«": 6221,
      "ìĭ¬": 6222,
      "ìĭŃ": 6223,
      "ìĭ®": 6224,
      "ìĭ¯": 6225,
      "ìĭ°": 6226,
      "ìĭ±": 6227,
      "ìĭ²": 6228,
      "ìĭ³": 6229,
      "ìĭ´": 6230,
      "ìĭµ": 6231,
      "ìĭ¶": 6232,
      "ìĭ·": 6233,
      "ìĭ¸": 6234,
      "ìĭ¹": 6235,
      "ìĭº": 6236,
      "ìĭ»": 6237,
      "ìĭ¼": 6238,
      "ìĭ½": 6239,
      "ìĭ¾": 6240,
      "ìĭ¿": 6241,
      "ìĮ": 6242,
      "ìĮĢ": 6243,
      "ìĮģ": 6244,
      "ìĮĤ": 6245,
      "ìĮĥ": 6246,
      "ìĮĦ": 6247,
      "ìĮħ": 6248,
      "ìĮĨ": 6249,
      "ìĮĩ": 6250,
      "ìĮĪ": 6251,
      "ìĮī": 6252,
      "ìĮĬ": 6253,
      "ìĮĭ": 6254,
      "ìĮĮ": 6255,
      "ìĮį": 6256,
      "ìĮİ": 6257,
      "ìĮı": 6258,
      "ìĮĲ": 6259,
      "ìĮĳ": 6260,
      "ìĮĴ": 6261,
      "ìĮĵ": 6262,
      "ìĮĶ": 6263,
      "ìĮķ": 6264,
      "ìĮĸ": 6265,
      "ìĮĹ": 6266,
      "ìĮĺ": 6267,
      "ìĮĻ": 6268,
      "ìĮļ": 6269,
      "ìĮĽ": 6270,
      "ìĮľ": 6271,
      "ìĮĿ": 6272,
      "ìĮŀ": 6273,
      "ìĮŁ": 6274,
      "ìĮł": 6275,
      "ìĮ¡": 6276,
      "ìĮ¢": 6277,
      "ìĮ£": 6278,
      "ìĮ¤": 6279,
      "ìĮ¥": 6280,
      "ìĮ¦": 6281,
      "ìĮ§": 6282,
      "ìĮ¨": 6283,
      "ìĮ©": 6284,
      "ìĮª": 6285,
      "ìĮ«": 6286,
      "ìĮ¬": 6287,
      "ìĮŃ": 6288,
      "ìĮ®": 6289,
      "ìĮ¯": 6290,
      "ìĮ°": 6291,
      "ìĮ±": 6292,
      "ìĮ²": 6293,
      "ìĮ³": 6294,
      "ìĮ´": 6295,
      "ìĮµ": 6296,
      "ìĮ¶": 6297,
      "ìĮ·": 6298,
      "ìĮ¸": 6299,
      "ìĮ¹": 6300,
      "ìĮº": 6301,
      "ìĮ»": 6302,
      "ìĮ¼": 6303,
      "ìĮ½": 6304,
      "ìĮ¾": 6305,
      "ìĮ¿": 6306,
      "ìį": 6307,
      "ìįĢ": 6308,
      "ìįģ": 6309,
      "ìįĤ": 6310,
      "ìįĥ": 6311,
      "ìįĦ": 6312,
      "ìįħ": 6313,
      "ìįĨ": 6314,
      "ìįĩ": 6315,
      "ìįĪ": 6316,
      "ìįī": 6317,
      "ìįĬ": 6318,
      "ìįĭ": 6319,
      "ìįĮ": 6320,
      "ìįį": 6321,
      "ìįİ": 6322,
      "ìįı": 6323,
      "ìįĲ": 6324,
      "ìįĳ": 6325,
      "ìįĴ": 6326,
      "ìįĵ": 6327,
      "ìįĶ": 6328,
      "ìįķ": 6329,
      "ìįĸ": 6330,
      "ìįĹ": 6331,
      "ìįĺ": 6332,
      "ìįĻ": 6333,
      "ìįļ": 6334,
      "ìįĽ": 6335,
      "ìįľ": 6336,
      "ìįĿ": 6337,
      "ìįŀ": 6338,
      "ìįŁ": 6339,
      "ìįł": 6340,
      "ìį¡": 6341,
      "ìį¢": 6342,
      "ìį£": 6343,
      "ìį¤": 6344,
      "ìį¥": 6345,
      "ìį¦": 6346,
      "ìį§": 6347,
      "ìį¨": 6348,
      "ìį©": 6349,
      "ìįª": 6350,
      "ìį«": 6351,
      "ìį¬": 6352,
      "ìįŃ": 6353,
      "ìį®": 6354,
      "ìį¯": 6355,
      "ìį°": 6356,
      "ìį±": 6357,
      "ìį²": 6358,
      "ìį³": 6359,
      "ìį´": 6360,
      "ìįµ": 6361,
      "ìį¶": 6362,
      "ìį·": 6363,
      "ìį¸": 6364,
      "ìį¹": 6365,
      "ìįº": 6366,
      "ìį»": 6367,
      "ìį¼": 6368,
      "ìį½": 6369,
      "ìį¾": 6370,
      "ìį¿": 6371,
      "ìİ": 6372,
      "ìİĢ": 6373,
      "ìİģ": 6374,
      "ìİĤ": 6375,
      "ìİĥ": 6376,
      "ìİĦ": 6377,
      "ìİħ": 6378,
      "ìİĨ": 6379,
      "ìİĩ": 6380,
      "ìİĪ": 6381,
      "ìİī": 6382,
      "ìİĬ": 6383,
      "ìİĭ": 6384,
      "ìİĮ": 6385,
      "ìİį": 6386,
      "ìİİ": 6387,
      "ìİı": 6388,
      "ìİĲ": 6389,
      "ìİĳ": 6390,
      "ìİĴ": 6391,
      "ìİĵ": 6392,
      "ìİĶ": 6393,
      "ìİķ": 6394,
      "ìİĸ": 6395,
      "ìİĹ": 6396,
      "ìİĺ": 6397,
      "ìİĻ": 6398,
      "ìİļ": 6399,
      "ìİĽ": 6400,
      "ìİľ": 6401,
      "ìİĿ": 6402,
      "ìİŀ": 6403,
      "ìİŁ": 6404,
      "ìİł": 6405,
      "ìİ¡": 6406,
      "ìİ¢": 6407,
      "ìİ£": 6408,
      "ìİ¤": 6409,
      "ìİ¥": 6410,
      "ìİ¦": 6411,
      "ìİ§": 6412,
      "ìİ¨": 6413,
      "ìİ©": 6414,
      "ìİª": 6415,
      "ìİ«": 6416,
      "ìİ¬": 6417,
      "ìİŃ": 6418,
      "ìİ®": 6419,
      "ìİ¯": 6420,
      "ìİ°": 6421,
      "ìİ±": 6422,
      "ìİ²": 6423,
      "ìİ³": 6424,
      "ìİ´": 6425,
      "ìİµ": 6426,
      "ìİ¶": 6427,
      "ìİ·": 6428,
      "ìİ¸": 6429,
      "ìİ¹": 6430,
      "ìİº": 6431,
      "ìİ»": 6432,
      "ìİ¼": 6433,
      "ìİ½": 6434,
      "ìİ¾": 6435,
      "ìİ¿": 6436,
      "ìı": 6437,
      "ìıĢ": 6438,
      "ìıģ": 6439,
      "ìıĤ": 6440,
      "ìıĥ": 6441,
      "ìıĦ": 6442,
      "ìıħ": 6443,
      "ìıĨ": 6444,
      "ìıĩ": 6445,
      "ìıĪ": 6446,
      "ìıī": 6447,
      "ìıĬ": 6448,
      "ìıĭ": 6449,
      "ìıĮ": 6450,
      "ìıį": 6451,
      "ìıİ": 6452,
      "ìıı": 6453,
      "ìıĲ": 6454,
      "ìıĳ": 6455,
      "ìıĴ": 6456,
      "ìıĵ": 6457,
      "ìıĶ": 6458,
      "ìıķ": 6459,
      "ìıĸ": 6460,
      "ìıĹ": 6461,
      "ìıĺ": 6462,
      "ìıĻ": 6463,
      "ìıļ": 6464,
      "ìıĽ": 6465,
      "ìıľ": 6466,
      "ìıĿ": 6467,
      "ìıŀ": 6468,
      "ìıŁ": 6469,
      "ìıł": 6470,
      "ìı¡": 6471,
      "ìı¢": 6472,
      "ìı£": 6473,
      "ìı¤": 6474,
      "ìı¥": 6475,
      "ìı¦": 6476,
      "ìı§": 6477,
      "ìı¨": 6478,
      "ìı©": 6479,
      "ìıª": 6480,
      "ìı«": 6481,
      "ìı¬": 6482,
      "ìıŃ": 6483,
      "ìı®": 6484,
      "ìı¯": 6485,
      "ìı°": 6486,
      "ìı±": 6487,
      "ìı²": 6488,
      "ìı³": 6489,
      "ìı´": 6490,
      "ìıµ": 6491,
      "ìı¶": 6492,
      "ìı·": 6493,
      "ìı¸": 6494,
      "ìı¹": 6495,
      "ìıº": 6496,
      "ìı»": 6497,
      "ìı¼": 6498,
      "ìı½": 6499,
      "ìı¾": 6500,
      "ìı¿": 6501,
      "ìĲ": 6502,
      "ìĲĢ": 6503,
      "ìĲģ": 6504,
      "ìĲĤ": 6505,
      "ìĲĥ": 6506,
      "ìĲĦ": 6507,
      "ìĲħ": 6508,
      "ìĲĨ": 6509,
      "ìĲĩ": 6510,
      "ìĲĪ": 6511,
      "ìĲī": 6512,
      "ìĲĬ": 6513,
      "ìĲĭ": 6514,
      "ìĲĮ": 6515,
      "ìĲį": 6516,
      "ìĲİ": 6517,
      "ìĲı": 6518,
      "ìĲĲ": 6519,
      "ìĲĳ": 6520,
      "ìĲĴ": 6521,
      "ìĲĵ": 6522,
      "ìĲĶ": 6523,
      "ìĲķ": 6524,
      "ìĲĸ": 6525,
      "ìĲĹ": 6526,
      "ìĲĺ": 6527,
      "ìĲĻ": 6528,
      "ìĲļ": 6529,
      "ìĲĽ": 6530,
      "ìĲľ": 6531,
      "ìĲĿ": 6532,
      "ìĲŀ": 6533,
      "ìĲŁ": 6534,
      "ìĲł": 6535,
      "ìĲ¡": 6536,
      "ìĲ¢": 6537,
      "ìĲ£": 6538,
      "ìĲ¤": 6539,
      "ìĲ¥": 6540,
      "ìĲ¦": 6541,
      "ìĲ§": 6542,
      "ìĲ¨": 6543,
      "ìĲ©": 6544,
      "ìĲª": 6545,
      "ìĲ«": 6546,
      "ìĲ¬": 6547,
      "ìĲŃ": 6548,
      "ìĲ®": 6549,
      "ìĲ¯": 6550,
      "ìĲ°": 6551,
      "ìĲ±": 6552,
      "ìĲ²": 6553,
      "ìĲ³": 6554,
      "ìĲ´": 6555,
      "ìĲµ": 6556,
      "ìĲ¶": 6557,
      "ìĲ·": 6558,
      "ìĲ¸": 6559,
      "ìĲ¹": 6560,
      "ìĲº": 6561,
      "ìĲ»": 6562,
      "ìĲ¼": 6563,
      "ìĲ½": 6564,
      "ìĲ¾": 6565,
      "ìĲ¿": 6566,
      "ìĳ": 6567,
      "ìĳĢ": 6568,
      "ìĳģ": 6569,
      "ìĳĤ": 6570,
      "ìĳĥ": 6571,
      "ìĳĦ": 6572,
      "ìĳħ": 6573,
      "ìĳĨ": 6574,
      "ìĳĩ": 6575,
      "ìĳĪ": 6576,
      "ìĳī": 6577,
      "ìĳĬ": 6578,
      "ìĳĭ": 6579,
      "ìĳĮ": 6580,
      "ìĳį": 6581,
      "ìĳİ": 6582,
      "ìĳı": 6583,
      "ìĳĲ": 6584,
      "ìĳĳ": 6585,
      "ìĳĴ": 6586,
      "ìĳĵ": 6587,
      "ìĳĶ": 6588,
      "ìĳķ": 6589,
      "ìĳĸ": 6590,
      "ìĳĹ": 6591,
      "ìĳĺ": 6592,
      "ìĳĻ": 6593,
      "ìĳļ": 6594,
      "ìĳĽ": 6595,
      "ìĳľ": 6596,
      "ìĳĿ": 6597,
      "ìĳŀ": 6598,
      "ìĳŁ": 6599,
      "ìĳł": 6600,
      "ìĳ¡": 6601,
      "ìĳ¢": 6602,
      "ìĳ£": 6603,
      "ìĳ¤": 6604,
      "ìĳ¥": 6605,
      "ìĳ¦": 6606,
      "ìĳ§": 6607,
      "ìĳ¨": 6608,
      "ìĳ©": 6609,
      "ìĳª": 6610,
      "ìĳ«": 6611,
      "ìĳ¬": 6612,
      "ìĳŃ": 6613,
      "ìĳ®": 6614,
      "ìĳ¯": 6615,
      "ìĳ°": 6616,
      "ìĳ±": 6617,
      "ìĳ²": 6618,
      "ìĳ³": 6619,
      "ìĳ´": 6620,
      "ìĳµ": 6621,
      "ìĳ¶": 6622,
      "ìĳ·": 6623,
      "ìĳ¸": 6624,
      "ìĳ¹": 6625,
      "ìĳº": 6626,
      "ìĳ»": 6627,
      "ìĳ¼": 6628,
      "ìĳ½": 6629,
      "ìĳ¾": 6630,
      "ìĳ¿": 6631,
      "ìĴ": 6632,
      "ìĴĢ": 6633,
      "ìĴģ": 6634,
      "ìĴĤ": 6635,
      "ìĴĥ": 6636,
      "ìĴĦ": 6637,
      "ìĴħ": 6638,
      "ìĴĨ": 6639,
      "ìĴĩ": 6640,
      "ìĴĪ": 6641,
      "ìĴī": 6642,
      "ìĴĬ": 6643,
      "ìĴĭ": 6644,
      "ìĴĮ": 6645,
      "ìĴį": 6646,
      "ìĴİ": 6647,
      "ìĴı": 6648,
      "ìĴĲ": 6649,
      "ìĴĳ": 6650,
      "ìĴĴ": 6651,
      "ìĴĵ": 6652,
      "ìĴĶ": 6653,
      "ìĴķ": 6654,
      "ìĴĸ": 6655,
      "ìĴĹ": 6656,
      "ìĴĺ": 6657,
      "ìĴĻ": 6658,
      "ìĴļ": 6659,
      "ìĴĽ": 6660,
      "ìĴľ": 6661,
      "ìĴĿ": 6662,
      "ìĴŀ": 6663,
      "ìĴŁ": 6664,
      "ìĴł": 6665,
      "ìĴ¡": 6666,
      "ìĴ¢": 6667,
      "ìĴ£": 6668,
      "ìĴ¤": 6669,
      "ìĴ¥": 6670,
      "ìĴ¦": 6671,
      "ìĴ§": 6672,
      "ìĴ¨": 6673,
      "ìĴ©": 6674,
      "ìĴª": 6675,
      "ìĴ«": 6676,
      "ìĴ¬": 6677,
      "ìĴŃ": 6678,
      "ìĴ®": 6679,
      "ìĴ¯": 6680,
      "ìĴ°": 6681,
      "ìĴ±": 6682,
      "ìĴ²": 6683,
      "ìĴ³": 6684,
      "ìĴ´": 6685,
      "ìĴµ": 6686,
      "ìĴ¶": 6687,
      "ìĴ·": 6688,
      "ìĴ¸": 6689,
      "ìĴ¹": 6690,
      "ìĴº": 6691,
      "ìĴ»": 6692,
      "ìĴ¼": 6693,
      "ìĴ½": 6694,
      "ìĴ¾": 6695,
      "ìĴ¿": 6696,
      "ìĵ": 6697,
      "ìĵĢ": 6698,
      "ìĵģ": 6699,
      "ìĵĤ": 6700,
      "ìĵĥ": 6701,
      "ìĵĦ": 6702,
      "ìĵħ": 6703,
      "ìĵĨ": 6704,
      "ìĵĩ": 6705,
      "ìĵĪ": 6706,
      "ìĵī": 6707,
      "ìĵĬ": 6708,
      "ìĵĭ": 6709,
      "ìĵĮ": 6710,
      "ìĵį": 6711,
      "ìĵİ": 6712,
      "ìĵı": 6713,
      "ìĵĲ": 6714,
      "ìĵĳ": 6715,
      "ìĵĴ": 6716,
      "ìĵĵ": 6717,
      "ìĵĶ": 6718,
      "ìĵķ": 6719,
      "ìĵĸ": 6720,
      "ìĵĹ": 6721,
      "ìĵĺ": 6722,
      "ìĵĻ": 6723,
      "ìĵļ": 6724,
      "ìĵĽ": 6725,
      "ìĵľ": 6726,
      "ìĵĿ": 6727,
      "ìĵŀ": 6728,
      "ìĵŁ": 6729,
      "ìĵł": 6730,
      "ìĵ¡": 6731,
      "ìĵ¢": 6732,
      "ìĵ£": 6733,
      "ìĵ¤": 6734,
      "ìĵ¥": 6735,
      "ìĵ¦": 6736,
      "ìĵ§": 6737,
      "ìĵ¨": 6738,
      "ìĵ©": 6739,
      "ìĵª": 6740,
      "ìĵ«": 6741,
      "ìĵ¬": 6742,
      "ìĵŃ": 6743,
      "ìĵ®": 6744,
      "ìĵ¯": 6745,
      "ìĵ°": 6746,
      "ìĵ±": 6747,
      "ìĵ²": 6748,
      "ìĵ³": 6749,
      "ìĵ´": 6750,
      "ìĵµ": 6751,
      "ìĵ¶": 6752,
      "ìĵ·": 6753,
      "ìĵ¸": 6754,
      "ìĵ¹": 6755,
      "ìĵº": 6756,
      "ìĵ»": 6757,
      "ìĵ¼": 6758,
      "ìĵ½": 6759,
      "ìĵ¾": 6760,
      "ìĵ¿": 6761,
      "ìĶ": 6762,
      "ìĶĢ": 6763,
      "ìĶģ": 6764,
      "ìĶĤ": 6765,
      "ìĶĥ": 6766,
      "ìĶĦ": 6767,
      "ìĶħ": 6768,
      "ìĶĨ": 6769,
      "ìĶĩ": 6770,
      "ìĶĪ": 6771,
      "ìĶī": 6772,
      "ìĶĬ": 6773,
      "ìĶĭ": 6774,
      "ìĶĮ": 6775,
      "ìĶį": 6776,
      "ìĶİ": 6777,
      "ìĶı": 6778,
      "ìĶĲ": 6779,
      "ìĶĳ": 6780,
      "ìĶĴ": 6781,
      "ìĶĵ": 6782,
      "ìĶĶ": 6783,
      "ìĶķ": 6784,
      "ìĶĸ": 6785,
      "ìĶĹ": 6786,
      "ìĶĺ": 6787,
      "ìĶĻ": 6788,
      "ìĶļ": 6789,
      "ìĶĽ": 6790,
      "ìĶľ": 6791,
      "ìĶĿ": 6792,
      "ìĶŀ": 6793,
      "ìĶŁ": 6794,
      "ìĶł": 6795,
      "ìĶ¡": 6796,
      "ìĶ¢": 6797,
      "ìĶ£": 6798,
      "ìĶ¤": 6799,
      "ìĶ¥": 6800,
      "ìĶ¦": 6801,
      "ìĶ§": 6802,
      "ìĶ¨": 6803,
      "ìĶ©": 6804,
      "ìĶª": 6805,
      "ìĶ«": 6806,
      "ìĶ¬": 6807,
      "ìĶŃ": 6808,
      "ìĶ®": 6809,
      "ìĶ¯": 6810,
      "ìĶ°": 6811,
      "ìĶ±": 6812,
      "ìĶ²": 6813,
      "ìĶ³": 6814,
      "ìĶ´": 6815,
      "ìĶµ": 6816,
      "ìĶ¶": 6817,
      "ìĶ·": 6818,
      "ìĶ¸": 6819,
      "ìĶ¹": 6820,
      "ìĶº": 6821,
      "ìĶ»": 6822,
      "ìĶ¼": 6823,
      "ìĶ½": 6824,
      "ìĶ¾": 6825,
      "ìĶ¿": 6826,
      "ìķ": 6827,
      "ìķĢ": 6828,
      "ìķģ": 6829,
      "ìķĤ": 6830,
      "ìķĥ": 6831,
      "ìķĦ": 6832,
      "ìķħ": 6833,
      "ìķĨ": 6834,
      "ìķĩ": 6835,
      "ìķĪ": 6836,
      "ìķī": 6837,
      "ìķĬ": 6838,
      "ìķĭ": 6839,
      "ìķĮ": 6840,
      "ìķį": 6841,
      "ìķİ": 6842,
      "ìķı": 6843,
      "ìķĲ": 6844,
      "ìķĳ": 6845,
      "ìķĴ": 6846,
      "ìķĵ": 6847,
      "ìķĶ": 6848,
      "ìķķ": 6849,
      "ìķĸ": 6850,
      "ìķĹ": 6851,
      "ìķĺ": 6852,
      "ìķĻ": 6853,
      "ìķļ": 6854,
      "ìķĽ": 6855,
      "ìķľ": 6856,
      "ìķĿ": 6857,
      "ìķŀ": 6858,
      "ìķŁ": 6859,
      "ìķł": 6860,
      "ìķ¡": 6861,
      "ìķ¢": 6862,
      "ìķ£": 6863,
      "ìķ¤": 6864,
      "ìķ¥": 6865,
      "ìķ¦": 6866,
      "ìķ§": 6867,
      "ìķ¨": 6868,
      "ìķ©": 6869,
      "ìķª": 6870,
      "ìķ«": 6871,
      "ìķ¬": 6872,
      "ìķŃ": 6873,
      "ìķ®": 6874,
      "ìķ¯": 6875,
      "ìķ°": 6876,
      "ìķ±": 6877,
      "ìķ²": 6878,
      "ìķ³": 6879,
      "ìķ´": 6880,
      "ìķµ": 6881,
      "ìķ¶": 6882,
      "ìķ·": 6883,
      "ìķ¸": 6884,
      "ìķ¹": 6885,
      "ìķº": 6886,
      "ìķ»": 6887,
      "ìķ¼": 6888,
      "ìķ½": 6889,
      "ìķ¾": 6890,
      "ìķ¿": 6891,
      "ìĸ": 6892,
      "ìĸĢ": 6893,
      "ìĸģ": 6894,
      "ìĸĤ": 6895,
      "ìĸĥ": 6896,
      "ìĸĦ": 6897,
      "ìĸħ": 6898,
      "ìĸĨ": 6899,
      "ìĸĩ": 6900,
      "ìĸĪ": 6901,
      "ìĸī": 6902,
      "ìĸĬ": 6903,
      "ìĸĭ": 6904,
      "ìĸĮ": 6905,
      "ìĸį": 6906,
      "ìĸİ": 6907,
      "ìĸı": 6908,
      "ìĸĲ": 6909,
      "ìĸĳ": 6910,
      "ìĸĴ": 6911,
      "ìĸĵ": 6912,
      "ìĸĶ": 6913,
      "ìĸķ": 6914,
      "ìĸĸ": 6915,
      "ìĸĹ": 6916,
      "ìĸĺ": 6917,
      "ìĸĻ": 6918,
      "ìĸļ": 6919,
      "ìĸĽ": 6920,
      "ìĸľ": 6921,
      "ìĸĿ": 6922,
      "ìĸŀ": 6923,
      "ìĸŁ": 6924,
      "ìĸł": 6925,
      "ìĸ¡": 6926,
      "ìĸ¢": 6927,
      "ìĸ£": 6928,
      "ìĸ¤": 6929,
      "ìĸ¥": 6930,
      "ìĸ¦": 6931,
      "ìĸ§": 6932,
      "ìĸ¨": 6933,
      "ìĸ©": 6934,
      "ìĸª": 6935,
      "ìĸ«": 6936,
      "ìĸ¬": 6937,
      "ìĸŃ": 6938,
      "ìĸ®": 6939,
      "ìĸ¯": 6940,
      "ìĸ°": 6941,
      "ìĸ±": 6942,
      "ìĸ²": 6943,
      "ìĸ³": 6944,
      "ìĸ´": 6945,
      "ìĸµ": 6946,
      "ìĸ¶": 6947,
      "ìĸ·": 6948,
      "ìĸ¸": 6949,
      "ìĸ¹": 6950,
      "ìĸº": 6951,
      "ìĸ»": 6952,
      "ìĸ¼": 6953,
      "ìĸ½": 6954,
      "ìĸ¾": 6955,
      "ìĸ¿": 6956,
      "ìĹ": 6957,
      "ìĹĢ": 6958,
      "ìĹģ": 6959,
      "ìĹĤ": 6960,
      "ìĹĥ": 6961,
      "ìĹĦ": 6962,
      "ìĹħ": 6963,
      "ìĹĨ": 6964,
      "ìĹĩ": 6965,
      "ìĹĪ": 6966,
      "ìĹī": 6967,
      "ìĹĬ": 6968,
      "ìĹĭ": 6969,
      "ìĹĮ": 6970,
      "ìĹį": 6971,
      "ìĹİ": 6972,
      "ìĹı": 6973,
      "ìĹĲ": 6974,
      "ìĹĳ": 6975,
      "ìĹĴ": 6976,
      "ìĹĵ": 6977,
      "ìĹĶ": 6978,
      "ìĹķ": 6979,
      "ìĹĸ": 6980,
      "ìĹĹ": 6981,
      "ìĹĺ": 6982,
      "ìĹĻ": 6983,
      "ìĹļ": 6984,
      "ìĹĽ": 6985,
      "ìĹľ": 6986,
      "ìĹĿ": 6987,
      "ìĹŀ": 6988,
      "ìĹŁ": 6989,
      "ìĹł": 6990,
      "ìĹ¡": 6991,
      "ìĹ¢": 6992,
      "ìĹ£": 6993,
      "ìĹ¤": 6994,
      "ìĹ¥": 6995,
      "ìĹ¦": 6996,
      "ìĹ§": 6997,
      "ìĹ¨": 6998,
      "ìĹ©": 6999,
      "ìĹª": 7000,
      "ìĹ«": 7001,
      "ìĹ¬": 7002,
      "ìĹŃ": 7003,
      "ìĹ®": 7004,
      "ìĹ¯": 7005,
      "ìĹ°": 7006,
      "ìĹ±": 7007,
      "ìĹ²": 7008,
      "ìĹ³": 7009,
      "ìĹ´": 7010,
      "ìĹµ": 7011,
      "ìĹ¶": 7012,
      "ìĹ·": 7013,
      "ìĹ¸": 7014,
      "ìĹ¹": 7015,
      "ìĹº": 7016,
      "ìĹ»": 7017,
      "ìĹ¼": 7018,
      "ìĹ½": 7019,
      "ìĹ¾": 7020,
      "ìĹ¿": 7021,
      "ìĺ": 7022,
      "ìĺĢ": 7023,
      "ìĺģ": 7024,
      "ìĺĤ": 7025,
      "ìĺĥ": 7026,
      "ìĺĦ": 7027,
      "ìĺħ": 7028,
      "ìĺĨ": 7029,
      "ìĺĩ": 7030,
      "ìĺĪ": 7031,
      "ìĺī": 7032,
      "ìĺĬ": 7033,
      "ìĺĭ": 7034,
      "ìĺĮ": 7035,
      "ìĺį": 7036,
      "ìĺİ": 7037,
      "ìĺı": 7038,
      "ìĺĲ": 7039,
      "ìĺĳ": 7040,
      "ìĺĴ": 7041,
      "ìĺĵ": 7042,
      "ìĺĶ": 7043,
      "ìĺķ": 7044,
      "ìĺĸ": 7045,
      "ìĺĹ": 7046,
      "ìĺĺ": 7047,
      "ìĺĻ": 7048,
      "ìĺļ": 7049,
      "ìĺĽ": 7050,
      "ìĺľ": 7051,
      "ìĺĿ": 7052,
      "ìĺŀ": 7053,
      "ìĺŁ": 7054,
      "ìĺł": 7055,
      "ìĺ¡": 7056,
      "ìĺ¢": 7057,
      "ìĺ£": 7058,
      "ìĺ¤": 7059,
      "ìĺ¥": 7060,
      "ìĺ¦": 7061,
      "ìĺ§": 7062,
      "ìĺ¨": 7063,
      "ìĺ©": 7064,
      "ìĺª": 7065,
      "ìĺ«": 7066,
      "ìĺ¬": 7067,
      "ìĺŃ": 7068,
      "ìĺ®": 7069,
      "ìĺ¯": 7070,
      "ìĺ°": 7071,
      "ìĺ±": 7072,
      "ìĺ²": 7073,
      "ìĺ³": 7074,
      "ìĺ´": 7075,
      "ìĺµ": 7076,
      "ìĺ¶": 7077,
      "ìĺ·": 7078,
      "ìĺ¸": 7079,
      "ìĺ¹": 7080,
      "ìĺº": 7081,
      "ìĺ»": 7082,
      "ìĺ¼": 7083,
      "ìĺ½": 7084,
      "ìĺ¾": 7085,
      "ìĺ¿": 7086,
      "ìĻ": 7087,
      "ìĻĢ": 7088,
      "ìĻģ": 7089,
      "ìĻĤ": 7090,
      "ìĻĥ": 7091,
      "ìĻĦ": 7092,
      "ìĻħ": 7093,
      "ìĻĨ": 7094,
      "ìĻĩ": 7095,
      "ìĻĪ": 7096,
      "ìĻī": 7097,
      "ìĻĬ": 7098,
      "ìĻĭ": 7099,
      "ìĻĮ": 7100,
      "ìĻį": 7101,
      "ìĻİ": 7102,
      "ìĻı": 7103,
      "ìĻĲ": 7104,
      "ìĻĳ": 7105,
      "ìĻĴ": 7106,
      "ìĻĵ": 7107,
      "ìĻĶ": 7108,
      "ìĻķ": 7109,
      "ìĻĸ": 7110,
      "ìĻĹ": 7111,
      "ìĻĺ": 7112,
      "ìĻĻ": 7113,
      "ìĻļ": 7114,
      "ìĻĽ": 7115,
      "ìĻľ": 7116,
      "ìĻĿ": 7117,
      "ìĻŀ": 7118,
      "ìĻŁ": 7119,
      "ìĻł": 7120,
      "ìĻ¡": 7121,
      "ìĻ¢": 7122,
      "ìĻ£": 7123,
      "ìĻ¤": 7124,
      "ìĻ¥": 7125,
      "ìĻ¦": 7126,
      "ìĻ§": 7127,
      "ìĻ¨": 7128,
      "ìĻ©": 7129,
      "ìĻª": 7130,
      "ìĻ«": 7131,
      "ìĻ¬": 7132,
      "ìĻŃ": 7133,
      "ìĻ®": 7134,
      "ìĻ¯": 7135,
      "ìĻ°": 7136,
      "ìĻ±": 7137,
      "ìĻ²": 7138,
      "ìĻ³": 7139,
      "ìĻ´": 7140,
      "ìĻµ": 7141,
      "ìĻ¶": 7142,
      "ìĻ·": 7143,
      "ìĻ¸": 7144,
      "ìĻ¹": 7145,
      "ìĻº": 7146,
      "ìĻ»": 7147,
      "ìĻ¼": 7148,
      "ìĻ½": 7149,
      "ìĻ¾": 7150,
      "ìĻ¿": 7151,
      "ìļ": 7152,
      "ìļĢ": 7153,
      "ìļģ": 7154,
      "ìļĤ": 7155,
      "ìļĥ": 7156,
      "ìļĦ": 7157,
      "ìļħ": 7158,
      "ìļĨ": 7159,
      "ìļĩ": 7160,
      "ìļĪ": 7161,
      "ìļī": 7162,
      "ìļĬ": 7163,
      "ìļĭ": 7164,
      "ìļĮ": 7165,
      "ìļį": 7166,
      "ìļİ": 7167,
      "ìļı": 7168,
      "ìļĲ": 7169,
      "ìļĳ": 7170,
      "ìļĴ": 7171,
      "ìļĵ": 7172,
      "ìļĶ": 7173,
      "ìļķ": 7174,
      "ìļĸ": 7175,
      "ìļĹ": 7176,
      "ìļĺ": 7177,
      "ìļĻ": 7178,
      "ìļļ": 7179,
      "ìļĽ": 7180,
      "ìļľ": 7181,
      "ìļĿ": 7182,
      "ìļŀ": 7183,
      "ìļŁ": 7184,
      "ìļł": 7185,
      "ìļ¡": 7186,
      "ìļ¢": 7187,
      "ìļ£": 7188,
      "ìļ¤": 7189,
      "ìļ¥": 7190,
      "ìļ¦": 7191,
      "ìļ§": 7192,
      "ìļ¨": 7193,
      "ìļ©": 7194,
      "ìļª": 7195,
      "ìļ«": 7196,
      "ìļ¬": 7197,
      "ìļŃ": 7198,
      "ìļ®": 7199,
      "ìļ¯": 7200,
      "ìļ°": 7201,
      "ìļ±": 7202,
      "ìļ²": 7203,
      "ìļ³": 7204,
      "ìļ´": 7205,
      "ìļµ": 7206,
      "ìļ¶": 7207,
      "ìļ·": 7208,
      "ìļ¸": 7209,
      "ìļ¹": 7210,
      "ìļº": 7211,
      "ìļ»": 7212,
      "ìļ¼": 7213,
      "ìļ½": 7214,
      "ìļ¾": 7215,
      "ìļ¿": 7216,
      "ìĽ": 7217,
      "ìĽĢ": 7218,
      "ìĽģ": 7219,
      "ìĽĤ": 7220,
      "ìĽĥ": 7221,
      "ìĽĦ": 7222,
      "ìĽħ": 7223,
      "ìĽĨ": 7224,
      "ìĽĩ": 7225,
      "ìĽĪ": 7226,
      "ìĽī": 7227,
      "ìĽĬ": 7228,
      "ìĽĭ": 7229,
      "ìĽĮ": 7230,
      "ìĽį": 7231,
      "ìĽİ": 7232,
      "ìĽı": 7233,
      "ìĽĲ": 7234,
      "ìĽĳ": 7235,
      "ìĽĴ": 7236,
      "ìĽĵ": 7237,
      "ìĽĶ": 7238,
      "ìĽķ": 7239,
      "ìĽĸ": 7240,
      "ìĽĹ": 7241,
      "ìĽĺ": 7242,
      "ìĽĻ": 7243,
      "ìĽļ": 7244,
      "ìĽĽ": 7245,
      "ìĽľ": 7246,
      "ìĽĿ": 7247,
      "ìĽŀ": 7248,
      "ìĽŁ": 7249,
      "ìĽł": 7250,
      "ìĽ¡": 7251,
      "ìĽ¢": 7252,
      "ìĽ£": 7253,
      "ìĽ¤": 7254,
      "ìĽ¥": 7255,
      "ìĽ¦": 7256,
      "ìĽ§": 7257,
      "ìĽ¨": 7258,
      "ìĽ©": 7259,
      "ìĽª": 7260,
      "ìĽ«": 7261,
      "ìĽ¬": 7262,
      "ìĽŃ": 7263,
      "ìĽ®": 7264,
      "ìĽ¯": 7265,
      "ìĽ°": 7266,
      "ìĽ±": 7267,
      "ìĽ²": 7268,
      "ìĽ³": 7269,
      "ìĽ´": 7270,
      "ìĽµ": 7271,
      "ìĽ¶": 7272,
      "ìĽ·": 7273,
      "ìĽ¸": 7274,
      "ìĽ¹": 7275,
      "ìĽº": 7276,
      "ìĽ»": 7277,
      "ìĽ¼": 7278,
      "ìĽ½": 7279,
      "ìĽ¾": 7280,
      "ìĽ¿": 7281,
      "ìľ": 7282,
      "ìľĢ": 7283,
      "ìľģ": 7284,
      "ìľĤ": 7285,
      "ìľĥ": 7286,
      "ìľĦ": 7287,
      "ìľħ": 7288,
      "ìľĨ": 7289,
      "ìľĩ": 7290,
      "ìľĪ": 7291,
      "ìľī": 7292,
      "ìľĬ": 7293,
      "ìľĭ": 7294,
      "ìľĮ": 7295,
      "ìľį": 7296,
      "ìľİ": 7297,
      "ìľı": 7298,
      "ìľĲ": 7299,
      "ìľĳ": 7300,
      "ìľĴ": 7301,
      "ìľĵ": 7302,
      "ìľĶ": 7303,
      "ìľķ": 7304,
      "ìľĸ": 7305,
      "ìľĹ": 7306,
      "ìľĺ": 7307,
      "ìľĻ": 7308,
      "ìľļ": 7309,
      "ìľĽ": 7310,
      "ìľľ": 7311,
      "ìľĿ": 7312,
      "ìľŀ": 7313,
      "ìľŁ": 7314,
      "ìľł": 7315,
      "ìľ¡": 7316,
      "ìľ¢": 7317,
      "ìľ£": 7318,
      "ìľ¤": 7319,
      "ìľ¥": 7320,
      "ìľ¦": 7321,
      "ìľ§": 7322,
      "ìľ¨": 7323,
      "ìľ©": 7324,
      "ìľª": 7325,
      "ìľ«": 7326,
      "ìľ¬": 7327,
      "ìľŃ": 7328,
      "ìľ®": 7329,
      "ìľ¯": 7330,
      "ìľ°": 7331,
      "ìľ±": 7332,
      "ìľ²": 7333,
      "ìľ³": 7334,
      "ìľ´": 7335,
      "ìľµ": 7336,
      "ìľ¶": 7337,
      "ìľ·": 7338,
      "ìľ¸": 7339,
      "ìľ¹": 7340,
      "ìľº": 7341,
      "ìľ»": 7342,
      "ìľ¼": 7343,
      "ìľ½": 7344,
      "ìľ¾": 7345,
      "ìľ¿": 7346,
      "ìĿ": 7347,
      "ìĿĢ": 7348,
      "ìĿģ": 7349,
      "ìĿĤ": 7350,
      "ìĿĥ": 7351,
      "ìĿĦ": 7352,
      "ìĿħ": 7353,
      "ìĿĨ": 7354,
      "ìĿĩ": 7355,
      "ìĿĪ": 7356,
      "ìĿī": 7357,
      "ìĿĬ": 7358,
      "ìĿĭ": 7359,
      "ìĿĮ": 7360,
      "ìĿį": 7361,
      "ìĿİ": 7362,
      "ìĿı": 7363,
      "ìĿĲ": 7364,
      "ìĿĳ": 7365,
      "ìĿĴ": 7366,
      "ìĿĵ": 7367,
      "ìĿĶ": 7368,
      "ìĿķ": 7369,
      "ìĿĸ": 7370,
      "ìĿĹ": 7371,
      "ìĿĺ": 7372,
      "ìĿĻ": 7373,
      "ìĿļ": 7374,
      "ìĿĽ": 7375,
      "ìĿľ": 7376,
      "ìĿĿ": 7377,
      "ìĿŀ": 7378,
      "ìĿŁ": 7379,
      "ìĿł": 7380,
      "ìĿ¡": 7381,
      "ìĿ¢": 7382,
      "ìĿ£": 7383,
      "ìĿ¤": 7384,
      "ìĿ¥": 7385,
      "ìĿ¦": 7386,
      "ìĿ§": 7387,
      "ìĿ¨": 7388,
      "ìĿ©": 7389,
      "ìĿª": 7390,
      "ìĿ«": 7391,
      "ìĿ¬": 7392,
      "ìĿŃ": 7393,
      "ìĿ®": 7394,
      "ìĿ¯": 7395,
      "ìĿ°": 7396,
      "ìĿ±": 7397,
      "ìĿ²": 7398,
      "ìĿ³": 7399,
      "ìĿ´": 7400,
      "ìĿµ": 7401,
      "ìĿ¶": 7402,
      "ìĿ·": 7403,
      "ìĿ¸": 7404,
      "ìĿ¹": 7405,
      "ìĿº": 7406,
      "ìĿ»": 7407,
      "ìĿ¼": 7408,
      "ìĿ½": 7409,
      "ìĿ¾": 7410,
      "ìĿ¿": 7411,
      "ìŀ": 7412,
      "ìŀĢ": 7413,
      "ìŀģ": 7414,
      "ìŀĤ": 7415,
      "ìŀĥ": 7416,
      "ìŀĦ": 7417,
      "ìŀħ": 7418,
      "ìŀĨ": 7419,
      "ìŀĩ": 7420,
      "ìŀĪ": 7421,
      "ìŀī": 7422,
      "ìŀĬ": 7423,
      "ìŀĭ": 7424,
      "ìŀĮ": 7425,
      "ìŀį": 7426,
      "ìŀİ": 7427,
      "ìŀı": 7428,
      "ìŀĲ": 7429,
      "ìŀĳ": 7430,
      "ìŀĴ": 7431,
      "ìŀĵ": 7432,
      "ìŀĶ": 7433,
      "ìŀķ": 7434,
      "ìŀĸ": 7435,
      "ìŀĹ": 7436,
      "ìŀĺ": 7437,
      "ìŀĻ": 7438,
      "ìŀļ": 7439,
      "ìŀĽ": 7440,
      "ìŀľ": 7441,
      "ìŀĿ": 7442,
      "ìŀŀ": 7443,
      "ìŀŁ": 7444,
      "ìŀł": 7445,
      "ìŀ¡": 7446,
      "ìŀ¢": 7447,
      "ìŀ£": 7448,
      "ìŀ¤": 7449,
      "ìŀ¥": 7450,
      "ìŀ¦": 7451,
      "ìŀ§": 7452,
      "ìŀ¨": 7453,
      "ìŀ©": 7454,
      "ìŀª": 7455,
      "ìŀ«": 7456,
      "ìŀ¬": 7457,
      "ìŀŃ": 7458,
      "ìŀ®": 7459,
      "ìŀ¯": 7460,
      "ìŀ°": 7461,
      "ìŀ±": 7462,
      "ìŀ²": 7463,
      "ìŀ³": 7464,
      "ìŀ´": 7465,
      "ìŀµ": 7466,
      "ìŀ¶": 7467,
      "ìŀ·": 7468,
      "ìŀ¸": 7469,
      "ìŀ¹": 7470,
      "ìŀº": 7471,
      "ìŀ»": 7472,
      "ìŀ¼": 7473,
      "ìŀ½": 7474,
      "ìŀ¾": 7475,
      "ìŀ¿": 7476,
      "ìŁ": 7477,
      "ìŁĢ": 7478,
      "ìŁģ": 7479,
      "ìŁĤ": 7480,
      "ìŁĥ": 7481,
      "ìŁĦ": 7482,
      "ìŁħ": 7483,
      "ìŁĨ": 7484,
      "ìŁĩ": 7485,
      "ìŁĪ": 7486,
      "ìŁī": 7487,
      "ìŁĬ": 7488,
      "ìŁĭ": 7489,
      "ìŁĮ": 7490,
      "ìŁį": 7491,
      "ìŁİ": 7492,
      "ìŁı": 7493,
      "ìŁĲ": 7494,
      "ìŁĳ": 7495,
      "ìŁĴ": 7496,
      "ìŁĵ": 7497,
      "ìŁĶ": 7498,
      "ìŁķ": 7499,
      "ìŁĸ": 7500,
      "ìŁĹ": 7501,
      "ìŁĺ": 7502,
      "ìŁĻ": 7503,
      "ìŁļ": 7504,
      "ìŁĽ": 7505,
      "ìŁľ": 7506,
      "ìŁĿ": 7507,
      "ìŁŀ": 7508,
      "ìŁŁ": 7509,
      "ìŁł": 7510,
      "ìŁ¡": 7511,
      "ìŁ¢": 7512,
      "ìŁ£": 7513,
      "ìŁ¤": 7514,
      "ìŁ¥": 7515,
      "ìŁ¦": 7516,
      "ìŁ§": 7517,
      "ìŁ¨": 7518,
      "ìŁ©": 7519,
      "ìŁª": 7520,
      "ìŁ«": 7521,
      "ìŁ¬": 7522,
      "ìŁŃ": 7523,
      "ìŁ®": 7524,
      "ìŁ¯": 7525,
      "ìŁ°": 7526,
      "ìŁ±": 7527,
      "ìŁ²": 7528,
      "ìŁ³": 7529,
      "ìŁ´": 7530,
      "ìŁµ": 7531,
      "ìŁ¶": 7532,
      "ìŁ·": 7533,
      "ìŁ¸": 7534,
      "ìŁ¹": 7535,
      "ìŁº": 7536,
      "ìŁ»": 7537,
      "ìŁ¼": 7538,
      "ìŁ½": 7539,
      "ìŁ¾": 7540,
      "ìŁ¿": 7541,
      "ìł": 7542,
      "ìłĢ": 7543,
      "ìłģ": 7544,
      "ìłĤ": 7545,
      "ìłĥ": 7546,
      "ìłĦ": 7547,
      "ìłħ": 7548,
      "ìłĨ": 7549,
      "ìłĩ": 7550,
      "ìłĪ": 7551,
      "ìłī": 7552,
      "ìłĬ": 7553,
      "ìłĭ": 7554,
      "ìłĮ": 7555,
      "ìłį": 7556,
      "ìłİ": 7557,
      "ìłı": 7558,
      "ìłĲ": 7559,
      "ìłĳ": 7560,
      "ìłĴ": 7561,
      "ìłĵ": 7562,
      "ìłĶ": 7563,
      "ìłķ": 7564,
      "ìłĸ": 7565,
      "ìłĹ": 7566,
      "ìłĺ": 7567,
      "ìłĻ": 7568,
      "ìłļ": 7569,
      "ìłĽ": 7570,
      "ìłľ": 7571,
      "ìłĿ": 7572,
      "ìłŀ": 7573,
      "ìłŁ": 7574,
      "ìłł": 7575,
      "ìł¡": 7576,
      "ìł¢": 7577,
      "ìł£": 7578,
      "ìł¤": 7579,
      "ìł¥": 7580,
      "ìł¦": 7581,
      "ìł§": 7582,
      "ìł¨": 7583,
      "ìł©": 7584,
      "ìłª": 7585,
      "ìł«": 7586,
      "ìł¬": 7587,
      "ìłŃ": 7588,
      "ìł®": 7589,
      "ìł¯": 7590,
      "ìł°": 7591,
      "ìł±": 7592,
      "ìł²": 7593,
      "ìł³": 7594,
      "ìł´": 7595,
      "ìłµ": 7596,
      "ìł¶": 7597,
      "ìł·": 7598,
      "ìł¸": 7599,
      "ìł¹": 7600,
      "ìłº": 7601,
      "ìł»": 7602,
      "ìł¼": 7603,
      "ìł½": 7604,
      "ìł¾": 7605,
      "ìł¿": 7606,
      "ì¡": 7607,
      "ì¡Ģ": 7608,
      "ì¡ģ": 7609,
      "ì¡Ĥ": 7610,
      "ì¡ĥ": 7611,
      "ì¡Ħ": 7612,
      "ì¡ħ": 7613,
      "ì¡Ĩ": 7614,
      "ì¡ĩ": 7615,
      "ì¡Ī": 7616,
      "ì¡ī": 7617,
      "ì¡Ĭ": 7618,
      "ì¡ĭ": 7619,
      "ì¡Į": 7620,
      "ì¡į": 7621,
      "ì¡İ": 7622,
      "ì¡ı": 7623,
      "ì¡Ĳ": 7624,
      "ì¡ĳ": 7625,
      "ì¡Ĵ": 7626,
      "ì¡ĵ": 7627,
      "ì¡Ķ": 7628,
      "ì¡ķ": 7629,
      "ì¡ĸ": 7630,
      "ì¡Ĺ": 7631,
      "ì¡ĺ": 7632,
      "ì¡Ļ": 7633,
      "ì¡ļ": 7634,
      "ì¡Ľ": 7635,
      "ì¡ľ": 7636,
      "ì¡Ŀ": 7637,
      "ì¡ŀ": 7638,
      "ì¡Ł": 7639,
      "ì¡ł": 7640,
      "ì¡¡": 7641,
      "ì¡¢": 7642,
      "ì¡£": 7643,
      "ì¡¤": 7644,
      "ì¡¥": 7645,
      "ì¡¦": 7646,
      "ì¡§": 7647,
      "ì¡¨": 7648,
      "ì¡©": 7649,
      "ì¡ª": 7650,
      "ì¡«": 7651,
      "ì¡¬": 7652,
      "ì¡Ń": 7653,
      "ì¡®": 7654,
      "ì¡¯": 7655,
      "ì¡°": 7656,
      "ì¡±": 7657,
      "ì¡²": 7658,
      "ì¡³": 7659,
      "ì¡´": 7660,
      "ì¡µ": 7661,
      "ì¡¶": 7662,
      "ì¡·": 7663,
      "ì¡¸": 7664,
      "ì¡¹": 7665,
      "ì¡º": 7666,
      "ì¡»": 7667,
      "ì¡¼": 7668,
      "ì¡½": 7669,
      "ì¡¾": 7670,
      "ì¡¿": 7671,
      "ì¢": 7672,
      "ì¢Ģ": 7673,
      "ì¢ģ": 7674,
      "ì¢Ĥ": 7675,
      "ì¢ĥ": 7676,
      "ì¢Ħ": 7677,
      "ì¢ħ": 7678,
      "ì¢Ĩ": 7679,
      "ì¢ĩ": 7680,
      "ì¢Ī": 7681,
      "ì¢ī": 7682,
      "ì¢Ĭ": 7683,
      "ì¢ĭ": 7684,
      "ì¢Į": 7685,
      "ì¢į": 7686,
      "ì¢İ": 7687,
      "ì¢ı": 7688,
      "ì¢Ĳ": 7689,
      "ì¢ĳ": 7690,
      "ì¢Ĵ": 7691,
      "ì¢ĵ": 7692,
      "ì¢Ķ": 7693,
      "ì¢ķ": 7694,
      "ì¢ĸ": 7695,
      "ì¢Ĺ": 7696,
      "ì¢ĺ": 7697,
      "ì¢Ļ": 7698,
      "ì¢ļ": 7699,
      "ì¢Ľ": 7700,
      "ì¢ľ": 7701,
      "ì¢Ŀ": 7702,
      "ì¢ŀ": 7703,
      "ì¢Ł": 7704,
      "ì¢ł": 7705,
      "ì¢¡": 7706,
      "ì¢¢": 7707,
      "ì¢£": 7708,
      "ì¢¤": 7709,
      "ì¢¥": 7710,
      "ì¢¦": 7711,
      "ì¢§": 7712,
      "ì¢¨": 7713,
      "ì¢©": 7714,
      "ì¢ª": 7715,
      "ì¢«": 7716,
      "ì¢¬": 7717,
      "ì¢Ń": 7718,
      "ì¢®": 7719,
      "ì¢¯": 7720,
      "ì¢°": 7721,
      "ì¢±": 7722,
      "ì¢²": 7723,
      "ì¢³": 7724,
      "ì¢´": 7725,
      "ì¢µ": 7726,
      "ì¢¶": 7727,
      "ì¢·": 7728,
      "ì¢¸": 7729,
      "ì¢¹": 7730,
      "ì¢º": 7731,
      "ì¢»": 7732,
      "ì¢¼": 7733,
      "ì¢½": 7734,
      "ì¢¾": 7735,
      "ì¢¿": 7736,
      "ì£": 7737,
      "ì£Ģ": 7738,
      "ì£ģ": 7739,
      "ì£Ĥ": 7740,
      "ì£ĥ": 7741,
      "ì£Ħ": 7742,
      "ì£ħ": 7743,
      "ì£Ĩ": 7744,
      "ì£ĩ": 7745,
      "ì£Ī": 7746,
      "ì£ī": 7747,
      "ì£Ĭ": 7748,
      "ì£ĭ": 7749,
      "ì£Į": 7750,
      "ì£į": 7751,
      "ì£İ": 7752,
      "ì£ı": 7753,
      "ì£Ĳ": 7754,
      "ì£ĳ": 7755,
      "ì£Ĵ": 7756,
      "ì£ĵ": 7757,
      "ì£Ķ": 7758,
      "ì£ķ": 7759,
      "ì£ĸ": 7760,
      "ì£Ĺ": 7761,
      "ì£ĺ": 7762,
      "ì£Ļ": 7763,
      "ì£ļ": 7764,
      "ì£Ľ": 7765,
      "ì£ľ": 7766,
      "ì£Ŀ": 7767,
      "ì£ŀ": 7768,
      "ì£Ł": 7769,
      "ì£ł": 7770,
      "ì£¡": 7771,
      "ì£¢": 7772,
      "ì££": 7773,
      "ì£¤": 7774,
      "ì£¥": 7775,
      "ì£¦": 7776,
      "ì£§": 7777,
      "ì£¨": 7778,
      "ì£©": 7779,
      "ì£ª": 7780,
      "ì£«": 7781,
      "ì£¬": 7782,
      "ì£Ń": 7783,
      "ì£®": 7784,
      "ì£¯": 7785,
      "ì£°": 7786,
      "ì£±": 7787,
      "ì£²": 7788,
      "ì£³": 7789,
      "ì£´": 7790,
      "ì£µ": 7791,
      "ì£¶": 7792,
      "ì£·": 7793,
      "ì£¸": 7794,
      "ì£¹": 7795,
      "ì£º": 7796,
      "ì£»": 7797,
      "ì£¼": 7798,
      "ì£½": 7799,
      "ì£¾": 7800,
      "ì£¿": 7801,
      "ì¤": 7802,
      "ì¤Ģ": 7803,
      "ì¤ģ": 7804,
      "ì¤Ĥ": 7805,
      "ì¤ĥ": 7806,
      "ì¤Ħ": 7807,
      "ì¤ħ": 7808,
      "ì¤Ĩ": 7809,
      "ì¤ĩ": 7810,
      "ì¤Ī": 7811,
      "ì¤ī": 7812,
      "ì¤Ĭ": 7813,
      "ì¤ĭ": 7814,
      "ì¤Į": 7815,
      "ì¤į": 7816,
      "ì¤İ": 7817,
      "ì¤ı": 7818,
      "ì¤Ĳ": 7819,
      "ì¤ĳ": 7820,
      "ì¤Ĵ": 7821,
      "ì¤ĵ": 7822,
      "ì¤Ķ": 7823,
      "ì¤ķ": 7824,
      "ì¤ĸ": 7825,
      "ì¤Ĺ": 7826,
      "ì¤ĺ": 7827,
      "ì¤Ļ": 7828,
      "ì¤ļ": 7829,
      "ì¤Ľ": 7830,
      "ì¤ľ": 7831,
      "ì¤Ŀ": 7832,
      "ì¤ŀ": 7833,
      "ì¤Ł": 7834,
      "ì¤ł": 7835,
      "ì¤¡": 7836,
      "ì¤¢": 7837,
      "ì¤£": 7838,
      "ì¤¤": 7839,
      "ì¤¥": 7840,
      "ì¤¦": 7841,
      "ì¤§": 7842,
      "ì¤¨": 7843,
      "ì¤©": 7844,
      "ì¤ª": 7845,
      "ì¤«": 7846,
      "ì¤¬": 7847,
      "ì¤Ń": 7848,
      "ì¤®": 7849,
      "ì¤¯": 7850,
      "ì¤°": 7851,
      "ì¤±": 7852,
      "ì¤²": 7853,
      "ì¤³": 7854,
      "ì¤´": 7855,
      "ì¤µ": 7856,
      "ì¤¶": 7857,
      "ì¤·": 7858,
      "ì¤¸": 7859,
      "ì¤¹": 7860,
      "ì¤º": 7861,
      "ì¤»": 7862,
      "ì¤¼": 7863,
      "ì¤½": 7864,
      "ì¤¾": 7865,
      "ì¤¿": 7866,
      "ì¥": 7867,
      "ì¥Ģ": 7868,
      "ì¥ģ": 7869,
      "ì¥Ĥ": 7870,
      "ì¥ĥ": 7871,
      "ì¥Ħ": 7872,
      "ì¥ħ": 7873,
      "ì¥Ĩ": 7874,
      "ì¥ĩ": 7875,
      "ì¥Ī": 7876,
      "ì¥ī": 7877,
      "ì¥Ĭ": 7878,
      "ì¥ĭ": 7879,
      "ì¥Į": 7880,
      "ì¥į": 7881,
      "ì¥İ": 7882,
      "ì¥ı": 7883,
      "ì¥Ĳ": 7884,
      "ì¥ĳ": 7885,
      "ì¥Ĵ": 7886,
      "ì¥ĵ": 7887,
      "ì¥Ķ": 7888,
      "ì¥ķ": 7889,
      "ì¥ĸ": 7890,
      "ì¥Ĺ": 7891,
      "ì¥ĺ": 7892,
      "ì¥Ļ": 7893,
      "ì¥ļ": 7894,
      "ì¥Ľ": 7895,
      "ì¥ľ": 7896,
      "ì¥Ŀ": 7897,
      "ì¥ŀ": 7898,
      "ì¥Ł": 7899,
      "ì¥ł": 7900,
      "ì¥¡": 7901,
      "ì¥¢": 7902,
      "ì¥£": 7903,
      "ì¥¤": 7904,
      "ì¥¥": 7905,
      "ì¥¦": 7906,
      "ì¥§": 7907,
      "ì¥¨": 7908,
      "ì¥©": 7909,
      "ì¥ª": 7910,
      "ì¥«": 7911,
      "ì¥¬": 7912,
      "ì¥Ń": 7913,
      "ì¥®": 7914,
      "ì¥¯": 7915,
      "ì¥°": 7916,
      "ì¥±": 7917,
      "ì¥²": 7918,
      "ì¥³": 7919,
      "ì¥´": 7920,
      "ì¥µ": 7921,
      "ì¥¶": 7922,
      "ì¥·": 7923,
      "ì¥¸": 7924,
      "ì¥¹": 7925,
      "ì¥º": 7926,
      "ì¥»": 7927,
      "ì¥¼": 7928,
      "ì¥½": 7929,
      "ì¥¾": 7930,
      "ì¥¿": 7931,
      "ì¦": 7932,
      "ì¦Ģ": 7933,
      "ì¦ģ": 7934,
      "ì¦Ĥ": 7935,
      "ì¦ĥ": 7936,
      "ì¦Ħ": 7937,
      "ì¦ħ": 7938,
      "ì¦Ĩ": 7939,
      "ì¦ĩ": 7940,
      "ì¦Ī": 7941,
      "ì¦ī": 7942,
      "ì¦Ĭ": 7943,
      "ì¦ĭ": 7944,
      "ì¦Į": 7945,
      "ì¦į": 7946,
      "ì¦İ": 7947,
      "ì¦ı": 7948,
      "ì¦Ĳ": 7949,
      "ì¦ĳ": 7950,
      "ì¦Ĵ": 7951,
      "ì¦ĵ": 7952,
      "ì¦Ķ": 7953,
      "ì¦ķ": 7954,
      "ì¦ĸ": 7955,
      "ì¦Ĺ": 7956,
      "ì¦ĺ": 7957,
      "ì¦Ļ": 7958,
      "ì¦ļ": 7959,
      "ì¦Ľ": 7960,
      "ì¦ľ": 7961,
      "ì¦Ŀ": 7962,
      "ì¦ŀ": 7963,
      "ì¦Ł": 7964,
      "ì¦ł": 7965,
      "ì¦¡": 7966,
      "ì¦¢": 7967,
      "ì¦£": 7968,
      "ì¦¤": 7969,
      "ì¦¥": 7970,
      "ì¦¦": 7971,
      "ì¦§": 7972,
      "ì¦¨": 7973,
      "ì¦©": 7974,
      "ì¦ª": 7975,
      "ì¦«": 7976,
      "ì¦¬": 7977,
      "ì¦Ń": 7978,
      "ì¦®": 7979,
      "ì¦¯": 7980,
      "ì¦°": 7981,
      "ì¦±": 7982,
      "ì¦²": 7983,
      "ì¦³": 7984,
      "ì¦´": 7985,
      "ì¦µ": 7986,
      "ì¦¶": 7987,
      "ì¦·": 7988,
      "ì¦¸": 7989,
      "ì¦¹": 7990,
      "ì¦º": 7991,
      "ì¦»": 7992,
      "ì¦¼": 7993,
      "ì¦½": 7994,
      "ì¦¾": 7995,
      "ì¦¿": 7996,
      "ì§": 7997,
      "ì§Ģ": 7998,
      "ì§ģ": 7999,
      "ì§Ĥ": 8000,
      "ì§ĥ": 8001,
      "ì§Ħ": 8002,
      "ì§ħ": 8003,
      "ì§Ĩ": 8004,
      "ì§ĩ": 8005,
      "ì§Ī": 8006,
      "ì§ī": 8007,
      "ì§Ĭ": 8008,
      "ì§ĭ": 8009,
      "ì§Į": 8010,
      "ì§į": 8011,
      "ì§İ": 8012,
      "ì§ı": 8013,
      "ì§Ĳ": 8014,
      "ì§ĳ": 8015,
      "ì§Ĵ": 8016,
      "ì§ĵ": 8017,
      "ì§Ķ": 8018,
      "ì§ķ": 8019,
      "ì§ĸ": 8020,
      "ì§Ĺ": 8021,
      "ì§ĺ": 8022,
      "ì§Ļ": 8023,
      "ì§ļ": 8024,
      "ì§Ľ": 8025,
      "ì§ľ": 8026,
      "ì§Ŀ": 8027,
      "ì§ŀ": 8028,
      "ì§Ł": 8029,
      "ì§ł": 8030,
      "ì§¡": 8031,
      "ì§¢": 8032,
      "ì§£": 8033,
      "ì§¤": 8034,
      "ì§¥": 8035,
      "ì§¦": 8036,
      "ì§§": 8037,
      "ì§¨": 8038,
      "ì§©": 8039,
      "ì§ª": 8040,
      "ì§«": 8041,
      "ì§¬": 8042,
      "ì§Ń": 8043,
      "ì§®": 8044,
      "ì§¯": 8045,
      "ì§°": 8046,
      "ì§±": 8047,
      "ì§²": 8048,
      "ì§³": 8049,
      "ì§´": 8050,
      "ì§µ": 8051,
      "ì§¶": 8052,
      "ì§·": 8053,
      "ì§¸": 8054,
      "ì§¹": 8055,
      "ì§º": 8056,
      "ì§»": 8057,
      "ì§¼": 8058,
      "ì§½": 8059,
      "ì§¾": 8060,
      "ì§¿": 8061,
      "ì¨": 8062,
      "ì¨Ģ": 8063,
      "ì¨ģ": 8064,
      "ì¨Ĥ": 8065,
      "ì¨ĥ": 8066,
      "ì¨Ħ": 8067,
      "ì¨ħ": 8068,
      "ì¨Ĩ": 8069,
      "ì¨ĩ": 8070,
      "ì¨Ī": 8071,
      "ì¨ī": 8072,
      "ì¨Ĭ": 8073,
      "ì¨ĭ": 8074,
      "ì¨Į": 8075,
      "ì¨į": 8076,
      "ì¨İ": 8077,
      "ì¨ı": 8078,
      "ì¨Ĳ": 8079,
      "ì¨ĳ": 8080,
      "ì¨Ĵ": 8081,
      "ì¨ĵ": 8082,
      "ì¨Ķ": 8083,
      "ì¨ķ": 8084,
      "ì¨ĸ": 8085,
      "ì¨Ĺ": 8086,
      "ì¨ĺ": 8087,
      "ì¨Ļ": 8088,
      "ì¨ļ": 8089,
      "ì¨Ľ": 8090,
      "ì¨ľ": 8091,
      "ì¨Ŀ": 8092,
      "ì¨ŀ": 8093,
      "ì¨Ł": 8094,
      "ì¨ł": 8095,
      "ì¨¡": 8096,
      "ì¨¢": 8097,
      "ì¨£": 8098,
      "ì¨¤": 8099,
      "ì¨¥": 8100,
      "ì¨¦": 8101,
      "ì¨§": 8102,
      "ì¨¨": 8103,
      "ì¨©": 8104,
      "ì¨ª": 8105,
      "ì¨«": 8106,
      "ì¨¬": 8107,
      "ì¨Ń": 8108,
      "ì¨®": 8109,
      "ì¨¯": 8110,
      "ì¨°": 8111,
      "ì¨±": 8112,
      "ì¨²": 8113,
      "ì¨³": 8114,
      "ì¨´": 8115,
      "ì¨µ": 8116,
      "ì¨¶": 8117,
      "ì¨·": 8118,
      "ì¨¸": 8119,
      "ì¨¹": 8120,
      "ì¨º": 8121,
      "ì¨»": 8122,
      "ì¨¼": 8123,
      "ì¨½": 8124,
      "ì¨¾": 8125,
      "ì¨¿": 8126,
      "ì©": 8127,
      "ì©Ģ": 8128,
      "ì©ģ": 8129,
      "ì©Ĥ": 8130,
      "ì©ĥ": 8131,
      "ì©Ħ": 8132,
      "ì©ħ": 8133,
      "ì©Ĩ": 8134,
      "ì©ĩ": 8135,
      "ì©Ī": 8136,
      "ì©ī": 8137,
      "ì©Ĭ": 8138,
      "ì©ĭ": 8139,
      "ì©Į": 8140,
      "ì©į": 8141,
      "ì©İ": 8142,
      "ì©ı": 8143,
      "ì©Ĳ": 8144,
      "ì©ĳ": 8145,
      "ì©Ĵ": 8146,
      "ì©ĵ": 8147,
      "ì©Ķ": 8148,
      "ì©ķ": 8149,
      "ì©ĸ": 8150,
      "ì©Ĺ": 8151,
      "ì©ĺ": 8152,
      "ì©Ļ": 8153,
      "ì©ļ": 8154,
      "ì©Ľ": 8155,
      "ì©ľ": 8156,
      "ì©Ŀ": 8157,
      "ì©ŀ": 8158,
      "ì©Ł": 8159,
      "ì©ł": 8160,
      "ì©¡": 8161,
      "ì©¢": 8162,
      "ì©£": 8163,
      "ì©¤": 8164,
      "ì©¥": 8165,
      "ì©¦": 8166,
      "ì©§": 8167,
      "ì©¨": 8168,
      "ì©©": 8169,
      "ì©ª": 8170,
      "ì©«": 8171,
      "ì©¬": 8172,
      "ì©Ń": 8173,
      "ì©®": 8174,
      "ì©¯": 8175,
      "ì©°": 8176,
      "ì©±": 8177,
      "ì©²": 8178,
      "ì©³": 8179,
      "ì©´": 8180,
      "ì©µ": 8181,
      "ì©¶": 8182,
      "ì©·": 8183,
      "ì©¸": 8184,
      "ì©¹": 8185,
      "ì©º": 8186,
      "ì©»": 8187,
      "ì©¼": 8188,
      "ì©½": 8189,
      "ì©¾": 8190,
      "ì©¿": 8191,
      "ìª": 8192,
      "ìªĢ": 8193,
      "ìªģ": 8194,
      "ìªĤ": 8195,
      "ìªĥ": 8196,
      "ìªĦ": 8197,
      "ìªħ": 8198,
      "ìªĨ": 8199,
      "ìªĩ": 8200,
      "ìªĪ": 8201,
      "ìªī": 8202,
      "ìªĬ": 8203,
      "ìªĭ": 8204,
      "ìªĮ": 8205,
      "ìªį": 8206,
      "ìªİ": 8207,
      "ìªı": 8208,
      "ìªĲ": 8209,
      "ìªĳ": 8210,
      "ìªĴ": 8211,
      "ìªĵ": 8212,
      "ìªĶ": 8213,
      "ìªķ": 8214,
      "ìªĸ": 8215,
      "ìªĹ": 8216,
      "ìªĺ": 8217,
      "ìªĻ": 8218,
      "ìªļ": 8219,
      "ìªĽ": 8220,
      "ìªľ": 8221,
      "ìªĿ": 8222,
      "ìªŀ": 8223,
      "ìªŁ": 8224,
      "ìªł": 8225,
      "ìª¡": 8226,
      "ìª¢": 8227,
      "ìª£": 8228,
      "ìª¤": 8229,
      "ìª¥": 8230,
      "ìª¦": 8231,
      "ìª§": 8232,
      "ìª¨": 8233,
      "ìª©": 8234,
      "ìªª": 8235,
      "ìª«": 8236,
      "ìª¬": 8237,
      "ìªŃ": 8238,
      "ìª®": 8239,
      "ìª¯": 8240,
      "ìª°": 8241,
      "ìª±": 8242,
      "ìª²": 8243,
      "ìª³": 8244,
      "ìª´": 8245,
      "ìªµ": 8246,
      "ìª¶": 8247,
      "ìª·": 8248,
      "ìª¸": 8249,
      "ìª¹": 8250,
      "ìªº": 8251,
      "ìª»": 8252,
      "ìª¼": 8253,
      "ìª½": 8254,
      "ìª¾": 8255,
      "ìª¿": 8256,
      "ì«": 8257,
      "ì«Ģ": 8258,
      "ì«ģ": 8259,
      "ì«Ĥ": 8260,
      "ì«ĥ": 8261,
      "ì«Ħ": 8262,
      "ì«ħ": 8263,
      "ì«Ĩ": 8264,
      "ì«ĩ": 8265,
      "ì«Ī": 8266,
      "ì«ī": 8267,
      "ì«Ĭ": 8268,
      "ì«ĭ": 8269,
      "ì«Į": 8270,
      "ì«į": 8271,
      "ì«İ": 8272,
      "ì«ı": 8273,
      "ì«Ĳ": 8274,
      "ì«ĳ": 8275,
      "ì«Ĵ": 8276,
      "ì«ĵ": 8277,
      "ì«Ķ": 8278,
      "ì«ķ": 8279,
      "ì«ĸ": 8280,
      "ì«Ĺ": 8281,
      "ì«ĺ": 8282,
      "ì«Ļ": 8283,
      "ì«ļ": 8284,
      "ì«Ľ": 8285,
      "ì«ľ": 8286,
      "ì«Ŀ": 8287,
      "ì«ŀ": 8288,
      "ì«Ł": 8289,
      "ì«ł": 8290,
      "ì«¡": 8291,
      "ì«¢": 8292,
      "ì«£": 8293,
      "ì«¤": 8294,
      "ì«¥": 8295,
      "ì«¦": 8296,
      "ì«§": 8297,
      "ì«¨": 8298,
      "ì«©": 8299,
      "ì«ª": 8300,
      "ì««": 8301,
      "ì«¬": 8302,
      "ì«Ń": 8303,
      "ì«®": 8304,
      "ì«¯": 8305,
      "ì«°": 8306,
      "ì«±": 8307,
      "ì«²": 8308,
      "ì«³": 8309,
      "ì«´": 8310,
      "ì«µ": 8311,
      "ì«¶": 8312,
      "ì«·": 8313,
      "ì«¸": 8314,
      "ì«¹": 8315,
      "ì«º": 8316,
      "ì«»": 8317,
      "ì«¼": 8318,
      "ì«½": 8319,
      "ì«¾": 8320,
      "ì«¿": 8321,
      "ì¬": 8322,
      "ì¬Ģ": 8323,
      "ì¬ģ": 8324,
      "ì¬Ĥ": 8325,
      "ì¬ĥ": 8326,
      "ì¬Ħ": 8327,
      "ì¬ħ": 8328,
      "ì¬Ĩ": 8329,
      "ì¬ĩ": 8330,
      "ì¬Ī": 8331,
      "ì¬ī": 8332,
      "ì¬Ĭ": 8333,
      "ì¬ĭ": 8334,
      "ì¬Į": 8335,
      "ì¬į": 8336,
      "ì¬İ": 8337,
      "ì¬ı": 8338,
      "ì¬Ĳ": 8339,
      "ì¬ĳ": 8340,
      "ì¬Ĵ": 8341,
      "ì¬ĵ": 8342,
      "ì¬Ķ": 8343,
      "ì¬ķ": 8344,
      "ì¬ĸ": 8345,
      "ì¬Ĺ": 8346,
      "ì¬ĺ": 8347,
      "ì¬Ļ": 8348,
      "ì¬ļ": 8349,
      "ì¬Ľ": 8350,
      "ì¬ľ": 8351,
      "ì¬Ŀ": 8352,
      "ì¬ŀ": 8353,
      "ì¬Ł": 8354,
      "ì¬ł": 8355,
      "ì¬¡": 8356,
      "ì¬¢": 8357,
      "ì¬£": 8358,
      "ì¬¤": 8359,
      "ì¬¥": 8360,
      "ì¬¦": 8361,
      "ì¬§": 8362,
      "ì¬¨": 8363,
      "ì¬©": 8364,
      "ì¬ª": 8365,
      "ì¬«": 8366,
      "ì¬¬": 8367,
      "ì¬Ń": 8368,
      "ì¬®": 8369,
      "ì¬¯": 8370,
      "ì¬°": 8371,
      "ì¬±": 8372,
      "ì¬²": 8373,
      "ì¬³": 8374,
      "ì¬´": 8375,
      "ì¬µ": 8376,
      "ì¬¶": 8377,
      "ì¬·": 8378,
      "ì¬¸": 8379,
      "ì¬¹": 8380,
      "ì¬º": 8381,
      "ì¬»": 8382,
      "ì¬¼": 8383,
      "ì¬½": 8384,
      "ì¬¾": 8385,
      "ì¬¿": 8386,
      "ìŃ": 8387,
      "ìŃĢ": 8388,
      "ìŃģ": 8389,
      "ìŃĤ": 8390,
      "ìŃĥ": 8391,
      "ìŃĦ": 8392,
      "ìŃħ": 8393,
      "ìŃĨ": 8394,
      "ìŃĩ": 8395,
      "ìŃĪ": 8396,
      "ìŃī": 8397,
      "ìŃĬ": 8398,
      "ìŃĭ": 8399,
      "ìŃĮ": 8400,
      "ìŃį": 8401,
      "ìŃİ": 8402,
      "ìŃı": 8403,
      "ìŃĲ": 8404,
      "ìŃĳ": 8405,
      "ìŃĴ": 8406,
      "ìŃĵ": 8407,
      "ìŃĶ": 8408,
      "ìŃķ": 8409,
      "ìŃĸ": 8410,
      "ìŃĹ": 8411,
      "ìŃĺ": 8412,
      "ìŃĻ": 8413,
      "ìŃļ": 8414,
      "ìŃĽ": 8415,
      "ìŃľ": 8416,
      "ìŃĿ": 8417,
      "ìŃŀ": 8418,
      "ìŃŁ": 8419,
      "ìŃł": 8420,
      "ìŃ¡": 8421,
      "ìŃ¢": 8422,
      "ìŃ£": 8423,
      "ìŃ¤": 8424,
      "ìŃ¥": 8425,
      "ìŃ¦": 8426,
      "ìŃ§": 8427,
      "ìŃ¨": 8428,
      "ìŃ©": 8429,
      "ìŃª": 8430,
      "ìŃ«": 8431,
      "ìŃ¬": 8432,
      "ìŃŃ": 8433,
      "ìŃ®": 8434,
      "ìŃ¯": 8435,
      "ìŃ°": 8436,
      "ìŃ±": 8437,
      "ìŃ²": 8438,
      "ìŃ³": 8439,
      "ìŃ´": 8440,
      "ìŃµ": 8441,
      "ìŃ¶": 8442,
      "ìŃ·": 8443,
      "ìŃ¸": 8444,
      "ìŃ¹": 8445,
      "ìŃº": 8446,
      "ìŃ»": 8447,
      "ìŃ¼": 8448,
      "ìŃ½": 8449,
      "ìŃ¾": 8450,
      "ìŃ¿": 8451,
      "ì®": 8452,
      "ì®Ģ": 8453,
      "ì®ģ": 8454,
      "ì®Ĥ": 8455,
      "ì®ĥ": 8456,
      "ì®Ħ": 8457,
      "ì®ħ": 8458,
      "ì®Ĩ": 8459,
      "ì®ĩ": 8460,
      "ì®Ī": 8461,
      "ì®ī": 8462,
      "ì®Ĭ": 8463,
      "ì®ĭ": 8464,
      "ì®Į": 8465,
      "ì®į": 8466,
      "ì®İ": 8467,
      "ì®ı": 8468,
      "ì®Ĳ": 8469,
      "ì®ĳ": 8470,
      "ì®Ĵ": 8471,
      "ì®ĵ": 8472,
      "ì®Ķ": 8473,
      "ì®ķ": 8474,
      "ì®ĸ": 8475,
      "ì®Ĺ": 8476,
      "ì®ĺ": 8477,
      "ì®Ļ": 8478,
      "ì®ļ": 8479,
      "ì®Ľ": 8480,
      "ì®ľ": 8481,
      "ì®Ŀ": 8482,
      "ì®ŀ": 8483,
      "ì®Ł": 8484,
      "ì®ł": 8485,
      "ì®¡": 8486,
      "ì®¢": 8487,
      "ì®£": 8488,
      "ì®¤": 8489,
      "ì®¥": 8490,
      "ì®¦": 8491,
      "ì®§": 8492,
      "ì®¨": 8493,
      "ì®©": 8494,
      "ì®ª": 8495,
      "ì®«": 8496,
      "ì®¬": 8497,
      "ì®Ń": 8498,
      "ì®®": 8499,
      "ì®¯": 8500,
      "ì®°": 8501,
      "ì®±": 8502,
      "ì®²": 8503,
      "ì®³": 8504,
      "ì®´": 8505,
      "ì®µ": 8506,
      "ì®¶": 8507,
      "ì®·": 8508,
      "ì®¸": 8509,
      "ì®¹": 8510,
      "ì®º": 8511,
      "ì®»": 8512,
      "ì®¼": 8513,
      "ì®½": 8514,
      "ì®¾": 8515,
      "ì®¿": 8516,
      "ì¯": 8517,
      "ì¯Ģ": 8518,
      "ì¯ģ": 8519,
      "ì¯Ĥ": 8520,
      "ì¯ĥ": 8521,
      "ì¯Ħ": 8522,
      "ì¯ħ": 8523,
      "ì¯Ĩ": 8524,
      "ì¯ĩ": 8525,
      "ì¯Ī": 8526,
      "ì¯ī": 8527,
      "ì¯Ĭ": 8528,
      "ì¯ĭ": 8529,
      "ì¯Į": 8530,
      "ì¯į": 8531,
      "ì¯İ": 8532,
      "ì¯ı": 8533,
      "ì¯Ĳ": 8534,
      "ì¯ĳ": 8535,
      "ì¯Ĵ": 8536,
      "ì¯ĵ": 8537,
      "ì¯Ķ": 8538,
      "ì¯ķ": 8539,
      "ì¯ĸ": 8540,
      "ì¯Ĺ": 8541,
      "ì¯ĺ": 8542,
      "ì¯Ļ": 8543,
      "ì¯ļ": 8544,
      "ì¯Ľ": 8545,
      "ì¯ľ": 8546,
      "ì¯Ŀ": 8547,
      "ì¯ŀ": 8548,
      "ì¯Ł": 8549,
      "ì¯ł": 8550,
      "ì¯¡": 8551,
      "ì¯¢": 8552,
      "ì¯£": 8553,
      "ì¯¤": 8554,
      "ì¯¥": 8555,
      "ì¯¦": 8556,
      "ì¯§": 8557,
      "ì¯¨": 8558,
      "ì¯©": 8559,
      "ì¯ª": 8560,
      "ì¯«": 8561,
      "ì¯¬": 8562,
      "ì¯Ń": 8563,
      "ì¯®": 8564,
      "ì¯¯": 8565,
      "ì¯°": 8566,
      "ì¯±": 8567,
      "ì¯²": 8568,
      "ì¯³": 8569,
      "ì¯´": 8570,
      "ì¯µ": 8571,
      "ì¯¶": 8572,
      "ì¯·": 8573,
      "ì¯¸": 8574,
      "ì¯¹": 8575,
      "ì¯º": 8576,
      "ì¯»": 8577,
      "ì¯¼": 8578,
      "ì¯½": 8579,
      "ì¯¾": 8580,
      "ì¯¿": 8581,
      "ì°": 8582,
      "ì°Ģ": 8583,
      "ì°ģ": 8584,
      "ì°Ĥ": 8585,
      "ì°ĥ": 8586,
      "ì°Ħ": 8587,
      "ì°ħ": 8588,
      "ì°Ĩ": 8589,
      "ì°ĩ": 8590,
      "ì°Ī": 8591,
      "ì°ī": 8592,
      "ì°Ĭ": 8593,
      "ì°ĭ": 8594,
      "ì°Į": 8595,
      "ì°į": 8596,
      "ì°İ": 8597,
      "ì°ı": 8598,
      "ì°Ĳ": 8599,
      "ì°ĳ": 8600,
      "ì°Ĵ": 8601,
      "ì°ĵ": 8602,
      "ì°Ķ": 8603,
      "ì°ķ": 8604,
      "ì°ĸ": 8605,
      "ì°Ĺ": 8606,
      "ì°ĺ": 8607,
      "ì°Ļ": 8608,
      "ì°ļ": 8609,
      "ì°Ľ": 8610,
      "ì°ľ": 8611,
      "ì°Ŀ": 8612,
      "ì°ŀ": 8613,
      "ì°Ł": 8614,
      "ì°ł": 8615,
      "ì°¡": 8616,
      "ì°¢": 8617,
      "ì°£": 8618,
      "ì°¤": 8619,
      "ì°¥": 8620,
      "ì°¦": 8621,
      "ì°§": 8622,
      "ì°¨": 8623,
      "ì°©": 8624,
      "ì°ª": 8625,
      "ì°«": 8626,
      "ì°¬": 8627,
      "ì°Ń": 8628,
      "ì°®": 8629,
      "ì°¯": 8630,
      "ì°°": 8631,
      "ì°±": 8632,
      "ì°²": 8633,
      "ì°³": 8634,
      "ì°´": 8635,
      "ì°µ": 8636,
      "ì°¶": 8637,
      "ì°·": 8638,
      "ì°¸": 8639,
      "ì°¹": 8640,
      "ì°º": 8641,
      "ì°»": 8642,
      "ì°¼": 8643,
      "ì°½": 8644,
      "ì°¾": 8645,
      "ì°¿": 8646,
      "ì±": 8647,
      "ì±Ģ": 8648,
      "ì±ģ": 8649,
      "ì±Ĥ": 8650,
      "ì±ĥ": 8651,
      "ì±Ħ": 8652,
      "ì±ħ": 8653,
      "ì±Ĩ": 8654,
      "ì±ĩ": 8655,
      "ì±Ī": 8656,
      "ì±ī": 8657,
      "ì±Ĭ": 8658,
      "ì±ĭ": 8659,
      "ì±Į": 8660,
      "ì±į": 8661,
      "ì±İ": 8662,
      "ì±ı": 8663,
      "ì±Ĳ": 8664,
      "ì±ĳ": 8665,
      "ì±Ĵ": 8666,
      "ì±ĵ": 8667,
      "ì±Ķ": 8668,
      "ì±ķ": 8669,
      "ì±ĸ": 8670,
      "ì±Ĺ": 8671,
      "ì±ĺ": 8672,
      "ì±Ļ": 8673,
      "ì±ļ": 8674,
      "ì±Ľ": 8675,
      "ì±ľ": 8676,
      "ì±Ŀ": 8677,
      "ì±ŀ": 8678,
      "ì±Ł": 8679,
      "ì±ł": 8680,
      "ì±¡": 8681,
      "ì±¢": 8682,
      "ì±£": 8683,
      "ì±¤": 8684,
      "ì±¥": 8685,
      "ì±¦": 8686,
      "ì±§": 8687,
      "ì±¨": 8688,
      "ì±©": 8689,
      "ì±ª": 8690,
      "ì±«": 8691,
      "ì±¬": 8692,
      "ì±Ń": 8693,
      "ì±®": 8694,
      "ì±¯": 8695,
      "ì±°": 8696,
      "ì±±": 8697,
      "ì±²": 8698,
      "ì±³": 8699,
      "ì±´": 8700,
      "ì±µ": 8701,
      "ì±¶": 8702,
      "ì±·": 8703,
      "ì±¸": 8704,
      "ì±¹": 8705,
      "ì±º": 8706,
      "ì±»": 8707,
      "ì±¼": 8708,
      "ì±½": 8709,
      "ì±¾": 8710,
      "ì±¿": 8711,
      "ì²": 8712,
      "ì²Ģ": 8713,
      "ì²ģ": 8714,
      "ì²Ĥ": 8715,
      "ì²ĥ": 8716,
      "ì²Ħ": 8717,
      "ì²ħ": 8718,
      "ì²Ĩ": 8719,
      "ì²ĩ": 8720,
      "ì²Ī": 8721,
      "ì²ī": 8722,
      "ì²Ĭ": 8723,
      "ì²ĭ": 8724,
      "ì²Į": 8725,
      "ì²į": 8726,
      "ì²İ": 8727,
      "ì²ı": 8728,
      "ì²Ĳ": 8729,
      "ì²ĳ": 8730,
      "ì²Ĵ": 8731,
      "ì²ĵ": 8732,
      "ì²Ķ": 8733,
      "ì²ķ": 8734,
      "ì²ĸ": 8735,
      "ì²Ĺ": 8736,
      "ì²ĺ": 8737,
      "ì²Ļ": 8738,
      "ì²ļ": 8739,
      "ì²Ľ": 8740,
      "ì²ľ": 8741,
      "ì²Ŀ": 8742,
      "ì²ŀ": 8743,
      "ì²Ł": 8744,
      "ì²ł": 8745,
      "ì²¡": 8746,
      "ì²¢": 8747,
      "ì²£": 8748,
      "ì²¤": 8749,
      "ì²¥": 8750,
      "ì²¦": 8751,
      "ì²§": 8752,
      "ì²¨": 8753,
      "ì²©": 8754,
      "ì²ª": 8755,
      "ì²«": 8756,
      "ì²¬": 8757,
      "ì²Ń": 8758,
      "ì²®": 8759,
      "ì²¯": 8760,
      "ì²°": 8761,
      "ì²±": 8762,
      "ì²²": 8763,
      "ì²³": 8764,
      "ì²´": 8765,
      "ì²µ": 8766,
      "ì²¶": 8767,
      "ì²·": 8768,
      "ì²¸": 8769,
      "ì²¹": 8770,
      "ì²º": 8771,
      "ì²»": 8772,
      "ì²¼": 8773,
      "ì²½": 8774,
      "ì²¾": 8775,
      "ì²¿": 8776,
      "ì³": 8777,
      "ì³Ģ": 8778,
      "ì³ģ": 8779,
      "ì³Ĥ": 8780,
      "ì³ĥ": 8781,
      "ì³Ħ": 8782,
      "ì³ħ": 8783,
      "ì³Ĩ": 8784,
      "ì³ĩ": 8785,
      "ì³Ī": 8786,
      "ì³ī": 8787,
      "ì³Ĭ": 8788,
      "ì³ĭ": 8789,
      "ì³Į": 8790,
      "ì³į": 8791,
      "ì³İ": 8792,
      "ì³ı": 8793,
      "ì³Ĳ": 8794,
      "ì³ĳ": 8795,
      "ì³Ĵ": 8796,
      "ì³ĵ": 8797,
      "ì³Ķ": 8798,
      "ì³ķ": 8799,
      "ì³ĸ": 8800,
      "ì³Ĺ": 8801,
      "ì³ĺ": 8802,
      "ì³Ļ": 8803,
      "ì³ļ": 8804,
      "ì³Ľ": 8805,
      "ì³ľ": 8806,
      "ì³Ŀ": 8807,
      "ì³ŀ": 8808,
      "ì³Ł": 8809,
      "ì³ł": 8810,
      "ì³¡": 8811,
      "ì³¢": 8812,
      "ì³£": 8813,
      "ì³¤": 8814,
      "ì³¥": 8815,
      "ì³¦": 8816,
      "ì³§": 8817,
      "ì³¨": 8818,
      "ì³©": 8819,
      "ì³ª": 8820,
      "ì³«": 8821,
      "ì³¬": 8822,
      "ì³Ń": 8823,
      "ì³®": 8824,
      "ì³¯": 8825,
      "ì³°": 8826,
      "ì³±": 8827,
      "ì³²": 8828,
      "ì³³": 8829,
      "ì³´": 8830,
      "ì³µ": 8831,
      "ì³¶": 8832,
      "ì³·": 8833,
      "ì³¸": 8834,
      "ì³¹": 8835,
      "ì³º": 8836,
      "ì³»": 8837,
      "ì³¼": 8838,
      "ì³½": 8839,
      "ì³¾": 8840,
      "ì³¿": 8841,
      "ì´": 8842,
      "ì´Ģ": 8843,
      "ì´ģ": 8844,
      "ì´Ĥ": 8845,
      "ì´ĥ": 8846,
      "ì´Ħ": 8847,
      "ì´ħ": 8848,
      "ì´Ĩ": 8849,
      "ì´ĩ": 8850,
      "ì´Ī": 8851,
      "ì´ī": 8852,
      "ì´Ĭ": 8853,
      "ì´ĭ": 8854,
      "ì´Į": 8855,
      "ì´į": 8856,
      "ì´İ": 8857,
      "ì´ı": 8858,
      "ì´Ĳ": 8859,
      "ì´ĳ": 8860,
      "ì´Ĵ": 8861,
      "ì´ĵ": 8862,
      "ì´Ķ": 8863,
      "ì´ķ": 8864,
      "ì´ĸ": 8865,
      "ì´Ĺ": 8866,
      "ì´ĺ": 8867,
      "ì´Ļ": 8868,
      "ì´ļ": 8869,
      "ì´Ľ": 8870,
      "ì´ľ": 8871,
      "ì´Ŀ": 8872,
      "ì´ŀ": 8873,
      "ì´Ł": 8874,
      "ì´ł": 8875,
      "ì´¡": 8876,
      "ì´¢": 8877,
      "ì´£": 8878,
      "ì´¤": 8879,
      "ì´¥": 8880,
      "ì´¦": 8881,
      "ì´§": 8882,
      "ì´¨": 8883,
      "ì´©": 8884,
      "ì´ª": 8885,
      "ì´«": 8886,
      "ì´¬": 8887,
      "ì´Ń": 8888,
      "ì´®": 8889,
      "ì´¯": 8890,
      "ì´°": 8891,
      "ì´±": 8892,
      "ì´²": 8893,
      "ì´³": 8894,
      "ì´´": 8895,
      "ì´µ": 8896,
      "ì´¶": 8897,
      "ì´·": 8898,
      "ì´¸": 8899,
      "ì´¹": 8900,
      "ì´º": 8901,
      "ì´»": 8902,
      "ì´¼": 8903,
      "ì´½": 8904,
      "ì´¾": 8905,
      "ì´¿": 8906,
      "ìµ": 8907,
      "ìµĢ": 8908,
      "ìµģ": 8909,
      "ìµĤ": 8910,
      "ìµĥ": 8911,
      "ìµĦ": 8912,
      "ìµħ": 8913,
      "ìµĨ": 8914,
      "ìµĩ": 8915,
      "ìµĪ": 8916,
      "ìµī": 8917,
      "ìµĬ": 8918,
      "ìµĭ": 8919,
      "ìµĮ": 8920,
      "ìµį": 8921,
      "ìµİ": 8922,
      "ìµı": 8923,
      "ìµĲ": 8924,
      "ìµĳ": 8925,
      "ìµĴ": 8926,
      "ìµĵ": 8927,
      "ìµĶ": 8928,
      "ìµķ": 8929,
      "ìµĸ": 8930,
      "ìµĹ": 8931,
      "ìµĺ": 8932,
      "ìµĻ": 8933,
      "ìµļ": 8934,
      "ìµĽ": 8935,
      "ìµľ": 8936,
      "ìµĿ": 8937,
      "ìµŀ": 8938,
      "ìµŁ": 8939,
      "ìµł": 8940,
      "ìµ¡": 8941,
      "ìµ¢": 8942,
      "ìµ£": 8943,
      "ìµ¤": 8944,
      "ìµ¥": 8945,
      "ìµ¦": 8946,
      "ìµ§": 8947,
      "ìµ¨": 8948,
      "ìµ©": 8949,
      "ìµª": 8950,
      "ìµ«": 8951,
      "ìµ¬": 8952,
      "ìµŃ": 8953,
      "ìµ®": 8954,
      "ìµ¯": 8955,
      "ìµ°": 8956,
      "ìµ±": 8957,
      "ìµ²": 8958,
      "ìµ³": 8959,
      "ìµ´": 8960,
      "ìµµ": 8961,
      "ìµ¶": 8962,
      "ìµ·": 8963,
      "ìµ¸": 8964,
      "ìµ¹": 8965,
      "ìµº": 8966,
      "ìµ»": 8967,
      "ìµ¼": 8968,
      "ìµ½": 8969,
      "ìµ¾": 8970,
      "ìµ¿": 8971,
      "ì¶": 8972,
      "ì¶Ģ": 8973,
      "ì¶ģ": 8974,
      "ì¶Ĥ": 8975,
      "ì¶ĥ": 8976,
      "ì¶Ħ": 8977,
      "ì¶ħ": 8978,
      "ì¶Ĩ": 8979,
      "ì¶ĩ": 8980,
      "ì¶Ī": 8981,
      "ì¶ī": 8982,
      "ì¶Ĭ": 8983,
      "ì¶ĭ": 8984,
      "ì¶Į": 8985,
      "ì¶į": 8986,
      "ì¶İ": 8987,
      "ì¶ı": 8988,
      "ì¶Ĳ": 8989,
      "ì¶ĳ": 8990,
      "ì¶Ĵ": 8991,
      "ì¶ĵ": 8992,
      "ì¶Ķ": 8993,
      "ì¶ķ": 8994,
      "ì¶ĸ": 8995,
      "ì¶Ĺ": 8996,
      "ì¶ĺ": 8997,
      "ì¶Ļ": 8998,
      "ì¶ļ": 8999,
      "ì¶Ľ": 9000,
      "ì¶ľ": 9001,
      "ì¶Ŀ": 9002,
      "ì¶ŀ": 9003,
      "ì¶Ł": 9004,
      "ì¶ł": 9005,
      "ì¶¡": 9006,
      "ì¶¢": 9007,
      "ì¶£": 9008,
      "ì¶¤": 9009,
      "ì¶¥": 9010,
      "ì¶¦": 9011,
      "ì¶§": 9012,
      "ì¶¨": 9013,
      "ì¶©": 9014,
      "ì¶ª": 9015,
      "ì¶«": 9016,
      "ì¶¬": 9017,
      "ì¶Ń": 9018,
      "ì¶®": 9019,
      "ì¶¯": 9020,
      "ì¶°": 9021,
      "ì¶±": 9022,
      "ì¶²": 9023,
      "ì¶³": 9024,
      "ì¶´": 9025,
      "ì¶µ": 9026,
      "ì¶¶": 9027,
      "ì¶·": 9028,
      "ì¶¸": 9029,
      "ì¶¹": 9030,
      "ì¶º": 9031,
      "ì¶»": 9032,
      "ì¶¼": 9033,
      "ì¶½": 9034,
      "ì¶¾": 9035,
      "ì¶¿": 9036,
      "ì·": 9037,
      "ì·Ģ": 9038,
      "ì·ģ": 9039,
      "ì·Ĥ": 9040,
      "ì·ĥ": 9041,
      "ì·Ħ": 9042,
      "ì·ħ": 9043,
      "ì·Ĩ": 9044,
      "ì·ĩ": 9045,
      "ì·Ī": 9046,
      "ì·ī": 9047,
      "ì·Ĭ": 9048,
      "ì·ĭ": 9049,
      "ì·Į": 9050,
      "ì·į": 9051,
      "ì·İ": 9052,
      "ì·ı": 9053,
      "ì·Ĳ": 9054,
      "ì·ĳ": 9055,
      "ì·Ĵ": 9056,
      "ì·ĵ": 9057,
      "ì·Ķ": 9058,
      "ì·ķ": 9059,
      "ì·ĸ": 9060,
      "ì·Ĺ": 9061,
      "ì·ĺ": 9062,
      "ì·Ļ": 9063,
      "ì·ļ": 9064,
      "ì·Ľ": 9065,
      "ì·ľ": 9066,
      "ì·Ŀ": 9067,
      "ì·ŀ": 9068,
      "ì·Ł": 9069,
      "ì·ł": 9070,
      "ì·¡": 9071,
      "ì·¢": 9072,
      "ì·£": 9073,
      "ì·¤": 9074,
      "ì·¥": 9075,
      "ì·¦": 9076,
      "ì·§": 9077,
      "ì·¨": 9078,
      "ì·©": 9079,
      "ì·ª": 9080,
      "ì·«": 9081,
      "ì·¬": 9082,
      "ì·Ń": 9083,
      "ì·®": 9084,
      "ì·¯": 9085,
      "ì·°": 9086,
      "ì·±": 9087,
      "ì·²": 9088,
      "ì·³": 9089,
      "ì·´": 9090,
      "ì·µ": 9091,
      "ì·¶": 9092,
      "ì··": 9093,
      "ì·¸": 9094,
      "ì·¹": 9095,
      "ì·º": 9096,
      "ì·»": 9097,
      "ì·¼": 9098,
      "ì·½": 9099,
      "ì·¾": 9100,
      "ì·¿": 9101,
      "ì¸": 9102,
      "ì¸Ģ": 9103,
      "ì¸ģ": 9104,
      "ì¸Ĥ": 9105,
      "ì¸ĥ": 9106,
      "ì¸Ħ": 9107,
      "ì¸ħ": 9108,
      "ì¸Ĩ": 9109,
      "ì¸ĩ": 9110,
      "ì¸Ī": 9111,
      "ì¸ī": 9112,
      "ì¸Ĭ": 9113,
      "ì¸ĭ": 9114,
      "ì¸Į": 9115,
      "ì¸į": 9116,
      "ì¸İ": 9117,
      "ì¸ı": 9118,
      "ì¸Ĳ": 9119,
      "ì¸ĳ": 9120,
      "ì¸Ĵ": 9121,
      "ì¸ĵ": 9122,
      "ì¸Ķ": 9123,
      "ì¸ķ": 9124,
      "ì¸ĸ": 9125,
      "ì¸Ĺ": 9126,
      "ì¸ĺ": 9127,
      "ì¸Ļ": 9128,
      "ì¸ļ": 9129,
      "ì¸Ľ": 9130,
      "ì¸ľ": 9131,
      "ì¸Ŀ": 9132,
      "ì¸ŀ": 9133,
      "ì¸Ł": 9134,
      "ì¸ł": 9135,
      "ì¸¡": 9136,
      "ì¸¢": 9137,
      "ì¸£": 9138,
      "ì¸¤": 9139,
      "ì¸¥": 9140,
      "ì¸¦": 9141,
      "ì¸§": 9142,
      "ì¸¨": 9143,
      "ì¸©": 9144,
      "ì¸ª": 9145,
      "ì¸«": 9146,
      "ì¸¬": 9147,
      "ì¸Ń": 9148,
      "ì¸®": 9149,
      "ì¸¯": 9150,
      "ì¸°": 9151,
      "ì¸±": 9152,
      "ì¸²": 9153,
      "ì¸³": 9154,
      "ì¸´": 9155,
      "ì¸µ": 9156,
      "ì¸¶": 9157,
      "ì¸·": 9158,
      "ì¸¸": 9159,
      "ì¸¹": 9160,
      "ì¸º": 9161,
      "ì¸»": 9162,
      "ì¸¼": 9163,
      "ì¸½": 9164,
      "ì¸¾": 9165,
      "ì¸¿": 9166,
      "ì¹": 9167,
      "ì¹Ģ": 9168,
      "ì¹ģ": 9169,
      "ì¹Ĥ": 9170,
      "ì¹ĥ": 9171,
      "ì¹Ħ": 9172,
      "ì¹ħ": 9173,
      "ì¹Ĩ": 9174,
      "ì¹ĩ": 9175,
      "ì¹Ī": 9176,
      "ì¹ī": 9177,
      "ì¹Ĭ": 9178,
      "ì¹ĭ": 9179,
      "ì¹Į": 9180,
      "ì¹į": 9181,
      "ì¹İ": 9182,
      "ì¹ı": 9183,
      "ì¹Ĳ": 9184,
      "ì¹ĳ": 9185,
      "ì¹Ĵ": 9186,
      "ì¹ĵ": 9187,
      "ì¹Ķ": 9188,
      "ì¹ķ": 9189,
      "ì¹ĸ": 9190,
      "ì¹Ĺ": 9191,
      "ì¹ĺ": 9192,
      "ì¹Ļ": 9193,
      "ì¹ļ": 9194,
      "ì¹Ľ": 9195,
      "ì¹ľ": 9196,
      "ì¹Ŀ": 9197,
      "ì¹ŀ": 9198,
      "ì¹Ł": 9199,
      "ì¹ł": 9200,
      "ì¹¡": 9201,
      "ì¹¢": 9202,
      "ì¹£": 9203,
      "ì¹¤": 9204,
      "ì¹¥": 9205,
      "ì¹¦": 9206,
      "ì¹§": 9207,
      "ì¹¨": 9208,
      "ì¹©": 9209,
      "ì¹ª": 9210,
      "ì¹«": 9211,
      "ì¹¬": 9212,
      "ì¹Ń": 9213,
      "ì¹®": 9214,
      "ì¹¯": 9215,
      "ì¹°": 9216,
      "ì¹±": 9217,
      "ì¹²": 9218,
      "ì¹³": 9219,
      "ì¹´": 9220,
      "ì¹µ": 9221,
      "ì¹¶": 9222,
      "ì¹·": 9223,
      "ì¹¸": 9224,
      "ì¹¹": 9225,
      "ì¹º": 9226,
      "ì¹»": 9227,
      "ì¹¼": 9228,
      "ì¹½": 9229,
      "ì¹¾": 9230,
      "ì¹¿": 9231,
      "ìº": 9232,
      "ìºĢ": 9233,
      "ìºģ": 9234,
      "ìºĤ": 9235,
      "ìºĥ": 9236,
      "ìºĦ": 9237,
      "ìºħ": 9238,
      "ìºĨ": 9239,
      "ìºĩ": 9240,
      "ìºĪ": 9241,
      "ìºī": 9242,
      "ìºĬ": 9243,
      "ìºĭ": 9244,
      "ìºĮ": 9245,
      "ìºį": 9246,
      "ìºİ": 9247,
      "ìºı": 9248,
      "ìºĲ": 9249,
      "ìºĳ": 9250,
      "ìºĴ": 9251,
      "ìºĵ": 9252,
      "ìºĶ": 9253,
      "ìºķ": 9254,
      "ìºĸ": 9255,
      "ìºĹ": 9256,
      "ìºĺ": 9257,
      "ìºĻ": 9258,
      "ìºļ": 9259,
      "ìºĽ": 9260,
      "ìºľ": 9261,
      "ìºĿ": 9262,
      "ìºŀ": 9263,
      "ìºŁ": 9264,
      "ìºł": 9265,
      "ìº¡": 9266,
      "ìº¢": 9267,
      "ìº£": 9268,
      "ìº¤": 9269,
      "ìº¥": 9270,
      "ìº¦": 9271,
      "ìº§": 9272,
      "ìº¨": 9273,
      "ìº©": 9274,
      "ìºª": 9275,
      "ìº«": 9276,
      "ìº¬": 9277,
      "ìºŃ": 9278,
      "ìº®": 9279,
      "ìº¯": 9280,
      "ìº°": 9281,
      "ìº±": 9282,
      "ìº²": 9283,
      "ìº³": 9284,
      "ìº´": 9285,
      "ìºµ": 9286,
      "ìº¶": 9287,
      "ìº·": 9288,
      "ìº¸": 9289,
      "ìº¹": 9290,
      "ìºº": 9291,
      "ìº»": 9292,
      "ìº¼": 9293,
      "ìº½": 9294,
      "ìº¾": 9295,
      "ìº¿": 9296,
      "ì»": 9297,
      "ì»Ģ": 9298,
      "ì»ģ": 9299,
      "ì»Ĥ": 9300,
      "ì»ĥ": 9301,
      "ì»Ħ": 9302,
      "ì»ħ": 9303,
      "ì»Ĩ": 9304,
      "ì»ĩ": 9305,
      "ì»Ī": 9306,
      "ì»ī": 9307,
      "ì»Ĭ": 9308,
      "ì»ĭ": 9309,
      "ì»Į": 9310,
      "ì»į": 9311,
      "ì»İ": 9312,
      "ì»ı": 9313,
      "ì»Ĳ": 9314,
      "ì»ĳ": 9315,
      "ì»Ĵ": 9316,
      "ì»ĵ": 9317,
      "ì»Ķ": 9318,
      "ì»ķ": 9319,
      "ì»ĸ": 9320,
      "ì»Ĺ": 9321,
      "ì»ĺ": 9322,
      "ì»Ļ": 9323,
      "ì»ļ": 9324,
      "ì»Ľ": 9325,
      "ì»ľ": 9326,
      "ì»Ŀ": 9327,
      "ì»ŀ": 9328,
      "ì»Ł": 9329,
      "ì»ł": 9330,
      "ì»¡": 9331,
      "ì»¢": 9332,
      "ì»£": 9333,
      "ì»¤": 9334,
      "ì»¥": 9335,
      "ì»¦": 9336,
      "ì»§": 9337,
      "ì»¨": 9338,
      "ì»©": 9339,
      "ì»ª": 9340,
      "ì»«": 9341,
      "ì»¬": 9342,
      "ì»Ń": 9343,
      "ì»®": 9344,
      "ì»¯": 9345,
      "ì»°": 9346,
      "ì»±": 9347,
      "ì»²": 9348,
      "ì»³": 9349,
      "ì»´": 9350,
      "ì»µ": 9351,
      "ì»¶": 9352,
      "ì»·": 9353,
      "ì»¸": 9354,
      "ì»¹": 9355,
      "ì»º": 9356,
      "ì»»": 9357,
      "ì»¼": 9358,
      "ì»½": 9359,
      "ì»¾": 9360,
      "ì»¿": 9361,
      "ì¼": 9362,
      "ì¼Ģ": 9363,
      "ì¼ģ": 9364,
      "ì¼Ĥ": 9365,
      "ì¼ĥ": 9366,
      "ì¼Ħ": 9367,
      "ì¼ħ": 9368,
      "ì¼Ĩ": 9369,
      "ì¼ĩ": 9370,
      "ì¼Ī": 9371,
      "ì¼ī": 9372,
      "ì¼Ĭ": 9373,
      "ì¼ĭ": 9374,
      "ì¼Į": 9375,
      "ì¼į": 9376,
      "ì¼İ": 9377,
      "ì¼ı": 9378,
      "ì¼Ĳ": 9379,
      "ì¼ĳ": 9380,
      "ì¼Ĵ": 9381,
      "ì¼ĵ": 9382,
      "ì¼Ķ": 9383,
      "ì¼ķ": 9384,
      "ì¼ĸ": 9385,
      "ì¼Ĺ": 9386,
      "ì¼ĺ": 9387,
      "ì¼Ļ": 9388,
      "ì¼ļ": 9389,
      "ì¼Ľ": 9390,
      "ì¼ľ": 9391,
      "ì¼Ŀ": 9392,
      "ì¼ŀ": 9393,
      "ì¼Ł": 9394,
      "ì¼ł": 9395,
      "ì¼¡": 9396,
      "ì¼¢": 9397,
      "ì¼£": 9398,
      "ì¼¤": 9399,
      "ì¼¥": 9400,
      "ì¼¦": 9401,
      "ì¼§": 9402,
      "ì¼¨": 9403,
      "ì¼©": 9404,
      "ì¼ª": 9405,
      "ì¼«": 9406,
      "ì¼¬": 9407,
      "ì¼Ń": 9408,
      "ì¼®": 9409,
      "ì¼¯": 9410,
      "ì¼°": 9411,
      "ì¼±": 9412,
      "ì¼²": 9413,
      "ì¼³": 9414,
      "ì¼´": 9415,
      "ì¼µ": 9416,
      "ì¼¶": 9417,
      "ì¼·": 9418,
      "ì¼¸": 9419,
      "ì¼¹": 9420,
      "ì¼º": 9421,
      "ì¼»": 9422,
      "ì¼¼": 9423,
      "ì¼½": 9424,
      "ì¼¾": 9425,
      "ì¼¿": 9426,
      "ì½": 9427,
      "ì½Ģ": 9428,
      "ì½ģ": 9429,
      "ì½Ĥ": 9430,
      "ì½ĥ": 9431,
      "ì½Ħ": 9432,
      "ì½ħ": 9433,
      "ì½Ĩ": 9434,
      "ì½ĩ": 9435,
      "ì½Ī": 9436,
      "ì½ī": 9437,
      "ì½Ĭ": 9438,
      "ì½ĭ": 9439,
      "ì½Į": 9440,
      "ì½į": 9441,
      "ì½İ": 9442,
      "ì½ı": 9443,
      "ì½Ĳ": 9444,
      "ì½ĳ": 9445,
      "ì½Ĵ": 9446,
      "ì½ĵ": 9447,
      "ì½Ķ": 9448,
      "ì½ķ": 9449,
      "ì½ĸ": 9450,
      "ì½Ĺ": 9451,
      "ì½ĺ": 9452,
      "ì½Ļ": 9453,
      "ì½ļ": 9454,
      "ì½Ľ": 9455,
      "ì½ľ": 9456,
      "ì½Ŀ": 9457,
      "ì½ŀ": 9458,
      "ì½Ł": 9459,
      "ì½ł": 9460,
      "ì½¡": 9461,
      "ì½¢": 9462,
      "ì½£": 9463,
      "ì½¤": 9464,
      "ì½¥": 9465,
      "ì½¦": 9466,
      "ì½§": 9467,
      "ì½¨": 9468,
      "ì½©": 9469,
      "ì½ª": 9470,
      "ì½«": 9471,
      "ì½¬": 9472,
      "ì½Ń": 9473,
      "ì½®": 9474,
      "ì½¯": 9475,
      "ì½°": 9476,
      "ì½±": 9477,
      "ì½²": 9478,
      "ì½³": 9479,
      "ì½´": 9480,
      "ì½µ": 9481,
      "ì½¶": 9482,
      "ì½·": 9483,
      "ì½¸": 9484,
      "ì½¹": 9485,
      "ì½º": 9486,
      "ì½»": 9487,
      "ì½¼": 9488,
      "ì½½": 9489,
      "ì½¾": 9490,
      "ì½¿": 9491,
      "ì¾": 9492,
      "ì¾Ģ": 9493,
      "ì¾ģ": 9494,
      "ì¾Ĥ": 9495,
      "ì¾ĥ": 9496,
      "ì¾Ħ": 9497,
      "ì¾ħ": 9498,
      "ì¾Ĩ": 9499,
      "ì¾ĩ": 9500,
      "ì¾Ī": 9501,
      "ì¾ī": 9502,
      "ì¾Ĭ": 9503,
      "ì¾ĭ": 9504,
      "ì¾Į": 9505,
      "ì¾į": 9506,
      "ì¾İ": 9507,
      "ì¾ı": 9508,
      "ì¾Ĳ": 9509,
      "ì¾ĳ": 9510,
      "ì¾Ĵ": 9511,
      "ì¾ĵ": 9512,
      "ì¾Ķ": 9513,
      "ì¾ķ": 9514,
      "ì¾ĸ": 9515,
      "ì¾Ĺ": 9516,
      "ì¾ĺ": 9517,
      "ì¾Ļ": 9518,
      "ì¾ļ": 9519,
      "ì¾Ľ": 9520,
      "ì¾ľ": 9521,
      "ì¾Ŀ": 9522,
      "ì¾ŀ": 9523,
      "ì¾Ł": 9524,
      "ì¾ł": 9525,
      "ì¾¡": 9526,
      "ì¾¢": 9527,
      "ì¾£": 9528,
      "ì¾¤": 9529,
      "ì¾¥": 9530,
      "ì¾¦": 9531,
      "ì¾§": 9532,
      "ì¾¨": 9533,
      "ì¾©": 9534,
      "ì¾ª": 9535,
      "ì¾«": 9536,
      "ì¾¬": 9537,
      "ì¾Ń": 9538,
      "ì¾®": 9539,
      "ì¾¯": 9540,
      "ì¾°": 9541,
      "ì¾±": 9542,
      "ì¾²": 9543,
      "ì¾³": 9544,
      "ì¾´": 9545,
      "ì¾µ": 9546,
      "ì¾¶": 9547,
      "ì¾·": 9548,
      "ì¾¸": 9549,
      "ì¾¹": 9550,
      "ì¾º": 9551,
      "ì¾»": 9552,
      "ì¾¼": 9553,
      "ì¾½": 9554,
      "ì¾¾": 9555,
      "ì¾¿": 9556,
      "ì¿": 9557,
      "ì¿Ģ": 9558,
      "ì¿ģ": 9559,
      "ì¿Ĥ": 9560,
      "ì¿ĥ": 9561,
      "ì¿Ħ": 9562,
      "ì¿ħ": 9563,
      "ì¿Ĩ": 9564,
      "ì¿ĩ": 9565,
      "ì¿Ī": 9566,
      "ì¿ī": 9567,
      "ì¿Ĭ": 9568,
      "ì¿ĭ": 9569,
      "ì¿Į": 9570,
      "ì¿į": 9571,
      "ì¿İ": 9572,
      "ì¿ı": 9573,
      "ì¿Ĳ": 9574,
      "ì¿ĳ": 9575,
      "ì¿Ĵ": 9576,
      "ì¿ĵ": 9577,
      "ì¿Ķ": 9578,
      "ì¿ķ": 9579,
      "ì¿ĸ": 9580,
      "ì¿Ĺ": 9581,
      "ì¿ĺ": 9582,
      "ì¿Ļ": 9583,
      "ì¿ļ": 9584,
      "ì¿Ľ": 9585,
      "ì¿ľ": 9586,
      "ì¿Ŀ": 9587,
      "ì¿ŀ": 9588,
      "ì¿Ł": 9589,
      "ì¿ł": 9590,
      "ì¿¡": 9591,
      "ì¿¢": 9592,
      "ì¿£": 9593,
      "ì¿¤": 9594,
      "ì¿¥": 9595,
      "ì¿¦": 9596,
      "ì¿§": 9597,
      "ì¿¨": 9598,
      "ì¿©": 9599,
      "ì¿ª": 9600,
      "ì¿«": 9601,
      "ì¿¬": 9602,
      "ì¿Ń": 9603,
      "ì¿®": 9604,
      "ì¿¯": 9605,
      "ì¿°": 9606,
      "ì¿±": 9607,
      "ì¿²": 9608,
      "ì¿³": 9609,
      "ì¿´": 9610,
      "ì¿µ": 9611,
      "ì¿¶": 9612,
      "ì¿·": 9613,
      "ì¿¸": 9614,
      "ì¿¹": 9615,
      "ì¿º": 9616,
      "ì¿»": 9617,
      "ì¿¼": 9618,
      "ì¿½": 9619,
      "ì¿¾": 9620,
      "ì¿¿": 9621,
      "íĢ": 9622,
      "íĢĢ": 9623,
      "íĢģ": 9624,
      "íĢĤ": 9625,
      "íĢĥ": 9626,
      "íĢĦ": 9627,
      "íĢħ": 9628,
      "íĢĨ": 9629,
      "íĢĩ": 9630,
      "íĢĪ": 9631,
      "íĢī": 9632,
      "íĢĬ": 9633,
      "íĢĭ": 9634,
      "íĢĮ": 9635,
      "íĢį": 9636,
      "íĢİ": 9637,
      "íĢı": 9638,
      "íĢĲ": 9639,
      "íĢĳ": 9640,
      "íĢĴ": 9641,
      "íĢĵ": 9642,
      "íĢĶ": 9643,
      "íĢķ": 9644,
      "íĢĸ": 9645,
      "íĢĹ": 9646,
      "íĢĺ": 9647,
      "íĢĻ": 9648,
      "íĢļ": 9649,
      "íĢĽ": 9650,
      "íĢľ": 9651,
      "íĢĿ": 9652,
      "íĢŀ": 9653,
      "íĢŁ": 9654,
      "íĢł": 9655,
      "íĢ¡": 9656,
      "íĢ¢": 9657,
      "íĢ£": 9658,
      "íĢ¤": 9659,
      "íĢ¥": 9660,
      "íĢ¦": 9661,
      "íĢ§": 9662,
      "íĢ¨": 9663,
      "íĢ©": 9664,
      "íĢª": 9665,
      "íĢ«": 9666,
      "íĢ¬": 9667,
      "íĢŃ": 9668,
      "íĢ®": 9669,
      "íĢ¯": 9670,
      "íĢ°": 9671,
      "íĢ±": 9672,
      "íĢ²": 9673,
      "íĢ³": 9674,
      "íĢ´": 9675,
      "íĢµ": 9676,
      "íĢ¶": 9677,
      "íĢ·": 9678,
      "íĢ¸": 9679,
      "íĢ¹": 9680,
      "íĢº": 9681,
      "íĢ»": 9682,
      "íĢ¼": 9683,
      "íĢ½": 9684,
      "íĢ¾": 9685,
      "íĢ¿": 9686,
      "íģ": 9687,
      "íģĢ": 9688,
      "íģģ": 9689,
      "íģĤ": 9690,
      "íģĥ": 9691,
      "íģĦ": 9692,
      "íģħ": 9693,
      "íģĨ": 9694,
      "íģĩ": 9695,
      "íģĪ": 9696,
      "íģī": 9697,
      "íģĬ": 9698,
      "íģĭ": 9699,
      "íģĮ": 9700,
      "íģį": 9701,
      "íģİ": 9702,
      "íģı": 9703,
      "íģĲ": 9704,
      "íģĳ": 9705,
      "íģĴ": 9706,
      "íģĵ": 9707,
      "íģĶ": 9708,
      "íģķ": 9709,
      "íģĸ": 9710,
      "íģĹ": 9711,
      "íģĺ": 9712,
      "íģĻ": 9713,
      "íģļ": 9714,
      "íģĽ": 9715,
      "íģľ": 9716,
      "íģĿ": 9717,
      "íģŀ": 9718,
      "íģŁ": 9719,
      "íģł": 9720,
      "íģ¡": 9721,
      "íģ¢": 9722,
      "íģ£": 9723,
      "íģ¤": 9724,
      "íģ¥": 9725,
      "íģ¦": 9726,
      "íģ§": 9727,
      "íģ¨": 9728,
      "íģ©": 9729,
      "íģª": 9730,
      "íģ«": 9731,
      "íģ¬": 9732,
      "íģŃ": 9733,
      "íģ®": 9734,
      "íģ¯": 9735,
      "íģ°": 9736,
      "íģ±": 9737,
      "íģ²": 9738,
      "íģ³": 9739,
      "íģ´": 9740,
      "íģµ": 9741,
      "íģ¶": 9742,
      "íģ·": 9743,
      "íģ¸": 9744,
      "íģ¹": 9745,
      "íģº": 9746,
      "íģ»": 9747,
      "íģ¼": 9748,
      "íģ½": 9749,
      "íģ¾": 9750,
      "íģ¿": 9751,
      "íĤ": 9752,
      "íĤĢ": 9753,
      "íĤģ": 9754,
      "íĤĤ": 9755,
      "íĤĥ": 9756,
      "íĤĦ": 9757,
      "íĤħ": 9758,
      "íĤĨ": 9759,
      "íĤĩ": 9760,
      "íĤĪ": 9761,
      "íĤī": 9762,
      "íĤĬ": 9763,
      "íĤĭ": 9764,
      "íĤĮ": 9765,
      "íĤį": 9766,
      "íĤİ": 9767,
      "íĤı": 9768,
      "íĤĲ": 9769,
      "íĤĳ": 9770,
      "íĤĴ": 9771,
      "íĤĵ": 9772,
      "íĤĶ": 9773,
      "íĤķ": 9774,
      "íĤĸ": 9775,
      "íĤĹ": 9776,
      "íĤĺ": 9777,
      "íĤĻ": 9778,
      "íĤļ": 9779,
      "íĤĽ": 9780,
      "íĤľ": 9781,
      "íĤĿ": 9782,
      "íĤŀ": 9783,
      "íĤŁ": 9784,
      "íĤł": 9785,
      "íĤ¡": 9786,
      "íĤ¢": 9787,
      "íĤ£": 9788,
      "íĤ¤": 9789,
      "íĤ¥": 9790,
      "íĤ¦": 9791,
      "íĤ§": 9792,
      "íĤ¨": 9793,
      "íĤ©": 9794,
      "íĤª": 9795,
      "íĤ«": 9796,
      "íĤ¬": 9797,
      "íĤŃ": 9798,
      "íĤ®": 9799,
      "íĤ¯": 9800,
      "íĤ°": 9801,
      "íĤ±": 9802,
      "íĤ²": 9803,
      "íĤ³": 9804,
      "íĤ´": 9805,
      "íĤµ": 9806,
      "íĤ¶": 9807,
      "íĤ·": 9808,
      "íĤ¸": 9809,
      "íĤ¹": 9810,
      "íĤº": 9811,
      "íĤ»": 9812,
      "íĤ¼": 9813,
      "íĤ½": 9814,
      "íĤ¾": 9815,
      "íĤ¿": 9816,
      "íĥ": 9817,
      "íĥĢ": 9818,
      "íĥģ": 9819,
      "íĥĤ": 9820,
      "íĥĥ": 9821,
      "íĥĦ": 9822,
      "íĥħ": 9823,
      "íĥĨ": 9824,
      "íĥĩ": 9825,
      "íĥĪ": 9826,
      "íĥī": 9827,
      "íĥĬ": 9828,
      "íĥĭ": 9829,
      "íĥĮ": 9830,
      "íĥį": 9831,
      "íĥİ": 9832,
      "íĥı": 9833,
      "íĥĲ": 9834,
      "íĥĳ": 9835,
      "íĥĴ": 9836,
      "íĥĵ": 9837,
      "íĥĶ": 9838,
      "íĥķ": 9839,
      "íĥĸ": 9840,
      "íĥĹ": 9841,
      "íĥĺ": 9842,
      "íĥĻ": 9843,
      "íĥļ": 9844,
      "íĥĽ": 9845,
      "íĥľ": 9846,
      "íĥĿ": 9847,
      "íĥŀ": 9848,
      "íĥŁ": 9849,
      "íĥł": 9850,
      "íĥ¡": 9851,
      "íĥ¢": 9852,
      "íĥ£": 9853,
      "íĥ¤": 9854,
      "íĥ¥": 9855,
      "íĥ¦": 9856,
      "íĥ§": 9857,
      "íĥ¨": 9858,
      "íĥ©": 9859,
      "íĥª": 9860,
      "íĥ«": 9861,
      "íĥ¬": 9862,
      "íĥŃ": 9863,
      "íĥ®": 9864,
      "íĥ¯": 9865,
      "íĥ°": 9866,
      "íĥ±": 9867,
      "íĥ²": 9868,
      "íĥ³": 9869,
      "íĥ´": 9870,
      "íĥµ": 9871,
      "íĥ¶": 9872,
      "íĥ·": 9873,
      "íĥ¸": 9874,
      "íĥ¹": 9875,
      "íĥº": 9876,
      "íĥ»": 9877,
      "íĥ¼": 9878,
      "íĥ½": 9879,
      "íĥ¾": 9880,
      "íĥ¿": 9881,
      "íĦ": 9882,
      "íĦĢ": 9883,
      "íĦģ": 9884,
      "íĦĤ": 9885,
      "íĦĥ": 9886,
      "íĦĦ": 9887,
      "íĦħ": 9888,
      "íĦĨ": 9889,
      "íĦĩ": 9890,
      "íĦĪ": 9891,
      "íĦī": 9892,
      "íĦĬ": 9893,
      "íĦĭ": 9894,
      "íĦĮ": 9895,
      "íĦį": 9896,
      "íĦİ": 9897,
      "íĦı": 9898,
      "íĦĲ": 9899,
      "íĦĳ": 9900,
      "íĦĴ": 9901,
      "íĦĵ": 9902,
      "íĦĶ": 9903,
      "íĦķ": 9904,
      "íĦĸ": 9905,
      "íĦĹ": 9906,
      "íĦĺ": 9907,
      "íĦĻ": 9908,
      "íĦļ": 9909,
      "íĦĽ": 9910,
      "íĦľ": 9911,
      "íĦĿ": 9912,
      "íĦŀ": 9913,
      "íĦŁ": 9914,
      "íĦł": 9915,
      "íĦ¡": 9916,
      "íĦ¢": 9917,
      "íĦ£": 9918,
      "íĦ¤": 9919,
      "íĦ¥": 9920,
      "íĦ¦": 9921,
      "íĦ§": 9922,
      "íĦ¨": 9923,
      "íĦ©": 9924,
      "íĦª": 9925,
      "íĦ«": 9926,
      "íĦ¬": 9927,
      "íĦŃ": 9928,
      "íĦ®": 9929,
      "íĦ¯": 9930,
      "íĦ°": 9931,
      "íĦ±": 9932,
      "íĦ²": 9933,
      "íĦ³": 9934,
      "íĦ´": 9935,
      "íĦµ": 9936,
      "íĦ¶": 9937,
      "íĦ·": 9938,
      "íĦ¸": 9939,
      "íĦ¹": 9940,
      "íĦº": 9941,
      "íĦ»": 9942,
      "íĦ¼": 9943,
      "íĦ½": 9944,
      "íĦ¾": 9945,
      "íĦ¿": 9946,
      "íħ": 9947,
      "íħĢ": 9948,
      "íħģ": 9949,
      "íħĤ": 9950,
      "íħĥ": 9951,
      "íħĦ": 9952,
      "íħħ": 9953,
      "íħĨ": 9954,
      "íħĩ": 9955,
      "íħĪ": 9956,
      "íħī": 9957,
      "íħĬ": 9958,
      "íħĭ": 9959,
      "íħĮ": 9960,
      "íħį": 9961,
      "íħİ": 9962,
      "íħı": 9963,
      "íħĲ": 9964,
      "íħĳ": 9965,
      "íħĴ": 9966,
      "íħĵ": 9967,
      "íħĶ": 9968,
      "íħķ": 9969,
      "íħĸ": 9970,
      "íħĹ": 9971,
      "íħĺ": 9972,
      "íħĻ": 9973,
      "íħļ": 9974,
      "íħĽ": 9975,
      "íħľ": 9976,
      "íħĿ": 9977,
      "íħŀ": 9978,
      "íħŁ": 9979,
      "íħł": 9980,
      "íħ¡": 9981,
      "íħ¢": 9982,
      "íħ£": 9983,
      "íħ¤": 9984,
      "íħ¥": 9985,
      "íħ¦": 9986,
      "íħ§": 9987,
      "íħ¨": 9988,
      "íħ©": 9989,
      "íħª": 9990,
      "íħ«": 9991,
      "íħ¬": 9992,
      "íħŃ": 9993,
      "íħ®": 9994,
      "íħ¯": 9995,
      "íħ°": 9996,
      "íħ±": 9997,
      "íħ²": 9998,
      "íħ³": 9999,
      "íħ´": 10000,
      "íħµ": 10001,
      "íħ¶": 10002,
      "íħ·": 10003,
      "íħ¸": 10004,
      "íħ¹": 10005,
      "íħº": 10006,
      "íħ»": 10007,
      "íħ¼": 10008,
      "íħ½": 10009,
      "íħ¾": 10010,
      "íħ¿": 10011,
      "íĨ": 10012,
      "íĨĢ": 10013,
      "íĨģ": 10014,
      "íĨĤ": 10015,
      "íĨĥ": 10016,
      "íĨĦ": 10017,
      "íĨħ": 10018,
      "íĨĨ": 10019,
      "íĨĩ": 10020,
      "íĨĪ": 10021,
      "íĨī": 10022,
      "íĨĬ": 10023,
      "íĨĭ": 10024,
      "íĨĮ": 10025,
      "íĨį": 10026,
      "íĨİ": 10027,
      "íĨı": 10028,
      "íĨĲ": 10029,
      "íĨĳ": 10030,
      "íĨĴ": 10031,
      "íĨĵ": 10032,
      "íĨĶ": 10033,
      "íĨķ": 10034,
      "íĨĸ": 10035,
      "íĨĹ": 10036,
      "íĨĺ": 10037,
      "íĨĻ": 10038,
      "íĨļ": 10039,
      "íĨĽ": 10040,
      "íĨľ": 10041,
      "íĨĿ": 10042,
      "íĨŀ": 10043,
      "íĨŁ": 10044,
      "íĨł": 10045,
      "íĨ¡": 10046,
      "íĨ¢": 10047,
      "íĨ£": 10048,
      "íĨ¤": 10049,
      "íĨ¥": 10050,
      "íĨ¦": 10051,
      "íĨ§": 10052,
      "íĨ¨": 10053,
      "íĨ©": 10054,
      "íĨª": 10055,
      "íĨ«": 10056,
      "íĨ¬": 10057,
      "íĨŃ": 10058,
      "íĨ®": 10059,
      "íĨ¯": 10060,
      "íĨ°": 10061,
      "íĨ±": 10062,
      "íĨ²": 10063,
      "íĨ³": 10064,
      "íĨ´": 10065,
      "íĨµ": 10066,
      "íĨ¶": 10067,
      "íĨ·": 10068,
      "íĨ¸": 10069,
      "íĨ¹": 10070,
      "íĨº": 10071,
      "íĨ»": 10072,
      "íĨ¼": 10073,
      "íĨ½": 10074,
      "íĨ¾": 10075,
      "íĨ¿": 10076,
      "íĩ": 10077,
      "íĩĢ": 10078,
      "íĩģ": 10079,
      "íĩĤ": 10080,
      "íĩĥ": 10081,
      "íĩĦ": 10082,
      "íĩħ": 10083,
      "íĩĨ": 10084,
      "íĩĩ": 10085,
      "íĩĪ": 10086,
      "íĩī": 10087,
      "íĩĬ": 10088,
      "íĩĭ": 10089,
      "íĩĮ": 10090,
      "íĩį": 10091,
      "íĩİ": 10092,
      "íĩı": 10093,
      "íĩĲ": 10094,
      "íĩĳ": 10095,
      "íĩĴ": 10096,
      "íĩĵ": 10097,
      "íĩĶ": 10098,
      "íĩķ": 10099,
      "íĩĸ": 10100,
      "íĩĹ": 10101,
      "íĩĺ": 10102,
      "íĩĻ": 10103,
      "íĩļ": 10104,
      "íĩĽ": 10105,
      "íĩľ": 10106,
      "íĩĿ": 10107,
      "íĩŀ": 10108,
      "íĩŁ": 10109,
      "íĩł": 10110,
      "íĩ¡": 10111,
      "íĩ¢": 10112,
      "íĩ£": 10113,
      "íĩ¤": 10114,
      "íĩ¥": 10115,
      "íĩ¦": 10116,
      "íĩ§": 10117,
      "íĩ¨": 10118,
      "íĩ©": 10119,
      "íĩª": 10120,
      "íĩ«": 10121,
      "íĩ¬": 10122,
      "íĩŃ": 10123,
      "íĩ®": 10124,
      "íĩ¯": 10125,
      "íĩ°": 10126,
      "íĩ±": 10127,
      "íĩ²": 10128,
      "íĩ³": 10129,
      "íĩ´": 10130,
      "íĩµ": 10131,
      "íĩ¶": 10132,
      "íĩ·": 10133,
      "íĩ¸": 10134,
      "íĩ¹": 10135,
      "íĩº": 10136,
      "íĩ»": 10137,
      "íĩ¼": 10138,
      "íĩ½": 10139,
      "íĩ¾": 10140,
      "íĩ¿": 10141,
      "íĪ": 10142,
      "íĪĢ": 10143,
      "íĪģ": 10144,
      "íĪĤ": 10145,
      "íĪĥ": 10146,
      "íĪĦ": 10147,
      "íĪħ": 10148,
      "íĪĨ": 10149,
      "íĪĩ": 10150,
      "íĪĪ": 10151,
      "íĪī": 10152,
      "íĪĬ": 10153,
      "íĪĭ": 10154,
      "íĪĮ": 10155,
      "íĪį": 10156,
      "íĪİ": 10157,
      "íĪı": 10158,
      "íĪĲ": 10159,
      "íĪĳ": 10160,
      "íĪĴ": 10161,
      "íĪĵ": 10162,
      "íĪĶ": 10163,
      "íĪķ": 10164,
      "íĪĸ": 10165,
      "íĪĹ": 10166,
      "íĪĺ": 10167,
      "íĪĻ": 10168,
      "íĪļ": 10169,
      "íĪĽ": 10170,
      "íĪľ": 10171,
      "íĪĿ": 10172,
      "íĪŀ": 10173,
      "íĪŁ": 10174,
      "íĪł": 10175,
      "íĪ¡": 10176,
      "íĪ¢": 10177,
      "íĪ£": 10178,
      "íĪ¤": 10179,
      "íĪ¥": 10180,
      "íĪ¦": 10181,
      "íĪ§": 10182,
      "íĪ¨": 10183,
      "íĪ©": 10184,
      "íĪª": 10185,
      "íĪ«": 10186,
      "íĪ¬": 10187,
      "íĪŃ": 10188,
      "íĪ®": 10189,
      "íĪ¯": 10190,
      "íĪ°": 10191,
      "íĪ±": 10192,
      "íĪ²": 10193,
      "íĪ³": 10194,
      "íĪ´": 10195,
      "íĪµ": 10196,
      "íĪ¶": 10197,
      "íĪ·": 10198,
      "íĪ¸": 10199,
      "íĪ¹": 10200,
      "íĪº": 10201,
      "íĪ»": 10202,
      "íĪ¼": 10203,
      "íĪ½": 10204,
      "íĪ¾": 10205,
      "íĪ¿": 10206,
      "íī": 10207,
      "íīĢ": 10208,
      "íīģ": 10209,
      "íīĤ": 10210,
      "íīĥ": 10211,
      "íīĦ": 10212,
      "íīħ": 10213,
      "íīĨ": 10214,
      "íīĩ": 10215,
      "íīĪ": 10216,
      "íīī": 10217,
      "íīĬ": 10218,
      "íīĭ": 10219,
      "íīĮ": 10220,
      "íīį": 10221,
      "íīİ": 10222,
      "íīı": 10223,
      "íīĲ": 10224,
      "íīĳ": 10225,
      "íīĴ": 10226,
      "íīĵ": 10227,
      "íīĶ": 10228,
      "íīķ": 10229,
      "íīĸ": 10230,
      "íīĹ": 10231,
      "íīĺ": 10232,
      "íīĻ": 10233,
      "íīļ": 10234,
      "íīĽ": 10235,
      "íīľ": 10236,
      "íīĿ": 10237,
      "íīŀ": 10238,
      "íīŁ": 10239,
      "íīł": 10240,
      "íī¡": 10241,
      "íī¢": 10242,
      "íī£": 10243,
      "íī¤": 10244,
      "íī¥": 10245,
      "íī¦": 10246,
      "íī§": 10247,
      "íī¨": 10248,
      "íī©": 10249,
      "íīª": 10250,
      "íī«": 10251,
      "íī¬": 10252,
      "íīŃ": 10253,
      "íī®": 10254,
      "íī¯": 10255,
      "íī°": 10256,
      "íī±": 10257,
      "íī²": 10258,
      "íī³": 10259,
      "íī´": 10260,
      "íīµ": 10261,
      "íī¶": 10262,
      "íī·": 10263,
      "íī¸": 10264,
      "íī¹": 10265,
      "íīº": 10266,
      "íī»": 10267,
      "íī¼": 10268,
      "íī½": 10269,
      "íī¾": 10270,
      "íī¿": 10271,
      "íĬ": 10272,
      "íĬĢ": 10273,
      "íĬģ": 10274,
      "íĬĤ": 10275,
      "íĬĥ": 10276,
      "íĬĦ": 10277,
      "íĬħ": 10278,
      "íĬĨ": 10279,
      "íĬĩ": 10280,
      "íĬĪ": 10281,
      "íĬī": 10282,
      "íĬĬ": 10283,
      "íĬĭ": 10284,
      "íĬĮ": 10285,
      "íĬį": 10286,
      "íĬİ": 10287,
      "íĬı": 10288,
      "íĬĲ": 10289,
      "íĬĳ": 10290,
      "íĬĴ": 10291,
      "íĬĵ": 10292,
      "íĬĶ": 10293,
      "íĬķ": 10294,
      "íĬĸ": 10295,
      "íĬĹ": 10296,
      "íĬĺ": 10297,
      "íĬĻ": 10298,
      "íĬļ": 10299,
      "íĬĽ": 10300,
      "íĬľ": 10301,
      "íĬĿ": 10302,
      "íĬŀ": 10303,
      "íĬŁ": 10304,
      "íĬł": 10305,
      "íĬ¡": 10306,
      "íĬ¢": 10307,
      "íĬ£": 10308,
      "íĬ¤": 10309,
      "íĬ¥": 10310,
      "íĬ¦": 10311,
      "íĬ§": 10312,
      "íĬ¨": 10313,
      "íĬ©": 10314,
      "íĬª": 10315,
      "íĬ«": 10316,
      "íĬ¬": 10317,
      "íĬŃ": 10318,
      "íĬ®": 10319,
      "íĬ¯": 10320,
      "íĬ°": 10321,
      "íĬ±": 10322,
      "íĬ²": 10323,
      "íĬ³": 10324,
      "íĬ´": 10325,
      "íĬµ": 10326,
      "íĬ¶": 10327,
      "íĬ·": 10328,
      "íĬ¸": 10329,
      "íĬ¹": 10330,
      "íĬº": 10331,
      "íĬ»": 10332,
      "íĬ¼": 10333,
      "íĬ½": 10334,
      "íĬ¾": 10335,
      "íĬ¿": 10336,
      "íĭ": 10337,
      "íĭĢ": 10338,
      "íĭģ": 10339,
      "íĭĤ": 10340,
      "íĭĥ": 10341,
      "íĭĦ": 10342,
      "íĭħ": 10343,
      "íĭĨ": 10344,
      "íĭĩ": 10345,
      "íĭĪ": 10346,
      "íĭī": 10347,
      "íĭĬ": 10348,
      "íĭĭ": 10349,
      "íĭĮ": 10350,
      "íĭį": 10351,
      "íĭİ": 10352,
      "íĭı": 10353,
      "íĭĲ": 10354,
      "íĭĳ": 10355,
      "íĭĴ": 10356,
      "íĭĵ": 10357,
      "íĭĶ": 10358,
      "íĭķ": 10359,
      "íĭĸ": 10360,
      "íĭĹ": 10361,
      "íĭĺ": 10362,
      "íĭĻ": 10363,
      "íĭļ": 10364,
      "íĭĽ": 10365,
      "íĭľ": 10366,
      "íĭĿ": 10367,
      "íĭŀ": 10368,
      "íĭŁ": 10369,
      "íĭł": 10370,
      "íĭ¡": 10371,
      "íĭ¢": 10372,
      "íĭ£": 10373,
      "íĭ¤": 10374,
      "íĭ¥": 10375,
      "íĭ¦": 10376,
      "íĭ§": 10377,
      "íĭ¨": 10378,
      "íĭ©": 10379,
      "íĭª": 10380,
      "íĭ«": 10381,
      "íĭ¬": 10382,
      "íĭŃ": 10383,
      "íĭ®": 10384,
      "íĭ¯": 10385,
      "íĭ°": 10386,
      "íĭ±": 10387,
      "íĭ²": 10388,
      "íĭ³": 10389,
      "íĭ´": 10390,
      "íĭµ": 10391,
      "íĭ¶": 10392,
      "íĭ·": 10393,
      "íĭ¸": 10394,
      "íĭ¹": 10395,
      "íĭº": 10396,
      "íĭ»": 10397,
      "íĭ¼": 10398,
      "íĭ½": 10399,
      "íĭ¾": 10400,
      "íĭ¿": 10401,
      "íĮ": 10402,
      "íĮĢ": 10403,
      "íĮģ": 10404,
      "íĮĤ": 10405,
      "íĮĥ": 10406,
      "íĮĦ": 10407,
      "íĮħ": 10408,
      "íĮĨ": 10409,
      "íĮĩ": 10410,
      "íĮĪ": 10411,
      "íĮī": 10412,
      "íĮĬ": 10413,
      "íĮĭ": 10414,
      "íĮĮ": 10415,
      "íĮį": 10416,
      "íĮİ": 10417,
      "íĮı": 10418,
      "íĮĲ": 10419,
      "íĮĳ": 10420,
      "íĮĴ": 10421,
      "íĮĵ": 10422,
      "íĮĶ": 10423,
      "íĮķ": 10424,
      "íĮĸ": 10425,
      "íĮĹ": 10426,
      "íĮĺ": 10427,
      "íĮĻ": 10428,
      "íĮļ": 10429,
      "íĮĽ": 10430,
      "íĮľ": 10431,
      "íĮĿ": 10432,
      "íĮŀ": 10433,
      "íĮŁ": 10434,
      "íĮł": 10435,
      "íĮ¡": 10436,
      "íĮ¢": 10437,
      "íĮ£": 10438,
      "íĮ¤": 10439,
      "íĮ¥": 10440,
      "íĮ¦": 10441,
      "íĮ§": 10442,
      "íĮ¨": 10443,
      "íĮ©": 10444,
      "íĮª": 10445,
      "íĮ«": 10446,
      "íĮ¬": 10447,
      "íĮŃ": 10448,
      "íĮ®": 10449,
      "íĮ¯": 10450,
      "íĮ°": 10451,
      "íĮ±": 10452,
      "íĮ²": 10453,
      "íĮ³": 10454,
      "íĮ´": 10455,
      "íĮµ": 10456,
      "íĮ¶": 10457,
      "íĮ·": 10458,
      "íĮ¸": 10459,
      "íĮ¹": 10460,
      "íĮº": 10461,
      "íĮ»": 10462,
      "íĮ¼": 10463,
      "íĮ½": 10464,
      "íĮ¾": 10465,
      "íĮ¿": 10466,
      "íį": 10467,
      "íįĢ": 10468,
      "íįģ": 10469,
      "íįĤ": 10470,
      "íįĥ": 10471,
      "íįĦ": 10472,
      "íįħ": 10473,
      "íįĨ": 10474,
      "íįĩ": 10475,
      "íįĪ": 10476,
      "íįī": 10477,
      "íįĬ": 10478,
      "íįĭ": 10479,
      "íįĮ": 10480,
      "íįį": 10481,
      "íįİ": 10482,
      "íįı": 10483,
      "íįĲ": 10484,
      "íįĳ": 10485,
      "íįĴ": 10486,
      "íįĵ": 10487,
      "íįĶ": 10488,
      "íįķ": 10489,
      "íįĸ": 10490,
      "íįĹ": 10491,
      "íįĺ": 10492,
      "íįĻ": 10493,
      "íįļ": 10494,
      "íįĽ": 10495,
      "íįľ": 10496,
      "íįĿ": 10497,
      "íįŀ": 10498,
      "íįŁ": 10499,
      "íįł": 10500,
      "íį¡": 10501,
      "íį¢": 10502,
[...]
