{
  "version": "1.0",
  "truncation": null,
  "padding": null,
  "added_tokens": [
    {
      "id": 0,
      "content": "[PAD]",
      "single_word": false,
      "lstrip": false,
      "rstrip": false,
      "normalized": false,
      "special": true
    },
    {
      "id": 1,
      "content": "[UNK]",
      "single_word": false,
      "lstrip": false,
      "rstrip": false,
      "normalized": false,
      "special": true
    },
    {
      "id": 2,
      "content": "[BOS]",
      "single_word": false,
      "lstrip": false,
      "rstrip": false,
      "normalized": false,
      "special": true
    },
    {
      "id": 3,
      "content": "[EOS]",
      "single_word": false,
      "lstrip": false,
      "rstrip": false,
      "normalized": false,
      "special": true
    },
    {
      "id": 4,
      "content": "[SEP]",
      "single_word": false,
      "lstrip": false,
      "rstrip": false,
      "normalized": false,
      "special": true
    },
    {
      "id": 5,
      "content": "[CLS]",
      "single_word": false,
      "lstrip": false,
      "rstrip": false,
      "normalized": false,
      "special": true
    },
    {
      "id": 6,
      "content": "[MASK]",
      "single_word": false,
      "lstrip": false,
      "rstrip": false,
      "normalized": false,
      "special": true
    }
  ],
  "normalizer": null,
  "pre_tokenizer": {
    "type": "ByteLevel",
    "add_prefix_space": false,
    "trim_offsets": true,
    "use_regex": true
  },
  "post_processor": null,
  "decoder": {
    "type": "ByteLevel",
    "add_prefix_space": true,
    "trim_offsets": true,
    "use_regex": true
  },
  "model": {
    "type": "BPE",
    "dropout": null,
    "unk_token": "[UNK]",
    "continuing_subword_prefix": null,
    "end_of_word_suffix": null,
    "fuse_unk": false,
    "byte_fallback": false,
    "ignore_merges": false,
    "vocab": {
      "[PAD]": 0,
      "[UNK]": 1,
      "[BOS]": 2,
      "[EOS]": 3,
      "[SEP]": 4,
      "[CLS]": 5,
      "[MASK]": 6,
      "[UNUSED0]": 7,
      "[UNUSED1]": 8,
      "[UNUSED2]": 9,
      "[UNUSED3]": 10,
      "[UNUSED4]": 11,
      "[UNUSED5]": 12,
      "[UNUSED6]": 13,
      "[UNUSED7]": 14,
      "[UNUSED8]": 15,
      "[UNUSED9]": 16,
      "Ā": 17,
      "ā": 18,
      "Ă": 19,
      "ă": 20,
      "Ą": 21,
      "ą": 22,
      "Ć": 23,
      "ć": 24,
      "Ĉ": 25,
      "ĉ": 26,
      "Ċ": 27,
      "ċ": 28,
      "Č": 29,
      "č": 30,
      "Ď": 31,
      "ď": 32,
      "Đ": 33,
      "đ": 34,
      "Ē": 35,
      "ē": 36,
      "Ĕ": 37,
      "ĕ": 38,
      "Ė": 39,
      "ė": 40,
      "Ę": 41,
      "ę": 42,
      "Ě": 43,
      "ě": 44,
      "Ĝ": 45,
      "ĝ": 46,
      "Ğ": 47,
      "ğ": 48,
      "Ġ": 49,
      "!": 50,
      "\"": 51,
      "#": 52,
      "$": 53,
      "%": 54,
      "&": 55,
      "'": 56,
      "(": 57,
      ")": 58,
      "*": 59,
      "+": 60,
      ",": 61,
      "-": 62,
      ".": 63,
      "/": 64,
      "0": 65,
      "1": 66,
      "2": 67,
      "3": 68,
      "4": 69,
      "5": 70,
      "6": 71,
      "7": 72,
      "8": 73,
      "9": 74,
      ":": 75,
      ";": 76,
      "<": 77,
      "=": 78,
      ">": 79,
      "?": 80,
      "@": 81,
      "A": 82,
      "B": 83,
      "C": 84,
      "D": 85,
      "E": 86,
      "F": 87,
      "G": 88,
      "H": 89,
      "I": 90,
      "J": 91,
      "K": 92,
      "L": 93,
      "M": 94,
      "N": 95,
      "O": 96,
      "P": 97,
      "Q": 98,
      "R": 99,
      "S": 100,
      "T": 101,
      "U": 102,
      "V": 103,
      "W": 104,
      "X": 105,
      "Y": 106,
      "Z": 107,
      "[": 108,
      "\\": 109,
      "]": 110,
      "^": 111,
      "_": 112,
      "`": 113,
      "a": 114,
      "b": 115,
      "c": 116,
      "d": 117,
      "e": 118,
      "f": 119,
      "g": 120,
      "h": 121,
      "i": 122,
      "j": 123,
      "k": 124,
      "l": 125,
      "m": 126,
      "n": 127,
      "o": 128,
      "p": 129,
      "q": 130,
      "r": 131,
      "s": 132,
      "t": 133,
      "u": 134,
      "v": 135,
      "w": 136,
      "x": 137,
      "y": 138,
      "z": 139,
      "{": 140,
      "|": 141,
      "}": 142,
      "~": 143,
      "ġ": 144,
      "Ģ": 145,
      "ģ": 146,
      "Ĥ": 147,
      "ĥ": 148,
      "Ħ": 149,
      "ħ": 150,
      "Ĩ": 151,
      "ĩ": 152,
      "Ī": 153,
      "ī": 154,
      "Ĭ": 155,
      "ĭ": 156,
      "Į": 157,
      "į": 158,
      "İ": 159,
      "ı": 160,
      "Ĳ": 161,
      "ĳ": 162,
      "Ĵ": 163,
      "ĵ": 164,
      "Ķ": 165,
      "ķ": 166,
      "ĸ": 167,
      "Ĺ": 168,
      "ĺ": 169,
      "Ļ": 170,
      "ļ": 171,
      "Ľ": 172,
      "ľ": 173,
      "Ŀ": 174,
      "ŀ": 175,
      "Ł": 176,
      "ł": 177,
      "¡": 178,
      "¢": 179,
      "£": 180,
      "¤": 181,
      "¥": 182,
      "¦": 183,
      "§": 184,
      "¨": 185,
      "©": 186,
      "ª": 187,
      "«": 188,
      "¬": 189,
      "Ń": 190,
      "®": 191,
      "¯": 192,
      "°": 193,
      "±": 194,
      "²": 195,
      "³": 196,
      "´": 197,
      "µ": 198,
      "¶": 199,
      "·": 200,
      "¸": 201,
      "¹": 202,
      "º": 203,
      "»": 204,
      "¼": 205,
      "½": 206,
      "¾": 207,
      "¿": 208,
      "À": 209,
      "Á": 210,
      "Â": 211,
      "Ã": 212,
      "Ä": 213,
      "Å": 214,
      "Æ": 215,
      "Ç": 216,
      "È": 217,
      "É": 218,
      "Ê": 219,
      "Ë": 220,
      "Ì": 221,
      "Í": 222,
      "Î": 223,
      "Ï": 224,
      "Ð": 225,
      "Ñ": 226,
      "Ò": 227,
      "Ó": 228,
      "Ô": 229,
      "Õ": 230,
      "Ö": 231,
      "×": 232,
      "Ø": 233,
      "Ù": 234,
      "Ú": 235,
      "Û": 236,
      "Ü": 237,
      "Ý": 238,
      "Þ": 239,
      "ß": 240,
      "à": 241,
      "á": 242,
      "â": 243,
      "ã": 244,
      "ä": 245,
      "å": 246,
      "æ": 247,
      "ç": 248,
      "è": 249,
      "é": 250,
      "ê": 251,
      "ë": 252,
      "ì": 253,
      "í": 254,
      "î": 255,
      "ï": 256,
      "ð": 257,
      "ñ": 258,
      "ò": 259,
      "ó": 260,
      "ô": 261,
      "õ": 262,
      "ö": 263,
      "÷": 264,
      "ø": 265,
      "ù": 266,
      "ú": 267,
      "û": 268,
      "ü": 269,
      "ý": 270,
      "þ": 271,
      "ÿ": 272,
      "ê°": 273,
      "ê°Ģ": 274,
      "ê°ģ": 275,
      "ê°Ĥ": 276,
      "ê°ĥ": 277,
      "ê°Ħ": 278,
      "ê°ħ": 279,
      "ê°Ĩ": 280,
      "ê°ĩ": 281,
      "ê°Ī": 282,
      "ê°ī": 283,
      "ê°Ĭ": 284,
      "ê°ĭ": 285,
      "ê°Į": 286,
      "ê°į": 287,
      "ê°İ": 288,
      "ê°ı": 289,
      "ê°Ĳ": 290,
      "ê°ĳ": 291,
      "ê°Ĵ": 292,
      "ê°ĵ": 293,
      "ê°Ķ": 294,
      "ê°ķ": 295,
      "ê°ĸ": 296,
      "ê°Ĺ": 297,
      "ê°ĺ": 298,
      "ê°Ļ": 299,
      "ê°ļ": 300,
      "ê°Ľ": 301,
      "ê°ľ": 302,
      "ê°Ŀ": 303,
      "ê°ŀ": 304,
      "ê°Ł": 305,
      "ê°ł": 306,
      "ê°¡": 307,
      "ê°¢": 308,
      "ê°£": 309,
      "ê°¤": 310,
      "ê°¥": 311,
      "ê°¦": 312,
      "ê°§": 313,
      "ê°¨": 314,
      "ê°©": 315,
      "ê°ª": 316,
      "ê°«": 317,
      "ê°¬": 318,
      "ê°Ń": 319,
      "ê°®": 320,
      "ê°¯": 321,
      "ê°°": 322,
      "ê°±": 323,
      "ê°²": 324,
      "ê°³": 325,
      "ê°´": 326,
      "ê°µ": 327,
      "ê°¶": 328,
      "ê°·": 329,
      "ê°¸": 330,
      "ê°¹": 331,
      "ê°º": 332,
      "ê°»": 333,
      "ê°¼": 334,
      "ê°½": 335,
      "ê°¾": 336,
      "ê°¿": 337,
      "ê±": 338,
      "ê±Ģ": 339,
      "ê±ģ": 340,
      "ê±Ĥ": 341,
      "ê±ĥ": 342,
      "ê±Ħ": 343,
      "ê±ħ": 344,
      "ê±Ĩ": 345,
      "ê±ĩ": 346,
      "ê±Ī": 347,
      "ê±ī": 348,
      "ê±Ĭ": 349,
      "ê±ĭ": 350,
      "ê±Į": 351,
      "ê±į": 352,
      "ê±İ": 353,
      "ê±ı": 354,
      "ê±Ĳ": 355,
      "ê±ĳ": 356,
      "ê±Ĵ": 357,
      "ê±ĵ": 358,
      "ê±Ķ": 359,
      "ê±ķ": 360,
      "ê±ĸ": 361,
      "ê±Ĺ": 362,
      "ê±ĺ": 363,
      "ê±Ļ": 364,
      "ê±ļ": 365,
      "ê±Ľ": 366,
      "ê±ľ": 367,
      "ê±Ŀ": 368,
      "ê±ŀ": 369,
      "ê±Ł": 370,
      "ê±ł": 371,
      "ê±¡": 372,
      "ê±¢": 373,
      "ê±£": 374,
      "ê±¤": 375,
      "ê±¥": 376,
      "ê±¦": 377,
      "ê±§": 378,
      "ê±¨": 379,
      "ê±©": 380,
      "ê±ª": 381,
      "ê±«": 382,
      "ê±¬": 383,
      "ê±Ń": 384,
      "ê±®": 385,
      "ê±¯": 386,
      "ê±°": 387,
      "ê±±": 388,
      "ê±²": 389,
      "ê±³": 390,
      "ê±´": 391,
      "ê±µ": 392,
      "ê±¶": 393,
      "ê±·": 394,
      "ê±¸": 395,
      "ê±¹": 396,
      "ê±º": 397,
      "ê±»": 398,
      "ê±¼": 399,
      "ê±½": 400,
      "ê±¾": 401,
      "ê±¿": 402,
      "ê²": 403,
      "ê²Ģ": 404,
      "ê²ģ": 405,
      "ê²Ĥ": 406,
      "ê²ĥ": 407,
      "ê²Ħ": 408,
      "ê²ħ": 409,
      "ê²Ĩ": 410,
      "ê²ĩ": 411,
      "ê²Ī": 412,
      "ê²ī": 413,
      "ê²Ĭ": 414,
      "ê²ĭ": 415,
      "ê²Į": 416,
      "ê²į": 417,
      "ê²İ": 418,
      "ê²ı": 419,
      "ê²Ĳ": 420,
      "ê²ĳ": 421,
      "ê²Ĵ": 422,
      "ê²ĵ": 423,
      "ê²Ķ": 424,
      "ê²ķ": 425,
      "ê²ĸ": 426,
      "ê²Ĺ": 427,
      "ê²ĺ": 428,
      "ê²Ļ": 429,
      "ê²ļ": 430,
      "ê²Ľ": 431,
      "ê²ľ": 432,
      "ê²Ŀ": 433,
      "ê²ŀ": 434,
      "ê²Ł": 435,
      "ê²ł": 436,
      "ê²¡": 437,
      "ê²¢": 438,
      "ê²£": 439,
      "ê²¤": 440,
      "ê²¥": 441,
      "ê²¦": 442,
      "ê²§": 443,
      "ê²¨": 444,
      "ê²©": 445,
      "ê²ª": 446,
      "ê²«": 447,
      "ê²¬": 448,
      "ê²Ń": 449,
      "ê²®": 450,
      "ê²¯": 451,
      "ê²°": 452,
      "ê²±": 453,
      "ê²²": 454,
      "ê²³": 455,
      "ê²´": 456,
      "ê²µ": 457,
      "ê²¶": 458,
      "ê²·": 459,
      "ê²¸": 460,
      "ê²¹": 461,
      "ê²º": 462,
      "ê²»": 463,
      "ê²¼": 464,
      "ê²½": 465,
      "ê²¾": 466,
      "ê²¿": 467,
      "ê³": 468,
      "ê³Ģ": 469,
      "ê³ģ": 470,
      "ê³Ĥ": 471,
      "ê³ĥ": 472,
      "ê³Ħ": 473,
      "ê³ħ": 474,
      "ê³Ĩ": 475,
      "ê³ĩ": 476,
      "ê³Ī": 477,
      "ê³ī": 478,
      "ê³Ĭ": 479,
      "ê³ĭ": 480,
      "ê³Į": 481,
      "ê³į": 482,
      "ê³İ": 483,
      "ê³ı": 484,
      "ê³Ĳ": 485,
      "ê³ĳ": 486,
      "ê³Ĵ": 487,
      "ê³ĵ": 488,
      "ê³Ķ": 489,
      "ê³ķ": 490,
      "ê³ĸ": 491,
      "ê³Ĺ": 492,
      "ê³ĺ": 493,
      "ê³Ļ": 494,
      "ê³ļ": 495,
      "ê³Ľ": 496,
      "ê³ľ": 497,
      "ê³Ŀ": 498,
      "ê³ŀ": 499,
      "ê³Ł": 500,
      "ê³ł": 501,
      "ê³¡": 502,
      "ê³¢": 503,
      "ê³£": 504,
      "ê³¤": 505,
      "ê³¥": 506,
      "ê³¦": 507,
      "ê³§": 508,
      "ê³¨": 509,
      "ê³©": 510,
      "ê³ª": 511,
      "ê³«": 512,
      "ê³¬": 513,
      "ê³Ń": 514,
      "ê³®": 515,
      "ê³¯": 516,
      "ê³°": 517,
      "ê³±": 518,
      "ê³²": 519,
      "ê³³": 520,
      "ê³´": 521,
      "ê³µ": 522,
      "ê³¶": 523,
      "ê³·": 524,
      "ê³¸": 525,
      "ê³¹": 526,
      "ê³º": 527,
      "ê³»": 528,
      "ê³¼": 529,
      "ê³½": 530,
      "ê³¾": 531,
      "ê³¿": 532,
      "ê´": 533,
      "ê´Ģ": 534,
      "ê´ģ": 535,
      "ê´Ĥ": 536,
      "ê´ĥ": 537,
      "ê´Ħ": 538,
      "ê´ħ": 539,
      "ê´Ĩ": 540,
      "ê´ĩ": 541,
      "ê´Ī": 542,
      "ê´ī": 543,
      "ê´Ĭ": 544,
      "ê´ĭ": 545,
      "ê´Į": 546,
      "ê´į": 547,
      "ê´İ": 548,
      "ê´ı": 549,
      "ê´Ĳ": 550,
      "ê´ĳ": 551,
      "ê´Ĵ": 552,
      "ê´ĵ": 553,
      "ê´Ķ": 554,
      "ê´ķ": 555,
      "ê´ĸ": 556,
      "ê´Ĺ": 557,
      "ê´ĺ": 558,
      "ê´Ļ": 559,
      "ê´ļ": 560,
      "ê´Ľ": 561,
      "ê´ľ": 562,
      "ê´Ŀ": 563,
      "ê´ŀ": 564,
      "ê´Ł": 565,
      "ê´ł": 566,
      "ê´¡": 567,
      "ê´¢": 568,
      "ê´£": 569,
      "ê´¤": 570,
      "ê´¥": 571,
      "ê´¦": 572,
      "ê´§": 573,
      "ê´¨": 574,
      "ê´©": 575,
      "ê´ª": 576,
      "ê´«": 577,
      "ê´¬": 578,
      "ê´Ń": 579,
      "ê´®": 580,
      "ê´¯": 581,
      "ê´°": 582,
      "ê´±": 583,
      "ê´²": 584,
      "ê´³": 585,
      "ê´´": 586,
      "ê´µ": 587,
      "ê´¶": 588,
      "ê´·": 589,
      "ê´¸": 590,
      "ê´¹": 591,
      "ê´º": 592,
      "ê´»": 593,
      "ê´¼": 594,
      "ê´½": 595,
      "ê´¾": 596,
      "ê´¿": 597,
      "êµ": 598,
      "êµĢ": 599,
      "êµģ": 600,
      "êµĤ": 601,
      "êµĥ": 602,
      "êµĦ": 603,
      "êµħ": 604,
      "êµĨ": 605,
      "êµĩ": 606,
      "êµĪ": 607,
      "êµī": 608,
      "êµĬ": 609,
      "êµĭ": 610,
      "êµĮ": 611,
      "êµį": 612,
      "êµİ": 613,
      "êµı": 614,
      "êµĲ": 615,
      "êµĳ": 616,
      "êµĴ": 617,
      "êµĵ": 618,
      "êµĶ": 619,
      "êµķ": 620,
      "êµĸ": 621,
      "êµĹ": 622,
      "êµĺ": 623,
      "êµĻ": 624,
      "êµļ": 625,
      "êµĽ": 626,
      "êµľ": 627,
      "êµĿ": 628,
      "êµŀ": 629,
      "êµŁ": 630,
      "êµł": 631,
      "êµ¡": 632,
      "êµ¢": 633,
      "êµ£": 634,
      "êµ¤": 635,
      "êµ¥": 636,
      "êµ¦": 637,
      "êµ§": 638,
      "êµ¨": 639,
      "êµ©": 640,
      "êµª": 641,
      "êµ«": 642,
      "êµ¬": 643,
      "êµŃ": 644,
      "êµ®": 645,
      "êµ¯": 646,
      "êµ°": 647,
      "êµ±": 648,
      "êµ²": 649,
      "êµ³": 650,
      "êµ´": 651,
      "êµµ": 652,
      "êµ¶": 653,
      "êµ·": 654,
      "êµ¸": 655,
      "êµ¹": 656,
      "êµº": 657,
      "êµ»": 658,
      "êµ¼": 659,
      "êµ½": 660,
      "êµ¾": 661,
      "êµ¿": 662,
      "ê¶": 663,
      "ê¶Ģ": 664,
      "ê¶ģ": 665,
      "ê¶Ĥ": 666,
      "ê¶ĥ": 667,
      "ê¶Ħ": 668,
      "ê¶ħ": 669,
      "ê¶Ĩ": 670,
      "ê¶ĩ": 671,
      "ê¶Ī": 672,
      "ê¶ī": 673,
      "ê¶Ĭ": 674,
      "ê¶ĭ": 675,
      "ê¶Į": 676,
      "ê¶į": 677,
      "ê¶İ": 678,
      "ê¶ı": 679,
      "ê¶Ĳ": 680,
      "ê¶ĳ": 681,
      "ê¶Ĵ": 682,
      "ê¶ĵ": 683,
      "ê¶Ķ": 684,
      "ê¶ķ": 685,
      "ê¶ĸ": 686,
      "ê¶Ĺ": 687,
      "ê¶ĺ": 688,
      "ê¶Ļ": 689,
      "ê¶ļ": 690,
      "ê¶Ľ": 691,
      "ê¶ľ": 692,
      "ê¶Ŀ": 693,
      "ê¶ŀ": 694,
      "ê¶Ł": 695,
      "ê¶ł": 696,
      "ê¶¡": 697,
      "ê¶¢": 698,
      "ê¶£": 699,
      "ê¶¤": 700,
      "ê¶¥": 701,
      "ê¶¦": 702,
      "ê¶§": 703,
      "ê¶¨": 704,
      "ê¶©": 705,
      "ê¶ª": 706,
      "ê¶«": 707,
      "ê¶¬": 708,
      "ê¶Ń": 709,
      "ê¶®": 710,
      "ê¶¯": 711,
      "ê¶°": 712,
      "ê¶±": 713,
      "ê¶²": 714,
      "ê¶³": 715,
      "ê¶´": 716,
      "ê¶µ": 717,
      "ê¶¶": 718,
      "ê¶·": 719,
      "ê¶¸": 720,
      "ê¶¹": 721,
      "ê¶º": 722,
      "ê¶»": 723,
      "ê¶¼": 724,
      "ê¶½": 725,
      "ê¶¾": 726,
      "ê¶¿": 727,
      "ê·": 728,
      "ê·Ģ": 729,
      "ê·ģ": 730,
      "ê·Ĥ": 731,
      "ê·ĥ": 732,
      "ê·Ħ": 733,
      "ê·ħ": 734,
      "ê·Ĩ": 735,
      "ê·ĩ": 736,
      "ê·Ī": 737,
      "ê·ī": 738,
      "ê·Ĭ": 739,
      "ê·ĭ": 740,
      "ê·Į": 741,
      "ê·į": 742,
      "ê·İ": 743,
      "ê·ı": 744,
      "ê·Ĳ": 745,
      "ê·ĳ": 746,
      "ê·Ĵ": 747,
      "ê·ĵ": 748,
      "ê·Ķ": 749,
      "ê·ķ": 750,
      "ê·ĸ": 751,
      "ê·Ĺ": 752,
      "ê·ĺ": 753,
      "ê·Ļ": 754,
      "ê·ļ": 755,
      "ê·Ľ": 756,
      "ê·ľ": 757,
      "ê·Ŀ": 758,
      "ê·ŀ": 759,
      "ê·Ł": 760,
      "ê·ł": 761,
      "ê·¡": 762,
      "ê·¢": 763,
      "ê·£": 764,
      "ê·¤": 765,
      "ê·¥": 766,
      "ê·¦": 767,
      "ê·§": 768,
      "ê·¨": 769,
      "ê·©": 770,
      "ê·ª": 771,
      "ê·«": 772,
      "ê·¬": 773,
      "ê·Ń": 774,
      "ê·®": 775,
      "ê·¯": 776,
      "ê·°": 777,
      "ê·±": 778,
      "ê·²": 779,
      "ê·³": 780,
      "ê·´": 781,
      "ê·µ": 782,
      "ê·¶": 783,
      "ê··": 784,
      "ê·¸": 785,
      "ê·¹": 786,
      "ê·º": 787,
      "ê·»": 788,
      "ê·¼": 789,
      "ê·½": 790,
      "ê·¾": 791,
      "ê·¿": 792,
      "ê¸": 793,
      "ê¸Ģ": 794,
      "ê¸ģ": 795,
      "ê¸Ĥ": 796,
      "ê¸ĥ": 797,
      "ê¸Ħ": 798,
      "ê¸ħ": 799,
      "ê¸Ĩ": 800,
      "ê¸ĩ": 801,
      "ê¸Ī": 802,
      "ê¸ī": 803,
      "ê¸Ĭ": 804,
      "ê¸ĭ": 805,
      "ê¸Į": 806,
      "ê¸į": 807,
      "ê¸İ": 808,
      "ê¸ı": 809,
      "ê¸Ĳ": 810,
      "ê¸ĳ": 811,
      "ê¸Ĵ": 812,
      "ê¸ĵ": 813,
      "ê¸Ķ": 814,
      "ê¸ķ": 815,
      "ê¸ĸ": 816,
      "ê¸Ĺ": 817,
      "ê¸ĺ": 818,
      "ê¸Ļ": 819,
      "ê¸ļ": 820,
      "ê¸Ľ": 821,
      "ê¸ľ": 822,
      "ê¸Ŀ": 823,
      "ê¸ŀ": 824,
      "ê¸Ł": 825,
      "ê¸ł": 826,
      "ê¸¡": 827,
      "ê¸¢": 828,
      "ê¸£": 829,
      "ê¸¤": 830,
      "ê¸¥": 831,
      "ê¸¦": 832,
      "ê¸§": 833,
      "ê¸¨": 834,
      "ê¸©": 835,
      "ê¸ª": 836,
      "ê¸«": 837,
      "ê¸¬": 838,
      "ê¸Ń": 839,
      "ê¸®": 840,
      "ê¸¯": 841,
      "ê¸°": 842,
      "ê¸±": 843,
      "ê¸²": 844,
      "ê¸³": 845,
      "ê¸´": 846,
      "ê¸µ": 847,
      "ê¸¶": 848,
      "ê¸·": 849,
      "ê¸¸": 850,
      "ê¸¹": 851,
      "ê¸º": 852,
      "ê¸»": 853,
      "ê¸¼": 854,
      "ê¸½": 855,
      "ê¸¾": 856,
      "ê¸¿": 857,
      "ê¹": 858,
      "ê¹Ģ": 859,
      "ê¹ģ": 860,
      "ê¹Ĥ": 861,
      "ê¹ĥ": 862,
      "ê¹Ħ": 863,
      "ê¹ħ": 864,
      "ê¹Ĩ": 865,
      "ê¹ĩ": 866,
      "ê¹Ī": 867,
      "ê¹ī": 868,
      "ê¹Ĭ": 869,
      "ê¹ĭ": 870,
      "ê¹Į": 871,
      "ê¹į": 872,
      "ê¹İ": 873,
      "ê¹ı": 874,
      "ê¹Ĳ": 875,
      "ê¹ĳ": 876,
      "ê¹Ĵ": 877,
      "ê¹ĵ": 878,
      "ê¹Ķ": 879,
      "ê¹ķ": 880,
      "ê¹ĸ": 881,
      "ê¹Ĺ": 882,
      "ê¹ĺ": 883,
      "ê¹Ļ": 884,
      "ê¹ļ": 885,
      "ê¹Ľ": 886,
      "ê¹ľ": 887,
      "ê¹Ŀ": 888,
      "ê¹ŀ": 889,
      "ê¹Ł": 890,
      "ê¹ł": 891,
      "ê¹¡": 892,
      "ê¹¢": 893,
      "ê¹£": 894,
      "ê¹¤": 895,
      "ê¹¥": 896,
      "ê¹¦": 897,
      "ê¹§": 898,
      "ê¹¨": 899,
      "ê¹©": 900,
      "ê¹ª": 901,
      "ê¹«": 902,
      "ê¹¬": 903,
      "ê¹Ń": 904,
      "ê¹®": 905,
      "ê¹¯": 906,
      "ê¹°": 907,
      "ê¹±": 908,
      "ê¹²": 909,
      "ê¹³": 910,
      "ê¹´": 911,
      "ê¹µ": 912,
      "ê¹¶": 913,
      "ê¹·": 914,
      "ê¹¸": 915,
      "ê¹¹": 916,
      "ê¹º": 917,
      "ê¹»": 918,
      "ê¹¼": 919,
      "ê¹½": 920,
      "ê¹¾": 921,
      "ê¹¿": 922,
      "êº": 923,
      "êºĢ": 924,
      "êºģ": 925,
      "êºĤ": 926,
      "êºĥ": 927,
      "êºĦ": 928,
      "êºħ": 929,
      "êºĨ": 930,
      "êºĩ": 931,
      "êºĪ": 932,
      "êºī": 933,
      "êºĬ": 934,
      "êºĭ": 935,
      "êºĮ": 936,
      "êºį": 937,
      "êºİ": 938,
      "êºı": 939,
      "êºĲ": 940,
      "êºĳ": 941,
      "êºĴ": 942,
      "êºĵ": 943,
      "êºĶ": 944,
      "êºķ": 945,
      "êºĸ": 946,
      "êºĹ": 947,
      "êºĺ": 948,
      "êºĻ": 949,
      "êºļ": 950,
      "êºĽ": 951,
      "êºľ": 952,
      "êºĿ": 953,
      "êºŀ": 954,
      "êºŁ": 955,
      "êºł": 956,
      "êº¡": 957,
      "êº¢": 958,
      "êº£": 959,
      "êº¤": 960,
      "êº¥": 961,
      "êº¦": 962,
      "êº§": 963,
      "êº¨": 964,
      "êº©": 965,
      "êºª": 966,
      "êº«": 967,
      "êº¬": 968,
      "êºŃ": 969,
      "êº®": 970,
      "êº¯": 971,
      "êº°": 972,
      "êº±": 973,
      "êº²": 974,
      "êº³": 975,
      "êº´": 976,
      "êºµ": 977,
      "êº¶": 978,
      "êº·": 979,
      "êº¸": 980,
      "êº¹": 981,
      "êºº": 982,
      "êº»": 983,
      "êº¼": 984,
      "êº½": 985,
      "êº¾": 986,
      "êº¿": 987,
      "ê»": 988,
      "ê»Ģ": 989,
      "ê»ģ": 990,
      "ê»Ĥ": 991,
      "ê»ĥ": 992,
      "ê»Ħ": 993,
      "ê»ħ": 994,
      "ê»Ĩ": 995,
      "ê»ĩ": 996,
      "ê»Ī": 997,
      "ê»ī": 998,
      "ê»Ĭ": 999,
      "ê»ĭ": 1000,
      "ê»Į": 1001,
      "ê»į": 1002,
      "ê»İ": 1003,
      "ê»ı": 1004,
      "ê»Ĳ": 1005,
      "ê»ĳ": 1006,
      "ê»Ĵ": 1007,
      "ê»ĵ": 1008,
      "ê»Ķ": 1009,
      "ê»ķ": 1010,
      "ê»ĸ": 1011,
      "ê»Ĺ": 1012,
      "ê»ĺ": 1013,
      "ê»Ļ": 1014,
      "ê»ļ": 1015,
      "ê»Ľ": 1016,
      "ê»ľ": 1017,
      "ê»Ŀ": 1018,
      "ê»ŀ": 1019,
      "ê»Ł": 1020,
      "ê»ł": 1021,
      "ê»¡": 1022,
      "ê»¢": 1023,
      "ê»£": 1024,
      "ê»¤": 1025,
      "ê»¥": 1026,
      "ê»¦": 1027,
      "ê»§": 1028,
      "ê»¨": 1029,
      "ê»©": 1030,
      "ê»ª": 1031,
      "ê»«": 1032,
      "ê»¬": 1033,
      "ê»Ń": 1034,
      "ê»®": 1035,
      "ê»¯": 1036,
      "ê»°": 1037,
      "ê»±": 1038,
      "ê»²": 1039,
      "ê»³": 1040,
      "ê»´": 1041,
      "ê»µ": 1042,
      "ê»¶": 1043,
      "ê»·": 1044,
      "ê»¸": 1045,
      "ê»¹": 1046,
      "ê»º": 1047,
      "ê»»": 1048,
      "ê»¼": 1049,
      "ê»½": 1050,
      "ê»¾": 1051,
      "ê»¿": 1052,
      "ê¼": 1053,
      "ê¼Ģ": 1054,
      "ê¼ģ": 1055,
      "ê¼Ĥ": 1056,
      "ê¼ĥ": 1057,
      "ê¼Ħ": 1058,
      "ê¼ħ": 1059,
      "ê¼Ĩ": 1060,
      "ê¼ĩ": 1061,
      "ê¼Ī": 1062,
      "ê¼ī": 1063,
      "ê¼Ĭ": 1064,
      "ê¼ĭ": 1065,
      "ê¼Į": 1066,
      "ê¼į": 1067,
      "ê¼İ": 1068,
      "ê¼ı": 1069,
      "ê¼Ĳ": 1070,
      "ê¼ĳ": 1071,
      "ê¼Ĵ": 1072,
      "ê¼ĵ": 1073,
      "ê¼Ķ": 1074,
      "ê¼ķ": 1075,
      "ê¼ĸ": 1076,
      "ê¼Ĺ": 1077,
      "ê¼ĺ": 1078,
      "ê¼Ļ": 1079,
      "ê¼ļ": 1080,
      "ê¼Ľ": 1081,
      "ê¼ľ": 1082,
      "ê¼Ŀ": 1083,
      "ê¼ŀ": 1084,
      "ê¼Ł": 1085,
      "ê¼ł": 1086,
      "ê¼¡": 1087,
      "ê¼¢": 1088,
      "ê¼£": 1089,
      "ê¼¤": 1090,
      "ê¼¥": 1091,
      "ê¼¦": 1092,
      "ê¼§": 1093,
      "ê¼¨": 1094,
      "ê¼©": 1095,
      "ê¼ª": 1096,
      "ê¼«": 1097,
      "ê¼¬": 1098,
      "ê¼Ń": 1099,
      "ê¼®": 1100,
      "ê¼¯": 1101,
      "ê¼°": 1102,
      "ê¼±": 1103,
      "ê¼²": 1104,
      "ê¼³": 1105,
      "ê¼´": 1106,
      "ê¼µ": 1107,
      "ê¼¶": 1108,
      "ê¼·": 1109,
      "ê¼¸": 1110,
      "ê¼¹": 1111,
      "ê¼º": 1112,
      "ê¼»": 1113,
      "ê¼¼": 1114,
      "ê¼½": 1115,
      "ê¼¾": 1116,
      "ê¼¿": 1117,
      "ê½": 1118,
      "ê½Ģ": 1119,
      "ê½ģ": 1120,
      "ê½Ĥ": 1121,
      "ê½ĥ": 1122,
      "ê½Ħ": 1123,
      "ê½ħ": 1124,
      "ê½Ĩ": 1125,
      "ê½ĩ": 1126,
      "ê½Ī": 1127,
      "ê½ī": 1128,
      "ê½Ĭ": 1129,
      "ê½ĭ": 1130,
      "ê½Į": 1131,
      "ê½į": 1132,
      "ê½İ": 1133,
      "ê½ı": 1134,
      "ê½Ĳ": 1135,
      "ê½ĳ": 1136,
      "ê½Ĵ": 1137,
      "ê½ĵ": 1138,
      "ê½Ķ": 1139,
      "ê½ķ": 1140,
      "ê½ĸ": 1141,
      "ê½Ĺ": 1142,
      "ê½ĺ": 1143,
      "ê½Ļ": 1144,
      "ê½ļ": 1145,
      "ê½Ľ": 1146,
      "ê½ľ": 1147,
      "ê½Ŀ": 1148,
      "ê½ŀ": 1149,
      "ê½Ł": 1150,
      "ê½ł": 1151,
      "ê½¡": 1152,
      "ê½¢": 1153,
      "ê½£": 1154,
      "ê½¤": 1155,
      "ê½¥": 1156,
      "ê½¦": 1157,
      "ê½§": 1158,
      "ê½¨": 1159,
      "ê½©": 1160,
      "ê½ª": 1161,
      "ê½«": 1162,
      "ê½¬": 1163,
      "ê½Ń": 1164,
      "ê½®": 1165,
      "ê½¯": 1166,
      "ê½°": 1167,
      "ê½±": 1168,
      "ê½²": 1169,
      "ê½³": 1170,
      "ê½´": 1171,
      "ê½µ": 1172,
      "ê½¶": 1173,
      "ê½·": 1174,
      "ê½¸": 1175,
      "ê½¹": 1176,
      "ê½º": 1177,
      "ê½»": 1178,
      "ê½¼": 1179,
      "ê½½": 1180,
      "ê½¾": 1181,
      "ê½¿": 1182,
      "ê¾": 1183,
      "ê¾Ģ": 1184,
      "ê¾ģ": 1185,
      "ê¾Ĥ": 1186,
      "ê¾ĥ": 1187,
      "ê¾Ħ": 1188,
      "ê¾ħ": 1189,
      "ê¾Ĩ": 1190,
      "ê¾ĩ": 1191,
      "ê¾Ī": 1192,
      "ê¾ī": 1193,
      "ê¾Ĭ": 1194,
      "ê¾ĭ": 1195,
      "ê¾Į": 1196,
      "ê¾į": 1197,
      "ê¾İ": 1198,
      "ê¾ı": 1199,
      "ê¾Ĳ": 1200,
      "ê¾ĳ": 1201,
      "ê¾Ĵ": 1202,
      "ê¾ĵ": 1203,
      "ê¾Ķ": 1204,
      "ê¾ķ": 1205,
      "ê¾ĸ": 1206,
      "ê¾Ĺ": 1207,
      "ê¾ĺ": 1208,
      "ê¾Ļ": 1209,
      "ê¾ļ": 1210,
      "ê¾Ľ": 1211,
      "ê¾ľ": 1212,
      "ê¾Ŀ": 1213,
      "ê¾ŀ": 1214,
      "ê¾Ł": 1215,
      "ê¾ł": 1216,
      "ê¾¡": 1217,
      "ê¾¢": 1218,
      "ê¾£": 1219,
      "ê¾¤": 1220,
      "ê¾¥": 1221,
      "ê¾¦": 1222,
      "ê¾§": 1223,
      "ê¾¨": 1224,
      "ê¾©": 1225,
      "ê¾ª": 1226,
      "ê¾«": 1227,
      "ê¾¬": 1228,
      "ê¾Ń": 1229,
      "ê¾®": 1230,
      "ê¾¯": 1231,
      "ê¾°": 1232,
      "ê¾±": 1233,
      "ê¾²": 1234,
      "ê¾³": 1235,
      "ê¾´": 1236,
      "ê¾µ": 1237,
      "ê¾¶": 1238,
      "ê¾·": 1239,
      "ê¾¸": 1240,
      "ê¾¹": 1241,
      "ê¾º": 1242,
      "ê¾»": 1243,
      "ê¾¼": 1244,
      "ê¾½": 1245,
      "ê¾¾": 1246,
      "ê¾¿": 1247,
      "ê¿": 1248,
      "ê¿Ģ": 1249,
      "ê¿ģ": 1250,
      "ê¿Ĥ": 1251,
      "ê¿ĥ": 1252,
      "ê¿Ħ": 1253,
      "ê¿ħ": 1254,
      "ê¿Ĩ": 1255,
      "ê¿ĩ": 1256,
      "ê¿Ī": 1257,
      "ê¿ī": 1258,
      "ê¿Ĭ": 1259,
      "ê¿ĭ": 1260,
      "ê¿Į": 1261,
      "ê¿į": 1262,
      "ê¿İ": 1263,
      "ê¿ı": 1264,
      "ê¿Ĳ": 1265,
      "ê¿ĳ": 1266,
      "ê¿Ĵ": 1267,
      "ê¿ĵ": 1268,
      "ê¿Ķ": 1269,
      "ê¿ķ": 1270,
      "ê¿ĸ": 1271,
      "ê¿Ĺ": 1272,
      "ê¿ĺ": 1273,
      "ê¿Ļ": 1274,
      "ê¿ļ": 1275,
      "ê¿Ľ": 1276,
      "ê¿ľ": 1277,
      "ê¿Ŀ": 1278,
      "ê¿ŀ": 1279,
      "ê¿Ł": 1280,
      "ê¿ł": 1281,
      "ê¿¡": 1282,
      "ê¿¢": 1283,
      "ê¿£": 1284,
      "ê¿¤": 1285,
      "ê¿¥": 1286,
      "ê¿¦": 1287,
      "ê¿§": 1288,
      "ê¿¨": 1289,
      "ê¿©": 1290,
      "ê¿ª": 1291,
      "ê¿«": 1292,
      "ê¿¬": 1293,
      "ê¿Ń": 1294,
      "ê¿®": 1295,
      "ê¿¯": 1296,
      "ê¿°": 1297,
      "ê¿±": 1298,
      "ê¿²": 1299,
      "ê¿³": 1300,
      "ê¿´": 1301,
      "ê¿µ": 1302,
      "ê¿¶": 1303,
      "ê¿·": 1304,
      "ê¿¸": 1305,
      "ê¿¹": 1306,
      "ê¿º": 1307,
      "ê¿»": 1308,
      "ê¿¼": 1309,
      "ê¿½": 1310,
      "ê¿¾": 1311,
      "ê¿¿": 1312,
      "ëĢ": 1313,
      "ëĢĢ": 1314,
      "ëĢģ": 1315,
      "ëĢĤ": 1316,
      "ëĢĥ": 1317,
      "ëĢĦ": 1318,
      "ëĢħ": 1319,
      "ëĢĨ": 1320,
      "ëĢĩ": 1321,
      "ëĢĪ": 1322,
      "ëĢī": 1323,
      "ëĢĬ": 1324,
      "ëĢĭ": 1325,
      "ëĢĮ": 1326,
      "ëĢį": 1327,
      "ëĢİ": 1328,
      "ëĢı": 1329,
      "ëĢĲ": 1330,
      "ëĢĳ": 1331,
      "ëĢĴ": 1332,
      "ëĢĵ": 1333,
      "ëĢĶ": 1334,
      "ëĢķ": 1335,
      "ëĢĸ": 1336,
      "ëĢĹ": 1337,
      "ëĢĺ": 1338,
      "ëĢĻ": 1339,
      "ëĢļ": 1340,
      "ëĢĽ": 1341,
      "ëĢľ": 1342,
      "ëĢĿ": 1343,
      "ëĢŀ": 1344,
      "ëĢŁ": 1345,
      "ëĢł": 1346,
      "ëĢ¡": 1347,
      "ëĢ¢": 1348,
      "ëĢ£": 1349,
      "ëĢ¤": 1350,
      "ëĢ¥": 1351,
      "ëĢ¦": 1352,
      "ëĢ§": 1353,
      "ëĢ¨": 1354,
      "ëĢ©": 1355,
      "ëĢª": 1356,
      "ëĢ«": 1357,
      "ëĢ¬": 1358,
      "ëĢŃ": 1359,
      "ëĢ®": 1360,
      "ëĢ¯": 1361,
      "ëĢ°": 1362,
      "ëĢ±": 1363,
      "ëĢ²": 1364,
      "ëĢ³": 1365,
      "ëĢ´": 1366,
      "ëĢµ": 1367,
      "ëĢ¶": 1368,
      "ëĢ·": 1369,
      "ëĢ¸": 1370,
      "ëĢ¹": 1371,
      "ëĢº": 1372,
      "ëĢ»": 1373,
      "ëĢ¼": 1374,
      "ëĢ½": 1375,
      "ëĢ¾": 1376,
      "ëĢ¿": 1377,
      "ëģ": 1378,
      "ëģĢ": 1379,
      "ëģģ": 1380,
      "ëģĤ": 1381,
      "ëģĥ": 1382,
      "ëģĦ": 1383,
      "ëģħ": 1384,
      "ëģĨ": 1385,
      "ëģĩ": 1386,
      "ëģĪ": 1387,
      "ëģī": 1388,
      "ëģĬ": 1389,
      "ëģĭ": 1390,
      "ëģĮ": 1391,
      "ëģį": 1392,
      "ëģİ": 1393,
      "ëģı": 1394,
      "ëģĲ": 1395,
      "ëģĳ": 1396,
      "ëģĴ": 1397,
      "ëģĵ": 1398,
      "ëģĶ": 1399,
      "ëģķ": 1400,
      "ëģĸ": 1401,
      "ëģĹ": 1402,
      "ëģĺ": 1403,
      "ëģĻ": 1404,
      "ëģļ": 1405,
      "ëģĽ": 1406,
      "ëģľ": 1407,
      "ëģĿ": 1408,
      "ëģŀ": 1409,
      "ëģŁ": 1410,
      "ëģł": 1411,
      "ëģ¡": 1412,
      "ëģ¢": 1413,
      "ëģ£": 1414,
      "ëģ¤": 1415,
      "ëģ¥": 1416,
      "ëģ¦": 1417,
      "ëģ§": 1418,
      "ëģ¨": 1419,
      "ëģ©": 1420,
      "ëģª": 1421,
      "ëģ«": 1422,
      "ëģ¬": 1423,
      "ëģŃ": 1424,
      "ëģ®": 1425,
      "ëģ¯": 1426,
      "ëģ°": 1427,
      "ëģ±": 1428,
      "ëģ²": 1429,
      "ëģ³": 1430,
      "ëģ´": 1431,
      "ëģµ": 1432,
      "ëģ¶": 1433,
      "ëģ·": 1434,
      "ëģ¸": 1435,
      "ëģ¹": 1436,
      "ëģº": 1437,
      "ëģ»": 1438,
      "ëģ¼": 1439,
      "ëģ½": 1440,
      "ëģ¾": 1441,
      "ëģ¿": 1442,
      "ëĤ": 1443,
      "ëĤĢ": 1444,
      "ëĤģ": 1445,
      "ëĤĤ": 1446,
      "ëĤĥ": 1447,
      "ëĤĦ": 1448,
      "ëĤħ": 1449,
      "ëĤĨ": 1450,
      "ëĤĩ": 1451,
      "ëĤĪ": 1452,
      "ëĤī": 1453,
      "ëĤĬ": 1454,
      "ëĤĭ": 1455,
      "ëĤĮ": 1456,
      "ëĤį": 1457,
      "ëĤİ": 1458,
      "ëĤı": 1459,
      "ëĤĲ": 1460,
      "ëĤĳ": 1461,
      "ëĤĴ": 1462,
      "ëĤĵ": 1463,
      "ëĤĶ": 1464,
      "ëĤķ": 1465,
      "ëĤĸ": 1466,
      "ëĤĹ": 1467,
      "ëĤĺ": 1468,
      "ëĤĻ": 1469,
      "ëĤļ": 1470,
      "ëĤĽ": 1471,
      "ëĤľ": 1472,
      "ëĤĿ": 1473,
      "ëĤŀ": 1474,
      "ëĤŁ": 1475,
      "ëĤł": 1476,
      "ëĤ¡": 1477,
      "ëĤ¢": 1478,
      "ëĤ£": 1479,
      "ëĤ¤": 1480,
      "ëĤ¥": 1481,
      "ëĤ¦": 1482,
      "ëĤ§": 1483,
      "ëĤ¨": 1484,
      "ëĤ©": 1485,
      "ëĤª": 1486,
      "ëĤ«": 1487,
      "ëĤ¬": 1488,
      "ëĤŃ": 1489,
      "ëĤ®": 1490,
      "ëĤ¯": 1491,
      "ëĤ°": 1492,
      "ëĤ±": 1493,
      "ëĤ²": 1494,
      "ëĤ³": 1495,
      "ëĤ´": 1496,
      "ëĤµ": 1497,
      "ëĤ¶": 1498,
      "ëĤ·": 1499,
      "ëĤ¸": 1500,
      "ëĤ¹": 1501,
      "ëĤº": 1502,
      "ëĤ»": 1503,
      "ëĤ¼": 1504,
      "ëĤ½": 1505,
      "ëĤ¾": 1506,
      "ëĤ¿": 1507,
      "ëĥ": 1508,
      "ëĥĢ": 1509,
      "ëĥģ": 1510,
      "ëĥĤ": 1511,
      "ëĥĥ": 1512,
      "ëĥĦ": 1513,
      "ëĥħ": 1514,
      "ëĥĨ": 1515,
      "ëĥĩ": 1516,
      "ëĥĪ": 1517,
      "ëĥī": 1518,
      "ëĥĬ": 1519,
      "ëĥĭ": 1520,
      "ëĥĮ": 1521,
      "ëĥį": 1522,
      "ëĥİ": 1523,
      "ëĥı": 1524,
      "ëĥĲ": 1525,
      "ëĥĳ": 1526,
      "ëĥĴ": 1527,
      "ëĥĵ": 1528,
      "ëĥĶ": 1529,
      "ëĥķ": 1530,
      "ëĥĸ": 1531,
      "ëĥĹ": 1532,
      "ëĥĺ": 1533,
      "ëĥĻ": 1534,
      "ëĥļ": 1535,
      "ëĥĽ": 1536,
      "ëĥľ": 1537,
      "ëĥĿ": 1538,
      "ëĥŀ": 1539,
      "ëĥŁ": 1540,
      "ëĥł": 1541,
      "ëĥ¡": 1542,
      "ëĥ¢": 1543,
      "ëĥ£": 1544,
      "ëĥ¤": 1545,
      "ëĥ¥": 1546,
      "ëĥ¦": 1547,
      "ëĥ§": 1548,
      "ëĥ¨": 1549,
      "ëĥ©": 1550,
      "ëĥª": 1551,
      "ëĥ«": 1552,
      "ëĥ¬": 1553,
      "ëĥŃ": 1554,
      "ëĥ®": 1555,
      "ëĥ¯": 1556,
      "ëĥ°": 1557,
      "ëĥ±": 1558,
      "ëĥ²": 1559,
      "ëĥ³": 1560,
      "ëĥ´": 1561,
      "ëĥµ": 1562,
      "ëĥ¶": 1563,
      "ëĥ·": 1564,
      "ëĥ¸": 1565,
      "ëĥ¹": 1566,
      "ëĥº": 1567,
      "ëĥ»": 1568,
      "ëĥ¼": 1569,
      "ëĥ½": 1570,
      "ëĥ¾": 1571,
      "ëĥ¿": 1572,
      "ëĦ": 1573,
      "ëĦĢ": 1574,
      "ëĦģ": 1575,
      "ëĦĤ": 1576,
      "ëĦĥ": 1577,
      "ëĦĦ": 1578,
      "ëĦħ": 1579,
      "ëĦĨ": 1580,
      "ëĦĩ": 1581,
      "ëĦĪ": 1582,
      "ëĦī": 1583,
      "ëĦĬ": 1584,
      "ëĦĭ": 1585,
      "ëĦĮ": 1586,
      "ëĦį": 1587,
      "ëĦİ": 1588,
      "ëĦı": 1589,
      "ëĦĲ": 1590,
      "ëĦĳ": 1591,
      "ëĦĴ": 1592,
      "ëĦĵ": 1593,
      "ëĦĶ": 1594,
      "ëĦķ": 1595,
      "ëĦĸ": 1596,
      "ëĦĹ": 1597,
      "ëĦĺ": 1598,
      "ëĦĻ": 1599,
      "ëĦļ": 1600,
      "ëĦĽ": 1601,
      "ëĦľ": 1602,
      "ëĦĿ": 1603,
      "ëĦŀ": 1604,
      "ëĦŁ": 1605,
      "ëĦł": 1606,
      "ëĦ¡": 1607,
      "ëĦ¢": 1608,
      "ëĦ£": 1609,
      "ëĦ¤": 1610,
      "ëĦ¥": 1611,
      "ëĦ¦": 1612,
      "ëĦ§": 1613,
      "ëĦ¨": 1614,
      "ëĦ©": 1615,
      "ëĦª": 1616,
      "ëĦ«": 1617,
      "ëĦ¬": 1618,
      "ëĦŃ": 1619,
      "ëĦ®": 1620,
      "ëĦ¯": 1621,
      "ëĦ°": 1622,
      "ëĦ±": 1623,
      "ëĦ²": 1624,
      "ëĦ³": 1625,
      "ëĦ´": 1626,
      "ëĦµ": 1627,
      "ëĦ¶": 1628,
      "ëĦ·": 1629,
      "ëĦ¸": 1630,
      "ëĦ¹": 1631,
      "ëĦº": 1632,
      "ëĦ»": 1633,
      "ëĦ¼": 1634,
      "ëĦ½": 1635,
      "ëĦ¾": 1636,
      "ëĦ¿": 1637,
      "ëħ": 1638,
      "ëħĢ": 1639,
      "ëħģ": 1640,
      "ëħĤ": 1641,
      "ëħĥ": 1642,
      "ëħĦ": 1643,
      "ëħħ": 1644,
      "ëħĨ": 1645,
      "ëħĩ": 1646,
      "ëħĪ": 1647,
      "ëħī": 1648,
      "ëħĬ": 1649,
      "ëħĭ": 1650,
      "ëħĮ": 1651,
      "ëħį": 1652,
      "ëħİ": 1653,
      "ëħı": 1654,
      "ëħĲ": 1655,
      "ëħĳ": 1656,
      "ëħĴ": 1657,
      "ëħĵ": 1658,
      "ëħĶ": 1659,
      "ëħķ": 1660,
      "ëħĸ": 1661,
      "ëħĹ": 1662,
      "ëħĺ": 1663,
      "ëħĻ": 1664,
      "ëħļ": 1665,
      "ëħĽ": 1666,
      "ëħľ": 1667,
      "ëħĿ": 1668,
      "ëħŀ": 1669,
      "ëħŁ": 1670,
      "ëħł": 1671,
      "ëħ¡": 1672,
      "ëħ¢": 1673,
      "ëħ£": 1674,
      "ëħ¤": 1675,
      "ëħ¥": 1676,
      "ëħ¦": 1677,
      "ëħ§": 1678,
      "ëħ¨": 1679,
      "ëħ©": 1680,
      "ëħª": 1681,
      "ëħ«": 1682,
      "ëħ¬": 1683,
      "ëħŃ": 1684,
      "ëħ®": 1685,
      "ëħ¯": 1686,
      "ëħ°": 1687,
      "ëħ±": 1688,
      "ëħ²": 1689,
      "ëħ³": 1690,
      "ëħ´": 1691,
      "ëħµ": 1692,
      "ëħ¶": 1693,
      "ëħ·": 1694,
      "ëħ¸": 1695,
      "ëħ¹": 1696,
      "ëħº": 1697,
      "ëħ»": 1698,
      "ëħ¼": 1699,
      "ëħ½": 1700,
      "ëħ¾": 1701,
      "ëħ¿": 1702,
      "ëĨ": 1703,
      "ëĨĢ": 1704,
      "ëĨģ": 1705,
      "ëĨĤ": 1706,
      "ëĨĥ": 1707,
      "ëĨĦ": 1708,
      "ëĨħ": 1709,
      "ëĨĨ": 1710,
      "ëĨĩ": 1711,
      "ëĨĪ": 1712,
      "ëĨī": 1713,
      "ëĨĬ": 1714,
      "ëĨĭ": 1715,
      "ëĨĮ": 1716,
      "ëĨį": 1717,
      "ëĨİ": 1718,
      "ëĨı": 1719,
      "ëĨĲ": 1720,
      "ëĨĳ": 1721,
      "ëĨĴ": 1722,
      "ëĨĵ": 1723,
      "ëĨĶ": 1724,
      "ëĨķ": 1725,
      "ëĨĸ": 1726,
      "ëĨĹ": 1727,
      "ëĨĺ": 1728,
      "ëĨĻ": 1729,
      "ëĨļ": 1730,
      "ëĨĽ": 1731,
      "ëĨľ": 1732,
      "ëĨĿ": 1733,
      "ëĨŀ": 1734,
      "ëĨŁ": 1735,
      "ëĨł": 1736,
      "ëĨ¡": 1737,
      "ëĨ¢": 1738,
      "ëĨ£": 1739,
      "ëĨ¤": 1740,
      "ëĨ¥": 1741,
      "ëĨ¦": 1742,
      "ëĨ§": 1743,
      "ëĨ¨": 1744,
      "ëĨ©": 1745,
      "ëĨª": 1746,
      "ëĨ«": 1747,
      "ëĨ¬": 1748,
      "ëĨŃ": 1749,
      "ëĨ®": 1750,
      "ëĨ¯": 1751,
      "ëĨ°": 1752,
      "ëĨ±": 1753,
      "ëĨ²": 1754,
      "ëĨ³": 1755,
      "ëĨ´": 1756,
      "ëĨµ": 1757,
      "ëĨ¶": 1758,
      "ëĨ·": 1759,
      "ëĨ¸": 1760,
      "ëĨ¹": 1761,
      "ëĨº": 1762,
      "ëĨ»": 1763,
      "ëĨ¼": 1764,
      "ëĨ½": 1765,
      "ëĨ¾": 1766,
      "ëĨ¿": 1767,
      "ëĩ": 1768,
      "ëĩĢ": 1769,
      "ëĩģ": 1770,
      "ëĩĤ": 1771,
      "ëĩĥ": 1772,
      "ëĩĦ": 1773,
      "ëĩħ": 1774,
      "ëĩĨ": 1775,
      "ëĩĩ": 1776,
      "ëĩĪ": 1777,
      "ëĩī": 1778,
      "ëĩĬ": 1779,
      "ëĩĭ": 1780,
      "ëĩĮ": 1781,
      "ëĩį": 1782,
      "ëĩİ": 1783,
      "ëĩı": 1784,
      "ëĩĲ": 1785,
      "ëĩĳ": 1786,
      "ëĩĴ": 1787,
      "ëĩĵ": 1788,
      "ëĩĶ": 1789,
      "ëĩķ": 1790,
      "ëĩĸ": 1791,
      "ëĩĹ": 1792,
      "ëĩĺ": 1793,
      "ëĩĻ": 1794,
      "ëĩļ": 1795,
      "ëĩĽ": 1796,
      "ëĩľ": 1797,
      "ëĩĿ": 1798,
      "ëĩŀ": 1799,
      "ëĩŁ": 1800,
      "ëĩł": 1801,
      "ëĩ¡": 1802,
      "ëĩ¢": 1803,
      "ëĩ£": 1804,
      "ëĩ¤": 1805,
      "ëĩ¥": 1806,
      "ëĩ¦": 1807,
      "ëĩ§": 1808,
      "ëĩ¨": 1809,
      "ëĩ©": 1810,
      "ëĩª": 1811,
      "ëĩ«": 1812,
      "ëĩ¬": 1813,
      "ëĩŃ": 1814,
      "ëĩ®": 1815,
      "ëĩ¯": 1816,
      "ëĩ°": 1817,
      "ëĩ±": 1818,
      "ëĩ²": 1819,
      "ëĩ³": 1820,
      "ëĩ´": 1821,
      "ëĩµ": 1822,
      "ëĩ¶": 1823,
      "ëĩ·": 1824,
      "ëĩ¸": 1825,
      "ëĩ¹": 1826,
      "ëĩº": 1827,
      "ëĩ»": 1828,
      "ëĩ¼": 1829,
      "ëĩ½": 1830,
      "ëĩ¾": 1831,
      "ëĩ¿": 1832,
      "ëĪ": 1833,
      "ëĪĢ": 1834,
      "ëĪģ": 1835,
      "ëĪĤ": 1836,
      "ëĪĥ": 1837,
      "ëĪĦ": 1838,
      "ëĪħ": 1839,
      "ëĪĨ": 1840,
      "ëĪĩ": 1841,
      "ëĪĪ": 1842,
      "ëĪī": 1843,
      "ëĪĬ": 1844,
      "ëĪĭ": 1845,
      "ëĪĮ": 1846,
      "ëĪį": 1847,
      "ëĪİ": 1848,
      "ëĪı": 1849,
      "ëĪĲ": 1850,
      "ëĪĳ": 1851,
      "ëĪĴ": 1852,
      "ëĪĵ": 1853,
      "ëĪĶ": 1854,
      "ëĪķ": 1855,
      "ëĪĸ": 1856,
      "ëĪĹ": 1857,
      "ëĪĺ": 1858,
      "ëĪĻ": 1859,
      "ëĪļ": 1860,
      "ëĪĽ": 1861,
      "ëĪľ": 1862,
      "ëĪĿ": 1863,
      "ëĪŀ": 1864,
      "ëĪŁ": 1865,
      "ëĪł": 1866,
      "ëĪ¡": 1867,
      "ëĪ¢": 1868,
      "ëĪ£": 1869,
      "ëĪ¤": 1870,
      "ëĪ¥": 1871,
      "ëĪ¦": 1872,
      "ëĪ§": 1873,
      "ëĪ¨": 1874,
      "ëĪ©": 1875,
      "ëĪª": 1876,
      "ëĪ«": 1877,
      "ëĪ¬": 1878,
      "ëĪŃ": 1879,
      "ëĪ®": 1880,
      "ëĪ¯": 1881,
      "ëĪ°": 1882,
      "ëĪ±": 1883,
      "ëĪ²": 1884,
      "ëĪ³": 1885,
      "ëĪ´": 1886,
      "ëĪµ": 1887,
      "ëĪ¶": 1888,
      "ëĪ·": 1889,
      "ëĪ¸": 1890,
      "ëĪ¹": 1891,
      "ëĪº": 1892,
      "ëĪ»": 1893,
      "ëĪ¼": 1894,
      "ëĪ½": 1895,
      "ëĪ¾": 1896,
      "ëĪ¿": 1897,
      "ëī": 1898,
      "ëīĢ": 1899,
      "ëīģ": 1900,
      "ëīĤ": 1901,
      "ëīĥ": 1902,
      "ëīĦ": 1903,
      "ëīħ": 1904,
      "ëīĨ": 1905,
      "ëīĩ": 1906,
      "ëīĪ": 1907,
      "ëīī": 1908,
      "ëīĬ": 1909,
      "ëīĭ": 1910,
      "ëīĮ": 1911,
      "ëīį": 1912,
      "ëīİ": 1913,
      "ëīı": 1914,
      "ëīĲ": 1915,
      "ëīĳ": 1916,
      "ëīĴ": 1917,
      "ëīĵ": 1918,
      "ëīĶ": 1919,
      "ëīķ": 1920,
      "ëīĸ": 1921,
      "ëīĹ": 1922,
      "ëīĺ": 1923,
      "ëīĻ": 1924,
      "ëīļ": 1925,
      "ëīĽ": 1926,
      "ëīľ": 1927,
      "ëīĿ": 1928,
      "ëīŀ": 1929,
      "ëīŁ": 1930,
      "ëīł": 1931,
      "ëī¡": 1932,
      "ëī¢": 1933,
      "ëī£": 1934,
      "ëī¤": 1935,
      "ëī¥": 1936,
      "ëī¦": 1937,
      "ëī§": 1938,
      "ëī¨": 1939,
      "ëī©": 1940,
      "ëīª": 1941,
      "ëī«": 1942,
      "ëī¬": 1943,
      "ëīŃ": 1944,
      "ëī®": 1945,
      "ëī¯": 1946,
      "ëī°": 1947,
      "ëī±": 1948,
      "ëī²": 1949,
      "ëī³": 1950,
      "ëī´": 1951,
      "ëīµ": 1952,
      "ëī¶": 1953,
      "ëī·": 1954,
      "ëī¸": 1955,
      "ëī¹": 1956,
      "ëīº": 1957,
      "ëī»": 1958,
      "ëī¼": 1959,
      "ëī½": 1960,
      "ëī¾": 1961,
      "ëī¿": 1962,
      "ëĬ": 1963,
      "ëĬĢ": 1964,
      "ëĬģ": 1965,
      "ëĬĤ": 1966,
      "ëĬĥ": 1967,
      "ëĬĦ": 1968,
      "ëĬħ": 1969,
      "ëĬĨ": 1970,
      "ëĬĩ": 1971,
      "ëĬĪ": 1972,
      "ëĬī": 1973,
      "ëĬĬ": 1974,
      "ëĬĭ": 1975,
      "ëĬĮ": 1976,
      "ëĬį": 1977,
      "ëĬİ": 1978,
      "ëĬı": 1979,
      "ëĬĲ": 1980,
      "ëĬĳ": 1981,
      "ëĬĴ": 1982,
      "ëĬĵ": 1983,
      "ëĬĶ": 1984,
      "ëĬķ": 1985,
      "ëĬĸ": 1986,
      "ëĬĹ": 1987,
      "ëĬĺ": 1988,
      "ëĬĻ": 1989,
      "ëĬļ": 1990,
      "ëĬĽ": 1991,
      "ëĬľ": 1992,
      "ëĬĿ": 1993,
      "ëĬŀ": 1994,
      "ëĬŁ": 1995,
      "ëĬł": 1996,
      "ëĬ¡": 1997,
      "ëĬ¢": 1998,
      "ëĬ£": 1999,
      "ëĬ¤": 2000,
      "ëĬ¥": 2001,
      "ëĬ¦": 2002,
      "ëĬ§": 2003,
      "ëĬ¨": 2004,
      "ëĬ©": 2005,
      "ëĬª": 2006,
      "ëĬ«": 2007,
      "ëĬ¬": 2008,
      "ëĬŃ": 2009,
      "ëĬ®": 2010,
      "ëĬ¯": 2011,
      "ëĬ°": 2012,
      "ëĬ±": 2013,
      "ëĬ²": 2014,
      "ëĬ³": 2015,
      "ëĬ´": 2016,
      "ëĬµ": 2017,
      "ëĬ¶": 2018,
      "ëĬ·": 2019,
      "ëĬ¸": 2020,
      "ëĬ¹": 2021,
      "ëĬº": 2022,
      "ëĬ»": 2023,
      "ëĬ¼": 2024,
      "ëĬ½": 2025,
      "ëĬ¾": 2026,
      "ëĬ¿": 2027,
      "ëĭ": 2028,
      "ëĭĢ": 2029,
      "ëĭģ": 2030,
      "ëĭĤ": 2031,
      "ëĭĥ": 2032,
      "ëĭĦ": 2033,
      "ëĭħ": 2034,
      "ëĭĨ": 2035,
      "ëĭĩ": 2036,
      "ëĭĪ": 2037,
      "ëĭī": 2038,
      "ëĭĬ": 2039,
      "ëĭĭ": 2040,
      "ëĭĮ": 2041,
      "ëĭį": 2042,
      "ëĭİ": 2043,
      "ëĭı": 2044,
      "ëĭĲ": 2045,
      "ëĭĳ": 2046,
      "ëĭĴ": 2047,
      "ëĭĵ": 2048,
      "ëĭĶ": 2049,
      "ëĭķ": 2050,
      "ëĭĸ": 2051,
      "ëĭĹ": 2052,
      "ëĭĺ": 2053,
      "ëĭĻ": 2054,
      "ëĭļ": 2055,
      "ëĭĽ": 2056,
      "ëĭľ": 2057,
      "ëĭĿ": 2058,
      "ëĭŀ": 2059,
      "ëĭŁ": 2060,
      "ëĭł": 2061,
      "ëĭ¡": 2062,
      "ëĭ¢": 2063,
      "ëĭ£": 2064,
      "ëĭ¤": 2065,
      "ëĭ¥": 2066,
      "ëĭ¦": 2067,
      "ëĭ§": 2068,
      "ëĭ¨": 2069,
      "ëĭ©": 2070,
      "ëĭª": 2071,
      "ëĭ«": 2072,
      "ëĭ¬": 2073,
      "ëĭŃ": 2074,
      "ëĭ®": 2075,
      "ëĭ¯": 2076,
      "ëĭ°": 2077,
      "ëĭ±": 2078,
      "ëĭ²": 2079,
      "ëĭ³": 2080,
      "ëĭ´": 2081,
      "ëĭµ": 2082,
      "ëĭ¶": 2083,
      "ëĭ·": 2084,
      "ëĭ¸": 2085,
      "ëĭ¹": 2086,
      "ëĭº": 2087,
      "ëĭ»": 2088,
      "ëĭ¼": 2089,
      "ëĭ½": 2090,
      "ëĭ¾": 2091,
      "ëĭ¿": 2092,
      "ëĮ": 2093,
      "ëĮĢ": 2094,
      "ëĮģ": 2095,
      "ëĮĤ": 2096,
      "ëĮĥ": 2097,
      "ëĮĦ": 2098,
      "ëĮħ": 2099,
      "ëĮĨ": 2100,
      "ëĮĩ": 2101,
      "ëĮĪ": 2102,
      "ëĮī": 2103,
      "ëĮĬ": 2104,
      "ëĮĭ": 2105,
      "ëĮĮ": 2106,
      "ëĮį": 2107,
      "ëĮİ": 2108,
      "ëĮı": 2109,
      "ëĮĲ": 2110,
      "ëĮĳ": 2111,
      "ëĮĴ": 2112,
      "ëĮĵ": 2113,
      "ëĮĶ": 2114,
      "ëĮķ": 2115,
      "ëĮĸ": 2116,
      "ëĮĹ": 2117,
      "ëĮĺ": 2118,
      "ëĮĻ": 2119,
      "ëĮļ": 2120,
      "ëĮĽ": 2121,
      "ëĮľ": 2122,
      "ëĮĿ": 2123,
      "ëĮŀ": 2124,
      "ëĮŁ": 2125,
      "ëĮł": 2126,
      "ëĮ¡": 2127,
      "ëĮ¢": 2128,
      "ëĮ£": 2129,
      "ëĮ¤": 2130,
      "ëĮ¥": 2131,
      "ëĮ¦": 2132,
      "ëĮ§": 2133,
      "ëĮ¨": 2134,
      "ëĮ©": 2135,
      "ëĮª": 2136,
      "ëĮ«": 2137,
      "ëĮ¬": 2138,
      "ëĮŃ": 2139,
      "ëĮ®": 2140,
      "ëĮ¯": 2141,
      "ëĮ°": 2142,
      "ëĮ±": 2143,
      "ëĮ²": 2144,
      "ëĮ³": 2145,
      "ëĮ´": 2146,
      "ëĮµ": 2147,
      "ëĮ¶": 2148,
      "ëĮ·": 2149,
      "ëĮ¸": 2150,
      "ëĮ¹": 2151,
      "ëĮº": 2152,
      "ëĮ»": 2153,
      "ëĮ¼": 2154,
      "ëĮ½": 2155,
      "ëĮ¾": 2156,
      "ëĮ¿": 2157,
      "ëį": 2158,
      "ëįĢ": 2159,
      "ëįģ": 2160,
      "ëįĤ": 2161,
      "ëįĥ": 2162,
      "ëįĦ": 2163,
      "ëįħ": 2164,
      "ëįĨ": 2165,
      "ëįĩ": 2166,
      "ëįĪ": 2167,
      "ëįī": 2168,
      "ëįĬ": 2169,
      "ëįĭ": 2170,
      "ëįĮ": 2171,
      "ëįį": 2172,
      "ëįİ": 2173,
      "ëįı": 2174,
      "ëįĲ": 2175,
      "ëįĳ": 2176,
      "ëįĴ": 2177,
      "ëįĵ": 2178,
      "ëįĶ": 2179,
      "ëįķ": 2180,
      "ëįĸ": 2181,
      "ëįĹ": 2182,
      "ëįĺ": 2183,
      "ëįĻ": 2184,
      "ëįļ": 2185,
      "ëįĽ": 2186,
      "ëįľ": 2187,
      "ëįĿ": 2188,
      "ëįŀ": 2189,
      "ëįŁ": 2190,
      "ëįł": 2191,
      "ëį¡": 2192,
      "ëį¢": 2193,
      "ëį£": 2194,
      "ëį¤": 2195,
      "ëį¥": 2196,
      "ëį¦": 2197,
      "ëį§": 2198,
      "ëį¨": 2199,
      "ëį©": 2200,
      "ëįª": 2201,
      "ëį«": 2202,
      "ëį¬": 2203,
      "ëįŃ": 2204,
      "ëį®": 2205,
      "ëį¯": 2206,
      "ëį°": 2207,
      "ëį±": 2208,
      "ëį²": 2209,
      "ëį³": 2210,
      "ëį´": 2211,
      "ëįµ": 2212,
      "ëį¶": 2213,
      "ëį·": 2214,
      "ëį¸": 2215,
      "ëį¹": 2216,
      "ëįº": 2217,
      "ëį»": 2218,
      "ëį¼": 2219,
      "ëį½": 2220,
      "ëį¾": 2221,
      "ëį¿": 2222,
      "ëİ": 2223,
      "ëİĢ": 2224,
      "ëİģ": 2225,
      "ëİĤ": 2226,
      "ëİĥ": 2227,
      "ëİĦ": 2228,
      "ëİħ": 2229,
      "ëİĨ": 2230,
      "ëİĩ": 2231,
      "ëİĪ": 2232,
      "ëİī": 2233,
      "ëİĬ": 2234,
      "ëİĭ": 2235,
      "ëİĮ": 2236,
      "ëİį": 2237,
      "ëİİ": 2238,
      "ëİı": 2239,
      "ëİĲ": 2240,
      "ëİĳ": 2241,
      "ëİĴ": 2242,
      "ëİĵ": 2243,
      "ëİĶ": 2244,
      "ëİķ": 2245,
      "ëİĸ": 2246,
      "ëİĹ": 2247,
      "ëİĺ": 2248,
      "ëİĻ": 2249,
      "ëİļ": 2250,
      "ëİĽ": 2251,
      "ëİľ": 2252,
      "ëİĿ": 2253,
      "ëİŀ": 2254,
      "ëİŁ": 2255,
      "ëİł": 2256,
      "ëİ¡": 2257,
      "ëİ¢": 2258,
      "ëİ£": 2259,
      "ëİ¤": 2260,
      "ëİ¥": 2261,
      "ëİ¦": 2262,
      "ëİ§": 2263,
      "ëİ¨": 2264,
      "ëİ©": 2265,
      "ëİª": 2266,
      "ëİ«": 2267,
      "ëİ¬": 2268,
      "ëİŃ": 2269,
      "ëİ®": 2270,
      "ëİ¯": 2271,
      "ëİ°": 2272,
      "ëİ±": 2273,
      "ëİ²": 2274,
      "ëİ³": 2275,
      "ëİ´": 2276,
      "ëİµ": 2277,
      "ëİ¶": 2278,
      "ëİ·": 2279,
      "ëİ¸": 2280,
      "ëİ¹": 2281,
      "ëİº": 2282,
      "ëİ»": 2283,
      "ëİ¼": 2284,
      "ëİ½": 2285,
      "ëİ¾": 2286,
      "ëİ¿": 2287,
      "ëı": 2288,
      "ëıĢ": 2289,
      "ëıģ": 2290,
      "ëıĤ": 2291,
      "ëıĥ": 2292,
      "ëıĦ": 2293,
      "ëıħ": 2294,
      "ëıĨ": 2295,
      "ëıĩ": 2296,
      "ëıĪ": 2297,
      "ëıī": 2298,
      "ëıĬ": 2299,
      "ëıĭ": 2300,
      "ëıĮ": 2301,
      "ëıį": 2302,
      "ëıİ": 2303,
      "ëıı": 2304,
      "ëıĲ": 2305,
      "ëıĳ": 2306,
      "ëıĴ": 2307,
      "ëıĵ": 2308,
      "ëıĶ": 2309,
      "ëıķ": 2310,
      "ëıĸ": 2311,
      "ëıĹ": 2312,
      "ëıĺ": 2313,
      "ëıĻ": 2314,
      "ëıļ": 2315,
      "ëıĽ": 2316,
      "ëıľ": 2317,
      "ëıĿ": 2318,
      "ëıŀ": 2319,
      "ëıŁ": 2320,
      "ëıł": 2321,
      "ëı¡": 2322,
      "ëı¢": 2323,
      "ëı£": 2324,
      "ëı¤": 2325,
      "ëı¥": 2326,
      "ëı¦": 2327,
      "ëı§": 2328,
      "ëı¨": 2329,
      "ëı©": 2330,
      "ëıª": 2331,
      "ëı«": 2332,
      "ëı¬": 2333,
      "ëıŃ": 2334,
      "ëı®": 2335,
      "ëı¯": 2336,
      "ëı°": 2337,
      "ëı±": 2338,
      "ëı²": 2339,
      "ëı³": 2340,
      "ëı´": 2341,
      "ëıµ": 2342,
      "ëı¶": 2343,
      "ëı·": 2344,
      "ëı¸": 2345,
      "ëı¹": 2346,
      "ëıº": 2347,
      "ëı»": 2348,
      "ëı¼": 2349,
      "ëı½": 2350,
      "ëı¾": 2351,
      "ëı¿": 2352,
      "ëĲ": 2353,
      "ëĲĢ": 2354,
      "ëĲģ": 2355,
      "ëĲĤ": 2356,
      "ëĲĥ": 2357,
      "ëĲĦ": 2358,
      "ëĲħ": 2359,
      "ëĲĨ": 2360,
      "ëĲĩ": 2361,
      "ëĲĪ": 2362,
      "ëĲī": 2363,
      "ëĲĬ": 2364,
      "ëĲĭ": 2365,
      "ëĲĮ": 2366,
      "ëĲį": 2367,
      "ëĲİ": 2368,
      "ëĲı": 2369,
      "ëĲĲ": 2370,
      "ëĲĳ": 2371,
      "ëĲĴ": 2372,
      "ëĲĵ": 2373,
      "ëĲĶ": 2374,
      "ëĲķ": 2375,
      "ëĲĸ": 2376,
      "ëĲĹ": 2377,
      "ëĲĺ": 2378,
      "ëĲĻ": 2379,
      "ëĲļ": 2380,
      "ëĲĽ": 2381,
      "ëĲľ": 2382,
      "ëĲĿ": 2383,
      "ëĲŀ": 2384,
      "ëĲŁ": 2385,
      "ëĲł": 2386,
      "ëĲ¡": 2387,
      "ëĲ¢": 2388,
      "ëĲ£": 2389,
      "ëĲ¤": 2390,
      "ëĲ¥": 2391,
      "ëĲ¦": 2392,
      "ëĲ§": 2393,
      "ëĲ¨": 2394,
      "ëĲ©": 2395,
      "ëĲª": 2396,
      "ëĲ«": 2397,
      "ëĲ¬": 2398,
      "ëĲŃ": 2399,
      "ëĲ®": 2400,
      "ëĲ¯": 2401,
      "ëĲ°": 2402,
      "ëĲ±": 2403,
      "ëĲ²": 2404,
      "ëĲ³": 2405,
      "ëĲ´": 2406,
      "ëĲµ": 2407,
      "ëĲ¶": 2408,
      "ëĲ·": 2409,
      "ëĲ¸": 2410,
      "ëĲ¹": 2411,
      "ëĲº": 2412,
      "ëĲ»": 2413,
      "ëĲ¼": 2414,
      "ëĲ½": 2415,
      "ëĲ¾": 2416,
      "ëĲ¿": 2417,
      "ëĳ": 2418,
      "ëĳĢ": 2419,
      "ëĳģ": 2420,
      "ëĳĤ": 2421,
      "ëĳĥ": 2422,
      "ëĳĦ": 2423,
      "ëĳħ": 2424,
      "ëĳĨ": 2425,
      "ëĳĩ": 2426,
      "ëĳĪ": 2427,
      "ëĳī": 2428,
      "ëĳĬ": 2429,
      "ëĳĭ": 2430,
      "ëĳĮ": 2431,
      "ëĳį": 2432,
      "ëĳİ": 2433,
      "ëĳı": 2434,
      "ëĳĲ": 2435,
      "ëĳĳ": 2436,
      "ëĳĴ": 2437,
      "ëĳĵ": 2438,
      "ëĳĶ": 2439,
      "ëĳķ": 2440,
      "ëĳĸ": 2441,
      "ëĳĹ": 2442,
      "ëĳĺ": 2443,
      "ëĳĻ": 2444,
      "ëĳļ": 2445,
      "ëĳĽ": 2446,
      "ëĳľ": 2447,
      "ëĳĿ": 2448,
      "ëĳŀ": 2449,
      "ëĳŁ": 2450,
      "ëĳł": 2451,
      "ëĳ¡": 2452,
      "ëĳ¢": 2453,
      "ëĳ£": 2454,
      "ëĳ¤": 2455,
      "ëĳ¥": 2456,
      "ëĳ¦": 2457,
      "ëĳ§": 2458,
      "ëĳ¨": 2459,
      "ëĳ©": 2460,
      "ëĳª": 2461,
      "ëĳ«": 2462,
      "ëĳ¬": 2463,
      "ëĳŃ": 2464,
      "ëĳ®": 2465,
      "ëĳ¯": 2466,
      "ëĳ°": 2467,
      "ëĳ±": 2468,
      "ëĳ²": 2469,
      "ëĳ³": 2470,
      "ëĳ´": 2471,
      "ëĳµ": 2472,
      "ëĳ¶": 2473,
      "ëĳ·": 2474,
      "ëĳ¸": 2475,
      "ëĳ¹": 2476,
      "ëĳº": 2477,
      "ëĳ»": 2478,
      "ëĳ¼": 2479,
      "ëĳ½": 2480,
      "ëĳ¾": 2481,
      "ëĳ¿": 2482,
      "ëĴ": 2483,
      "ëĴĢ": 2484,
      "ëĴģ": 2485,
      "ëĴĤ": 2486,
      "ëĴĥ": 2487,
      "ëĴĦ": 2488,
      "ëĴħ": 2489,
      "ëĴĨ": 2490,
      "ëĴĩ": 2491,
      "ëĴĪ": 2492,
      "ëĴī": 2493,
      "ëĴĬ": 2494,
      "ëĴĭ": 2495,
      "ëĴĮ": 2496,
      "ëĴį": 2497,
      "ëĴİ": 2498,
      "ëĴı": 2499,
      "ëĴĲ": 2500,
      "ëĴĳ": 2501,
      "ëĴĴ": 2502,
      "ëĴĵ": 2503,
      "ëĴĶ": 2504,
      "ëĴķ": 2505,
      "ëĴĸ": 2506,
      "ëĴĹ": 2507,
      "ëĴĺ": 2508,
      "ëĴĻ": 2509,
      "ëĴļ": 2510,
      "ëĴĽ": 2511,
      "ëĴľ": 2512,
      "ëĴĿ": 2513,
      "ëĴŀ": 2514,
      "ëĴŁ": 2515,
      "ëĴł": 2516,
      "ëĴ¡": 2517,
      "ëĴ¢": 2518,
      "ëĴ£": 2519,
      "ëĴ¤": 2520,
      "ëĴ¥": 2521,
      "ëĴ¦": 2522,
      "ëĴ§": 2523,
      "ëĴ¨": 2524,
      "ëĴ©": 2525,
      "ëĴª": 2526,
      "ëĴ«": 2527,
      "ëĴ¬": 2528,
      "ëĴŃ": 2529,
      "ëĴ®": 2530,
      "ëĴ¯": 2531,
      "ëĴ°": 2532,
      "ëĴ±": 2533,
      "ëĴ²": 2534,
      "ëĴ³": 2535,
      "ëĴ´": 2536,
      "ëĴµ": 2537,
      "ëĴ¶": 2538,
      "ëĴ·": 2539,
      "ëĴ¸": 2540,
      "ëĴ¹": 2541,
      "ëĴº": 2542,
      "ëĴ»": 2543,
      "ëĴ¼": 2544,
      "ëĴ½": 2545,
      "ëĴ¾": 2546,
      "ëĴ¿": 2547,
      "ëĵ": 2548,
      "ëĵĢ": 2549,
      "ëĵģ": 2550,
      "ëĵĤ": 2551,
      "ëĵĥ": 2552,
      "ëĵĦ": 2553,
      "ëĵħ": 2554,
      "ëĵĨ": 2555,
      "ëĵĩ": 2556,
      "ëĵĪ": 2557,
      "ëĵī": 2558,
      "ëĵĬ": 2559,
      "ëĵĭ": 2560,
      "ëĵĮ": 2561,
      "ëĵį": 2562,
      "ëĵİ": 2563,
      "ëĵı": 2564,
      "ëĵĲ": 2565,
      "ëĵĳ": 2566,
      "ëĵĴ": 2567,
      "ëĵĵ": 2568,
      "ëĵĶ": 2569,
      "ëĵķ": 2570,
      "ëĵĸ": 2571,
      "ëĵĹ": 2572,
      "ëĵĺ": 2573,
      "ëĵĻ": 2574,
      "ëĵļ": 2575,
      "ëĵĽ": 2576,
      "ëĵľ": 2577,
      "ëĵĿ": 2578,
      "ëĵŀ": 2579,
      "ëĵŁ": 2580,
      "ëĵł": 2581,
      "ëĵ¡": 2582,
      "ëĵ¢": 2583,
      "ëĵ£": 2584,
      "ëĵ¤": 2585,
      "ëĵ¥": 2586,
      "ëĵ¦": 2587,
      "ëĵ§": 2588,
      "ëĵ¨": 2589,
      "ëĵ©": 2590,
      "ëĵª": 2591,
      "ëĵ«": 2592,
      "ëĵ¬": 2593,
      "ëĵŃ": 2594,
      "ëĵ®": 2595,
      "ëĵ¯": 2596,
      "ëĵ°": 2597,
      "ëĵ±": 2598,
      "ëĵ²": 2599,
      "ëĵ³": 2600,
      "ëĵ´": 2601,
      "ëĵµ": 2602,
      "ëĵ¶": 2603,
      "ëĵ·": 2604,
      "ëĵ¸": 2605,
      "ëĵ¹": 2606,
      "ëĵº": 2607,
      "ëĵ»": 2608,
      "ëĵ¼": 2609,
      "ëĵ½": 2610,
      "ëĵ¾": 2611,
      "ëĵ¿": 2612,
      "ëĶ": 2613,
      "ëĶĢ": 2614,
      "ëĶģ": 2615,
      "ëĶĤ": 2616,
      "ëĶĥ": 2617,
      "ëĶĦ": 2618,
      "ëĶħ": 2619,
      "ëĶĨ": 2620,
      "ëĶĩ": 2621,
      "ëĶĪ": 2622,
      "ëĶī": 2623,
      "ëĶĬ": 2624,
      "ëĶĭ": 2625,
      "ëĶĮ": 2626,
      "ëĶį": 2627,
      "ëĶİ": 2628,
      "ëĶı": 2629,
      "ëĶĲ": 2630,
      "ëĶĳ": 2631,
      "ëĶĴ": 2632,
      "ëĶĵ": 2633,
      "ëĶĶ": 2634,
      "ëĶķ": 2635,
      "ëĶĸ": 2636,
      "ëĶĹ": 2637,
      "ëĶĺ": 2638,
      "ëĶĻ": 2639,
      "ëĶļ": 2640,
      "ëĶĽ": 2641,
      "ëĶľ": 2642,
      "ëĶĿ": 2643,
      "ëĶŀ": 2644,
      "ëĶŁ": 2645,
      "ëĶł": 2646,
      "ëĶ¡": 2647,
      "ëĶ¢": 2648,
      "ëĶ£": 2649,
      "ëĶ¤": 2650,
      "ëĶ¥": 2651,
      "ëĶ¦": 2652,
      "ëĶ§": 2653,
      "ëĶ¨": 2654,
      "ëĶ©": 2655,
      "ëĶª": 2656,
      "ëĶ«": 2657,
      "ëĶ¬": 2658,
      "ëĶŃ": 2659,
      "ëĶ®": 2660,
      "ëĶ¯": 2661,
      "ëĶ°": 2662,
      "ëĶ±": 2663,
      "ëĶ²": 2664,
      "ëĶ³": 2665,
      "ëĶ´": 2666,
      "ëĶµ": 2667,
      "ëĶ¶": 2668,
      "ëĶ·": 2669,
      "ëĶ¸": 2670,
      "ëĶ¹": 2671,
      "ëĶº": 2672,
      "ëĶ»": 2673,
      "ëĶ¼": 2674,
      "ëĶ½": 2675,
      "ëĶ¾": 2676,
      "ëĶ¿": 2677,
      "ëķ": 2678,
      "ëķĢ": 2679,
      "ëķģ": 2680,
      "ëķĤ": 2681,
      "ëķĥ": 2682,
      "ëķĦ": 2683,
      "ëķħ": 2684,
      "ëķĨ": 2685,
      "ëķĩ": 2686,
      "ëķĪ": 2687,
      "ëķī": 2688,
      "ëķĬ": 2689,
      "ëķĭ": 2690,
      "ëķĮ": 2691,
      "ëķį": 2692,
      "ëķİ": 2693,
      "ëķı": 2694,
      "ëķĲ": 2695,
      "ëķĳ": 2696,
      "ëķĴ": 2697,
      "ëķĵ": 2698,
      "ëķĶ": 2699,
      "ëķķ": 2700,
      "ëķĸ": 2701,
      "ëķĹ": 2702,
      "ëķĺ": 2703,
      "ëķĻ": 2704,
      "ëķļ": 2705,
      "ëķĽ": 2706,
      "ëķľ": 2707,
      "ëķĿ": 2708,
      "ëķŀ": 2709,
      "ëķŁ": 2710,
      "ëķł": 2711,
      "ëķ¡": 2712,
      "ëķ¢": 2713,
      "ëķ£": 2714,
      "ëķ¤": 2715,
      "ëķ¥": 2716,
      "ëķ¦": 2717,
      "ëķ§": 2718,
      "ëķ¨": 2719,
      "ëķ©": 2720,
      "ëķª": 2721,
      "ëķ«": 2722,
      "ëķ¬": 2723,
      "ëķŃ": 2724,
      "ëķ®": 2725,
      "ëķ¯": 2726,
      "ëķ°": 2727,
      "ëķ±": 2728,
      "ëķ²": 2729,
      "ëķ³": 2730,
      "ëķ´": 2731,
      "ëķµ": 2732,
      "ëķ¶": 2733,
      "ëķ·": 2734,
      "ëķ¸": 2735,
      "ëķ¹": 2736,
      "ëķº": 2737,
      "ëķ»": 2738,
      "ëķ¼": 2739,
      "ëķ½": 2740,
      "ëķ¾": 2741,
      "ëķ¿": 2742,
      "ëĸ": 2743,
      "ëĸĢ": 2744,
      "ëĸģ": 2745,
      "ëĸĤ": 2746,
      "ëĸĥ": 2747,
      "ëĸĦ": 2748,
      "ëĸħ": 2749,
      "ëĸĨ": 2750,
      "ëĸĩ": 2751,
      "ëĸĪ": 2752,
      "ëĸī": 2753,
      "ëĸĬ": 2754,
      "ëĸĭ": 2755,
      "ëĸĮ": 2756,
      "ëĸį": 2757,
      "ëĸİ": 2758,
      "ëĸı": 2759,
      "ëĸĲ": 2760,
      "ëĸĳ": 2761,
      "ëĸĴ": 2762,
      "ëĸĵ": 2763,
      "ëĸĶ": 2764,
      "ëĸķ": 2765,
      "ëĸĸ": 2766,
      "ëĸĹ": 2767,
      "ëĸĺ": 2768,
      "ëĸĻ": 2769,
      "ëĸļ": 2770,
      "ëĸĽ": 2771,
      "ëĸľ": 2772,
      "ëĸĿ": 2773,
      "ëĸŀ": 2774,
      "ëĸŁ": 2775,
      "ëĸł": 2776,
      "ëĸ¡": 2777,
      "ëĸ¢": 2778,
      "ëĸ£": 2779,
      "ëĸ¤": 2780,
      "ëĸ¥": 2781,
      "ëĸ¦": 2782,
      "ëĸ§": 2783,
      "ëĸ¨": 2784,
      "ëĸ©": 2785,
      "ëĸª": 2786,
      "ëĸ«": 2787,
      "ëĸ¬": 2788,
      "ëĸŃ": 2789,
      "ëĸ®": 2790,
      "ëĸ¯": 2791,
      "ëĸ°": 2792,
      "ëĸ±": 2793,
      "ëĸ²": 2794,
      "ëĸ³": 2795,
      "ëĸ´": 2796,
      "ëĸµ": 2797,
      "ëĸ¶": 2798,
      "ëĸ·": 2799,
      "ëĸ¸": 2800,
      "ëĸ¹": 2801,
      "ëĸº": 2802,
      "ëĸ»": 2803,
      "ëĸ¼": 2804,
      "ëĸ½": 2805,
      "ëĸ¾": 2806,
      "ëĸ¿": 2807,
      "ëĹ": 2808,
      "ëĹĢ": 2809,
      "ëĹģ": 2810,
      "ëĹĤ": 2811,
      "ëĹĥ": 2812,
      "ëĹĦ": 2813,
      "ëĹħ": 2814,
      "ëĹĨ": 2815,
      "ëĹĩ": 2816,
      "ëĹĪ": 2817,
      "ëĹī": 2818,
      "ëĹĬ": 2819,
      "ëĹĭ": 2820,
      "ëĹĮ": 2821,
      "ëĹį": 2822,
      "ëĹİ": 2823,
      "ëĹı": 2824,
      "ëĹĲ": 2825,
      "ëĹĳ": 2826,
      "ëĹĴ": 2827,
      "ëĹĵ": 2828,
      "ëĹĶ": 2829,
      "ëĹķ": 2830,
      "ëĹĸ": 2831,
      "ëĹĹ": 2832,
      "ëĹĺ": 2833,
      "ëĹĻ": 2834,
      "ëĹļ": 2835,
      "ëĹĽ": 2836,
      "ëĹľ": 2837,
      "ëĹĿ": 2838,
      "ëĹŀ": 2839,
      "ëĹŁ": 2840,
      "ëĹł": 2841,
      "ëĹ¡": 2842,
      "ëĹ¢": 2843,
      "ëĹ£": 2844,
      "ëĹ¤": 2845,
      "ëĹ¥": 2846,
      "ëĹ¦": 2847,
      "ëĹ§": 2848,
      "ëĹ¨": 2849,
      "ëĹ©": 2850,
      "ëĹª": 2851,
      "ëĹ«": 2852,
      "ëĹ¬": 2853,
      "ëĹŃ": 2854,
      "ëĹ®": 2855,
      "ëĹ¯": 2856,
      "ëĹ°": 2857,
      "ëĹ±": 2858,
      "ëĹ²": 2859,
      "ëĹ³": 2860,
      "ëĹ´": 2861,
      "ëĹµ": 2862,
      "ëĹ¶": 2863,
      "ëĹ·": 2864,
      "ëĹ¸": 2865,
      "ëĹ¹": 2866,
      "ëĹº": 2867,
      "ëĹ»": 2868,
      "ëĹ¼": 2869,
      "ëĹ½": 2870,
      "ëĹ¾": 2871,
      "ëĹ¿": 2872,
      "ëĺ": 2873,
      "ëĺĢ": 2874,
      "ëĺģ": 2875,
      "ëĺĤ": 2876,
      "ëĺĥ": 2877,
      "ëĺĦ": 2878,
      "ëĺħ": 2879,
      "ëĺĨ": 2880,
      "ëĺĩ": 2881,
      "ëĺĪ": 2882,
      "ëĺī": 2883,
      "ëĺĬ": 2884,
      "ëĺĭ": 2885,
      "ëĺĮ": 2886,
      "ëĺį": 2887,
      "ëĺİ": 2888,
      "ëĺı": 2889,
      "ëĺĲ": 2890,
      "ëĺĳ": 2891,
      "ëĺĴ": 2892,
      "ëĺĵ": 2893,
      "ëĺĶ": 2894,
      "ëĺķ": 2895,
      "ëĺĸ": 2896,
      "ëĺĹ": 2897,
      "ëĺĺ": 2898,
      "ëĺĻ": 2899,
      "ëĺļ": 2900,
      "ëĺĽ": 2901,
      "ëĺľ": 2902,
      "ëĺĿ": 2903,
      "ëĺŀ": 2904,
      "ëĺŁ": 2905,
      "ëĺł": 2906,
      "ëĺ¡": 2907,
      "ëĺ¢": 2908,
      "ëĺ£": 2909,
      "ëĺ¤": 2910,
      "ëĺ¥": 2911,
      "ëĺ¦": 2912,
      "ëĺ§": 2913,
      "ëĺ¨": 2914,
      "ëĺ©": 2915,
      "ëĺª": 2916,
      "ëĺ«": 2917,
      "ëĺ¬": 2918,
      "ëĺŃ": 2919,
      "ëĺ®": 2920,
      "ëĺ¯": 2921,
      "ëĺ°": 2922,
      "ëĺ±": 2923,
      "ëĺ²": 2924,
      "ëĺ³": 2925,
      "ëĺ´": 2926,
      "ëĺµ": 2927,
      "ëĺ¶": 2928,
      "ëĺ·": 2929,
      "ëĺ¸": 2930,
      "ëĺ¹": 2931,
      "ëĺº": 2932,
      "ëĺ»": 2933,
      "ëĺ¼": 2934,
      "ëĺ½": 2935,
      "ëĺ¾": 2936,
      "ëĺ¿": 2937,
      "ëĻ": 2938,
      "ëĻĢ": 2939,
      "ëĻģ": 2940,
      "ëĻĤ": 2941,
      "ëĻĥ": 2942,
      "ëĻĦ": 2943,
      "ëĻħ": 2944,
      "ëĻĨ": 2945,
      "ëĻĩ": 2946,
      "ëĻĪ": 2947,
      "ëĻī": 2948,
      "ëĻĬ": 2949,
      "ëĻĭ": 2950,
      "ëĻĮ": 2951,
      "ëĻį": 2952,
      "ëĻİ": 2953,
      "ëĻı": 2954,
      "ëĻĲ": 2955,
      "ëĻĳ": 2956,
      "ëĻĴ": 2957,
      "ëĻĵ": 2958,
      "ëĻĶ": 2959,
      "ëĻķ": 2960,
      "ëĻĸ": 2961,
      "ëĻĹ": 2962,
      "ëĻĺ": 2963,
      "ëĻĻ": 2964,
      "ëĻļ": 2965,
      "ëĻĽ": 2966,
      "ëĻľ": 2967,
      "ëĻĿ": 2968,
      "ëĻŀ": 2969,
      "ëĻŁ": 2970,
      "ëĻł": 2971,
      "ëĻ¡": 2972,
      "ëĻ¢": 2973,
      "ëĻ£": 2974,
      "ëĻ¤": 2975,
      "ëĻ¥": 2976,
      "ëĻ¦": 2977,
      "ëĻ§": 2978,
      "ëĻ¨": 2979,
      "ëĻ©": 2980,
      "ëĻª": 2981,
      "ëĻ«": 2982,
      "ëĻ¬": 2983,
      "ëĻŃ": 2984,
      "ëĻ®": 2985,
      "ëĻ¯": 2986,
      "ëĻ°": 2987,
      "ëĻ±": 2988,
      "ëĻ²": 2989,
      "ëĻ³": 2990,
      "ëĻ´": 2991,
      "ëĻµ": 2992,
      "ëĻ¶": 2993,
      "ëĻ·": 2994,
      "ëĻ¸": 2995,
      "ëĻ¹": 2996,
      "ëĻº": 2997,
      "ëĻ»": 2998,
      "ëĻ¼": 2999,
      "ëĻ½": 3000,
      "ëĻ¾": 3001,
      "ëĻ¿": 3002,
      "ëļ": 3003,
      "ëļĢ": 3004,
      "ëļģ": 3005,
      "ëļĤ": 3006,
      "ëļĥ": 3007,
      "ëļĦ": 3008,
      "ëļħ": 3009,
      "ëļĨ": 3010,
      "ëļĩ": 3011,
      "ëļĪ": 3012,
      "ëļī": 3013,
      "ëļĬ": 3014,
      "ëļĭ": 3015,
      "ëļĮ": 3016,
      "ëļį": 3017,
      "ëļİ": 3018,
      "ëļı": 3019,
      "ëļĲ": 3020,
      "ëļĳ": 3021,
      "ëļĴ": 3022,
      "ëļĵ": 3023,
      "ëļĶ": 3024,
      "ëļķ": 3025,
      "ëļĸ": 3026,
      "ëļĹ": 3027,
      "ëļĺ": 3028,
      "ëļĻ": 3029,
      "ëļļ": 3030,
      "ëļĽ": 3031,
      "ëļľ": 3032,
      "ëļĿ": 3033,
      "ëļŀ": 3034,
      "ëļŁ": 3035,
      "ëļł": 3036,
      "ëļ¡": 3037,
      "ëļ¢": 3038,
      "ëļ£": 3039,
      "ëļ¤": 3040,
      "ëļ¥": 3041,
      "ëļ¦": 3042,
      "ëļ§": 3043,
      "ëļ¨": 3044,
      "ëļ©": 3045,
      "ëļª": 3046,
      "ëļ«": 3047,
      "ëļ¬": 3048,
      "ëļŃ": 3049,
      "ëļ®": 3050,
      "ëļ¯": 3051,
      "ëļ°": 3052,
      "ëļ±": 3053,
      "ëļ²": 3054,
      "ëļ³": 3055,
      "ëļ´": 3056,
      "ëļµ": 3057,
      "ëļ¶": 3058,
      "ëļ·": 3059,
      "ëļ¸": 3060,
      "ëļ¹": 3061,
      "ëļº": 3062,
      "ëļ»": 3063,
      "ëļ¼": 3064,
      "ëļ½": 3065,
      "ëļ¾": 3066,
      "ëļ¿": 3067,
      "ëĽ": 3068,
      "ëĽĢ": 3069,
      "ëĽģ": 3070,
      "ëĽĤ": 3071,
      "ëĽĥ": 3072,
      "ëĽĦ": 3073,
      "ëĽħ": 3074,
      "ëĽĨ": 3075,
      "ëĽĩ": 3076,
      "ëĽĪ": 3077,
      "ëĽī": 3078,
      "ëĽĬ": 3079,
      "ëĽĭ": 3080,
      "ëĽĮ": 3081,
      "ëĽį": 3082,
      "ëĽİ": 3083,
      "ëĽı": 3084,
      "ëĽĲ": 3085,
      "ëĽĳ": 3086,
      "ëĽĴ": 3087,
      "ëĽĵ": 3088,
      "ëĽĶ": 3089,
      "ëĽķ": 3090,
      "ëĽĸ": 3091,
      "ëĽĹ": 3092,
      "ëĽĺ": 3093,
      "ëĽĻ": 3094,
      "ëĽļ": 3095,
      "ëĽĽ": 3096,
      "ëĽľ": 3097,
      "ëĽĿ": 3098,
      "ëĽŀ": 3099,
      "ëĽŁ": 3100,
      "ëĽł": 3101,
      "ëĽ¡": 3102,
      "ëĽ¢": 3103,
      "ëĽ£": 3104,
      "ëĽ¤": 3105,
      "ëĽ¥": 3106,
      "ëĽ¦": 3107,
      "ëĽ§": 3108,
      "ëĽ¨": 3109,
      "ëĽ©": 3110,
      "ëĽª": 3111,
      "ëĽ«": 3112,
      "ëĽ¬": 3113,
      "ëĽŃ": 3114,
      "ëĽ®": 3115,
      "ëĽ¯": 3116,
      "ëĽ°": 3117,
      "ëĽ±": 3118,
      "ëĽ²": 3119,
      "ëĽ³": 3120,
      "ëĽ´": 3121,
      "ëĽµ": 3122,
      "ëĽ¶": 3123,
      "ëĽ·": 3124,
      "ëĽ¸": 3125,
      "ëĽ¹": 3126,
      "ëĽº": 3127,
      "ëĽ»": 3128,
      "ëĽ¼": 3129,
      "ëĽ½": 3130,
      "ëĽ¾": 3131,
      "ëĽ¿": 3132,
      "ëľ": 3133,
      "ëľĢ": 3134,
      "ëľģ": 3135,
      "ëľĤ": 3136,
      "ëľĥ": 3137,
      "ëľĦ": 3138,
      "ëľħ": 3139,
      "ëľĨ": 3140,
      "ëľĩ": 3141,
      "ëľĪ": 3142,
      "ëľī": 3143,
      "ëľĬ": 3144,
      "ëľĭ": 3145,
      "ëľĮ": 3146,
      "ëľį": 3147,
      "ëľİ": 3148,
      "ëľı": 3149,
      "ëľĲ": 3150,
      "ëľĳ": 3151,
      "ëľĴ": 3152,
      "ëľĵ": 3153,
      "ëľĶ": 3154,
      "ëľķ": 3155,
      "ëľĸ": 3156,
      "ëľĹ": 3157,
      "ëľĺ": 3158,
      "ëľĻ": 3159,
      "ëľļ": 3160,
      "ëľĽ": 3161,
      "ëľľ": 3162,
      "ëľĿ": 3163,
      "ëľŀ": 3164,
      "ëľŁ": 3165,
      "ëľł": 3166,
      "ëľ¡": 3167,
      "ëľ¢": 3168,
      "ëľ£": 3169,
      "ëľ¤": 3170,
      "ëľ¥": 3171,
      "ëľ¦": 3172,
      "ëľ§": 3173,
      "ëľ¨": 3174,
      "ëľ©": 3175,
      "ëľª": 3176,
      "ëľ«": 3177,
      "ëľ¬": 3178,
      "ëľŃ": 3179,
      "ëľ®": 3180,
      "ëľ¯": 3181,
      "ëľ°": 3182,
      "ëľ±": 3183,
      "ëľ²": 3184,
      "ëľ³": 3185,
      "ëľ´": 3186,
      "ëľµ": 3187,
      "ëľ¶": 3188,
      "ëľ·": 3189,
      "ëľ¸": 3190,
      "ëľ¹": 3191,
      "ëľº": 3192,
      "ëľ»": 3193,
      "ëľ¼": 3194,
      "ëľ½": 3195,
      "ëľ¾": 3196,
      "ëľ¿": 3197,
      "ëĿ": 3198,
      "ëĿĢ": 3199,
      "ëĿģ": 3200,
      "ëĿĤ": 3201,
      "ëĿĥ": 3202,
      "ëĿĦ": 3203,
      "ëĿħ": 3204,
      "ëĿĨ": 3205,
      "ëĿĩ": 3206,
      "ëĿĪ": 3207,
      "ëĿī": 3208,
      "ëĿĬ": 3209,
      "ëĿĭ": 3210,
      "ëĿĮ": 3211,
      "ëĿį": 3212,
      "ëĿİ": 3213,
      "ëĿı": 3214,
      "ëĿĲ": 3215,
      "ëĿĳ": 3216,
      "ëĿĴ": 3217,
      "ëĿĵ": 3218,
      "ëĿĶ": 3219,
      "ëĿķ": 3220,
      "ëĿĸ": 3221,
      "ëĿĹ": 3222,
      "ëĿĺ": 3223,
      "ëĿĻ": 3224,
      "ëĿļ": 3225,
      "ëĿĽ": 3226,
      "ëĿľ": 3227,
      "ëĿĿ": 3228,
      "ëĿŀ": 3229,
      "ëĿŁ": 3230,
      "ëĿł": 3231,
      "ëĿ¡": 3232,
      "ëĿ¢": 3233,
      "ëĿ£": 3234,
      "ëĿ¤": 3235,
      "ëĿ¥": 3236,
      "ëĿ¦": 3237,
      "ëĿ§": 3238,
      "ëĿ¨": 3239,
      "ëĿ©": 3240,
      "ëĿª": 3241,
      "ëĿ«": 3242,
      "ëĿ¬": 3243,
      "ëĿŃ": 3244,
      "ëĿ®": 3245,
      "ëĿ¯": 3246,
      "ëĿ°": 3247,
      "ëĿ±": 3248,
      "ëĿ²": 3249,
      "ëĿ³": 3250,
      "ëĿ´": 3251,
      "ëĿµ": 3252,
      "ëĿ¶": 3253,
      "ëĿ·": 3254,
      "ëĿ¸": 3255,
      "ëĿ¹": 3256,
      "ëĿº": 3257,
      "ëĿ»": 3258,
      "ëĿ¼": 3259,
      "ëĿ½": 3260,
      "ëĿ¾": 3261,
      "ëĿ¿": 3262,
      "ëŀ": 3263,
      "ëŀĢ": 3264,
      "ëŀģ": 3265,
      "ëŀĤ": 3266,
      "ëŀĥ": 3267,
      "ëŀĦ": 3268,
      "ëŀħ": 3269,
      "ëŀĨ": 3270,
      "ëŀĩ": 3271,
      "ëŀĪ": 3272,
      "ëŀī": 3273,
      "ëŀĬ": 3274,
      "ëŀĭ": 3275,
      "ëŀĮ": 3276,
      "ëŀį": 3277,
      "ëŀİ": 3278,
      "ëŀı": 3279,
      "ëŀĲ": 3280,
      "ëŀĳ": 3281,
      "ëŀĴ": 3282,
      "ëŀĵ": 3283,
      "ëŀĶ": 3284,
      "ëŀķ": 3285,
      "ëŀĸ": 3286,
      "ëŀĹ": 3287,
      "ëŀĺ": 3288,
      "ëŀĻ": 3289,
      "ëŀļ": 3290,
      "ëŀĽ": 3291,
      "ëŀľ": 3292,
      "ëŀĿ": 3293,
      "ëŀŀ": 3294,
      "ëŀŁ": 3295,
      "ëŀł": 3296,
      "ëŀ¡": 3297,
      "ëŀ¢": 3298,
      "ëŀ£": 3299,
      "ëŀ¤": 3300,
      "ëŀ¥": 3301,
      "ëŀ¦": 3302,
      "ëŀ§": 3303,
      "ëŀ¨": 3304,
      "ëŀ©": 3305,
      "ëŀª": 3306,
      "ëŀ«": 3307,
      "ëŀ¬": 3308,
      "ëŀŃ": 3309,
      "ëŀ®": 3310,
      "ëŀ¯": 3311,
      "ëŀ°": 3312,
      "ëŀ±": 3313,
      "ëŀ²": 3314,
      "ëŀ³": 3315,
      "ëŀ´": 3316,
      "ëŀµ": 3317,
      "ëŀ¶": 3318,
      "ëŀ·": 3319,
      "ëŀ¸": 3320,
      "ëŀ¹": 3321,
      "ëŀº": 3322,
      "ëŀ»": 3323,
      "ëŀ¼": 3324,
      "ëŀ½": 3325,
      "ëŀ¾": 3326,
      "ëŀ¿": 3327,
      "ëŁ": 3328,
      "ëŁĢ": 3329,
      "ëŁģ": 3330,
      "ëŁĤ": 3331,
      "ëŁĥ": 3332,
      "ëŁĦ": 3333,
      "ëŁħ": 3334,
      "ëŁĨ": 3335,
      "ëŁĩ": 3336,
      "ëŁĪ": 3337,
      "ëŁī": 3338,
      "ëŁĬ": 3339,
      "ëŁĭ": 3340,
      "ëŁĮ": 3341,
      "ëŁį": 3342,
      "ëŁİ": 3343,
      "ëŁı": 3344,
      "ëŁĲ": 3345,
      "ëŁĳ": 3346,
      "ëŁĴ": 3347,
      "ëŁĵ": 3348,
      "ëŁĶ": 3349,
      "ëŁķ": 3350,
      "ëŁĸ": 3351,
      "ëŁĹ": 3352,
      "ëŁĺ": 3353,
      "ëŁĻ": 3354,
      "ëŁļ": 3355,
      "ëŁĽ": 3356,
      "ëŁľ": 3357,
      "ëŁĿ": 3358,
      "ëŁŀ": 3359,
      "ëŁŁ": 3360,
      "ëŁł": 3361,
      "ëŁ¡": 3362,
      "ëŁ¢": 3363,
      "ëŁ£": 3364,
      "ëŁ¤": 3365,
      "ëŁ¥": 3366,
      "ëŁ¦": 3367,
      "ëŁ§": 3368,
      "ëŁ¨": 3369,
      "ëŁ©": 3370,
      "ëŁª": 3371,
      "ëŁ«": 3372,
      "ëŁ¬": 3373,
      "ëŁŃ": 3374,
      "ëŁ®": 3375,
      "ëŁ¯": 3376,
      "ëŁ°": 3377,
      "ëŁ±": 3378,
      "ëŁ²": 3379,
      "ëŁ³": 3380,
      "ëŁ´": 3381,
      "ëŁµ": 3382,
      "ëŁ¶": 3383,
      "ëŁ·": 3384,
      "ëŁ¸": 3385,
      "ëŁ¹": 3386,
      "ëŁº": 3387,
      "ëŁ»": 3388,
      "ëŁ¼": 3389,
      "ëŁ½": 3390,
      "ëŁ¾": 3391,
      "ëŁ¿": 3392,
      "ëł": 3393,
      "ëłĢ": 3394,
      "ëłģ": 3395,
      "ëłĤ": 3396,
      "ëłĥ": 3397,
      "ëłĦ": 3398,
      "ëłħ": 3399,
      "ëłĨ": 3400,
      "ëłĩ": 3401,
      "ëłĪ": 3402,
      "ëłī": 3403,
      "ëłĬ": 3404,
      "ëłĭ": 3405,
      "ëłĮ": 3406,
      "ëłį": 3407,
      "ëłİ": 3408,
      "ëłı": 3409,
      "ëłĲ": 3410,
      "ëłĳ": 3411,
      "ëłĴ": 3412,
      "ëłĵ": 3413,
      "ëłĶ": 3414,
      "ëłķ": 3415,
      "ëłĸ": 3416,
      "ëłĹ": 3417,
      "ëłĺ": 3418,
      "ëłĻ": 3419,
      "ëłļ": 3420,
      "ëłĽ": 3421,
      "ëłľ": 3422,
      "ëłĿ": 3423,
      "ëłŀ": 3424,
      "ëłŁ": 3425,
      "ëłł": 3426,
      "ëł¡": 3427,
      "ëł¢": 3428,
      "ëł£": 3429,
      "ëł¤": 3430,
      "ëł¥": 3431,
      "ëł¦": 3432,
      "ëł§": 3433,
      "ëł¨": 3434,
      "ëł©": 3435,
      "ëłª": 3436,
      "ëł«": 3437,
      "ëł¬": 3438,
      "ëłŃ": 3439,
      "ëł®": 3440,
      "ëł¯": 3441,
      "ëł°": 3442,
      "ëł±": 3443,
      "ëł²": 3444,
      "ëł³": 3445,
      "ëł´": 3446,
      "ëłµ": 3447,
      "ëł¶": 3448,
      "ëł·": 3449,
      "ëł¸": 3450,
      "ëł¹": 3451,
      "ëłº": 3452,
      "ëł»": 3453,
      "ëł¼": 3454,
      "ëł½": 3455,
      "ëł¾": 3456,
      "ëł¿": 3457,
      "ë¡": 3458,
      "ë¡Ģ": 3459,
      "ë¡ģ": 3460,
      "ë¡Ĥ": 3461,
      "ë¡ĥ": 3462,
      "ë¡Ħ": 3463,
      "ë¡ħ": 3464,
      "ë¡Ĩ": 3465,
      "ë¡ĩ": 3466,
      "ë¡Ī": 3467,
      "ë¡ī": 3468,
      "ë¡Ĭ": 3469,
      "ë¡ĭ": 3470,
      "ë¡Į": 3471,
      "ë¡į": 3472,
      "ë¡İ": 3473,
      "ë¡ı": 3474,
      "ë¡Ĳ": 3475,
      "ë¡ĳ": 3476,
      "ë¡Ĵ": 3477,
      "ë¡ĵ": 3478,
      "ë¡Ķ": 3479,
      "ë¡ķ": 3480,
      "ë¡ĸ": 3481,
      "ë¡Ĺ": 3482,
      "ë¡ĺ": 3483,
      "ë¡Ļ": 3484,
      "ë¡ļ": 3485,
      "ë¡Ľ": 3486,
      "ë¡ľ": 3487,
      "ë¡Ŀ": 3488,
      "ë¡ŀ": 3489,
      "ë¡Ł": 3490,
      "ë¡ł": 3491,
      "ë¡¡": 3492,
      "ë¡¢": 3493,
      "ë¡£": 3494,
      "ë¡¤": 3495,
      "ë¡¥": 3496,
      "ë¡¦": 3497,
      "ë¡§": 3498,
      "ë¡¨": 3499,
      "ë¡©": 3500,
      "ë¡ª": 3501,
      "ë¡«": 3502,
      "ë¡¬": 3503,
      "ë¡Ń": 3504,
      "ë¡®": 3505,
      "ë¡¯": 3506,
      "ë¡°": 3507,
      "ë¡±": 3508,
      "ë¡²": 3509,
      "ë¡³": 3510,
      "ë¡´": 3511,
      "ë¡µ": 3512,
      "ë¡¶": 3513,
      "ë¡·": 3514,
      "ë¡¸": 3515,
      "ë¡¹": 3516,
      "ë¡º": 3517,
      "ë¡»": 3518,
      "ë¡¼": 3519,
      "ë¡½": 3520,
      "ë¡¾": 3521,
      "ë¡¿": 3522,
      "ë¢": 3523,
      "ë¢Ģ": 3524,
      "ë¢ģ": 3525,
      "ë¢Ĥ": 3526,
      "ë¢ĥ": 3527,
      "ë¢Ħ": 3528,
      "ë¢ħ": 3529,
      "ë¢Ĩ": 3530,
      "ë¢ĩ": 3531,
      "ë¢Ī": 3532,
      "ë¢ī": 3533,
      "ë¢Ĭ": 3534,
      "ë¢ĭ": 3535,
      "ë¢Į": 3536,
      "ë¢į": 3537,
      "ë¢İ": 3538,
      "ë¢ı": 3539,
      "ë¢Ĳ": 3540,
      "ë¢ĳ": 3541,
      "ë¢Ĵ": 3542,
      "ë¢ĵ": 3543,
      "ë¢Ķ": 3544,
      "ë¢ķ": 3545,
      "ë¢ĸ": 3546,
      "ë¢Ĺ": 3547,
      "ë¢ĺ": 3548,
      "ë¢Ļ": 3549,
      "ë¢ļ": 3550,
      "ë¢Ľ": 3551,
      "ë¢ľ": 3552,
      "ë¢Ŀ": 3553,
      "ë¢ŀ": 3554,
      "ë¢Ł": 3555,
      "ë¢ł": 3556,
      "ë¢¡": 3557,
      "ë¢¢": 3558,
      "ë¢£": 3559,
      "ë¢¤": 3560,
      "ë¢¥": 3561,
      "ë¢¦": 3562,
      "ë¢§": 3563,
      "ë¢¨": 3564,
      "ë¢©": 3565,
      "ë¢ª": 3566,
      "ë¢«": 3567,
      "ë¢¬": 3568,
      "ë¢Ń": 3569,
      "ë¢®": 3570,
      "ë¢¯": 3571,
      "ë¢°": 3572,
      "ë¢±": 3573,
      "ë¢²": 3574,
      "ë¢³": 3575,
      "ë¢´": 3576,
      "ë¢µ": 3577,
      "ë¢¶": 3578,
      "ë¢·": 3579,
      "ë¢¸": 3580,
      "ë¢¹": 3581,
      "ë¢º": 3582,
      "ë¢»": 3583,
      "ë¢¼": 3584,
      "ë¢½": 3585,
      "ë¢¾": 3586,
      "ë¢¿": 3587,
      "ë£": 3588,
      "ë£Ģ": 3589,
      "ë£ģ": 3590,
      "ë£Ĥ": 3591,
      "ë£ĥ": 3592,
      "ë£Ħ": 3593,
      "ë£ħ": 3594,
      "ë£Ĩ": 3595,
      "ë£ĩ": 3596,
      "ë£Ī": 3597,
      "ë£ī": 3598,
      "ë£Ĭ": 3599,
      "ë£ĭ": 3600,
      "ë£Į": 3601,
      "ë£į": 3602,
      "ë£İ": 3603,
      "ë£ı": 3604,
      "ë£Ĳ": 3605,
      "ë£ĳ": 3606,
      "ë£Ĵ": 3607,
      "ë£ĵ": 3608,
      "ë£Ķ": 3609,
      "ë£ķ": 3610,
      "ë£ĸ": 3611,
      "ë£Ĺ": 3612,
      "ë£ĺ": 3613,
      "ë£Ļ": 3614,
      "ë£ļ": 3615,
      "ë£Ľ": 3616,
      "ë£ľ": 3617,
      "ë£Ŀ": 3618,
      "ë£ŀ": 3619,
      "ë£Ł": 3620,
      "ë£ł": 3621,
      "ë£¡": 3622,
      "ë£¢": 3623,
      "ë££": 3624,
      "ë£¤": 3625,
      "ë£¥": 3626,
      "ë£¦": 3627,
      "ë£§": 3628,
      "ë£¨": 3629,
      "ë£©": 3630,
      "ë£ª": 3631,
      "ë£«": 3632,
      "ë£¬": 3633,
      "ë£Ń": 3634,
      "ë£®": 3635,
      "ë£¯": 3636,
      "ë£°": 3637,
      "ë£±": 3638,
      "ë£²": 3639,
      "ë£³": 3640,
      "ë£´": 3641,
      "ë£µ": 3642,
      "ë£¶": 3643,
      "ë£·": 3644,
      "ë£¸": 3645,
      "ë£¹": 3646,
      "ë£º": 3647,
      "ë£»": 3648,
      "ë£¼": 3649,
      "ë£½": 3650,
      "ë£¾": 3651,
      "ë£¿": 3652,
      "ë¤": 3653,
      "ë¤Ģ": 3654,
      "ë¤ģ": 3655,
      "ë¤Ĥ": 3656,
      "ë¤ĥ": 3657,
      "ë¤Ħ": 3658,
      "ë¤ħ": 3659,
      "ë¤Ĩ": 3660,
      "ë¤ĩ": 3661,
      "ë¤Ī": 3662,
      "ë¤ī": 3663,
      "ë¤Ĭ": 3664,
      "ë¤ĭ": 3665,
      "ë¤Į": 3666,
      "ë¤į": 3667,
      "ë¤İ": 3668,
      "ë¤ı": 3669,
      "ë¤Ĳ": 3670,
      "ë¤ĳ": 3671,
      "ë¤Ĵ": 3672,
      "ë¤ĵ": 3673,
      "ë¤Ķ": 3674,
      "ë¤ķ": 3675,
      "ë¤ĸ": 3676,
      "ë¤Ĺ": 3677,
      "ë¤ĺ": 3678,
      "ë¤Ļ": 3679,
      "ë¤ļ": 3680,
      "ë¤Ľ": 3681,
      "ë¤ľ": 3682,
      "ë¤Ŀ": 3683,
      "ë¤ŀ": 3684,
      "ë¤Ł": 3685,
      "ë¤ł": 3686,
      "ë¤¡": 3687,
      "ë¤¢": 3688,
      "ë¤£": 3689,
      "ë¤¤": 3690,
      "ë¤¥": 3691,
      "ë¤¦": 3692,
      "ë¤§": 3693,
      "ë¤¨": 3694,
      "ë¤©": 3695,
      "ë¤ª": 3696,
      "ë¤«": 3697,
      "ë¤¬": 3698,
      "ë¤Ń": 3699,
      "ë¤®": 3700,
      "ë¤¯": 3701,
      "ë¤°": 3702,
      "ë¤±": 3703,
      "ë¤²": 3704,
      "ë¤³": 3705,
      "ë¤´": 3706,
      "ë¤µ": 3707,
      "ë¤¶": 3708,
      "ë¤·": 3709,
      "ë¤¸": 3710,
      "ë¤¹": 3711,
      "ë¤º": 3712,
      "ë¤»": 3713,
      "ë¤¼": 3714,
      "ë¤½": 3715,
      "ë¤¾": 3716,
      "ë¤¿": 3717,
      "ë¥": 3718,
      "ë¥Ģ": 3719,
      "ë¥ģ": 3720,
      "ë¥Ĥ": 3721,
      "ë¥ĥ": 3722,
      "ë¥Ħ": 3723,
      "ë¥ħ": 3724,
      "ë¥Ĩ": 3725,
      "ë¥ĩ": 3726,
      "ë¥Ī": 3727,
      "ë¥ī": 3728,
      "ë¥Ĭ": 3729,
      "ë¥ĭ": 3730,
      "ë¥Į": 3731,
      "ë¥į": 3732,
      "ë¥İ": 3733,
      "ë¥ı": 3734,
      "ë¥Ĳ": 3735,
      "ë¥ĳ": 3736,
      "ë¥Ĵ": 3737,
      "ë¥ĵ": 3738,
      "ë¥Ķ": 3739,
      "ë¥ķ": 3740,
      "ë¥ĸ": 3741,
      "ë¥Ĺ": 3742,
      "ë¥ĺ": 3743,
      "ë¥Ļ": 3744,
      "ë¥ļ": 3745,
      "ë¥Ľ": 3746,
      "ë¥ľ": 3747,
      "ë¥Ŀ": 3748,
      "ë¥ŀ": 3749,
      "ë¥Ł": 3750,
      "ë¥ł": 3751,
      "ë¥¡": 3752,
      "ë¥¢": 3753,
      "ë¥£": 3754,
      "ë¥¤": 3755,
      "ë¥¥": 3756,
      "ë¥¦": 3757,
      "ë¥§": 3758,
      "ë¥¨": 3759,
      "ë¥©": 3760,
      "ë¥ª": 3761,
      "ë¥«": 3762,
      "ë¥¬": 3763,
      "ë¥Ń": 3764,
      "ë¥®": 3765,
      "ë¥¯": 3766,
      "ë¥°": 3767,
      "ë¥±": 3768,
      "ë¥²": 3769,
      "ë¥³": 3770,
      "ë¥´": 3771,
      "ë¥µ": 3772,
      "ë¥¶": 3773,
      "ë¥·": 3774,
      "ë¥¸": 3775,
      "ë¥¹": 3776,
      "ë¥º": 3777,
      "ë¥»": 3778,
      "ë¥¼": 3779,
      "ë¥½": 3780,
      "ë¥¾": 3781,
      "ë¥¿": 3782,
      "ë¦": 3783,
      "ë¦Ģ": 3784,
      "ë¦ģ": 3785,
      "ë¦Ĥ": 3786,
      "ë¦ĥ": 3787,
      "ë¦Ħ": 3788,
      "ë¦ħ": 3789,
      "ë¦Ĩ": 3790,
      "ë¦ĩ": 3791,
      "ë¦Ī": 3792,
      "ë¦ī": 3793,
      "ë¦Ĭ": 3794,
      "ë¦ĭ": 3795,
      "ë¦Į": 3796,
      "ë¦į": 3797,
      "ë¦İ": 3798,
      "ë¦ı": 3799,
      "ë¦Ĳ": 3800,
      "ë¦ĳ": 3801,
      "ë¦Ĵ": 3802,
      "ë¦ĵ": 3803,
      "ë¦Ķ": 3804,
      "ë¦ķ": 3805,
      "ë¦ĸ": 3806,
      "ë¦Ĺ": 3807,
      "ë¦ĺ": 3808,
      "ë¦Ļ": 3809,
      "ë¦ļ": 3810,
      "ë¦Ľ": 3811,
      "ë¦ľ": 3812,
      "ë¦Ŀ": 3813,
      "ë¦ŀ": 3814,
      "ë¦Ł": 3815,
      "ë¦ł": 3816,
      "ë¦¡": 3817,
      "ë¦¢": 3818,
      "ë¦£": 3819,
      "ë¦¤": 3820,
      "ë¦¥": 3821,
      "ë¦¦": 3822,
      "ë¦§": 3823,
      "ë¦¨": 3824,
      "ë¦©": 3825,
      "ë¦ª": 3826,
      "ë¦«": 3827,
      "ë¦¬": 3828,
      "ë¦Ń": 3829,
      "ë¦®": 3830,
      "ë¦¯": 3831,
      "ë¦°": 3832,
      "ë¦±": 3833,
      "ë¦²": 3834,
      "ë¦³": 3835,
      "ë¦´": 3836,
      "ë¦µ": 3837,
      "ë¦¶": 3838,
      "ë¦·": 3839,
      "ë¦¸": 3840,
      "ë¦¹": 3841,
      "ë¦º": 3842,
      "ë¦»": 3843,
      "ë¦¼": 3844,
      "ë¦½": 3845,
      "ë¦¾": 3846,
      "ë¦¿": 3847,
      "ë§": 3848,
      "ë§Ģ": 3849,
      "ë§ģ": 3850,
      "ë§Ĥ": 3851,
      "ë§ĥ": 3852,
      "ë§Ħ": 3853,
      "ë§ħ": 3854,
      "ë§Ĩ": 3855,
      "ë§ĩ": 3856,
      "ë§Ī": 3857,
      "ë§ī": 3858,
      "ë§Ĭ": 3859,
      "ë§ĭ": 3860,
      "ë§Į": 3861,
      "ë§į": 3862,
      "ë§İ": 3863,
      "ë§ı": 3864,
      "ë§Ĳ": 3865,
      "ë§ĳ": 3866,
      "ë§Ĵ": 3867,
      "ë§ĵ": 3868,
      "ë§Ķ": 3869,
      "ë§ķ": 3870,
      "ë§ĸ": 3871,
      "ë§Ĺ": 3872,
      "ë§ĺ": 3873,
      "ë§Ļ": 3874,
      "ë§ļ": 3875,
      "ë§Ľ": 3876,
      "ë§ľ": 3877,
      "ë§Ŀ": 3878,
      "ë§ŀ": 3879,
      "ë§Ł": 3880,
      "ë§ł": 3881,
      "ë§¡": 3882,
      "ë§¢": 3883,
      "ë§£": 3884,
      "ë§¤": 3885,
      "ë§¥": 3886,
      "ë§¦": 3887,
      "ë§§": 3888,
      "ë§¨": 3889,
      "ë§©": 3890,
      "ë§ª": 3891,
      "ë§«": 3892,
      "ë§¬": 3893,
      "ë§Ń": 3894,
      "ë§®": 3895,
      "ë§¯": 3896,
      "ë§°": 3897,
      "ë§±": 3898,
      "ë§²": 3899,
      "ë§³": 3900,
      "ë§´": 3901,
      "ë§µ": 3902,
      "ë§¶": 3903,
      "ë§·": 3904,
      "ë§¸": 3905,
      "ë§¹": 3906,
      "ë§º": 3907,
      "ë§»": 3908,
      "ë§¼": 3909,
      "ë§½": 3910,
      "ë§¾": 3911,
      "ë§¿": 3912,
      "ë¨": 3913,
      "ë¨Ģ": 3914,
      "ë¨ģ": 3915,
      "ë¨Ĥ": 3916,
      "ë¨ĥ": 3917,
      "ë¨Ħ": 3918,
      "ë¨ħ": 3919,
      "ë¨Ĩ": 3920,
      "ë¨ĩ": 3921,
      "ë¨Ī": 3922,
      "ë¨ī": 3923,
      "ë¨Ĭ": 3924,
      "ë¨ĭ": 3925,
      "ë¨Į": 3926,
      "ë¨į": 3927,
      "ë¨İ": 3928,
      "ë¨ı": 3929,
      "ë¨Ĳ": 3930,
      "ë¨ĳ": 3931,
      "ë¨Ĵ": 3932,
      "ë¨ĵ": 3933,
      "ë¨Ķ": 3934,
      "ë¨ķ": 3935,
      "ë¨ĸ": 3936,
      "ë¨Ĺ": 3937,
      "ë¨ĺ": 3938,
      "ë¨Ļ": 3939,
      "ë¨ļ": 3940,
      "ë¨Ľ": 3941,
      "ë¨ľ": 3942,
      "ë¨Ŀ": 3943,
      "ë¨ŀ": 3944,
      "ë¨Ł": 3945,
      "ë¨ł": 3946,
      "ë¨¡": 3947,
      "ë¨¢": 3948,
      "ë¨£": 3949,
      "ë¨¤": 3950,
      "ë¨¥": 3951,
      "ë¨¦": 3952,
      "ë¨§": 3953,
      "ë¨¨": 3954,
      "ë¨©": 3955,
      "ë¨ª": 3956,
      "ë¨«": 3957,
      "ë¨¬": 3958,
      "ë¨Ń": 3959,
      "ë¨®": 3960,
      "ë¨¯": 3961,
      "ë¨°": 3962,
      "ë¨±": 3963,
      "ë¨²": 3964,
      "ë¨³": 3965,
      "ë¨´": 3966,
      "ë¨µ": 3967,
      "ë¨¶": 3968,
      "ë¨·": 3969,
      "ë¨¸": 3970,
      "ë¨¹": 3971,
      "ë¨º": 3972,
      "ë¨»": 3973,
      "ë¨¼": 3974,
      "ë¨½": 3975,
      "ë¨¾": 3976,
      "ë¨¿": 3977,
      "ë©": 3978,
      "ë©Ģ": 3979,
      "ë©ģ": 3980,
      "ë©Ĥ": 3981,
      "ë©ĥ": 3982,
      "ë©Ħ": 3983,
      "ë©ħ": 3984,
      "ë©Ĩ": 3985,
      "ë©ĩ": 3986,
      "ë©Ī": 3987,
      "ë©ī": 3988,
      "ë©Ĭ": 3989,
      "ë©ĭ": 3990,
      "ë©Į": 3991,
      "ë©į": 3992,
      "ë©İ": 3993,
      "ë©ı": 3994,
      "ë©Ĳ": 3995,
      "ë©ĳ": 3996,
      "ë©Ĵ": 3997,
      "ë©ĵ": 3998,
      "ë©Ķ": 3999,
      "ë©ķ": 4000,
      "ë©ĸ": 4001,
      "ë©Ĺ": 4002,
      "ë©ĺ": 4003,
      "ë©Ļ": 4004,
      "ë©ļ": 4005,
      "ë©Ľ": 4006,
      "ë©ľ": 4007,
      "ë©Ŀ": 4008,
      "ë©ŀ": 4009,
      "ë©Ł": 4010,
      "ë©ł": 4011,
      "ë©¡": 4012,
      "ë©¢": 4013,
      "ë©£": 4014,
      "ë©¤": 4015,
      "ë©¥": 4016,
      "ë©¦": 4017,
      "ë©§": 4018,
      "ë©¨": 4019,
      "ë©©": 4020,
      "ë©ª": 4021,
      "ë©«": 4022,
      "ë©¬": 4023,
      "ë©Ń": 4024,
      "ë©®": 4025,
      "ë©¯": 4026,
      "ë©°": 4027,
      "ë©±": 4028,
      "ë©²": 4029,
      "ë©³": 4030,
      "ë©´": 4031,
      "ë©µ": 4032,
      "ë©¶": 4033,
      "ë©·": 4034,
      "ë©¸": 4035,
      "ë©¹": 4036,
      "ë©º": 4037,
      "ë©»": 4038,
      "ë©¼": 4039,
      "ë©½": 4040,
      "ë©¾": 4041,
      "ë©¿": 4042,
      "ëª": 4043,
      "ëªĢ": 4044,
      "ëªģ": 4045,
      "ëªĤ": 4046,
      "ëªĥ": 4047,
      "ëªĦ": 4048,
      "ëªħ": 4049,
      "ëªĨ": 4050,
      "ëªĩ": 4051,
      "ëªĪ": 4052,
      "ëªī": 4053,
      "ëªĬ": 4054,
      "ëªĭ": 4055,
      "ëªĮ": 4056,
      "ëªį": 4057,
      "ëªİ": 4058,
      "ëªı": 4059,
      "ëªĲ": 4060,
      "ëªĳ": 4061,
      "ëªĴ": 4062,
      "ëªĵ": 4063,
      "ëªĶ": 4064,
      "ëªķ": 4065,
      "ëªĸ": 4066,
      "ëªĹ": 4067,
      "ëªĺ": 4068,
      "ëªĻ": 4069,
      "ëªļ": 4070,
      "ëªĽ": 4071,
      "ëªľ": 4072,
      "ëªĿ": 4073,
      "ëªŀ": 4074,
      "ëªŁ": 4075,
      "ëªł": 4076,
      "ëª¡": 4077,
      "ëª¢": 4078,
      "ëª£": 4079,
      "ëª¤": 4080,
      "ëª¥": 4081,
      "ëª¦": 4082,
      "ëª§": 4083,
      "ëª¨": 4084,
      "ëª©": 4085,
      "ëªª": 4086,
      "ëª«": 4087,
      "ëª¬": 4088,
      "ëªŃ": 4089,
      "ëª®": 4090,
      "ëª¯": 4091,
      "ëª°": 4092,
      "ëª±": 4093,
      "ëª²": 4094,
      "ëª³": 4095,
      "ëª´": 4096,
      "ëªµ": 4097,
      "ëª¶": 4098,
      "ëª·": 4099,
      "ëª¸": 4100,
      "ëª¹": 4101,
      "ëªº": 4102,
      "ëª»": 4103,
      "ëª¼": 4104,
      "ëª½": 4105,
      "ëª¾": 4106,
      "ëª¿": 4107,
      "ë«": 4108,
      "ë«Ģ": 4109,
      "ë«ģ": 4110,
      "ë«Ĥ": 4111,
      "ë«ĥ": 4112,
      "ë«Ħ": 4113,
      "ë«ħ": 4114,
      "ë«Ĩ": 4115,
      "ë«ĩ": 4116,
      "ë«Ī": 4117,
      "ë«ī": 4118,
      "ë«Ĭ": 4119,
      "ë«ĭ": 4120,
      "ë«Į": 4121,
      "ë«į": 4122,
      "ë«İ": 4123,
      "ë«ı": 4124,
      "ë«Ĳ": 4125,
      "ë«ĳ": 4126,
      "ë«Ĵ": 4127,
      "ë«ĵ": 4128,
      "ë«Ķ": 4129,
      "ë«ķ": 4130,
      "ë«ĸ": 4131,
      "ë«Ĺ": 4132,
      "ë«ĺ": 4133,
      "ë«Ļ": 4134,
      "ë«ļ": 4135,
      "ë«Ľ": 4136,
      "ë«ľ": 4137,
      "ë«Ŀ": 4138,
      "ë«ŀ": 4139,
      "ë«Ł": 4140,
      "ë«ł": 4141,
      "ë«¡": 4142,
      "ë«¢": 4143,
      "ë«£": 4144,
      "ë«¤": 4145,
      "ë«¥": 4146,
      "ë«¦": 4147,
      "ë«§": 4148,
      "ë«¨": 4149,
      "ë«©": 4150,
      "ë«ª": 4151,
      "ë««": 4152,
      "ë«¬": 4153,
      "ë«Ń": 4154,
      "ë«®": 4155,
      "ë«¯": 4156,
      "ë«°": 4157,
      "ë«±": 4158,
      "ë«²": 4159,
      "ë«³": 4160,
      "ë«´": 4161,
      "ë«µ": 4162,
      "ë«¶": 4163,
      "ë«·": 4164,
      "ë«¸": 4165,
      "ë«¹": 4166,
      "ë«º": 4167,
      "ë«»": 4168,
      "ë«¼": 4169,
      "ë«½": 4170,
      "ë«¾": 4171,
      "ë«¿": 4172,
      "ë¬": 4173,
      "ë¬Ģ": 4174,
      "ë¬ģ": 4175,
      "ë¬Ĥ": 4176,
      "ë¬ĥ": 4177,
      "ë¬Ħ": 4178,
      "ë¬ħ": 4179,
      "ë¬Ĩ": 4180,
      "ë¬ĩ": 4181,
      "ë¬Ī": 4182,
      "ë¬ī": 4183,
      "ë¬Ĭ": 4184,
      "ë¬ĭ": 4185,
      "ë¬Į": 4186,
      "ë¬į": 4187,
      "ë¬İ": 4188,
      "ë¬ı": 4189,
      "ë¬Ĳ": 4190,
      "ë¬ĳ": 4191,
      "ë¬Ĵ": 4192,
      "ë¬ĵ": 4193,
      "ë¬Ķ": 4194,
      "ë¬ķ": 4195,
      "ë¬ĸ": 4196,
      "ë¬Ĺ": 4197,
      "ë¬ĺ": 4198,
      "ë¬Ļ": 4199,
      "ë¬ļ": 4200,
      "ë¬Ľ": 4201,
      "ë¬ľ": 4202,
      "ë¬Ŀ": 4203,
      "ë¬ŀ": 4204,
      "ë¬Ł": 4205,
      "ë¬ł": 4206,
      "ë¬¡": 4207,
      "ë¬¢": 4208,
      "ë¬£": 4209,
      "ë¬¤": 4210,
      "ë¬¥": 4211,
      "ë¬¦": 4212,
      "ë¬§": 4213,
      "ë¬¨": 4214,
      "ë¬©": 4215,
      "ë¬ª": 4216,
      "ë¬«": 4217,
      "ë¬¬": 4218,
      "ë¬Ń": 4219,
      "ë¬®": 4220,
      "ë¬¯": 4221,
      "ë¬°": 4222,
      "ë¬±": 4223,
      "ë¬²": 4224,
      "ë¬³": 4225,
      "ë¬´": 4226,
      "ë¬µ": 4227,
      "ë¬¶": 4228,
      "ë¬·": 4229,
      "ë¬¸": 4230,
      "ë¬¹": 4231,
      "ë¬º": 4232,
      "ë¬»": 4233,
      "ë¬¼": 4234,
      "ë¬½": 4235,
      "ë¬¾": 4236,
      "ë¬¿": 4237,
      "ëŃ": 4238,
      "ëŃĢ": 4239,
      "ëŃģ": 4240,
      "ëŃĤ": 4241,
      "ëŃĥ": 4242,
      "ëŃĦ": 4243,
      "ëŃħ": 4244,
      "ëŃĨ": 4245,
      "ëŃĩ": 4246,
      "ëŃĪ": 4247,
      "ëŃī": 4248,
      "ëŃĬ": 4249,
      "ëŃĭ": 4250,
      "ëŃĮ": 4251,
      "ëŃį": 4252,
      "ëŃİ": 4253,
      "ëŃı": 4254,
      "ëŃĲ": 4255,
      "ëŃĳ": 4256,
      "ëŃĴ": 4257,
      "ëŃĵ": 4258,
      "ëŃĶ": 4259,
      "ëŃķ": 4260,
      "ëŃĸ": 4261,
      "ëŃĹ": 4262,
      "ëŃĺ": 4263,
      "ëŃĻ": 4264,
      "ëŃļ": 4265,
      "ëŃĽ": 4266,
      "ëŃľ": 4267,
      "ëŃĿ": 4268,
      "ëŃŀ": 4269,
      "ëŃŁ": 4270,
      "ëŃł": 4271,
      "ëŃ¡": 4272,
      "ëŃ¢": 4273,
      "ëŃ£": 4274,
      "ëŃ¤": 4275,
      "ëŃ¥": 4276,
      "ëŃ¦": 4277,
      "ëŃ§": 4278,
      "ëŃ¨": 4279,
      "ëŃ©": 4280,
      "ëŃª": 4281,
      "ëŃ«": 4282,
      "ëŃ¬": 4283,
      "ëŃŃ": 4284,
      "ëŃ®": 4285,
      "ëŃ¯": 4286,
      "ëŃ°": 4287,
      "ëŃ±": 4288,
      "ëŃ²": 4289,
      "ëŃ³": 4290,
      "ëŃ´": 4291,
      "ëŃµ": 4292,
      "ëŃ¶": 4293,
      "ëŃ·": 4294,
      "ëŃ¸": 4295,
      "ëŃ¹": 4296,
      "ëŃº": 4297,
      "ëŃ»": 4298,
      "ëŃ¼": 4299,
      "ëŃ½": 4300,
      "ëŃ¾": 4301,
      "ëŃ¿": 4302,
      "ë®": 4303,
      "ë®Ģ": 4304,
      "ë®ģ": 4305,
      "ë®Ĥ": 4306,
      "ë®ĥ": 4307,
      "ë®Ħ": 4308,
      "ë®ħ": 4309,
      "ë®Ĩ": 4310,
      "ë®ĩ": 4311,
      "ë®Ī": 4312,
      "ë®ī": 4313,
      "ë®Ĭ": 4314,
      "ë®ĭ": 4315,
      "ë®Į": 4316,
      "ë®į": 4317,
      "ë®İ": 4318,
      "ë®ı": 4319,
      "ë®Ĳ": 4320,
      "ë®ĳ": 4321,
      "ë®Ĵ": 4322,
      "ë®ĵ": 4323,
      "ë®Ķ": 4324,
      "ë®ķ": 4325,
      "ë®ĸ": 4326,
      "ë®Ĺ": 4327,
      "ë®ĺ": 4328,
      "ë®Ļ": 4329,
      "ë®ļ": 4330,
      "ë®Ľ": 4331,
      "ë®ľ": 4332,
      "ë®Ŀ": 4333,
      "ë®ŀ": 4334,
      "ë®Ł": 4335,
      "ë®ł": 4336,
      "ë®¡": 4337,
      "ë®¢": 4338,
      "ë®£": 4339,
      "ë®¤": 4340,
      "ë®¥": 4341,
      "ë®¦": 4342,
      "ë®§": 4343,
      "ë®¨": 4344,
      "ë®©": 4345,
      "ë®ª": 4346,
      "ë®«": 4347,
      "ë®¬": 4348,
      "ë®Ń": 4349,
      "ë®®": 4350,
      "ë®¯": 4351,
      "ë®°": 4352,
      "ë®±": 4353,
      "ë®²": 4354,
      "ë®³": 4355,
      "ë®´": 4356,
      "ë®µ": 4357,
      "ë®¶": 4358,
      "ë®·": 4359,
      "ë®¸": 4360,
      "ë®¹": 4361,
      "ë®º": 4362,
      "ë®»": 4363,
      "ë®¼": 4364,
      "ë®½": 4365,
      "ë®¾": 4366,
      "ë®¿": 4367,
      "ë¯": 4368,
      "ë¯Ģ": 4369,
      "ë¯ģ": 4370,
      "ë¯Ĥ": 4371,
      "ë¯ĥ": 4372,
      "ë¯Ħ": 4373,
      "ë¯ħ": 4374,
      "ë¯Ĩ": 4375,
      "ë¯ĩ": 4376,
      "ë¯Ī": 4377,
      "ë¯ī": 4378,
      "ë¯Ĭ": 4379,
      "ë¯ĭ": 4380,
      "ë¯Į": 4381,
      "ë¯į": 4382,
      "ë¯İ": 4383,
      "ë¯ı": 4384,
      "ë¯Ĳ": 4385,
      "ë¯ĳ": 4386,
      "ë¯Ĵ": 4387,
      "ë¯ĵ": 4388,
      "ë¯Ķ": 4389,
      "ë¯ķ": 4390,
      "ë¯ĸ": 4391,
      "ë¯Ĺ": 4392,
      "ë¯ĺ": 4393,
      "ë¯Ļ": 4394,
      "ë¯ļ": 4395,
      "ë¯Ľ": 4396,
      "ë¯ľ": 4397,
      "ë¯Ŀ": 4398,
      "ë¯ŀ": 4399,
      "ë¯Ł": 4400,
      "ë¯ł": 4401,
      "ë¯¡": 4402,
      "ë¯¢": 4403,
      "ë¯£": 4404,
      "ë¯¤": 4405,
      "ë¯¥": 4406,
      "ë¯¦": 4407,
      "ë¯§": 4408,
      "ë¯¨": 4409,
      "ë¯©": 4410,
      "ë¯ª": 4411,
      "ë¯«": 4412,
      "ë¯¬": 4413,
      "ë¯Ń": 4414,
      "ë¯®": 4415,
      "ë¯¯": 4416,
      "ë¯°": 4417,
      "ë¯±": 4418,
      "ë¯²": 4419,
      "ë¯³": 4420,
      "ë¯´": 4421,
      "ë¯µ": 4422,
      "ë¯¶": 4423,
      "ë¯·": 4424,
      "ë¯¸": 4425,
      "ë¯¹": 4426,
      "ë¯º": 4427,
      "ë¯»": 4428,
      "ë¯¼": 4429,
      "ë¯½": 4430,
      "ë¯¾": 4431,
      "ë¯¿": 4432,
      "ë°": 4433,
      "ë°Ģ": 4434,
      "ë°ģ": 4435,
      "ë°Ĥ": 4436,
      "ë°ĥ": 4437,
      "ë°Ħ": 4438,
      "ë°ħ": 4439,
      "ë°Ĩ": 4440,
      "ë°ĩ": 4441,
      "ë°Ī": 4442,
      "ë°ī": 4443,
      "ë°Ĭ": 4444,
      "ë°ĭ": 4445,
      "ë°Į": 4446,
      "ë°į": 4447,
      "ë°İ": 4448,
      "ë°ı": 4449,
      "ë°Ĳ": 4450,
      "ë°ĳ": 4451,
      "ë°Ĵ": 4452,
      "ë°ĵ": 4453,
      "ë°Ķ": 4454,
      "ë°ķ": 4455,
      "ë°ĸ": 4456,
      "ë°Ĺ": 4457,
      "ë°ĺ": 4458,
      "ë°Ļ": 4459,
      "ë°ļ": 4460,
      "ë°Ľ": 4461,
      "ë°ľ": 4462,
      "ë°Ŀ": 4463,
      "ë°ŀ": 4464,
      "ë°Ł": 4465,
      "ë°ł": 4466,
      "ë°¡": 4467,
      "ë°¢": 4468,
      "ë°£": 4469,
      "ë°¤": 4470,
      "ë°¥": 4471,
      "ë°¦": 4472,
      "ë°§": 4473,
      "ë°¨": 4474,
      "ë°©": 4475,
      "ë°ª": 4476,
      "ë°«": 4477,
      "ë°¬": 4478,
      "ë°Ń": 4479,
      "ë°®": 4480,
      "ë°¯": 4481,
      "ë°°": 4482,
      "ë°±": 4483,
      "ë°²": 4484,
      "ë°³": 4485,
      "ë°´": 4486,
      "ë°µ": 4487,
      "ë°¶": 4488,
      "ë°·": 4489,
      "ë°¸": 4490,
      "ë°¹": 4491,
      "ë°º": 4492,
      "ë°»": 4493,
      "ë°¼": 4494,
      "ë°½": 4495,
      "ë°¾": 4496,
      "ë°¿": 4497,
      "ë±": 4498,
      "ë±Ģ": 4499,
      "ë±ģ": 4500,
      "ë±Ĥ": 4501,
      "ë±ĥ": 4502,
      "ë±Ħ": 4503,
      "ë±ħ": 4504,
      "ë±Ĩ": 4505,
      "ë±ĩ": 4506,
      "ë±Ī": 4507,
      "ë±ī": 4508,
      "ë±Ĭ": 4509,
      "ë±ĭ": 4510,
      "ë±Į": 4511,
      "ë±į": 4512,
      "ë±İ": 4513,
      "ë±ı": 4514,
      "ë±Ĳ": 4515,
      "ë±ĳ": 4516,
      "ë±Ĵ": 4517,
      "ë±ĵ": 4518,
      "ë±Ķ": 4519,
      "ë±ķ": 4520,
      "ë±ĸ": 4521,
      "ë±Ĺ": 4522,
      "ë±ĺ": 4523,
      "ë±Ļ": 4524,
      "ë±ļ": 4525,
      "ë±Ľ": 4526,
      "ë±ľ": 4527,
      "ë±Ŀ": 4528,
      "ë±ŀ": 4529,
      "ë±Ł": 4530,
      "ë±ł": 4531,
      "ë±¡": 4532,
      "ë±¢": 4533,
      "ë±£": 4534,
      "ë±¤": 4535,
      "ë±¥": 4536,
      "ë±¦": 4537,
      "ë±§": 4538,
      "ë±¨": 4539,
      "ë±©": 4540,
      "ë±ª": 4541,
      "ë±«": 4542,
      "ë±¬": 4543,
      "ë±Ń": 4544,
      "ë±®": 4545,
      "ë±¯": 4546,
      "ë±°": 4547,
      "ë±±": 4548,
      "ë±²": 4549,
      "ë±³": 4550,
      "ë±´": 4551,
      "ë±µ": 4552,
      "ë±¶": 4553,
      "ë±·": 4554,
      "ë±¸": 4555,
      "ë±¹": 4556,
      "ë±º": 4557,
      "ë±»": 4558,
      "ë±¼": 4559,
      "ë±½": 4560,
      "ë±¾": 4561,
      "ë±¿": 4562,
      "ë²": 4563,
      "ë²Ģ": 4564,
      "ë²ģ": 4565,
      "ë²Ĥ": 4566,
      "ë²ĥ": 4567,
      "ë²Ħ": 4568,
      "ë²ħ": 4569,
      "ë²Ĩ": 4570,
      "ë²ĩ": 4571,
      "ë²Ī": 4572,
      "ë²ī": 4573,
      "ë²Ĭ": 4574,
      "ë²ĭ": 4575,
      "ë²Į": 4576,
      "ë²į": 4577,
      "ë²İ": 4578,
      "ë²ı": 4579,
      "ë²Ĳ": 4580,
      "ë²ĳ": 4581,
      "ë²Ĵ": 4582,
      "ë²ĵ": 4583,
      "ë²Ķ": 4584,
      "ë²ķ": 4585,
      "ë²ĸ": 4586,
      "ë²Ĺ": 4587,
      "ë²ĺ": 4588,
      "ë²Ļ": 4589,
      "ë²ļ": 4590,
      "ë²Ľ": 4591,
      "ë²ľ": 4592,
      "ë²Ŀ": 4593,
      "ë²ŀ": 4594,
      "ë²Ł": 4595,
      "ë²ł": 4596,
      "ë²¡": 4597,
      "ë²¢": 4598,
      "ë²£": 4599,
      "ë²¤": 4600,
      "ë²¥": 4601,
      "ë²¦": 4602,
      "ë²§": 4603,
      "ë²¨": 4604,
      "ë²©": 4605,
      "ë²ª": 4606,
      "ë²«": 4607,
      "ë²¬": 4608,
      "ë²Ń": 4609,
      "ë²®": 4610,
      "ë²¯": 4611,
      "ë²°": 4612,
      "ë²±": 4613,
      "ë²²": 4614,
      "ë²³": 4615,
      "ë²´": 4616,
      "ë²µ": 4617,
      "ë²¶": 4618,
      "ë²·": 4619,
      "ë²¸": 4620,
      "ë²¹": 4621,
      "ë²º": 4622,
      "ë²»": 4623,
      "ë²¼": 4624,
      "ë²½": 4625,
      "ë²¾": 4626,
      "ë²¿": 4627,
      "ë³": 4628,
      "ë³Ģ": 4629,
      "ë³ģ": 4630,
      "ë³Ĥ": 4631,
      "ë³ĥ": 4632,
      "ë³Ħ": 4633,
      "ë³ħ": 4634,
      "ë³Ĩ": 4635,
      "ë³ĩ": 4636,
      "ë³Ī": 4637,
      "ë³ī": 4638,
      "ë³Ĭ": 4639,
      "ë³ĭ": 4640,
      "ë³Į": 4641,
      "ë³į": 4642,
      "ë³İ": 4643,
      "ë³ı": 4644,
      "ë³Ĳ": 4645,
      "ë³ĳ": 4646,
      "ë³Ĵ": 4647,
      "ë³ĵ": 4648,
      "ë³Ķ": 4649,
      "ë³ķ": 4650,
      "ë³ĸ": 4651,
      "ë³Ĺ": 4652,
      "ë³ĺ": 4653,
      "ë³Ļ": 4654,
      "ë³ļ": 4655,
      "ë³Ľ": 4656,
      "ë³ľ": 4657,
      "ë³Ŀ": 4658,
      "ë³ŀ": 4659,
      "ë³Ł": 4660,
      "ë³ł": 4661,
      "ë³¡": 4662,
      "ë³¢": 4663,
      "ë³£": 4664,
      "ë³¤": 4665,
      "ë³¥": 4666,
      "ë³¦": 4667,
      "ë³§": 4668,
      "ë³¨": 4669,
      "ë³©": 4670,
      "ë³ª": 4671,
      "ë³«": 4672,
      "ë³¬": 4673,
      "ë³Ń": 4674,
      "ë³®": 4675,
      "ë³¯": 4676,
      "ë³°": 4677,
      "ë³±": 4678,
      "ë³²": 4679,
      "ë³³": 4680,
      "ë³´": 4681,
      "ë³µ": 4682,
      "ë³¶": 4683,
      "ë³·": 4684,
      "ë³¸": 4685,
      "ë³¹": 4686,
      "ë³º": 4687,
      "ë³»": 4688,
      "ë³¼": 4689,
      "ë³½": 4690,
      "ë³¾": 4691,
      "ë³¿": 4692,
      "ë´": 4693,
      "ë´Ģ": 4694,
      "ë´ģ": 4695,
      "ë´Ĥ": 4696,
      "ë´ĥ": 4697,
      "ë´Ħ": 4698,
      "ë´ħ": 4699,
      "ë´Ĩ": 4700,
      "ë´ĩ": 4701,
      "ë´Ī": 4702,
      "ë´ī": 4703,
      "ë´Ĭ": 4704,
      "ë´ĭ": 4705,
      "ë´Į": 4706,
      "ë´į": 4707,
      "ë´İ": 4708,
      "ë´ı": 4709,
      "ë´Ĳ": 4710,
      "ë´ĳ": 4711,
      "ë´Ĵ": 4712,
      "ë´ĵ": 4713,
      "ë´Ķ": 4714,
      "ë´ķ": 4715,
      "ë´ĸ": 4716,
      "ë´Ĺ": 4717,
      "ë´ĺ": 4718,
      "ë´Ļ": 4719,
      "ë´ļ": 4720,
      "ë´Ľ": 4721,
      "ë´ľ": 4722,
      "ë´Ŀ": 4723,
      "ë´ŀ": 4724,
      "ë´Ł": 4725,
      "ë´ł": 4726,
      "ë´¡": 4727,
      "ë´¢": 4728,
      "ë´£": 4729,
      "ë´¤": 4730,
      "ë´¥": 4731,
      "ë´¦": 4732,
      "ë´§": 4733,
      "ë´¨": 4734,
      "ë´©": 4735,
      "ë´ª": 4736,
      "ë´«": 4737,
      "ë´¬": 4738,
      "ë´Ń": 4739,
      "ë´®": 4740,
      "ë´¯": 4741,
      "ë´°": 4742,
      "ë´±": 4743,
      "ë´²": 4744,
      "ë´³": 4745,
      "ë´´": 4746,
      "ë´µ": 4747,
      "ë´¶": 4748,
      "ë´·": 4749,
      "ë´¸": 4750,
      "ë´¹": 4751,
      "ë´º": 4752,
      "ë´»": 4753,
      "ë´¼": 4754,
      "ë´½": 4755,
      "ë´¾": 4756,
      "ë´¿": 4757,
      "ëµ": 4758,
      "ëµĢ": 4759,
      "ëµģ": 4760,
      "ëµĤ": 4761,
      "ëµĥ": 4762,
      "ëµĦ": 4763,
      "ëµħ": 4764,
      "ëµĨ": 4765,
      "ëµĩ": 4766,
      "ëµĪ": 4767,
      "ëµī": 4768,
      "ëµĬ": 4769,
      "ëµĭ": 4770,
      "ëµĮ": 4771,
      "ëµį": 4772,
      "ëµİ": 4773,
      "ëµı": 4774,
      "ëµĲ": 4775,
      "ëµĳ": 4776,
      "ëµĴ": 4777,
      "ëµĵ": 4778,
      "ëµĶ": 4779,
      "ëµķ": 4780,
      "ëµĸ": 4781,
      "ëµĹ": 4782,
      "ëµĺ": 4783,
      "ëµĻ": 4784,
      "ëµļ": 4785,
      "ëµĽ": 4786,
      "ëµľ": 4787,
      "ëµĿ": 4788,
      "ëµŀ": 4789,
      "ëµŁ": 4790,
      "ëµł": 4791,
      "ëµ¡": 4792,
      "ëµ¢": 4793,
      "ëµ£": 4794,
      "ëµ¤": 4795,
      "ëµ¥": 4796,
      "ëµ¦": 4797,
      "ëµ§": 4798,
      "ëµ¨": 4799,
      "ëµ©": 4800,
      "ëµª": 4801,
      "ëµ«": 4802,
      "ëµ¬": 4803,
      "ëµŃ": 4804,
      "ëµ®": 4805,
      "ëµ¯": 4806,
      "ëµ°": 4807,
      "ëµ±": 4808,
      "ëµ²": 4809,
      "ëµ³": 4810,
      "ëµ´": 4811,
      "ëµµ": 4812,
      "ëµ¶": 4813,
      "ëµ·": 4814,
      "ëµ¸": 4815,
      "ëµ¹": 4816,
      "ëµº": 4817,
      "ëµ»": 4818,
      "ëµ¼": 4819,
      "ëµ½": 4820,
      "ëµ¾": 4821,
      "ëµ¿": 4822,
      "ë¶": 4823,
      "ë¶Ģ": 4824,
      "ë¶ģ": 4825,
      "ë¶Ĥ": 4826,
      "ë¶ĥ": 4827,
      "ë¶Ħ": 4828,
      "ë¶ħ": 4829,
      "ë¶Ĩ": 4830,
      "ë¶ĩ": 4831,
      "ë¶Ī": 4832,
      "ë¶ī": 4833,
      "ë¶Ĭ": 4834,
      "ë¶ĭ": 4835,
      "ë¶Į": 4836,
      "ë¶į": 4837,
      "ë¶İ": 4838,
      "ë¶ı": 4839,
      "ë¶Ĳ": 4840,
      "ë¶ĳ": 4841,
      "ë¶Ĵ": 4842,
      "ë¶ĵ": 4843,
      "ë¶Ķ": 4844,
      "ë¶ķ": 4845,
      "ë¶ĸ": 4846,
      "ë¶Ĺ": 4847,
      "ë¶ĺ": 4848,
      "ë¶Ļ": 4849,
      "ë¶ļ": 4850,
      "ë¶Ľ": 4851,
      "ë¶ľ": 4852,
      "ë¶Ŀ": 4853,
      "ë¶ŀ": 4854,
      "ë¶Ł": 4855,
      "ë¶ł": 4856,
      "ë¶¡": 4857,
      "ë¶¢": 4858,
      "ë¶£": 4859,
      "ë¶¤": 4860,
      "ë¶¥": 4861,
      "ë¶¦": 4862,
      "ë¶§": 4863,
      "ë¶¨": 4864,
      "ë¶©": 4865,
      "ë¶ª": 4866,
      "ë¶«": 4867,
      "ë¶¬": 4868,
      "ë¶Ń": 4869,
      "ë¶®": 4870,
      "ë¶¯": 4871,
      "ë¶°": 4872,
      "ë¶±": 4873,
      "ë¶²": 4874,
      "ë¶³": 4875,
      "ë¶´": 4876,
      "ë¶µ": 4877,
      "ë¶¶": 4878,
      "ë¶·": 4879,
      "ë¶¸": 4880,
      "ë¶¹": 4881,
      "ë¶º": 4882,
      "ë¶»": 4883,
      "ë¶¼": 4884,
      "ë¶½": 4885,
      "ë¶¾": 4886,
      "ë¶¿": 4887,
      "ë·": 4888,
      "ë·Ģ": 4889,
      "ë·ģ": 4890,
      "ë·Ĥ": 4891,
      "ë·ĥ": 4892,
      "ë·Ħ": 4893,
      "ë·ħ": 4894,
      "ë·Ĩ": 4895,
      "ë·ĩ": 4896,
      "ë·Ī": 4897,
      "ë·ī": 4898,
      "ë·Ĭ": 4899,
      "ë·ĭ": 4900,
      "ë·Į": 4901,
      "ë·į": 4902,
      "ë·İ": 4903,
      "ë·ı": 4904,
      "ë·Ĳ": 4905,
      "ë·ĳ": 4906,
      "ë·Ĵ": 4907,
      "ë·ĵ": 4908,
      "ë·Ķ": 4909,
      "ë·ķ": 4910,
      "ë·ĸ": 4911,
      "ë·Ĺ": 4912,
      "ë·ĺ": 4913,
      "ë·Ļ": 4914,
      "ë·ļ": 4915,
      "ë·Ľ": 4916,
      "ë·ľ": 4917,
      "ë·Ŀ": 4918,
      "ë·ŀ": 4919,
      "ë·Ł": 4920,
      "ë·ł": 4921,
      "ë·¡": 4922,
      "ë·¢": 4923,
      "ë·£": 4924,
      "ë·¤": 4925,
      "ë·¥": 4926,
      "ë·¦": 4927,
      "ë·§": 4928,
      "ë·¨": 4929,
      "ë·©": 4930,
      "ë·ª": 4931,
      "ë·«": 4932,
      "ë·¬": 4933,
      "ë·Ń": 4934,
      "ë·®": 4935,
      "ë·¯": 4936,
      "ë·°": 4937,
      "ë·±": 4938,
      "ë·²": 4939,
      "ë·³": 4940,
      "ë·´": 4941,
      "ë·µ": 4942,
      "ë·¶": 4943,
      "ë··": 4944,
      "ë·¸": 4945,
      "ë·¹": 4946,
      "ë·º": 4947,
      "ë·»": 4948,
      "ë·¼": 4949,
      "ë·½": 4950,
      "ë·¾": 4951,
      "ë·¿": 4952,
      "ë¸": 4953,
      "ë¸Ģ": 4954,
      "ë¸ģ": 4955,
      "ë¸Ĥ": 4956,
      "ë¸ĥ": 4957,
      "ë¸Ħ": 4958,
      "ë¸ħ": 4959,
      "ë¸Ĩ": 4960,
      "ë¸ĩ": 4961,
      "ë¸Ī": 4962,
      "ë¸ī": 4963,
      "ë¸Ĭ": 4964,
      "ë¸ĭ": 4965,
      "ë¸Į": 4966,
      "ë¸į": 4967,
      "ë¸İ": 4968,
      "ë¸ı": 4969,
      "ë¸Ĳ": 4970,
      "ë¸ĳ": 4971,
      "ë¸Ĵ": 4972,
      "ë¸ĵ": 4973,
      "ë¸Ķ": 4974,
      "ë¸ķ": 4975,
      "ë¸ĸ": 4976,
      "ë¸Ĺ": 4977,
      "ë¸ĺ": 4978,
      "ë¸Ļ": 4979,
      "ë¸ļ": 4980,
      "ë¸Ľ": 4981,
      "ë¸ľ": 4982,
      "ë¸Ŀ": 4983,
      "ë¸ŀ": 4984,
      "ë¸Ł": 4985,
      "ë¸ł": 4986,
      "ë¸¡": 4987,
      "ë¸¢": 4988,
      "ë¸£": 4989,
      "ë¸¤": 4990,
      "ë¸¥": 4991,
      "ë¸¦": 4992,
      "ë¸§": 4993,
      "ë¸¨": 4994,
      "ë¸©": 4995,
      "ë¸ª": 4996,
      "ë¸«": 4997,
      "ë¸¬": 4998,
      "ë¸Ń": 4999,
      "ë¸®": 5000,
      "ë¸¯": 5001,
      "ë¸°": 5002,
      "ë¸±": 5003,
      "ë¸²": 5004,
      "ë¸³": 5005,
      "ë¸´": 5006,
      "ë¸µ": 5007,
      "ë¸¶": 5008,
      "ë¸·": 5009,
      "ë¸¸": 5010,
      "ë¸¹": 5011,
      "ë¸º": 5012,
      "ë¸»": 5013,
      "ë¸¼": 5014,
      "ë¸½": 5015,
      "ë¸¾": 5016,
      "ë¸¿": 5017,
      "ë¹": 5018,
      "ë¹Ģ": 5019,
      "ë¹ģ": 5020,
      "ë¹Ĥ": 5021,
      "ë¹ĥ": 5022,
      "ë¹Ħ": 5023,
      "ë¹ħ": 5024,
      "ë¹Ĩ": 5025,
      "ë¹ĩ": 5026,
      "ë¹Ī": 5027,
      "ë¹ī": 5028,
      "ë¹Ĭ": 5029,
      "ë¹ĭ": 5030,
      "ë¹Į": 5031,
      "ë¹į": 5032,
      "ë¹İ": 5033,
      "ë¹ı": 5034,
      "ë¹Ĳ": 5035,
      "ë¹ĳ": 5036,
      "ë¹Ĵ": 5037,
      "ë¹ĵ": 5038,
      "ë¹Ķ": 5039,
      "ë¹ķ": 5040,
      "ë¹ĸ": 5041,
      "ë¹Ĺ": 5042,
      "ë¹ĺ": 5043,
      "ë¹Ļ": 5044,
      "ë¹ļ": 5045,
      "ë¹Ľ": 5046,
      "ë¹ľ": 5047,
      "ë¹Ŀ": 5048,
      "ë¹ŀ": 5049,
      "ë¹Ł": 5050,
      "ë¹ł": 5051,
      "ë¹¡": 5052,
      "ë¹¢": 5053,
      "ë¹£": 5054,
      "ë¹¤": 5055,
      "ë¹¥": 5056,
      "ë¹¦": 5057,
      "ë¹§": 5058,
      "ë¹¨": 5059,
      "ë¹©": 5060,
      "ë¹ª": 5061,
      "ë¹«": 5062,
      "ë¹¬": 5063,
      "ë¹Ń": 5064,
      "ë¹®": 5065,
      "ë¹¯": 5066,
      "ë¹°": 5067,
      "ë¹±": 5068,
      "ë¹²": 5069,
      "ë¹³": 5070,
      "ë¹´": 5071,
      "ë¹µ": 5072,
      "ë¹¶": 5073,
      "ë¹·": 5074,
      "ë¹¸": 5075,
      "ë¹¹": 5076,
      "ë¹º": 5077,
      "ë¹»": 5078,
      "ë¹¼": 5079,
      "ë¹½": 5080,
      "ë¹¾": 5081,
      "ë¹¿": 5082,
      "ëº": 5083,
      "ëºĢ": 5084,
      "ëºģ": 5085,
      "ëºĤ": 5086,
      "ëºĥ": 5087,
      "ëºĦ": 5088,
      "ëºħ": 5089,
      "ëºĨ": 5090,
      "ëºĩ": 5091,
      "ëºĪ": 5092,
      "ëºī": 5093,
      "ëºĬ": 5094,
      "ëºĭ": 5095,
      "ëºĮ": 5096,
      "ëºį": 5097,
      "ëºİ": 5098,
      "ëºı": 5099,
      "ëºĲ": 5100,
      "ëºĳ": 5101,
      "ëºĴ": 5102,
      "ëºĵ": 5103,
      "ëºĶ": 5104,
      "ëºķ": 5105,
      "ëºĸ": 5106,
      "ëºĹ": 5107,
      "ëºĺ": 5108,
      "ëºĻ": 5109,
      "ëºļ": 5110,
      "ëºĽ": 5111,
      "ëºľ": 5112,
      "ëºĿ": 5113,
      "ëºŀ": 5114,
      "ëºŁ": 5115,
      "ëºł": 5116,
      "ëº¡": 5117,
      "ëº¢": 5118,
      "ëº£": 5119,
      "ëº¤": 5120,
      "ëº¥": 5121,
      "ëº¦": 5122,
      "ëº§": 5123,
      "ëº¨": 5124,
      "ëº©": 5125,
      "ëºª": 5126,
      "ëº«": 5127,
      "ëº¬": 5128,
      "ëºŃ": 5129,
      "ëº®": 5130,
      "ëº¯": 5131,
      "ëº°": 5132,
      "ëº±": 5133,
      "ëº²": 5134,
      "ëº³": 5135,
      "ëº´": 5136,
      "ëºµ": 5137,
      "ëº¶": 5138,
      "ëº·": 5139,
      "ëº¸": 5140,
      "ëº¹": 5141,
      "ëºº": 5142,
      "ëº»": 5143,
      "ëº¼": 5144,
      "ëº½": 5145,
      "ëº¾": 5146,
      "ëº¿": 5147,
      "ë»": 5148,
      "ë»Ģ": 5149,
      "ë»ģ": 5150,
      "ë»Ĥ": 5151,
      "ë»ĥ": 5152,
      "ë»Ħ": 5153,
      "ë»ħ": 5154,
      "ë»Ĩ": 5155,
      "ë»ĩ": 5156,
      "ë»Ī": 5157,
      "ë»ī": 5158,
      "ë»Ĭ": 5159,
      "ë»ĭ": 5160,
      "ë»Į": 5161,
      "ë»į": 5162,
      "ë»İ": 5163,
      "ë»ı": 5164,
      "ë»Ĳ": 5165,
      "ë»ĳ": 5166,
      "ë»Ĵ": 5167,
      "ë»ĵ": 5168,
      "ë»Ķ": 5169,
      "ë»ķ": 5170,
      "ë»ĸ": 5171,
      "ë»Ĺ": 5172,
      "ë»ĺ": 5173,
      "ë»Ļ": 5174,
      "ë»ļ": 5175,
      "ë»Ľ": 5176,
      "ë»ľ": 5177,
      "ë»Ŀ": 5178,
      "ë»ŀ": 5179,
      "ë»Ł": 5180,
      "ë»ł": 5181,
      "ë»¡": 5182,
      "ë»¢": 5183,
      "ë»£": 5184,
      "ë»¤": 5185,
      "ë»¥": 5186,
      "ë»¦": 5187,
      "ë»§": 5188,
      "ë»¨": 5189,
      "ë»©": 5190,
      "ë»ª": 5191,
      "ë»«": 5192,
      "ë»¬": 5193,
      "ë»Ń": 5194,
      "ë»®": 5195,
      "ë»¯": 5196,
      "ë»°": 5197,
      "ë»±": 5198,
      "ë»²": 5199,
      "ë»³": 5200,
      "ë»´": 5201,
      "ë»µ": 5202,
      "ë»¶": 5203,
      "ë»·": 5204,
      "ë»¸": 5205,
      "ë»¹": 5206,
      "ë»º": 5207,
      "ë»»": 5208,
      "ë»¼": 5209,
      "ë»½": 5210,
      "ë»¾": 5211,
      "ë»¿": 5212,
      "ë¼": 5213,
      "ë¼Ģ": 5214,
      "ë¼ģ": 5215,
      "ë¼Ĥ": 5216,
      "ë¼ĥ": 5217,
      "ë¼Ħ": 5218,
      "ë¼ħ": 5219,
      "ë¼Ĩ": 5220,
      "ë¼ĩ": 5221,
      "ë¼Ī": 5222,
      "ë¼ī": 5223,
      "ë¼Ĭ": 5224,
      "ë¼ĭ": 5225,
      "ë¼Į": 5226,
      "ë¼į": 5227,
      "ë¼İ": 5228,
      "ë¼ı": 5229,
      "ë¼Ĳ": 5230,
      "ë¼ĳ": 5231,
      "ë¼Ĵ": 5232,
      "ë¼ĵ": 5233,
      "ë¼Ķ": 5234,
      "ë¼ķ": 5235,
      "ë¼ĸ": 5236,
      "ë¼Ĺ": 5237,
      "ë¼ĺ": 5238,
      "ë¼Ļ": 5239,
      "ë¼ļ": 5240,
      "ë¼Ľ": 5241,
      "ë¼ľ": 5242,
      "ë¼Ŀ": 5243,
      "ë¼ŀ": 5244,
      "ë¼Ł": 5245,
      "ë¼ł": 5246,
      "ë¼¡": 5247,
      "ë¼¢": 5248,
      "ë¼£": 5249,
      "ë¼¤": 5250,
      "ë¼¥": 5251,
      "ë¼¦": 5252,
      "ë¼§": 5253,
      "ë¼¨": 5254,
      "ë¼©": 5255,
      "ë¼ª": 5256,
      "ë¼«": 5257,
      "ë¼¬": 5258,
      "ë¼Ń": 5259,
      "ë¼®": 5260,
      "ë¼¯": 5261,
      "ë¼°": 5262,
      "ë¼±": 5263,
      "ë¼²": 5264,
      "ë¼³": 5265,
      "ë¼´": 5266,
      "ë¼µ": 5267,
      "ë¼¶": 5268,
      "ë¼·": 5269,
      "ë¼¸": 5270,
      "ë¼¹": 5271,
      "ë¼º": 5272,
      "ë¼»": 5273,
      "ë¼¼": 5274,
      "ë¼½": 5275,
      "ë¼¾": 5276,
      "ë¼¿": 5277,
      "ë½": 5278,
      "ë½Ģ": 5279,
      "ë½ģ": 5280,
      "ë½Ĥ": 5281,
      "ë½ĥ": 5282,
      "ë½Ħ": 5283,
      "ë½ħ": 5284,
      "ë½Ĩ": 5285,
      "ë½ĩ": 5286,
      "ë½Ī": 5287,
      "ë½ī": 5288,
      "ë½Ĭ": 5289,
      "ë½ĭ": 5290,
      "ë½Į": 5291,
      "ë½į": 5292,
      "ë½İ": 5293,
      "ë½ı": 5294,
      "ë½Ĳ": 5295,
      "ë½ĳ": 5296,
      "ë½Ĵ": 5297,
      "ë½ĵ": 5298,
      "ë½Ķ": 5299,
      "ë½ķ": 5300,
      "ë½ĸ": 5301,
      "ë½Ĺ": 5302,
      "ë½ĺ": 5303,
      "ë½Ļ": 5304,
      "ë½ļ": 5305,
      "ë½Ľ": 5306,
      "ë½ľ": 5307,
      "ë½Ŀ": 5308,
      "ë½ŀ": 5309,
      "ë½Ł": 5310,
      "ë½ł": 5311,
      "ë½¡": 5312,
      "ë½¢": 5313,
      "ë½£": 5314,
      "ë½¤": 5315,
      "ë½¥": 5316,
      "ë½¦": 5317,
      "ë½§": 5318,
      "ë½¨": 5319,
      "ë½©": 5320,
      "ë½ª": 5321,
      "ë½«": 5322,
      "ë½¬": 5323,
      "ë½Ń": 5324,
      "ë½®": 5325,
      "ë½¯": 5326,
      "ë½°": 5327,
      "ë½±": 5328,
      "ë½²": 5329,
      "ë½³": 5330,
      "ë½´": 5331,
      "ë½µ": 5332,
      "ë½¶": 5333,
      "ë½·": 5334,
      "ë½¸": 5335,
      "ë½¹": 5336,
      "ë½º": 5337,
      "ë½»": 5338,
      "ë½¼": 5339,
      "ë½½": 5340,
      "ë½¾": 5341,
      "ë½¿": 5342,
      "ë¾": 5343,
      "ë¾Ģ": 5344,
      "ë¾ģ": 5345,
      "ë¾Ĥ": 5346,
      "ë¾ĥ": 5347,
      "ë¾Ħ": 5348,
      "ë¾ħ": 5349,
      "ë¾Ĩ": 5350,
      "ë¾ĩ": 5351,
      "ë¾Ī": 5352,
      "ë¾ī": 5353,
      "ë¾Ĭ": 5354,
      "ë¾ĭ": 5355,
      "ë¾Į": 5356,
      "ë¾į": 5357,
      "ë¾İ": 5358,
      "ë¾ı": 5359,
      "ë¾Ĳ": 5360,
      "ë¾ĳ": 5361,
      "ë¾Ĵ": 5362,
      "ë¾ĵ": 5363,
      "ë¾Ķ": 5364,
      "ë¾ķ": 5365,
      "ë¾ĸ": 5366,
      "ë¾Ĺ": 5367,
      "ë¾ĺ": 5368,
      "ë¾Ļ": 5369,
      "ë¾ļ": 5370,
      "ë¾Ľ": 5371,
      "ë¾ľ": 5372,
      "ë¾Ŀ": 5373,
      "ë¾ŀ": 5374,
      "ë¾Ł": 5375,
      "ë¾ł": 5376,
      "ë¾¡": 5377,
      "ë¾¢": 5378,
      "ë¾£": 5379,
      "ë¾¤": 5380,
      "ë¾¥": 5381,
      "ë¾¦": 5382,
      "ë¾§": 5383,
      "ë¾¨": 5384,
      "ë¾©": 5385,
      "ë¾ª": 5386,
      "ë¾«": 5387,
      "ë¾¬": 5388,
      "ë¾Ń": 5389,
      "ë¾®": 5390,
      "ë¾¯": 5391,
      "ë¾°": 5392,
      "ë¾±": 5393,
      "ë¾²": 5394,
      "ë¾³": 5395,
      "ë¾´": 5396,
      "ë¾µ": 5397,
      "ë¾¶": 5398,
      "ë¾·": 5399,
      "ë¾¸": 5400,
      "ë¾¹": 5401,
      "ë¾º": 5402,
      "ë¾»": 5403,
      "ë¾¼": 5404,
      "ë¾½": 5405,
      "ë¾¾": 5406,
      "ë¾¿": 5407,
      "ë¿": 5408,
      "ë¿Ģ": 5409,
      "ë¿ģ": 5410,
      "ë¿Ĥ": 5411,
      "ë¿ĥ": 5412,
      "ë¿Ħ": 5413,
      "ë¿ħ": 5414,
      "ë¿Ĩ": 5415,
      "ë¿ĩ": 5416,
      "ë¿Ī": 5417,
      "ë¿ī": 5418,
      "ë¿Ĭ": 5419,
      "ë¿ĭ": 5420,
      "ë¿Į": 5421,
      "ë¿į": 5422,
      "ë¿İ": 5423,
      "ë¿ı": 5424,
      "ë¿Ĳ": 5425,
      "ë¿ĳ": 5426,
      "ë¿Ĵ": 5427,
      "ë¿ĵ": 5428,
      "ë¿Ķ": 5429,
      "ë¿ķ": 5430,
      "ë¿ĸ": 5431,
      "ë¿Ĺ": 5432,
      "ë¿ĺ": 5433,
      "ë¿Ļ": 5434,
      "ë¿ļ": 5435,
      "ë¿Ľ": 5436,
      "ë¿ľ": 5437,
      "ë¿Ŀ": 5438,
      "ë¿ŀ": 5439,
      "ë¿Ł": 5440,
      "ë¿ł": 5441,
      "ë¿¡": 5442,
      "ë¿¢": 5443,
      "ë¿£": 5444,
      "ë¿¤": 5445,
      "ë¿¥": 5446,
      "ë¿¦": 5447,
      "ë¿§": 5448,
      "ë¿¨": 5449,
      "ë¿©": 5450,
      "ë¿ª": 5451,
      "ë¿«": 5452,
      "ë¿¬": 5453,
      "ë¿Ń": 5454,
      "ë¿®": 5455,
      "ë¿¯": 5456,
      "ë¿°": 5457,
      "ë¿±": 5458,
      "ë¿²": 5459,
      "ë¿³": 5460,
      "ë¿´": 5461,
      "ë¿µ": 5462,
      "ë¿¶": 5463,
      "ë¿·": 5464,
      "ë¿¸": 5465,
      "ë¿¹": 5466,
      "ë¿º": 5467,
      "ë¿»": 5468,
      "ë¿¼": 5469,
      "ë¿½": 5470,
      "ë¿¾": 5471,
      "ë¿¿": 5472,
      "ìĢ": 5473,
      "ìĢĢ": 5474,
      "ìĢģ": 5475,
      "ìĢĤ": 5476,
      "ìĢĥ": 5477,
      "ìĢĦ": 5478,
      "ìĢħ": 5479,
      "ìĢĨ": 5480,
      "ìĢĩ": 5481,
      "ìĢĪ": 5482,
      "ìĢī": 5483,
      "ìĢĬ": 5484,
      "ìĢĭ": 5485,
      "ìĢĮ": 5486,
      "ìĢį": 5487,
      "ìĢİ": 5488,
      "ìĢı": 5489,
      "ìĢĲ": 5490,
      "ìĢĳ": 5491,
      "ìĢĴ": 5492,
      "ìĢĵ": 5493,
      "ìĢĶ": 5494,
      "ìĢķ": 5495,
      "ìĢĸ": 5496,
      "ìĢĹ": 5497,
      "ìĢĺ": 5498,
      "ìĢĻ": 5499,
      "ìĢļ": 5500,
      "ìĢĽ": 5501,
      "ìĢľ": 5502,
      "ìĢĿ": 5503,
      "ìĢŀ": 5504,
      "ìĢŁ": 5505,
      "ìĢł": 5506,
      "ìĢ¡": 5507,
      "ìĢ¢": 5508,
      "ìĢ£": 5509,
      "ìĢ¤": 5510,
      "ìĢ¥": 5511,
      "ìĢ¦": 5512,
      "ìĢ§": 5513,
      "ìĢ¨": 5514,
      "ìĢ©": 5515,
      "ìĢª": 5516,
      "ìĢ«": 5517,
      "ìĢ¬": 5518,
      "ìĢŃ": 5519,
      "ìĢ®": 5520,
      "ìĢ¯": 5521,
      "ìĢ°": 5522,
      "ìĢ±": 5523,
      "ìĢ²": 5524,
      "ìĢ³": 5525,
      "ìĢ´": 5526,
      "ìĢµ": 5527,
      "ìĢ¶": 5528,
      "ìĢ·": 5529,
      "ìĢ¸": 5530,
      "ìĢ¹": 5531,
      "ìĢº": 5532,
      "ìĢ»": 5533,
      "ìĢ¼": 5534,
      "ìĢ½": 5535,
      "ìĢ¾": 5536,
      "ìĢ¿": 5537,
      "ìģ": 5538,
      "ìģĢ": 5539,
      "ìģģ": 5540,
      "ìģĤ": 5541,
      "ìģĥ": 5542,
      "ìģĦ": 5543,
      "ìģħ": 5544,
      "ìģĨ": 5545,
      "ìģĩ": 5546,
      "ìģĪ": 5547,
      "ìģī": 5548,
      "ìģĬ": 5549,
      "ìģĭ": 5550,
      "ìģĮ": 5551,
      "ìģį": 5552,
      "ìģİ": 5553,
      "ìģı": 5554,
      "ìģĲ": 5555,
      "ìģĳ": 5556,
      "ìģĴ": 5557,
      "ìģĵ": 5558,
      "ìģĶ": 5559,
      "ìģķ": 5560,
      "ìģĸ": 5561,
      "ìģĹ": 5562,
      "ìģĺ": 5563,
      "ìģĻ": 5564,
      "ìģļ": 5565,
      "ìģĽ": 5566,
      "ìģľ": 5567,
      "ìģĿ": 5568,
      "ìģŀ": 5569,
      "ìģŁ": 5570,
      "ìģł": 5571,
      "ìģ¡": 5572,
      "ìģ¢": 5573,
      "ìģ£": 5574,
      "ìģ¤": 5575,
      "ìģ¥": 5576,
      "ìģ¦": 5577,
      "ìģ§": 5578,
      "ìģ¨": 5579,
      "ìģ©": 5580,
      "ìģª": 5581,
      "ìģ«": 5582,
      "ìģ¬": 5583,
      "ìģŃ": 5584,
      "ìģ®": 5585,
      "ìģ¯": 5586,
      "ìģ°": 5587,
      "ìģ±": 5588,
      "ìģ²": 5589,
      "ìģ³": 5590,
      "ìģ´": 5591,
      "ìģµ": 5592,
      "ìģ¶": 5593,
      "ìģ·": 5594,
      "ìģ¸": 5595,
      "ìģ¹": 5596,
      "ìģº": 5597,
      "ìģ»": 5598,
      "ìģ¼": 5599,
      "ìģ½": 5600,
      "ìģ¾": 5601,
      "ìģ¿": 5602,
      "ìĤ": 5603,
      "ìĤĢ": 5604,
      "ìĤģ": 5605,
      "ìĤĤ": 5606,
      "ìĤĥ": 5607,
      "ìĤĦ": 5608,
      "ìĤħ": 5609,
      "ìĤĨ": 5610,
      "ìĤĩ": 5611,
      "ìĤĪ": 5612,
      "ìĤī": 5613,
      "ìĤĬ": 5614,
      "ìĤĭ": 5615,
      "ìĤĮ": 5616,
      "ìĤį": 5617,
      "ìĤİ": 5618,
      "ìĤı": 5619,
      "ìĤĲ": 5620,
      "ìĤĳ": 5621,
      "ìĤĴ": 5622,
      "ìĤĵ": 5623,
      "ìĤĶ": 5624,
      "ìĤķ": 5625,
      "ìĤĸ": 5626,
      "ìĤĹ": 5627,
      "ìĤĺ": 5628,
      "ìĤĻ": 5629,
      "ìĤļ": 5630,
      "ìĤĽ": 5631,
      "ìĤľ": 5632,
      "ìĤĿ": 5633,
      "ìĤŀ": 5634,
      "ìĤŁ": 5635,
      "ìĤł": 5636,
      "ìĤ¡": 5637,
      "ìĤ¢": 5638,
      "ìĤ£": 5639,
      "ìĤ¤": 5640,
      "ìĤ¥": 5641,
      "ìĤ¦": 5642,
      "ìĤ§": 5643,
      "ìĤ¨": 5644,
      "ìĤ©": 5645,
      "ìĤª": 5646,
      "ìĤ«": 5647,
      "ìĤ¬": 5648,
      "ìĤŃ": 5649,
      "ìĤ®": 5650,
      "ìĤ¯": 5651,
      "ìĤ°": 5652,
      "ìĤ±": 5653,
      "ìĤ²": 5654,
      "ìĤ³": 5655,
      "ìĤ´": 5656,
      "ìĤµ": 5657,
      "ìĤ¶": 5658,
      "ìĤ·": 5659,
      "ìĤ¸": 5660,
      "ìĤ¹": 5661,
      "ìĤº": 5662,
      "ìĤ»": 5663,
      "ìĤ¼": 5664,
      "ìĤ½": 5665,
      "ìĤ¾": 5666,
      "ìĤ¿": 5667,
      "ìĥ": 5668,
      "ìĥĢ": 5669,
      "ìĥģ": 5670,
      "ìĥĤ": 5671,
      "ìĥĥ": 5672,
      "ìĥĦ": 5673,
      "ìĥħ": 5674,
      "ìĥĨ": 5675,
      "ìĥĩ": 5676,
      "ìĥĪ": 5677,
      "ìĥī": 5678,
      "ìĥĬ": 5679,
      "ìĥĭ": 5680,
      "ìĥĮ": 5681,
      "ìĥį": 5682,
      "ìĥİ": 5683,
      "ìĥı": 5684,
      "ìĥĲ": 5685,
      "ìĥĳ": 5686,
      "ìĥĴ": 5687,
      "ìĥĵ": 5688,
      "ìĥĶ": 5689,
      "ìĥķ": 5690,
      "ìĥĸ": 5691,
      "ìĥĹ": 5692,
      "ìĥĺ": 5693,
      "ìĥĻ": 5694,
      "ìĥļ": 5695,
      "ìĥĽ": 5696,
      "ìĥľ": 5697,
      "ìĥĿ": 5698,
      "ìĥŀ": 5699,
      "ìĥŁ": 5700,
      "ìĥł": 5701,
      "ìĥ¡": 5702,
      "ìĥ¢": 5703,
      "ìĥ£": 5704,
      "ìĥ¤": 5705,
      "ìĥ¥": 5706,
      "ìĥ¦": 5707,
      "ìĥ§": 5708,
      "ìĥ¨": 5709,
      "ìĥ©": 5710,
      "ìĥª": 5711,
      "ìĥ«": 5712,
      "ìĥ¬": 5713,
      "ìĥŃ": 5714,
      "ìĥ®": 5715,
      "ìĥ¯": 5716,
      "ìĥ°": 5717,
      "ìĥ±": 5718,
      "ìĥ²": 5719,
      "ìĥ³": 5720,
      "ìĥ´": 5721,
      "ìĥµ": 5722,
      "ìĥ¶": 5723,
      "ìĥ·": 5724,
      "ìĥ¸": 5725,
      "ìĥ¹": 5726,
      "ìĥº": 5727,
      "ìĥ»": 5728,
      "ìĥ¼": 5729,
      "ìĥ½": 5730,
      "ìĥ¾": 5731,
      "ìĥ¿": 5732,
      "ìĦ": 5733,
      "ìĦĢ": 5734,
      "ìĦģ": 5735,
      "ìĦĤ": 5736,
      "ìĦĥ": 5737,
      "ìĦĦ": 5738,
      "ìĦħ": 5739,
      "ìĦĨ": 5740,
      "ìĦĩ": 5741,
      "ìĦĪ": 5742,
      "ìĦī": 5743,
      "ìĦĬ": 5744,
      "ìĦĭ": 5745,
      "ìĦĮ": 5746,
      "ìĦį": 5747,
      "ìĦİ": 5748,
      "ìĦı": 5749,
      "ìĦĲ": 5750,
      "ìĦĳ": 5751,
      "ìĦĴ": 5752,
      "ìĦĵ": 5753,
      "ìĦĶ": 5754,
      "ìĦķ": 5755,
      "ìĦĸ": 5756,
      "ìĦĹ": 5757,
      "ìĦĺ": 5758,
      "ìĦĻ": 5759,
      "ìĦļ": 5760,
      "ìĦĽ": 5761,
      "ìĦľ": 5762,
      "ìĦĿ": 5763,
      "ìĦŀ": 5764,
      "ìĦŁ": 5765,
      "ìĦł": 5766,
      "ìĦ¡": 5767,
      "ìĦ¢": 5768,
      "ìĦ£": 5769,
      "ìĦ¤": 5770,
      "ìĦ¥": 5771,
      "ìĦ¦": 5772,
      "ìĦ§": 5773,
      "ìĦ¨": 5774,
      "ìĦ©": 5775,
      "ìĦª": 5776,
      "ìĦ«": 5777,
      "ìĦ¬": 5778,
      "ìĦŃ": 5779,
      "ìĦ®": 5780,
      "ìĦ¯": 5781,
      "ìĦ°": 5782,
      "ìĦ±": 5783,
      "ìĦ²": 5784,
      "ìĦ³": 5785,
      "ìĦ´": 5786,
      "ìĦµ": 5787,
      "ìĦ¶": 5788,
      "ìĦ·": 5789,
      "ìĦ¸": 5790,
      "ìĦ¹": 5791,
      "ìĦº": 5792,
      "ìĦ»": 5793,
      "ìĦ¼": 5794,
      "ìĦ½": 5795,
      "ìĦ¾": 5796,
      "ìĦ¿": 5797,
      "ìħ": 5798,
      "ìħĢ": 5799,
      "ìħģ": 5800,
      "ìħĤ": 5801,
      "ìħĥ": 5802,
      "ìħĦ": 5803,
      "ìħħ": 5804,
      "ìħĨ": 5805,
      "ìħĩ": 5806,
      "ìħĪ": 5807,
      "ìħī": 5808,
      "ìħĬ": 5809,
      "ìħĭ": 5810,
      "ìħĮ": 5811,
      "ìħį": 5812,
      "ìħİ": 5813,
      "ìħı": 5814,
      "ìħĲ": 5815,
      "ìħĳ": 5816,
      "ìħĴ": 5817,
      "ìħĵ": 5818,
      "ìħĶ": 5819,
      "ìħķ": 5820,
      "ìħĸ": 5821,
      "ìħĹ": 5822,
      "ìħĺ": 5823,
      "ìħĻ": 5824,
      "ìħļ": 5825,
      "ìħĽ": 5826,
      "ìħľ": 5827,
      "ìħĿ": 5828,
      "ìħŀ": 5829,
      "ìħŁ": 5830,
      "ìħł": 5831,
      "ìħ¡": 5832,
      "ìħ¢": 5833,
      "ìħ£": 5834,
      "ìħ¤": 5835,
      "ìħ¥": 5836,
      "ìħ¦": 5837,
      "ìħ§": 5838,
      "ìħ¨": 5839,
      "ìħ©": 5840,
      "ìħª": 5841,
      "ìħ«": 5842,
      "ìħ¬": 5843,
      "ìħŃ": 5844,
      "ìħ®": 5845,
      "ìħ¯": 5846,
      "ìħ°": 5847,
      "ìħ±": 5848,
      "ìħ²": 5849,
      "ìħ³": 5850,
      "ìħ´": 5851,
      "ìħµ": 5852,
      "ìħ¶": 5853,
      "ìħ·": 5854,
      "ìħ¸": 5855,
      "ìħ¹": 5856,
      "ìħº": 5857,
      "ìħ»": 5858,
      "ìħ¼": 5859,
      "ìħ½": 5860,
      "ìħ¾": 5861,
      "ìħ¿": 5862,
      "ìĨ": 5863,
      "ìĨĢ": 5864,
      "ìĨģ": 5865,
      "ìĨĤ": 5866,
      "ìĨĥ": 5867,
      "ìĨĦ": 5868,
      "ìĨħ": 5869,
      "ìĨĨ": 5870,
      "ìĨĩ": 5871,
      "ìĨĪ": 5872,
      "ìĨī": 5873,
      "ìĨĬ": 5874,
      "ìĨĭ": 5875,
      "ìĨĮ": 5876,
      "ìĨį": 5877,
      "ìĨİ": 5878,
      "ìĨı": 5879,
      "ìĨĲ": 5880,
      "ìĨĳ": 5881,
      "ìĨĴ": 5882,
      "ìĨĵ": 5883,
      "ìĨĶ": 5884,
      "ìĨķ": 5885,
      "ìĨĸ": 5886,
      "ìĨĹ": 5887,
      "ìĨĺ": 5888,
      "ìĨĻ": 5889,
      "ìĨļ": 5890,
      "ìĨĽ": 5891,
      "ìĨľ": 5892,
      "ìĨĿ": 5893,
      "ìĨŀ": 5894,
      "ìĨŁ": 5895,
      "ìĨł": 5896,
      "ìĨ¡": 5897,
      "ìĨ¢": 5898,
      "ìĨ£": 5899,
      "ìĨ¤": 5900,
      "ìĨ¥": 5901,
      "ìĨ¦": 5902,
      "ìĨ§": 5903,
      "ìĨ¨": 5904,
      "ìĨ©": 5905,
      "ìĨª": 5906,
      "ìĨ«": 5907,
      "ìĨ¬": 5908,
      "ìĨŃ": 5909,
      "ìĨ®": 5910,
      "ìĨ¯": 5911,
      "ìĨ°": 5912,
      "ìĨ±": 5913,
      "ìĨ²": 5914,
      "ìĨ³": 5915,
      "ìĨ´": 5916,
      "ìĨµ": 5917,
      "ìĨ¶": 5918,
      "ìĨ·": 5919,
      "ìĨ¸": 5920,
      "ìĨ¹": 5921,
      "ìĨº": 5922,
      "ìĨ»": 5923,
      "ìĨ¼": 5924,
      "ìĨ½": 5925,
      "ìĨ¾": 5926,
      "ìĨ¿": 5927,
      "ìĩ": 5928,
      "ìĩĢ": 5929,
      "ìĩģ": 5930,
      "ìĩĤ": 5931,
      "ìĩĥ": 5932,
      "ìĩĦ": 5933,
      "ìĩħ": 5934,
      "ìĩĨ": 5935,
      "ìĩĩ": 5936,
      "ìĩĪ": 5937,
      "ìĩī": 5938,
      "ìĩĬ": 5939,
      "ìĩĭ": 5940,
      "ìĩĮ": 5941,
      "ìĩį": 5942,
      "ìĩİ": 5943,
      "ìĩı": 5944,
      "ìĩĲ": 5945,
      "ìĩĳ": 5946,
      "ìĩĴ": 5947,
      "ìĩĵ": 5948,
      "ìĩĶ": 5949,
      "ìĩķ": 5950,
      "ìĩĸ": 5951,
      "ìĩĹ": 5952,
      "ìĩĺ": 5953,
      "ìĩĻ": 5954,
      "ìĩļ": 5955,
      "ìĩĽ": 5956,
      "ìĩľ": 5957,
      "ìĩĿ": 5958,
      "ìĩŀ": 5959,
      "ìĩŁ": 5960,
      "ìĩł": 5961,
      "ìĩ¡": 5962,
      "ìĩ¢": 5963,
      "ìĩ£": 5964,
      "ìĩ¤": 5965,
      "ìĩ¥": 5966,
      "ìĩ¦": 5967,
      "ìĩ§": 5968,
      "ìĩ¨": 5969,
      "ìĩ©": 5970,
      "ìĩª": 5971,
      "ìĩ«": 5972,
      "ìĩ¬": 5973,
      "ìĩŃ": 5974,
      "ìĩ®": 5975,
      "ìĩ¯": 5976,
      "ìĩ°": 5977,
      "ìĩ±": 5978,
      "ìĩ²": 5979,
      "ìĩ³": 5980,
      "ìĩ´": 5981,
      "ìĩµ": 5982,
      "ìĩ¶": 5983,
      "ìĩ·": 5984,
      "ìĩ¸": 5985,
      "ìĩ¹": 5986,
      "ìĩº": 5987,
      "ìĩ»": 5988,
      "ìĩ¼": 5989,
      "ìĩ½": 5990,
      "ìĩ¾": 5991,
      "ìĩ¿": 5992,
      "ìĪ": 5993,
      "ìĪĢ": 5994,
      "ìĪģ": 5995,
      "ìĪĤ": 5996,
      "ìĪĥ": 5997,
      "ìĪĦ": 5998,
      "ìĪħ": 5999,
      "ìĪĨ": 6000,
      "ìĪĩ": 6001,
      "ìĪĪ": 6002,
      "ìĪī": 6003,
      "ìĪĬ": 6004,
      "ìĪĭ": 6005,
      "ìĪĮ": 6006,
      "ìĪį": 6007,
      "ìĪİ": 6008,
      "ìĪı": 6009,
      "ìĪĲ": 6010,
      "ìĪĳ": 6011,
      "ìĪĴ": 6012,
      "ìĪĵ": 6013,
      "ìĪĶ": 6014,
      "ìĪķ": 6015,
      "ìĪĸ": 6016,
      "ìĪĹ": 6017,
      "ìĪĺ": 6018,
      "ìĪĻ": 6019,
      "ìĪļ": 6020,
      "ìĪĽ": 6021,
      "ìĪľ": 6022,
      "ìĪĿ": 6023,
      "ìĪŀ": 6024,
      "ìĪŁ": 6025,
      "ìĪł": 6026,
      "ìĪ¡": 6027,
      "ìĪ¢": 6028,
      "ìĪ£": 6029,
      "ìĪ¤": 6030,
      "ìĪ¥": 6031,
      "ìĪ¦": 6032,
      "ìĪ§": 6033,
      "ìĪ¨": 6034,
      "ìĪ©": 6035,
      "ìĪª": 6036,
      "ìĪ«": 6037,
      "ìĪ¬": 6038,
      "ìĪŃ": 6039,
      "ìĪ®": 6040,
      "ìĪ¯": 6041,
      "ìĪ°": 6042,
      "ìĪ±": 6043,
      "ìĪ²": 6044,
      "ìĪ³": 6045,
      "ìĪ´": 6046,
      "ìĪµ": 6047,
      "ìĪ¶": 6048,
      "ìĪ·": 6049,
      "ìĪ¸": 6050,
      "ìĪ¹": 6051,
      "ìĪº": 6052,
      "ìĪ»": 6053,
      "ìĪ¼": 6054,
      "ìĪ½": 6055,
      "ìĪ¾": 6056,
      "ìĪ¿": 6057,
      "ìī": 6058,
      "ìīĢ": 6059,
      "ìīģ": 6060,
      "ìīĤ": 6061,
      "ìīĥ": 6062,
      "ìīĦ": 6063,
      "ìīħ": 6064,
      "ìīĨ": 6065,
      "ìīĩ": 6066,
      "ìīĪ": 6067,
      "ìīī": 6068,
      "ìīĬ": 6069,
      "ìīĭ": 6070,
      "ìīĮ": 6071,
      "ìīį": 6072,
      "ìīİ": 6073,
      "ìīı": 6074,
      "ìīĲ": 6075,
      "ìīĳ": 6076,
      "ìīĴ": 6077,
      "ìīĵ": 6078,
      "ìīĶ": 6079,
      "ìīķ": 6080,
      "ìīĸ": 6081,
      "ìīĹ": 6082,
      "ìīĺ": 6083,
      "ìīĻ": 6084,
      "ìīļ": 6085,
      "ìīĽ": 6086,
      "ìīľ": 6087,
      "ìīĿ": 6088,
      "ìīŀ": 6089,
      "ìīŁ": 6090,
      "ìīł": 6091,
      "ìī¡": 6092,
      "ìī¢": 6093,
      "ìī£": 6094,
      "ìī¤": 6095,
      "ìī¥": 6096,
      "ìī¦": 6097,
      "ìī§": 6098,
      "ìī¨": 6099,
      "ìī©": 6100,
      "ìīª": 6101,
      "ìī«": 6102,
      "ìī¬": 6103,
      "ìīŃ": 6104,
      "ìī®": 6105,
      "ìī¯": 6106,
      "ìī°": 6107,
      "ìī±": 6108,
      "ìī²": 6109,
      "ìī³": 6110,
      "ìī´": 6111,
      "ìīµ": 6112,
      "ìī¶": 6113,
      "ìī·": 6114,
      "ìī¸": 6115,
      "ìī¹": 6116,
      "ìīº": 6117,
      "ìī»": 6118,
      "ìī¼": 6119,
      "ìī½": 6120,
      "ìī¾": 6121,
      "ìī¿": 6122,
      "ìĬ": 6123,
      "ìĬĢ": 6124,
      "ìĬģ": 6125,
      "ìĬĤ": 6126,
      "ìĬĥ": 6127,
      "ìĬĦ": 6128,
      "ìĬħ": 6129,
      "ìĬĨ": 6130,
      "ìĬĩ": 6131,
      "ìĬĪ": 6132,
      "ìĬī": 6133,
      "ìĬĬ": 6134,
      "ìĬĭ": 6135,
      "ìĬĮ": 6136,
      "ìĬį": 6137,
      "ìĬİ": 6138,
      "ìĬı": 6139,
      "ìĬĲ": 6140,
      "ìĬĳ": 6141,
      "ìĬĴ": 6142,
      "ìĬĵ": 6143,
      "ìĬĶ": 6144,
      "ìĬķ": 6145,
      "ìĬĸ": 6146,
      "ìĬĹ": 6147,
      "ìĬĺ": 6148,
      "ìĬĻ": 6149,
      "ìĬļ": 6150,
      "ìĬĽ": 6151,
      "ìĬľ": 6152,
      "ìĬĿ": 6153,
      "ìĬŀ": 6154,
      "ìĬŁ": 6155,
      "ìĬł": 6156,
      "ìĬ¡": 6157,
      "ìĬ¢": 6158,
      "ìĬ£": 6159,
      "ìĬ¤": 6160,
      "ìĬ¥": 6161,
      "ìĬ¦": 6162,
      "ìĬ§": 6163,
      "ìĬ¨": 6164,
      "ìĬ©": 6165,
      "ìĬª": 6166,
      "ìĬ«": 6167,
      "ìĬ¬": 6168,
      "ìĬŃ": 6169,
      "ìĬ®": 6170,
      "ìĬ¯": 6171,
      "ìĬ°": 6172,
      "ìĬ±": 6173,
      "ìĬ²": 6174,
      "ìĬ³": 6175,
      "ìĬ´": 6176,
      "ìĬµ": 6177,
      "ìĬ¶": 6178,
      "ìĬ·": 6179,
      "ìĬ¸": 6180,
      "ìĬ¹": 6181,
      "ìĬº": 6182,
      "ìĬ»": 6183,
      "ìĬ¼": 6184,
      "ìĬ½": 6185,
      "ìĬ¾": 6186,
      "ìĬ¿": 6187,
      "ìĭ": 6188,
      "ìĭĢ": 6189,
      "ìĭģ": 6190,
      "ìĭĤ": 6191,
      "ìĭĥ": 6192,
      "ìĭĦ": 6193,
      "ìĭħ": 6194,
      "ìĭĨ": 6195,
      "ìĭĩ": 6196,
      "ìĭĪ": 6197,
      "ìĭī": 6198,
      "ìĭĬ": 6199,
      "ìĭĭ": 6200,
      "ìĭĮ": 6201,
      "ìĭį": 6202,
      "ìĭİ": 6203,
      "ìĭı": 6204,
      "ìĭĲ": 6205,
      "ìĭĳ": 6206,
      "ìĭĴ": 6207,
      "ìĭĵ": 6208,
      "ìĭĶ": 6209,
      "ìĭķ": 6210,
      "ìĭĸ": 6211,
      "ìĭĹ": 6212,
      "ìĭĺ": 6213,
      "ìĭĻ": 6214,
      "ìĭļ": 6215,
      "ìĭĽ": 6216,
      "ìĭľ": 6217,
      "ìĭĿ": 6218,
      "ìĭŀ": 6219,
      "ìĭŁ": 6220,
      "ìĭł": 6221,
      "ìĭ¡": 6222,
      "ìĭ¢": 6223,
      "ìĭ£": 6224,
      "ìĭ¤": 6225,
      "ìĭ¥": 6226,
      "ìĭ¦": 6227,
      "ìĭ§": 6228,
      "ìĭ¨": 6229,
      "ìĭ©": 6230,
      "ìĭª": 6231,
      "ìĭ«": 6232,
      "ìĭ¬": 6233,
      "ìĭŃ": 6234,
      "ìĭ®": 6235,
      "ìĭ¯": 6236,
      "ìĭ°": 6237,
      "ìĭ±": 6238,
      "ìĭ²": 6239,
      "ìĭ³": 6240,
      "ìĭ´": 6241,
      "ìĭµ": 6242,
      "ìĭ¶": 6243,
      "ìĭ·": 6244,
      "ìĭ¸": 6245,
      "ìĭ¹": 6246,
      "ìĭº": 6247,
      "ìĭ»": 6248,
      "ìĭ¼": 6249,
      "ìĭ½": 6250,
      "ìĭ¾": 6251,
      "ìĭ¿": 6252,
      "ìĮ": 6253,
      "ìĮĢ": 6254,
      "ìĮģ": 6255,
      "ìĮĤ": 6256,
      "ìĮĥ": 6257,
      "ìĮĦ": 6258,
      "ìĮħ": 6259,
      "ìĮĨ": 6260,
      "ìĮĩ": 6261,
      "ìĮĪ": 6262,
      "ìĮī": 6263,
      "ìĮĬ": 6264,
      "ìĮĭ": 6265,
      "ìĮĮ": 6266,
      "ìĮį": 6267,
      "ìĮİ": 6268,
      "ìĮı": 6269,
      "ìĮĲ": 6270,
      "ìĮĳ": 6271,
      "ìĮĴ": 6272,
      "ìĮĵ": 6273,
      "ìĮĶ": 6274,
      "ìĮķ": 6275,
      "ìĮĸ": 6276,
      "ìĮĹ": 6277,
      "ìĮĺ": 6278,
      "ìĮĻ": 6279,
      "ìĮļ": 6280,
      "ìĮĽ": 6281,
      "ìĮľ": 6282,
      "ìĮĿ": 6283,
      "ìĮŀ": 6284,
      "ìĮŁ": 6285,
      "ìĮł": 6286,
      "ìĮ¡": 6287,
      "ìĮ¢": 6288,
      "ìĮ£": 6289,
      "ìĮ¤": 6290,
      "ìĮ¥": 6291,
      "ìĮ¦": 6292,
      "ìĮ§": 6293,
      "ìĮ¨": 6294,
      "ìĮ©": 6295,
      "ìĮª": 6296,
      "ìĮ«": 6297,
      "ìĮ¬": 6298,
      "ìĮŃ": 6299,
      "ìĮ®": 6300,
      "ìĮ¯": 6301,
      "ìĮ°": 6302,
      "ìĮ±": 6303,
      "ìĮ²": 6304,
      "ìĮ³": 6305,
      "ìĮ´": 6306,
      "ìĮµ": 6307,
      "ìĮ¶": 6308,
      "ìĮ·": 6309,
      "ìĮ¸": 6310,
      "ìĮ¹": 6311,
      "ìĮº": 6312,
      "ìĮ»": 6313,
      "ìĮ¼": 6314,
      "ìĮ½": 6315,
      "ìĮ¾": 6316,
      "ìĮ¿": 6317,
      "ìį": 6318,
      "ìįĢ": 6319,
      "ìįģ": 6320,
      "ìįĤ": 6321,
      "ìįĥ": 6322,
      "ìįĦ": 6323,
      "ìįħ": 6324,
      "ìįĨ": 6325,
      "ìįĩ": 6326,
      "ìįĪ": 6327,
      "ìįī": 6328,
      "ìįĬ": 6329,
      "ìįĭ": 6330,
      "ìįĮ": 6331,
      "ìįį": 6332,
      "ìįİ": 6333,
      "ìįı": 6334,
      "ìįĲ": 6335,
      "ìįĳ": 6336,
      "ìįĴ": 6337,
      "ìįĵ": 6338,
      "ìįĶ": 6339,
      "ìįķ": 6340,
      "ìįĸ": 6341,
      "ìįĹ": 6342,
      "ìįĺ": 6343,
      "ìįĻ": 6344,
      "ìįļ": 6345,
      "ìįĽ": 6346,
      "ìįľ": 6347,
      "ìįĿ": 6348,
      "ìįŀ": 6349,
      "ìįŁ": 6350,
      "ìįł": 6351,
      "ìį¡": 6352,
      "ìį¢": 6353,
      "ìį£": 6354,
      "ìį¤": 6355,
      "ìį¥": 6356,
      "ìį¦": 6357,
      "ìį§": 6358,
      "ìį¨": 6359,
      "ìį©": 6360,
      "ìįª": 6361,
      "ìį«": 6362,
      "ìį¬": 6363,
      "ìįŃ": 6364,
      "ìį®": 6365,
      "ìį¯": 6366,
      "ìį°": 6367,
      "ìį±": 6368,
      "ìį²": 6369,
      "ìį³": 6370,
      "ìį´": 6371,
      "ìįµ": 6372,
      "ìį¶": 6373,
      "ìį·": 6374,
      "ìį¸": 6375,
      "ìį¹": 6376,
      "ìįº": 6377,
      "ìį»": 6378,
      "ìį¼": 6379,
      "ìį½": 6380,
      "ìį¾": 6381,
      "ìį¿": 6382,
      "ìİ": 6383,
      "ìİĢ": 6384,
      "ìİģ": 6385,
      "ìİĤ": 6386,
      "ìİĥ": 6387,
      "ìİĦ": 6388,
      "ìİħ": 6389,
      "ìİĨ": 6390,
      "ìİĩ": 6391,
      "ìİĪ": 6392,
      "ìİī": 6393,
      "ìİĬ": 6394,
      "ìİĭ": 6395,
      "ìİĮ": 6396,
      "ìİį": 6397,
      "ìİİ": 6398,
      "ìİı": 6399,
      "ìİĲ": 6400,
      "ìİĳ": 6401,
      "ìİĴ": 6402,
      "ìİĵ": 6403,
      "ìİĶ": 6404,
      "ìİķ": 6405,
      "ìİĸ": 6406,
      "ìİĹ": 6407,
      "ìİĺ": 6408,
      "ìİĻ": 6409,
      "ìİļ": 6410,
      "ìİĽ": 6411,
      "ìİľ": 6412,
      "ìİĿ": 6413,
      "ìİŀ": 6414,
      "ìİŁ": 6415,
      "ìİł": 6416,
      "ìİ¡": 6417,
      "ìİ¢": 6418,
      "ìİ£": 6419,
      "ìİ¤": 6420,
      "ìİ¥": 6421,
      "ìİ¦": 6422,
      "ìİ§": 6423,
      "ìİ¨": 6424,
      "ìİ©": 6425,
      "ìİª": 6426,
      "ìİ«": 6427,
      "ìİ¬": 6428,
      "ìİŃ": 6429,
      "ìİ®": 6430,
      "ìİ¯": 6431,
      "ìİ°": 6432,
      "ìİ±": 6433,
      "ìİ²": 6434,
      "ìİ³": 6435,
      "ìİ´": 6436,
      "ìİµ": 6437,
      "ìİ¶": 6438,
      "ìİ·": 6439,
      "ìİ¸": 6440,
      "ìİ¹": 6441,
      "ìİº": 6442,
      "ìİ»": 6443,
      "ìİ¼": 6444,
      "ìİ½": 6445,
      "ìİ¾": 6446,
      "ìİ¿": 6447,
      "ìı": 6448,
      "ìıĢ": 6449,
      "ìıģ": 6450,
      "ìıĤ": 6451,
      "ìıĥ": 6452,
      "ìıĦ": 6453,
      "ìıħ": 6454,
      "ìıĨ": 6455,
      "ìıĩ": 6456,
      "ìıĪ": 6457,
      "ìıī": 6458,
      "ìıĬ": 6459,
      "ìıĭ": 6460,
      "ìıĮ": 6461,
      "ìıį": 6462,
      "ìıİ": 6463,
      "ìıı": 6464,
      "ìıĲ": 6465,
      "ìıĳ": 6466,
      "ìıĴ": 6467,
      "ìıĵ": 6468,
      "ìıĶ": 6469,
      "ìıķ": 6470,
      "ìıĸ": 6471,
      "ìıĹ": 6472,
      "ìıĺ": 6473,
      "ìıĻ": 6474,
      "ìıļ": 6475,
      "ìıĽ": 6476,
      "ìıľ": 6477,
      "ìıĿ": 6478,
      "ìıŀ": 6479,
      "ìıŁ": 6480,
      "ìıł": 6481,
      "ìı¡": 6482,
      "ìı¢": 6483,
      "ìı£": 6484,
      "ìı¤": 6485,
      "ìı¥": 6486,
      "ìı¦": 6487,
      "ìı§": 6488,
      "ìı¨": 6489,
      "ìı©": 6490,
      "ìıª": 6491,
      "ìı«": 6492,
      "ìı¬": 6493,
      "ìıŃ": 6494,
      "ìı®": 6495,
      "ìı¯": 6496,
      "ìı°": 6497,
      "ìı±": 6498,
      "ìı²": 6499,
      "ìı³": 6500,
      "ìı´": 6501,
      "ìıµ": 6502,
      "ìı¶": 6503,
      "ìı·": 6504,
      "ìı¸": 6505,
      "ìı¹": 6506,
      "ìıº": 6507,
      "ìı»": 6508,
      "ìı¼": 6509,
      "ìı½": 6510,
      "ìı¾": 6511,
      "ìı¿": 6512,
      "ìĲ": 6513,
      "ìĲĢ": 6514,
      "ìĲģ": 6515,
      "ìĲĤ": 6516,
      "ìĲĥ": 6517,
      "ìĲĦ": 6518,
      "ìĲħ": 6519,
      "ìĲĨ": 6520,
      "ìĲĩ": 6521,
      "ìĲĪ": 6522,
      "ìĲī": 6523,
      "ìĲĬ": 6524,
      "ìĲĭ": 6525,
      "ìĲĮ": 6526,
      "ìĲį": 6527,
      "ìĲİ": 6528,
      "ìĲı": 6529,
      "ìĲĲ": 6530,
      "ìĲĳ": 6531,
      "ìĲĴ": 6532,
      "ìĲĵ": 6533,
      "ìĲĶ": 6534,
      "ìĲķ": 6535,
      "ìĲĸ": 6536,
      "ìĲĹ": 6537,
      "ìĲĺ": 6538,
      "ìĲĻ": 6539,
      "ìĲļ": 6540,
      "ìĲĽ": 6541,
      "ìĲľ": 6542,
      "ìĲĿ": 6543,
      "ìĲŀ": 6544,
      "ìĲŁ": 6545,
      "ìĲł": 6546,
      "ìĲ¡": 6547,
      "ìĲ¢": 6548,
      "ìĲ£": 6549,
      "ìĲ¤": 6550,
      "ìĲ¥": 6551,
      "ìĲ¦": 6552,
      "ìĲ§": 6553,
      "ìĲ¨": 6554,
      "ìĲ©": 6555,
      "ìĲª": 6556,
      "ìĲ«": 6557,
      "ìĲ¬": 6558,
      "ìĲŃ": 6559,
      "ìĲ®": 6560,
      "ìĲ¯": 6561,
      "ìĲ°": 6562,
      "ìĲ±": 6563,
      "ìĲ²": 6564,
      "ìĲ³": 6565,
      "ìĲ´": 6566,
      "ìĲµ": 6567,
      "ìĲ¶": 6568,
      "ìĲ·": 6569,
      "ìĲ¸": 6570,
      "ìĲ¹": 6571,
      "ìĲº": 6572,
      "ìĲ»": 6573,
      "ìĲ¼": 6574,
      "ìĲ½": 6575,
      "ìĲ¾": 6576,
      "ìĲ¿": 6577,
      "ìĳ": 6578,
      "ìĳĢ": 6579,
      "ìĳģ": 6580,
      "ìĳĤ": 6581,
      "ìĳĥ": 6582,
      "ìĳĦ": 6583,
      "ìĳħ": 6584,
      "ìĳĨ": 6585,
      "ìĳĩ": 6586,
      "ìĳĪ": 6587,
      "ìĳī": 6588,
      "ìĳĬ": 6589,
      "ìĳĭ": 6590,
      "ìĳĮ": 6591,
      "ìĳį": 6592,
      "ìĳİ": 6593,
      "ìĳı": 6594,
      "ìĳĲ": 6595,
      "ìĳĳ": 6596,
      "ìĳĴ": 6597,
      "ìĳĵ": 6598,
      "ìĳĶ": 6599,
      "ìĳķ": 6600,
      "ìĳĸ": 6601,
      "ìĳĹ": 6602,
      "ìĳĺ": 6603,
      "ìĳĻ": 6604,
      "ìĳļ": 6605,
      "ìĳĽ": 6606,
      "ìĳľ": 6607,
      "ìĳĿ": 6608,
      "ìĳŀ": 6609,
      "ìĳŁ": 6610,
      "ìĳł": 6611,
      "ìĳ¡": 6612,
      "ìĳ¢": 6613,
      "ìĳ£": 6614,
      "ìĳ¤": 6615,
      "ìĳ¥": 6616,
      "ìĳ¦": 6617,
      "ìĳ§": 6618,
      "ìĳ¨": 6619,
      "ìĳ©": 6620,
      "ìĳª": 6621,
      "ìĳ«": 6622,
      "ìĳ¬": 6623,
      "ìĳŃ": 6624,
      "ìĳ®": 6625,
      "ìĳ¯": 6626,
      "ìĳ°": 6627,
      "ìĳ±": 6628,
      "ìĳ²": 6629,
      "ìĳ³": 6630,
      "ìĳ´": 6631,
      "ìĳµ": 6632,
      "ìĳ¶": 6633,
      "ìĳ·": 6634,
      "ìĳ¸": 6635,
      "ìĳ¹": 6636,
      "ìĳº": 6637,
      "ìĳ»": 6638,
      "ìĳ¼": 6639,
      "ìĳ½": 6640,
      "ìĳ¾": 6641,
      "ìĳ¿": 6642,
      "ìĴ": 6643,
      "ìĴĢ": 6644,
      "ìĴģ": 6645,
      "ìĴĤ": 6646,
      "ìĴĥ": 6647,
      "ìĴĦ": 6648,
      "ìĴħ": 6649,
      "ìĴĨ": 6650,
      "ìĴĩ": 6651,
      "ìĴĪ": 6652,
      "ìĴī": 6653,
      "ìĴĬ": 6654,
      "ìĴĭ": 6655,
      "ìĴĮ": 6656,
      "ìĴį": 6657,
      "ìĴİ": 6658,
      "ìĴı": 6659,
      "ìĴĲ": 6660,
      "ìĴĳ": 6661,
      "ìĴĴ": 6662,
      "ìĴĵ": 6663,
      "ìĴĶ": 6664,
      "ìĴķ": 6665,
      "ìĴĸ": 6666,
      "ìĴĹ": 6667,
      "ìĴĺ": 6668,
      "ìĴĻ": 6669,
      "ìĴļ": 6670,
      "ìĴĽ": 6671,
      "ìĴľ": 6672,
      "ìĴĿ": 6673,
      "ìĴŀ": 6674,
      "ìĴŁ": 6675,
      "ìĴł": 6676,
      "ìĴ¡": 6677,
      "ìĴ¢": 6678,
      "ìĴ£": 6679,
      "ìĴ¤": 6680,
      "ìĴ¥": 6681,
      "ìĴ¦": 6682,
      "ìĴ§": 6683,
      "ìĴ¨": 6684,
      "ìĴ©": 6685,
      "ìĴª": 6686,
      "ìĴ«": 6687,
      "ìĴ¬": 6688,
      "ìĴŃ": 6689,
      "ìĴ®": 6690,
      "ìĴ¯": 6691,
      "ìĴ°": 6692,
      "ìĴ±": 6693,
      "ìĴ²": 6694,
      "ìĴ³": 6695,
      "ìĴ´": 6696,
      "ìĴµ": 6697,
      "ìĴ¶": 6698,
      "ìĴ·": 6699,
      "ìĴ¸": 6700,
      "ìĴ¹": 6701,
      "ìĴº": 6702,
      "ìĴ»": 6703,
      "ìĴ¼": 6704,
      "ìĴ½": 6705,
      "ìĴ¾": 6706,
      "ìĴ¿": 6707,
      "ìĵ": 6708,
      "ìĵĢ": 6709,
      "ìĵģ": 6710,
      "ìĵĤ": 6711,
      "ìĵĥ": 6712,
      "ìĵĦ": 6713,
      "ìĵħ": 6714,
      "ìĵĨ": 6715,
      "ìĵĩ": 6716,
      "ìĵĪ": 6717,
      "ìĵī": 6718,
      "ìĵĬ": 6719,
      "ìĵĭ": 6720,
      "ìĵĮ": 6721,
      "ìĵį": 6722,
      "ìĵİ": 6723,
      "ìĵı": 6724,
      "ìĵĲ": 6725,
      "ìĵĳ": 6726,
      "ìĵĴ": 6727,
      "ìĵĵ": 6728,
      "ìĵĶ": 6729,
      "ìĵķ": 6730,
      "ìĵĸ": 6731,
      "ìĵĹ": 6732,
      "ìĵĺ": 6733,
      "ìĵĻ": 6734,
      "ìĵļ": 6735,
      "ìĵĽ": 6736,
      "ìĵľ": 6737,
      "ìĵĿ": 6738,
      "ìĵŀ": 6739,
      "ìĵŁ": 6740,
      "ìĵł": 6741,
      "ìĵ¡": 6742,
      "ìĵ¢": 6743,
      "ìĵ£": 6744,
      "ìĵ¤": 6745,
      "ìĵ¥": 6746,
      "ìĵ¦": 6747,
      "ìĵ§": 6748,
      "ìĵ¨": 6749,
      "ìĵ©": 6750,
      "ìĵª": 6751,
      "ìĵ«": 6752,
      "ìĵ¬": 6753,
      "ìĵŃ": 6754,
      "ìĵ®": 6755,
      "ìĵ¯": 6756,
      "ìĵ°": 6757,
      "ìĵ±": 6758,
      "ìĵ²": 6759,
      "ìĵ³": 6760,
      "ìĵ´": 6761,
      "ìĵµ": 6762,
      "ìĵ¶": 6763,
      "ìĵ·": 6764,
      "ìĵ¸": 6765,
      "ìĵ¹": 6766,
      "ìĵº": 6767,
      "ìĵ»": 6768,
      "ìĵ¼": 6769,
      "ìĵ½": 6770,
      "ìĵ¾": 6771,
      "ìĵ¿": 6772,
      "ìĶ": 6773,
      "ìĶĢ": 6774,
      "ìĶģ": 6775,
      "ìĶĤ": 6776,
      "ìĶĥ": 6777,
      "ìĶĦ": 6778,
      "ìĶħ": 6779,
      "ìĶĨ": 6780,
      "ìĶĩ": 6781,
      "ìĶĪ": 6782,
      "ìĶī": 6783,
      "ìĶĬ": 6784,
      "ìĶĭ": 6785,
      "ìĶĮ": 6786,
      "ìĶį": 6787,
      "ìĶİ": 6788,
      "ìĶı": 6789,
      "ìĶĲ": 6790,
      "ìĶĳ": 6791,
      "ìĶĴ": 6792,
      "ìĶĵ": 6793,
      "ìĶĶ": 6794,
      "ìĶķ": 6795,
      "ìĶĸ": 6796,
      "ìĶĹ": 6797,
      "ìĶĺ": 6798,
      "ìĶĻ": 6799,
      "ìĶļ": 6800,
      "ìĶĽ": 6801,
      "ìĶľ": 6802,
      "ìĶĿ": 6803,
      "ìĶŀ": 6804,
      "ìĶŁ": 6805,
      "ìĶł": 6806,
      "ìĶ¡": 6807,
      "ìĶ¢": 6808,
      "ìĶ£": 6809,
      "ìĶ¤": 6810,
      "ìĶ¥": 6811,
      "ìĶ¦": 6812,
      "ìĶ§": 6813,
      "ìĶ¨": 6814,
      "ìĶ©": 6815,
      "ìĶª": 6816,
      "ìĶ«": 6817,
      "ìĶ¬": 6818,
      "ìĶŃ": 6819,
      "ìĶ®": 6820,
      "ìĶ¯": 6821,
      "ìĶ°": 6822,
      "ìĶ±": 6823,
      "ìĶ²": 6824,
      "ìĶ³": 6825,
      "ìĶ´": 6826,
      "ìĶµ": 6827,
      "ìĶ¶": 6828,
      "ìĶ·": 6829,
      "ìĶ¸": 6830,
      "ìĶ¹": 6831,
      "ìĶº": 6832,
      "ìĶ»": 6833,
      "ìĶ¼": 6834,
      "ìĶ½": 6835,
      "ìĶ¾": 6836,
      "ìĶ¿": 6837,
      "ìķ": 6838,
      "ìķĢ": 6839,
      "ìķģ": 6840,
      "ìķĤ": 6841,
      "ìķĥ": 6842,
      "ìķĦ": 6843,
      "ìķħ": 6844,
      "ìķĨ": 6845,
      "ìķĩ": 6846,
      "ìķĪ": 6847,
      "ìķī": 6848,
      "ìķĬ": 6849,
      "ìķĭ": 6850,
      "ìķĮ": 6851,
      "ìķį": 6852,
      "ìķİ": 6853,
      "ìķı": 6854,
      "ìķĲ": 6855,
      "ìķĳ": 6856,
      "ìķĴ": 6857,
      "ìķĵ": 6858,
      "ìķĶ": 6859,
      "ìķķ": 6860,
      "ìķĸ": 6861,
      "ìķĹ": 6862,
      "ìķĺ": 6863,
      "ìķĻ": 6864,
      "ìķļ": 6865,
      "ìķĽ": 6866,
      "ìķľ": 6867,
      "ìķĿ": 6868,
      "ìķŀ": 6869,
      "ìķŁ": 6870,
      "ìķł": 6871,
      "ìķ¡": 6872,
      "ìķ¢": 6873,
      "ìķ£": 6874,
      "ìķ¤": 6875,
      "ìķ¥": 6876,
      "ìķ¦": 6877,
      "ìķ§": 6878,
      "ìķ¨": 6879,
      "ìķ©": 6880,
      "ìķª": 6881,
      "ìķ«": 6882,
      "ìķ¬": 6883,
      "ìķŃ": 6884,
      "ìķ®": 6885,
      "ìķ¯": 6886,
      "ìķ°": 6887,
      "ìķ±": 6888,
      "ìķ²": 6889,
      "ìķ³": 6890,
      "ìķ´": 6891,
      "ìķµ": 6892,
      "ìķ¶": 6893,
      "ìķ·": 6894,
      "ìķ¸": 6895,
      "ìķ¹": 6896,
      "ìķº": 6897,
      "ìķ»": 6898,
      "ìķ¼": 6899,
      "ìķ½": 6900,
      "ìķ¾": 6901,
      "ìķ¿": 6902,
      "ìĸ": 6903,
      "ìĸĢ": 6904,
      "ìĸģ": 6905,
      "ìĸĤ": 6906,
      "ìĸĥ": 6907,
      "ìĸĦ": 6908,
      "ìĸħ": 6909,
      "ìĸĨ": 6910,
      "ìĸĩ": 6911,
      "ìĸĪ": 6912,
      "ìĸī": 6913,
      "ìĸĬ": 6914,
      "ìĸĭ": 6915,
      "ìĸĮ": 6916,
      "ìĸį": 6917,
      "ìĸİ": 6918,
      "ìĸı": 6919,
      "ìĸĲ": 6920,
      "ìĸĳ": 6921,
      "ìĸĴ": 6922,
      "ìĸĵ": 6923,
      "ìĸĶ": 6924,
      "ìĸķ": 6925,
      "ìĸĸ": 6926,
      "ìĸĹ": 6927,
      "ìĸĺ": 6928,
      "ìĸĻ": 6929,
      "ìĸļ": 6930,
      "ìĸĽ": 6931,
      "ìĸľ": 6932,
      "ìĸĿ": 6933,
      "ìĸŀ": 6934,
      "ìĸŁ": 6935,
      "ìĸł": 6936,
      "ìĸ¡": 6937,
      "ìĸ¢": 6938,
      "ìĸ£": 6939,
      "ìĸ¤": 6940,
      "ìĸ¥": 6941,
      "ìĸ¦": 6942,
      "ìĸ§": 6943,
      "ìĸ¨": 6944,
      "ìĸ©": 6945,
      "ìĸª": 6946,
      "ìĸ«": 6947,
      "ìĸ¬": 6948,
      "ìĸŃ": 6949,
      "ìĸ®": 6950,
      "ìĸ¯": 6951,
      "ìĸ°": 6952,
      "ìĸ±": 6953,
      "ìĸ²": 6954,
      "ìĸ³": 6955,
      "ìĸ´": 6956,
      "ìĸµ": 6957,
      "ìĸ¶": 6958,
      "ìĸ·": 6959,
      "ìĸ¸": 6960,
      "ìĸ¹": 6961,
      "ìĸº": 6962,
      "ìĸ»": 6963,
      "ìĸ¼": 6964,
      "ìĸ½": 6965,
      "ìĸ¾": 6966,
      "ìĸ¿": 6967,
      "ìĹ": 6968,
      "ìĹĢ": 6969,
      "ìĹģ": 6970,
      "ìĹĤ": 6971,
      "ìĹĥ": 6972,
      "ìĹĦ": 6973,
      "ìĹħ": 6974,
      "ìĹĨ": 6975,
      "ìĹĩ": 6976,
      "ìĹĪ": 6977,
      "ìĹī": 6978,
      "ìĹĬ": 6979,
      "ìĹĭ": 6980,
      "ìĹĮ": 6981,
      "ìĹį": 6982,
      "ìĹİ": 6983,
      "ìĹı": 6984,
      "ìĹĲ": 6985,
      "ìĹĳ": 6986,
      "ìĹĴ": 6987,
      "ìĹĵ": 6988,
      "ìĹĶ": 6989,
      "ìĹķ": 6990,
      "ìĹĸ": 6991,
      "ìĹĹ": 6992,
      "ìĹĺ": 6993,
      "ìĹĻ": 6994,
      "ìĹļ": 6995,
      "ìĹĽ": 6996,
      "ìĹľ": 6997,
      "ìĹĿ": 6998,
      "ìĹŀ": 6999,
      "ìĹŁ": 7000,
      "ìĹł": 7001,
      "ìĹ¡": 7002,
      "ìĹ¢": 7003,
      "ìĹ£": 7004,
      "ìĹ¤": 7005,
      "ìĹ¥": 7006,
      "ìĹ¦": 7007,
      "ìĹ§": 7008,
      "ìĹ¨": 7009,
      "ìĹ©": 7010,
      "ìĹª": 7011,
      "ìĹ«": 7012,
      "ìĹ¬": 7013,
      "ìĹŃ": 7014,
      "ìĹ®": 7015,
      "ìĹ¯": 7016,
      "ìĹ°": 7017,
      "ìĹ±": 7018,
      "ìĹ²": 7019,
      "ìĹ³": 7020,
      "ìĹ´": 7021,
      "ìĹµ": 7022,
      "ìĹ¶": 7023,
      "ìĹ·": 7024,
      "ìĹ¸": 7025,
      "ìĹ¹": 7026,
      "ìĹº": 7027,
      "ìĹ»": 7028,
      "ìĹ¼": 7029,
      "ìĹ½": 7030,
      "ìĹ¾": 7031,
      "ìĹ¿": 7032,
      "ìĺ": 7033,
      "ìĺĢ": 7034,
      "ìĺģ": 7035,
      "ìĺĤ": 7036,
      "ìĺĥ": 7037,
      "ìĺĦ": 7038,
      "ìĺħ": 7039,
      "ìĺĨ": 7040,
      "ìĺĩ": 7041,
      "ìĺĪ": 7042,
      "ìĺī": 7043,
      "ìĺĬ": 7044,
      "ìĺĭ": 7045,
      "ìĺĮ": 7046,
      "ìĺį": 7047,
      "ìĺİ": 7048,
      "ìĺı": 7049,
      "ìĺĲ": 7050,
      "ìĺĳ": 7051,
      "ìĺĴ": 7052,
      "ìĺĵ": 7053,
      "ìĺĶ": 7054,
      "ìĺķ": 7055,
      "ìĺĸ": 7056,
      "ìĺĹ": 7057,
      "ìĺĺ": 7058,
      "ìĺĻ": 7059,
      "ìĺļ": 7060,
      "ìĺĽ": 7061,
      "ìĺľ": 7062,
      "ìĺĿ": 7063,
      "ìĺŀ": 7064,
      "ìĺŁ": 7065,
      "ìĺł": 7066,
      "ìĺ¡": 7067,
      "ìĺ¢": 7068,
      "ìĺ£": 7069,
      "ìĺ¤": 7070,
      "ìĺ¥": 7071,
      "ìĺ¦": 7072,
      "ìĺ§": 7073,
      "ìĺ¨": 7074,
      "ìĺ©": 7075,
      "ìĺª": 7076,
      "ìĺ«": 7077,
      "ìĺ¬": 7078,
      "ìĺŃ": 7079,
      "ìĺ®": 7080,
      "ìĺ¯": 7081,
      "ìĺ°": 7082,
      "ìĺ±": 7083,
      "ìĺ²": 7084,
      "ìĺ³": 7085,
      "ìĺ´": 7086,
      "ìĺµ": 7087,
      "ìĺ¶": 7088,
      "ìĺ·": 7089,
      "ìĺ¸": 7090,
      "ìĺ¹": 7091,
      "ìĺº": 7092,
      "ìĺ»": 7093,
      "ìĺ¼": 7094,
      "ìĺ½": 7095,
      "ìĺ¾": 7096,
      "ìĺ¿": 7097,
      "ìĻ": 7098,
      "ìĻĢ": 7099,
      "ìĻģ": 7100,
      "ìĻĤ": 7101,
      "ìĻĥ": 7102,
      "ìĻĦ": 7103,
      "ìĻħ": 7104,
      "ìĻĨ": 7105,
      "ìĻĩ": 7106,
      "ìĻĪ": 7107,
      "ìĻī": 7108,
      "ìĻĬ": 7109,
      "ìĻĭ": 7110,
      "ìĻĮ": 7111,
      "ìĻį": 7112,
      "ìĻİ": 7113,
      "ìĻı": 7114,
      "ìĻĲ": 7115,
      "ìĻĳ": 7116,
      "ìĻĴ": 7117,
      "ìĻĵ": 7118,
      "ìĻĶ": 7119,
      "ìĻķ": 7120,
      "ìĻĸ": 7121,
      "ìĻĹ": 7122,
      "ìĻĺ": 7123,
      "ìĻĻ": 7124,
      "ìĻļ": 7125,
      "ìĻĽ": 7126,
      "ìĻľ": 7127,
      "ìĻĿ": 7128,
      "ìĻŀ": 7129,
      "ìĻŁ": 7130,
      "ìĻł": 7131,
      "ìĻ¡": 7132,
      "ìĻ¢": 7133,
      "ìĻ£": 7134,
      "ìĻ¤": 7135,
      "ìĻ¥": 7136,
      "ìĻ¦": 7137,
      "ìĻ§": 7138,
      "ìĻ¨": 7139,
      "ìĻ©": 7140,
      "ìĻª": 7141,
      "ìĻ«": 7142,
      "ìĻ¬": 7143,
      "ìĻŃ": 7144,
      "ìĻ®": 7145,
      "ìĻ¯": 7146,
      "ìĻ°": 7147,
      "ìĻ±": 7148,
      "ìĻ²": 7149,
      "ìĻ³": 7150,
      "ìĻ´": 7151,
      "ìĻµ": 7152,
      "ìĻ¶": 7153,
      "ìĻ·": 7154,
      "ìĻ¸": 7155,
      "ìĻ¹": 7156,
      "ìĻº": 7157,
      "ìĻ»": 7158,
      "ìĻ¼": 7159,
      "ìĻ½": 7160,
      "ìĻ¾": 7161,
      "ìĻ¿": 7162,
      "ìļ": 7163,
      "ìļĢ": 7164,
      "ìļģ": 7165,
      "ìļĤ": 7166,
      "ìļĥ": 7167,
      "ìļĦ": 7168,
      "ìļħ": 7169,
      "ìļĨ": 7170,
      "ìļĩ": 7171,
      "ìļĪ": 7172,
      "ìļī": 7173,
      "ìļĬ": 7174,
      "ìļĭ": 7175,
      "ìļĮ": 7176,
      "ìļį": 7177,
      "ìļİ": 7178,
      "ìļı": 7179,
      "ìļĲ": 7180,
      "ìļĳ": 7181,
      "ìļĴ": 7182,
      "ìļĵ": 7183,
      "ìļĶ": 7184,
      "ìļķ": 7185,
      "ìļĸ": 7186,
      "ìļĹ": 7187,
      "ìļĺ": 7188,
      "ìļĻ": 7189,
      "ìļļ": 7190,
      "ìļĽ": 7191,
      "ìļľ": 7192,
      "ìļĿ": 7193,
      "ìļŀ": 7194,
      "ìļŁ": 7195,
      "ìļł": 7196,
      "ìļ¡": 7197,
      "ìļ¢": 7198,
      "ìļ£": 7199,
      "ìļ¤": 7200,
      "ìļ¥": 7201,
      "ìļ¦": 7202,
      "ìļ§": 7203,
      "ìļ¨": 7204,
      "ìļ©": 7205,
      "ìļª": 7206,
      "ìļ«": 7207,
      "ìļ¬": 7208,
      "ìļŃ": 7209,
      "ìļ®": 7210,
      "ìļ¯": 7211,
      "ìļ°": 7212,
      "ìļ±": 7213,
      "ìļ²": 7214,
      "ìļ³": 7215,
      "ìļ´": 7216,
      "ìļµ": 7217,
      "ìļ¶": 7218,
      "ìļ·": 7219,
      "ìļ¸": 7220,
      "ìļ¹": 7221,
      "ìļº": 7222,
      "ìļ»": 7223,
      "ìļ¼": 7224,
      "ìļ½": 7225,
      "ìļ¾": 7226,
      "ìļ¿": 7227,
      "ìĽ": 7228,
      "ìĽĢ": 7229,
      "ìĽģ": 7230,
      "ìĽĤ": 7231,
      "ìĽĥ": 7232,
      "ìĽĦ": 7233,
      "ìĽħ": 7234,
      "ìĽĨ": 7235,
      "ìĽĩ": 7236,
      "ìĽĪ": 7237,
      "ìĽī": 7238,
      "ìĽĬ": 7239,
      "ìĽĭ": 7240,
      "ìĽĮ": 7241,
      "ìĽį": 7242,
      "ìĽİ": 7243,
      "ìĽı": 7244,
      "ìĽĲ": 7245,
      "ìĽĳ": 7246,
      "ìĽĴ": 7247,
      "ìĽĵ": 7248,
      "ìĽĶ": 7249,
      "ìĽķ": 7250,
      "ìĽĸ": 7251,
      "ìĽĹ": 7252,
      "ìĽĺ": 7253,
      "ìĽĻ": 7254,
      "ìĽļ": 7255,
      "ìĽĽ": 7256,
      "ìĽľ": 7257,
      "ìĽĿ": 7258,
      "ìĽŀ": 7259,
      "ìĽŁ": 7260,
      "ìĽł": 7261,
      "ìĽ¡": 7262,
      "ìĽ¢": 7263,
      "ìĽ£": 7264,
      "ìĽ¤": 7265,
      "ìĽ¥": 7266,
      "ìĽ¦": 7267,
      "ìĽ§": 7268,
      "ìĽ¨": 7269,
      "ìĽ©": 7270,
      "ìĽª": 7271,
      "ìĽ«": 7272,
      "ìĽ¬": 7273,
      "ìĽŃ": 7274,
      "ìĽ®": 7275,
      "ìĽ¯": 7276,
      "ìĽ°": 7277,
      "ìĽ±": 7278,
      "ìĽ²": 7279,
      "ìĽ³": 7280,
      "ìĽ´": 7281,
      "ìĽµ": 7282,
      "ìĽ¶": 7283,
      "ìĽ·": 7284,
      "ìĽ¸": 7285,
      "ìĽ¹": 7286,
      "ìĽº": 7287,
      "ìĽ»": 7288,
      "ìĽ¼": 7289,
      "ìĽ½": 7290,
      "ìĽ¾": 7291,
      "ìĽ¿": 7292,
      "ìľ": 7293,
      "ìľĢ": 7294,
      "ìľģ": 7295,
      "ìľĤ": 7296,
      "ìľĥ": 7297,
      "ìľĦ": 7298,
      "ìľħ": 7299,
      "ìľĨ": 7300,
      "ìľĩ": 7301,
      "ìľĪ": 7302,
      "ìľī": 7303,
      "ìľĬ": 7304,
      "ìľĭ": 7305,
      "ìľĮ": 7306,
      "ìľį": 7307,
      "ìľİ": 7308,
      "ìľı": 7309,
      "ìľĲ": 7310,
      "ìľĳ": 7311,
      "ìľĴ": 7312,
      "ìľĵ": 7313,
      "ìľĶ": 7314,
      "ìľķ": 7315,
      "ìľĸ": 7316,
      "ìľĹ": 7317,
      "ìľĺ": 7318,
      "ìľĻ": 7319,
      "ìľļ": 7320,
      "ìľĽ": 7321,
      "ìľľ": 7322,
      "ìľĿ": 7323,
      "ìľŀ": 7324,
      "ìľŁ": 7325,
      "ìľł": 7326,
      "ìľ¡": 7327,
      "ìľ¢": 7328,
      "ìľ£": 7329,
      "ìľ¤": 7330,
      "ìľ¥": 7331,
      "ìľ¦": 7332,
      "ìľ§": 7333,
      "ìľ¨": 7334,
      "ìľ©": 7335,
      "ìľª": 7336,
      "ìľ«": 7337,
      "ìľ¬": 7338,
      "ìľŃ": 7339,
      "ìľ®": 7340,
      "ìľ¯": 7341,
      "ìľ°": 7342,
      "ìľ±": 7343,
      "ìľ²": 7344,
      "ìľ³": 7345,
      "ìľ´": 7346,
      "ìľµ": 7347,
      "ìľ¶": 7348,
      "ìľ·": 7349,
      "ìľ¸": 7350,
      "ìľ¹": 7351,
      "ìľº": 7352,
      "ìľ»": 7353,
      "ìľ¼": 7354,
      "ìľ½": 7355,
      "ìľ¾": 7356,
      "ìľ¿": 7357,
      "ìĿ": 7358,
      "ìĿĢ": 7359,
      "ìĿģ": 7360,
      "ìĿĤ": 7361,
      "ìĿĥ": 7362,
      "ìĿĦ": 7363,
      "ìĿħ": 7364,
      "ìĿĨ": 7365,
      "ìĿĩ": 7366,
      "ìĿĪ": 7367,
      "ìĿī": 7368,
      "ìĿĬ": 7369,
      "ìĿĭ": 7370,
      "ìĿĮ": 7371,
      "ìĿį": 7372,
      "ìĿİ": 7373,
      "ìĿı": 7374,
      "ìĿĲ": 7375,
      "ìĿĳ": 7376,
      "ìĿĴ": 7377,
      "ìĿĵ": 7378,
      "ìĿĶ": 7379,
      "ìĿķ": 7380,
      "ìĿĸ": 7381,
      "ìĿĹ": 7382,
      "ìĿĺ": 7383,
      "ìĿĻ": 7384,
      "ìĿļ": 7385,
      "ìĿĽ": 7386,
      "ìĿľ": 7387,
      "ìĿĿ": 7388,
      "ìĿŀ": 7389,
      "ìĿŁ": 7390,
      "ìĿł": 7391,
      "ìĿ¡": 7392,
      "ìĿ¢": 7393,
      "ìĿ£": 7394,
      "ìĿ¤": 7395,
      "ìĿ¥": 7396,
      "ìĿ¦": 7397,
      "ìĿ§": 7398,
      "ìĿ¨": 7399,
      "ìĿ©": 7400,
      "ìĿª": 7401,
      "ìĿ«": 7402,
      "ìĿ¬": 7403,
      "ìĿŃ": 7404,
      "ìĿ®": 7405,
      "ìĿ¯": 7406,
      "ìĿ°": 7407,
      "ìĿ±": 7408,
      "ìĿ²": 7409,
      "ìĿ³": 7410,
      "ìĿ´": 7411,
      "ìĿµ": 7412,
      "ìĿ¶": 7413,
      "ìĿ·": 7414,
      "ìĿ¸": 7415,
      "ìĿ¹": 7416,
      "ìĿº": 7417,
      "ìĿ»": 7418,
      "ìĿ¼": 7419,
      "ìĿ½": 7420,
      "ìĿ¾": 7421,
      "ìĿ¿": 7422,
      "ìŀ": 7423,
      "ìŀĢ": 7424,
      "ìŀģ": 7425,
      "ìŀĤ": 7426,
      "ìŀĥ": 7427,
      "ìŀĦ": 7428,
      "ìŀħ": 7429,
      "ìŀĨ": 7430,
      "ìŀĩ": 7431,
      "ìŀĪ": 7432,
      "ìŀī": 7433,
      "ìŀĬ": 7434,
      "ìŀĭ": 7435,
      "ìŀĮ": 7436,
      "ìŀį": 7437,
      "ìŀİ": 7438,
      "ìŀı": 7439,
      "ìŀĲ": 7440,
      "ìŀĳ": 7441,
      "ìŀĴ": 7442,
      "ìŀĵ": 7443,
      "ìŀĶ": 7444,
      "ìŀķ": 7445,
      "ìŀĸ": 7446,
      "ìŀĹ": 7447,
      "ìŀĺ": 7448,
      "ìŀĻ": 7449,
      "ìŀļ": 7450,
      "ìŀĽ": 7451,
      "ìŀľ": 7452,
      "ìŀĿ": 7453,
      "ìŀŀ": 7454,
      "ìŀŁ": 7455,
      "ìŀł": 7456,
      "ìŀ¡": 7457,
      "ìŀ¢": 7458,
      "ìŀ£": 7459,
      "ìŀ¤": 7460,
      "ìŀ¥": 7461,
      "ìŀ¦": 7462,
      "ìŀ§": 7463,
      "ìŀ¨": 7464,
      "ìŀ©": 7465,
      "ìŀª": 7466,
      "ìŀ«": 7467,
      "ìŀ¬": 7468,
      "ìŀŃ": 7469,
      "ìŀ®": 7470,
      "ìŀ¯": 7471,
      "ìŀ°": 7472,
      "ìŀ±": 7473,
      "ìŀ²": 7474,
      "ìŀ³": 7475,
      "ìŀ´": 7476,
      "ìŀµ": 7477,
      "ìŀ¶": 7478,
      "ìŀ·": 7479,
      "ìŀ¸": 7480,
      "ìŀ¹": 7481,
      "ìŀº": 7482,
      "ìŀ»": 7483,
      "ìŀ¼": 7484,
      "ìŀ½": 7485,
      "ìŀ¾": 7486,
      "ìŀ¿": 7487,
      "ìŁ": 7488,
      "ìŁĢ": 7489,
      "ìŁģ": 7490,
      "ìŁĤ": 7491,
      "ìŁĥ": 7492,
      "ìŁĦ": 7493,
      "ìŁħ": 7494,
      "ìŁĨ": 7495,
      "ìŁĩ": 7496,
      "ìŁĪ": 7497,
      "ìŁī": 7498,
      "ìŁĬ": 7499,
      "ìŁĭ": 7500,
      "ìŁĮ": 7501,
      "ìŁį": 7502,
      "ìŁİ": 7503,
      "ìŁı": 7504,
      "ìŁĲ": 7505,
      "ìŁĳ": 7506,
      "ìŁĴ": 7507,
      "ìŁĵ": 7508,
      "ìŁĶ": 7509,
      "ìŁķ": 7510,
      "ìŁĸ": 7511,
      "ìŁĹ": 7512,
      "ìŁĺ": 7513,
      "ìŁĻ": 7514,
      "ìŁļ": 7515,
      "ìŁĽ": 7516,
      "ìŁľ": 7517,
      "ìŁĿ": 7518,
      "ìŁŀ": 7519,
      "ìŁŁ": 7520,
      "ìŁł": 7521,
      "ìŁ¡": 7522,
      "ìŁ¢": 7523,
      "ìŁ£": 7524,
      "ìŁ¤": 7525,
      "ìŁ¥": 7526,
      "ìŁ¦": 7527,
      "ìŁ§": 7528,
      "ìŁ¨": 7529,
      "ìŁ©": 7530,
      "ìŁª": 7531,
      "ìŁ«": 7532,
      "ìŁ¬": 7533,
      "ìŁŃ": 7534,
      "ìŁ®": 7535,
      "ìŁ¯": 7536,
      "ìŁ°": 7537,
      "ìŁ±": 7538,
      "ìŁ²": 7539,
      "ìŁ³": 7540,
      "ìŁ´": 7541,
      "ìŁµ": 7542,
      "ìŁ¶": 7543,
      "ìŁ·": 7544,
      "ìŁ¸": 7545,
      "ìŁ¹": 7546,
      "ìŁº": 7547,
      "ìŁ»": 7548,
      "ìŁ¼": 7549,
      "ìŁ½": 7550,
      "ìŁ¾": 7551,
      "ìŁ¿": 7552,
      "ìł": 7553,
      "ìłĢ": 7554,
      "ìłģ": 7555,
      "ìłĤ": 7556,
      "ìłĥ": 7557,
      "ìłĦ": 7558,
      "ìłħ": 7559,
      "ìłĨ": 7560,
      "ìłĩ": 7561,
      "ìłĪ": 7562,
      "ìłī": 7563,
      "ìłĬ": 7564,
      "ìłĭ": 7565,
      "ìłĮ": 7566,
      "ìłį": 7567,
      "ìłİ": 7568,
      "ìłı": 7569,
      "ìłĲ": 7570,
      "ìłĳ": 7571,
      "ìłĴ": 7572,
      "ìłĵ": 7573,
      "ìłĶ": 7574,
      "ìłķ": 7575,
      "ìłĸ": 7576,
      "ìłĹ": 7577,
      "ìłĺ": 7578,
      "ìłĻ": 7579,
      "ìłļ": 7580,
      "ìłĽ": 7581,
      "ìłľ": 7582,
      "ìłĿ": 7583,
      "ìłŀ": 7584,
      "ìłŁ": 7585,
      "ìłł": 7586,
      "ìł¡": 7587,
      "ìł¢": 7588,
      "ìł£": 7589,
      "ìł¤": 7590,
      "ìł¥": 7591,
      "ìł¦": 7592,
      "ìł§": 7593,
      "ìł¨": 7594,
      "ìł©": 7595,
      "ìłª": 7596,
      "ìł«": 7597,
      "ìł¬": 7598,
      "ìłŃ": 7599,
      "ìł®": 7600,
      "ìł¯": 7601,
      "ìł°": 7602,
      "ìł±": 7603,
      "ìł²": 7604,
      "ìł³": 7605,
      "ìł´": 7606,
      "ìłµ": 7607,
      "ìł¶": 7608,
      "ìł·": 7609,
      "ìł¸": 7610,
      "ìł¹": 7611,
      "ìłº": 7612,
      "ìł»": 7613,
      "ìł¼": 7614,
      "ìł½": 7615,
      "ìł¾": 7616,
      "ìł¿": 7617,
      "ì¡": 7618,
      "ì¡Ģ": 7619,
      "ì¡ģ": 7620,
      "ì¡Ĥ": 7621,
      "ì¡ĥ": 7622,
      "ì¡Ħ": 7623,
      "ì¡ħ": 7624,
      "ì¡Ĩ": 7625,
      "ì¡ĩ": 7626,
      "ì¡Ī": 7627,
      "ì¡ī": 7628,
      "ì¡Ĭ": 7629,
      "ì¡ĭ": 7630,
      "ì¡Į": 7631,
      "ì¡į": 7632,
      "ì¡İ": 7633,
      "ì¡ı": 7634,
      "ì¡Ĳ": 7635,
      "ì¡ĳ": 7636,
      "ì¡Ĵ": 7637,
      "ì¡ĵ": 7638,
      "ì¡Ķ": 7639,
      "ì¡ķ": 7640,
      "ì¡ĸ": 7641,
      "ì¡Ĺ": 7642,
      "ì¡ĺ": 7643,
      "ì¡Ļ": 7644,
      "ì¡ļ": 7645,
      "ì¡Ľ": 7646,
      "ì¡ľ": 7647,
      "ì¡Ŀ": 7648,
      "ì¡ŀ": 7649,
      "ì¡Ł": 7650,
      "ì¡ł": 7651,
      "ì¡¡": 7652,
      "ì¡¢": 7653,
      "ì¡£": 7654,
      "ì¡¤": 7655,
      "ì¡¥": 7656,
      "ì¡¦": 7657,
      "ì¡§": 7658,
      "ì¡¨": 7659,
      "ì¡©": 7660,
      "ì¡ª": 7661,
      "ì¡«": 7662,
      "ì¡¬": 7663,
      "ì¡Ń": 7664,
      "ì¡®": 7665,
      "ì¡¯": 7666,
      "ì¡°": 7667,
      "ì¡±": 7668,
      "ì¡²": 7669,
      "ì¡³": 7670,
      "ì¡´": 7671,
      "ì¡µ": 7672,
      "ì¡¶": 7673,
      "ì¡·": 7674,
      "ì¡¸": 7675,
      "ì¡¹": 7676,
      "ì¡º": 7677,
      "ì¡»": 7678,
      "ì¡¼": 7679,
      "ì¡½": 7680,
      "ì¡¾": 7681,
      "ì¡¿": 7682,
      "ì¢": 7683,
      "ì¢Ģ": 7684,
      "ì¢ģ": 7685,
      "ì¢Ĥ": 7686,
      "ì¢ĥ": 7687,
      "ì¢Ħ": 7688,
      "ì¢ħ": 7689,
      "ì¢Ĩ": 7690,
      "ì¢ĩ": 7691,
      "ì¢Ī": 7692,
      "ì¢ī": 7693,
      "ì¢Ĭ": 7694,
      "ì¢ĭ": 7695,
      "ì¢Į": 7696,
      "ì¢į": 7697,
      "ì¢İ": 7698,
      "ì¢ı": 7699,
      "ì¢Ĳ": 7700,
      "ì¢ĳ": 7701,
      "ì¢Ĵ": 7702,
      "ì¢ĵ": 7703,
      "ì¢Ķ": 7704,
      "ì¢ķ": 7705,
      "ì¢ĸ": 7706,
      "ì¢Ĺ": 7707,
      "ì¢ĺ": 7708,
      "ì¢Ļ": 7709,
      "ì¢ļ": 7710,
      "ì¢Ľ": 7711,
      "ì¢ľ": 7712,
      "ì¢Ŀ": 7713,
      "ì¢ŀ": 7714,
      "ì¢Ł": 7715,
      "ì¢ł": 7716,
      "ì¢¡": 7717,
      "ì¢¢": 7718,
      "ì¢£": 7719,
      "ì¢¤": 7720,
      "ì¢¥": 7721,
      "ì¢¦": 7722,
      "ì¢§": 7723,
      "ì¢¨": 7724,
      "ì¢©": 7725,
      "ì¢ª": 7726,
      "ì¢«": 7727,
      "ì¢¬": 7728,
      "ì¢Ń": 7729,
      "ì¢®": 7730,
      "ì¢¯": 7731,
      "ì¢°": 7732,
      "ì¢±": 7733,
      "ì¢²": 7734,
      "ì¢³": 7735,
      "ì¢´": 7736,
      "ì¢µ": 7737,
      "ì¢¶": 7738,
      "ì¢·": 7739,
      "ì¢¸": 7740,
      "ì¢¹": 7741,
      "ì¢º": 7742,
      "ì¢»": 7743,
      "ì¢¼": 7744,
      "ì¢½": 7745,
      "ì¢¾": 7746,
      "ì¢¿": 7747,
      "ì£": 7748,
      "ì£Ģ": 7749,
      "ì£ģ": 7750,
      "ì£Ĥ": 7751,
      "ì£ĥ": 7752,
      "ì£Ħ": 7753,
      "ì£ħ": 7754,
      "ì£Ĩ": 7755,
      "ì£ĩ": 7756,
      "ì£Ī": 7757,
      "ì£ī": 7758,
      "ì£Ĭ": 7759,
      "ì£ĭ": 7760,
      "ì£Į": 7761,
      "ì£į": 7762,
      "ì£İ": 7763,
      "ì£ı": 7764,
      "ì£Ĳ": 7765,
      "ì£ĳ": 7766,
      "ì£Ĵ": 7767,
      "ì£ĵ": 7768,
      "ì£Ķ": 7769,
      "ì£ķ": 7770,
      "ì£ĸ": 7771,
      "ì£Ĺ": 7772,
      "ì£ĺ": 7773,
      "ì£Ļ": 7774,
      "ì£ļ": 7775,
      "ì£Ľ": 7776,
      "ì£ľ": 7777,
      "ì£Ŀ": 7778,
      "ì£ŀ": 7779,
      "ì£Ł": 7780,
      "ì£ł": 7781,
      "ì£¡": 7782,
      "ì£¢": 7783,
      "ì££": 7784,
      "ì£¤": 7785,
      "ì£¥": 7786,
      "ì£¦": 7787,
      "ì£§": 7788,
      "ì£¨": 7789,
      "ì£©": 7790,
      "ì£ª": 7791,
      "ì£«": 7792,
      "ì£¬": 7793,
      "ì£Ń": 7794,
      "ì£®": 7795,
      "ì£¯": 7796,
      "ì£°": 7797,
      "ì£±": 7798,
      "ì£²": 7799,
      "ì£³": 7800,
      "ì£´": 7801,
      "ì£µ": 7802,
      "ì£¶": 7803,
      "ì£·": 7804,
      "ì£¸": 7805,
      "ì£¹": 7806,
      "ì£º": 7807,
      "ì£»": 7808,
      "ì£¼": 7809,
      "ì£½": 7810,
      "ì£¾": 7811,
      "ì£¿": 7812,
      "ì¤": 7813,
      "ì¤Ģ": 7814,
      "ì¤ģ": 7815,
      "ì¤Ĥ": 7816,
      "ì¤ĥ": 7817,
      "ì¤Ħ": 7818,
      "ì¤ħ": 7819,
      "ì¤Ĩ": 7820,
      "ì¤ĩ": 7821,
      "ì¤Ī": 7822,
      "ì¤ī": 7823,
      "ì¤Ĭ": 7824,
      "ì¤ĭ": 7825,
      "ì¤Į": 7826,
      "ì¤į": 7827,
      "ì¤İ": 7828,
      "ì¤ı": 7829,
      "ì¤Ĳ": 7830,
      "ì¤ĳ": 7831,
      "ì¤Ĵ": 7832,
      "ì¤ĵ": 7833,
      "ì¤Ķ": 7834,
      "ì¤ķ": 7835,
      "ì¤ĸ": 7836,
      "ì¤Ĺ": 7837,
      "ì¤ĺ": 7838,
      "ì¤Ļ": 7839,
      "ì¤ļ": 7840,
      "ì¤Ľ": 7841,
      "ì¤ľ": 7842,
      "ì¤Ŀ": 7843,
      "ì¤ŀ": 7844,
      "ì¤Ł": 7845,
      "ì¤ł": 7846,
      "ì¤¡": 7847,
      "ì¤¢": 7848,
      "ì¤£": 7849,
      "ì¤¤": 7850,
      "ì¤¥": 7851,
      "ì¤¦": 7852,
      "ì¤§": 7853,
      "ì¤¨": 7854,
      "ì¤©": 7855,
      "ì¤ª": 7856,
      "ì¤«": 7857,
      "ì¤¬": 7858,
      "ì¤Ń": 7859,
      "ì¤®": 7860,
      "ì¤¯": 7861,
      "ì¤°": 7862,
      "ì¤±": 7863,
      "ì¤²": 7864,
      "ì¤³": 7865,
      "ì¤´": 7866,
      "ì¤µ": 7867,
      "ì¤¶": 7868,
      "ì¤·": 7869,
      "ì¤¸": 7870,
      "ì¤¹": 7871,
      "ì¤º": 7872,
      "ì¤»": 7873,
      "ì¤¼": 7874,
      "ì¤½": 7875,
      "ì¤¾": 7876,
      "ì¤¿": 7877,
      "ì¥": 7878,
      "ì¥Ģ": 7879,
      "ì¥ģ": 7880,
      "ì¥Ĥ": 7881,
      "ì¥ĥ": 7882,
      "ì¥Ħ": 7883,
      "ì¥ħ": 7884,
      "ì¥Ĩ": 7885,
      "ì¥ĩ": 7886,
      "ì¥Ī": 7887,
      "ì¥ī": 7888,
      "ì¥Ĭ": 7889,
      "ì¥ĭ": 7890,
      "ì¥Į": 7891,
      "ì¥į": 7892,
      "ì¥İ": 7893,
      "ì¥ı": 7894,
      "ì¥Ĳ": 7895,
      "ì¥ĳ": 7896,
      "ì¥Ĵ": 7897,
      "ì¥ĵ": 7898,
      "ì¥Ķ": 7899,
      "ì¥ķ": 7900,
      "ì¥ĸ": 7901,
      "ì¥Ĺ": 7902,
      "ì¥ĺ": 7903,
      "ì¥Ļ": 7904,
      "ì¥ļ": 7905,
      "ì¥Ľ": 7906,
      "ì¥ľ": 7907,
      "ì¥Ŀ": 7908,
      "ì¥ŀ": 7909,
      "ì¥Ł": 7910,
      "ì¥ł": 7911,
      "ì¥¡": 7912,
      "ì¥¢": 7913,
      "ì¥£": 7914,
      "ì¥¤": 7915,
      "ì¥¥": 7916,
      "ì¥¦": 7917,
      "ì¥§": 7918,
      "ì¥¨": 7919,
      "ì¥©": 7920,
      "ì¥ª": 7921,
      "ì¥«": 7922,
      "ì¥¬": 7923,
      "ì¥Ń": 7924,
      "ì¥®": 7925,
      "ì¥¯": 7926,
      "ì¥°": 7927,
      "ì¥±": 7928,
      "ì¥²": 7929,
      "ì¥³": 7930,
      "ì¥´": 7931,
      "ì¥µ": 7932,
      "ì¥¶": 7933,
      "ì¥·": 7934,
      "ì¥¸": 7935,
      "ì¥¹": 7936,
      "ì¥º": 7937,
      "ì¥»": 7938,
      "ì¥¼": 7939,
      "ì¥½": 7940,
      "ì¥¾": 7941,
      "ì¥¿": 7942,
      "ì¦": 7943,
      "ì¦Ģ": 7944,
      "ì¦ģ": 7945,
      "ì¦Ĥ": 7946,
      "ì¦ĥ": 7947,
      "ì¦Ħ": 7948,
      "ì¦ħ": 7949,
      "ì¦Ĩ": 7950,
      "ì¦ĩ": 7951,
      "ì¦Ī": 7952,
      "ì¦ī": 7953,
      "ì¦Ĭ": 7954,
      "ì¦ĭ": 7955,
      "ì¦Į": 7956,
      "ì¦į": 7957,
      "ì¦İ": 7958,
      "ì¦ı": 7959,
      "ì¦Ĳ": 7960,
      "ì¦ĳ": 7961,
      "ì¦Ĵ": 7962,
      "ì¦ĵ": 7963,
      "ì¦Ķ": 7964,
      "ì¦ķ": 7965,
      "ì¦ĸ": 7966,
      "ì¦Ĺ": 7967,
      "ì¦ĺ": 7968,
      "ì¦Ļ": 7969,
      "ì¦ļ": 7970,
      "ì¦Ľ": 7971,
      "ì¦ľ": 7972,
      "ì¦Ŀ": 7973,
      "ì¦ŀ": 7974,
      "ì¦Ł": 7975,
      "ì¦ł": 7976,
      "ì¦¡": 7977,
      "ì¦¢": 7978,
      "ì¦£": 7979,
      "ì¦¤": 7980,
      "ì¦¥": 7981,
      "ì¦¦": 7982,
      "ì¦§": 7983,
      "ì¦¨": 7984,
      "ì¦©": 7985,
      "ì¦ª": 7986,
      "ì¦«": 7987,
      "ì¦¬": 7988,
      "ì¦Ń": 7989,
      "ì¦®": 7990,
      "ì¦¯": 7991,
      "ì¦°": 7992,
      "ì¦±": 7993,
      "ì¦²": 7994,
      "ì¦³": 7995,
      "ì¦´": 7996,
      "ì¦µ": 7997,
      "ì¦¶": 7998,
      "ì¦·": 7999,
      "ì¦¸": 8000,
      "ì¦¹": 8001,
      "ì¦º": 8002,
      "ì¦»": 8003,
      "ì¦¼": 8004,
      "ì¦½": 8005,
      "ì¦¾": 8006,
      "ì¦¿": 8007,
      "ì§": 8008,
      "ì§Ģ": 8009,
      "ì§ģ": 8010,
      "ì§Ĥ": 8011,
      "ì§ĥ": 8012,
      "ì§Ħ": 8013,
      "ì§ħ": 8014,
      "ì§Ĩ": 8015,
      "ì§ĩ": 8016,
      "ì§Ī": 8017,
      "ì§ī": 8018,
      "ì§Ĭ": 8019,
      "ì§ĭ": 8020,
      "ì§Į": 8021,
      "ì§į": 8022,
      "ì§İ": 8023,
      "ì§ı": 8024,
      "ì§Ĳ": 8025,
      "ì§ĳ": 8026,
      "ì§Ĵ": 8027,
      "ì§ĵ": 8028,
      "ì§Ķ": 8029,
      "ì§ķ": 8030,
      "ì§ĸ": 8031,
      "ì§Ĺ": 8032,
      "ì§ĺ": 8033,
      "ì§Ļ": 8034,
      "ì§ļ": 8035,
      "ì§Ľ": 8036,
      "ì§ľ": 8037,
      "ì§Ŀ": 8038,
      "ì§ŀ": 8039,
      "ì§Ł": 8040,
      "ì§ł": 8041,
      "ì§¡": 8042,
      "ì§¢": 8043,
      "ì§£": 8044,
      "ì§¤": 8045,
      "ì§¥": 8046,
      "ì§¦": 8047,
      "ì§§": 8048,
      "ì§¨": 8049,
      "ì§©": 8050,
      "ì§ª": 8051,
      "ì§«": 8052,
      "ì§¬": 8053,
      "ì§Ń": 8054,
      "ì§®": 8055,
      "ì§¯": 8056,
      "ì§°": 8057,
      "ì§±": 8058,
      "ì§²": 8059,
      "ì§³": 8060,
      "ì§´": 8061,
      "ì§µ": 8062,
      "ì§¶": 8063,
      "ì§·": 8064,
      "ì§¸": 8065,
      "ì§¹": 8066,
      "ì§º": 8067,
      "ì§»": 8068,
      "ì§¼": 8069,
      "ì§½": 8070,
      "ì§¾": 8071,
      "ì§¿": 8072,
      "ì¨": 8073,
      "ì¨Ģ": 8074,
      "ì¨ģ": 8075,
      "ì¨Ĥ": 8076,
      "ì¨ĥ": 8077,
      "ì¨Ħ": 8078,
      "ì¨ħ": 8079,
      "ì¨Ĩ": 8080,
      "ì¨ĩ": 8081,
      "ì¨Ī": 8082,
      "ì¨ī": 8083,
      "ì¨Ĭ": 8084,
      "ì¨ĭ": 8085,
      "ì¨Į": 8086,
      "ì¨į": 8087,
      "ì¨İ": 8088,
      "ì¨ı": 8089,
      "ì¨Ĳ": 8090,
      "ì¨ĳ": 8091,
      "ì¨Ĵ": 8092,
      "ì¨ĵ": 8093,
      "ì¨Ķ": 8094,
      "ì¨ķ": 8095,
      "ì¨ĸ": 8096,
      "ì¨Ĺ": 8097,
      "ì¨ĺ": 8098,
      "ì¨Ļ": 8099,
      "ì¨ļ": 8100,
      "ì¨Ľ": 8101,
      "ì¨ľ": 8102,
      "ì¨Ŀ": 8103,
      "ì¨ŀ": 8104,
      "ì¨Ł": 8105,
      "ì¨ł": 8106,
      "ì¨¡": 8107,
      "ì¨¢": 8108,
      "ì¨£": 8109,
      "ì¨¤": 8110,
      "ì¨¥": 8111,
      "ì¨¦": 8112,
      "ì¨§": 8113,
      "ì¨¨": 8114,
      "ì¨©": 8115,
      "ì¨ª": 8116,
      "ì¨«": 8117,
      "ì¨¬": 8118,
      "ì¨Ń": 8119,
      "ì¨®": 8120,
      "ì¨¯": 8121,
      "ì¨°": 8122,
      "ì¨±": 8123,
      "ì¨²": 8124,
      "ì¨³": 8125,
      "ì¨´": 8126,
      "ì¨µ": 8127,
      "ì¨¶": 8128,
      "ì¨·": 8129,
      "ì¨¸": 8130,
      "ì¨¹": 8131,
      "ì¨º": 8132,
      "ì¨»": 8133,
      "ì¨¼": 8134,
      "ì¨½": 8135,
      "ì¨¾": 8136,
      "ì¨¿": 8137,
      "ì©": 8138,
      "ì©Ģ": 8139,
      "ì©ģ": 8140,
      "ì©Ĥ": 8141,
      "ì©ĥ": 8142,
      "ì©Ħ": 8143,
      "ì©ħ": 8144,
      "ì©Ĩ": 8145,
      "ì©ĩ": 8146,
      "ì©Ī": 8147,
      "ì©ī": 8148,
      "ì©Ĭ": 8149,
      "ì©ĭ": 8150,
      "ì©Į": 8151,
      "ì©į": 8152,
      "ì©İ": 8153,
      "ì©ı": 8154,
      "ì©Ĳ": 8155,
      "ì©ĳ": 8156,
      "ì©Ĵ": 8157,
      "ì©ĵ": 8158,
      "ì©Ķ": 8159,
      "ì©ķ": 8160,
      "ì©ĸ": 8161,
      "ì©Ĺ": 8162,
      "ì©ĺ": 8163,
      "ì©Ļ": 8164,
      "ì©ļ": 8165,
      "ì©Ľ": 8166,
      "ì©ľ": 8167,
      "ì©Ŀ": 8168,
      "ì©ŀ": 8169,
      "ì©Ł": 8170,
      "ì©ł": 8171,
      "ì©¡": 8172,
      "ì©¢": 8173,
      "ì©£": 8174,
      "ì©¤": 8175,
      "ì©¥": 8176,
      "ì©¦": 8177,
      "ì©§": 8178,
      "ì©¨": 8179,
      "ì©©": 8180,
      "ì©ª": 8181,
      "ì©«": 8182,
      "ì©¬": 8183,
      "ì©Ń": 8184,
      "ì©®": 8185,
      "ì©¯": 8186,
      "ì©°": 8187,
      "ì©±": 8188,
      "ì©²": 8189,
      "ì©³": 8190,
      "ì©´": 8191,
      "ì©µ": 8192,
      "ì©¶": 8193,
      "ì©·": 8194,
      "ì©¸": 8195,
      "ì©¹": 8196,
      "ì©º": 8197,
      "ì©»": 8198,
      "ì©¼": 8199,
      "ì©½": 8200,
      "ì©¾": 8201,
      "ì©¿": 8202,
      "ìª": 8203,
      "ìªĢ": 8204,
      "ìªģ": 8205,
      "ìªĤ": 8206,
      "ìªĥ": 8207,
      "ìªĦ": 8208,
      "ìªħ": 8209,
      "ìªĨ": 8210,
      "ìªĩ": 8211,
      "ìªĪ": 8212,
      "ìªī": 8213,
      "ìªĬ": 8214,
      "ìªĭ": 8215,
      "ìªĮ": 8216,
      "ìªį": 8217,
      "ìªİ": 8218,
      "ìªı": 8219,
      "ìªĲ": 8220,
      "ìªĳ": 8221,
      "ìªĴ": 8222,
      "ìªĵ": 8223,
      "ìªĶ": 8224,
      "ìªķ": 8225,
      "ìªĸ": 8226,
      "ìªĹ": 8227,
      "ìªĺ": 8228,
      "ìªĻ": 8229,
      "ìªļ": 8230,
      "ìªĽ": 8231,
      "ìªľ": 8232,
      "ìªĿ": 8233,
      "ìªŀ": 8234,
      "ìªŁ": 8235,
      "ìªł": 8236,
      "ìª¡": 8237,
      "ìª¢": 8238,
      "ìª£": 8239,
      "ìª¤": 8240,
      "ìª¥": 8241,
      "ìª¦": 8242,
      "ìª§": 8243,
      "ìª¨": 8244,
      "ìª©": 8245,
      "ìªª": 8246,
      "ìª«": 8247,
      "ìª¬": 8248,
      "ìªŃ": 8249,
      "ìª®": 8250,
      "ìª¯": 8251,
      "ìª°": 8252,
      "ìª±": 8253,
      "ìª²": 8254,
      "ìª³": 8255,
      "ìª´": 8256,
      "ìªµ": 8257,
      "ìª¶": 8258,
      "ìª·": 8259,
      "ìª¸": 8260,
      "ìª¹": 8261,
      "ìªº": 8262,
      "ìª»": 8263,
      "ìª¼": 8264,
      "ìª½": 8265,
      "ìª¾": 8266,
      "ìª¿": 8267,
      "ì«": 8268,
      "ì«Ģ": 8269,
      "ì«ģ": 8270,
      "ì«Ĥ": 8271,
      "ì«ĥ": 8272,
      "ì«Ħ": 8273,
      "ì«ħ": 8274,
      "ì«Ĩ": 8275,
      "ì«ĩ": 8276,
      "ì«Ī": 8277,
      "ì«ī": 8278,
      "ì«Ĭ": 8279,
      "ì«ĭ": 8280,
      "ì«Į": 8281,
      "ì«į": 8282,
      "ì«İ": 8283,
      "ì«ı": 8284,
      "ì«Ĳ": 8285,
      "ì«ĳ": 8286,
      "ì«Ĵ": 8287,
      "ì«ĵ": 8288,
      "ì«Ķ": 8289,
      "ì«ķ": 8290,
      "ì«ĸ": 8291,
      "ì«Ĺ": 8292,
      "ì«ĺ": 8293,
      "ì«Ļ": 8294,
      "ì«ļ": 8295,
      "ì«Ľ": 8296,
      "ì«ľ": 8297,
      "ì«Ŀ": 8298,
      "ì«ŀ": 8299,
      "ì«Ł": 8300,
      "ì«ł": 8301,
      "ì«¡": 8302,
      "ì«¢": 8303,
      "ì«£": 8304,
      "ì«¤": 8305,
      "ì«¥": 8306,
      "ì«¦": 8307,
      "ì«§": 8308,
      "ì«¨": 8309,
      "ì«©": 8310,
      "ì«ª": 8311,
      "ì««": 8312,
      "ì«¬": 8313,
      "ì«Ń": 8314,
      "ì«®": 8315,
      "ì«¯": 8316,
      "ì«°": 8317,
      "ì«±": 8318,
      "ì«²": 8319,
      "ì«³": 8320,
      "ì«´": 8321,
      "ì«µ": 8322,
      "ì«¶": 8323,
      "ì«·": 8324,
      "ì«¸": 8325,
      "ì«¹": 8326,
      "ì«º": 8327,
      "ì«»": 8328,
      "ì«¼": 8329,
      "ì«½": 8330,
      "ì«¾": 8331,
      "ì«¿": 8332,
      "ì¬": 8333,
      "ì¬Ģ": 8334,
      "ì¬ģ": 8335,
      "ì¬Ĥ": 8336,
      "ì¬ĥ": 8337,
      "ì¬Ħ": 8338,
      "ì¬ħ": 8339,
      "ì¬Ĩ": 8340,
      "ì¬ĩ": 8341,
      "ì¬Ī": 8342,
      "ì¬ī": 8343,
      "ì¬Ĭ": 8344,
      "ì¬ĭ": 8345,
      "ì¬Į": 8346,
      "ì¬į": 8347,
      "ì¬İ": 8348,
      "ì¬ı": 8349,
      "ì¬Ĳ": 8350,
      "ì¬ĳ": 8351,
      "ì¬Ĵ": 8352,
      "ì¬ĵ": 8353,
      "ì¬Ķ": 8354,
      "ì¬ķ": 8355,
      "ì¬ĸ": 8356,
      "ì¬Ĺ": 8357,
      "ì¬ĺ": 8358,
      "ì¬Ļ": 8359,
      "ì¬ļ": 8360,
      "ì¬Ľ": 8361,
      "ì¬ľ": 8362,
      "ì¬Ŀ": 8363,
      "ì¬ŀ": 8364,
      "ì¬Ł": 8365,
      "ì¬ł": 8366,
      "ì¬¡": 8367,
      "ì¬¢": 8368,
      "ì¬£": 8369,
      "ì¬¤": 8370,
      "ì¬¥": 8371,
      "ì¬¦": 8372,
      "ì¬§": 8373,
      "ì¬¨": 8374,
      "ì¬©": 8375,
      "ì¬ª": 8376,
      "ì¬«": 8377,
      "ì¬¬": 8378,
      "ì¬Ń": 8379,
      "ì¬®": 8380,
      "ì¬¯": 8381,
      "ì¬°": 8382,
      "ì¬±": 8383,
      "ì¬²": 8384,
      "ì¬³": 8385,
      "ì¬´": 8386,
      "ì¬µ": 8387,
      "ì¬¶": 8388,
      "ì¬·": 8389,
      "ì¬¸": 8390,
      "ì¬¹": 8391,
      "ì¬º": 8392,
      "ì¬»": 8393,
      "ì¬¼": 8394,
      "ì¬½": 8395,
      "ì¬¾": 8396,
      "ì¬¿": 8397,
      "ìŃ": 8398,
      "ìŃĢ": 8399,
      "ìŃģ": 8400,
      "ìŃĤ": 8401,
      "ìŃĥ": 8402,
      "ìŃĦ": 8403,
      "ìŃħ": 8404,
      "ìŃĨ": 8405,
      "ìŃĩ": 8406,
      "ìŃĪ": 8407,
      "ìŃī": 8408,
      "ìŃĬ": 8409,
      "ìŃĭ": 8410,
      "ìŃĮ": 8411,
      "ìŃį": 8412,
      "ìŃİ": 8413,
      "ìŃı": 8414,
      "ìŃĲ": 8415,
      "ìŃĳ": 8416,
      "ìŃĴ": 8417,
      "ìŃĵ": 8418,
      "ìŃĶ": 8419,
      "ìŃķ": 8420,
      "ìŃĸ": 8421,
      "ìŃĹ": 8422,
      "ìŃĺ": 8423,
      "ìŃĻ": 8424,
      "ìŃļ": 8425,
      "ìŃĽ": 8426,
      "ìŃľ": 8427,
      "ìŃĿ": 8428,
      "ìŃŀ": 8429,
      "ìŃŁ": 8430,
      "ìŃł": 8431,
      "ìŃ¡": 8432,
      "ìŃ¢": 8433,
      "ìŃ£": 8434,
      "ìŃ¤": 8435,
      "ìŃ¥": 8436,
      "ìŃ¦": 8437,
      "ìŃ§": 8438,
      "ìŃ¨": 8439,
      "ìŃ©": 8440,
      "ìŃª": 8441,
      "ìŃ«": 8442,
      "ìŃ¬": 8443,
      "ìŃŃ": 8444,
      "ìŃ®": 8445,
      "ìŃ¯": 8446,
      "ìŃ°": 8447,
      "ìŃ±": 8448,
      "ìŃ²": 8449,
      "ìŃ³": 8450,
      "ìŃ´": 8451,
      "ìŃµ": 8452,
      "ìŃ¶": 8453,
      "ìŃ·": 8454,
      "ìŃ¸": 8455,
      "ìŃ¹": 8456,
      "ìŃº": 8457,
      "ìŃ»": 8458,
      "ìŃ¼": 8459,
      "ìŃ½": 8460,
      "ìŃ¾": 8461,
      "ìŃ¿": 8462,
      "ì®": 8463,
      "ì®Ģ": 8464,
      "ì®ģ": 8465,
      "ì®Ĥ": 8466,
      "ì®ĥ": 8467,
      "ì®Ħ": 8468,
      "ì®ħ": 8469,
      "ì®Ĩ": 8470,
      "ì®ĩ": 8471,
      "ì®Ī": 8472,
      "ì®ī": 8473,
      "ì®Ĭ": 8474,
      "ì®ĭ": 8475,
      "ì®Į": 8476,
      "ì®į": 8477,
      "ì®İ": 8478,
      "ì®ı": 8479,
      "ì®Ĳ": 8480,
      "ì®ĳ": 8481,
      "ì®Ĵ": 8482,
      "ì®ĵ": 8483,
      "ì®Ķ": 8484,
      "ì®ķ": 8485,
      "ì®ĸ": 8486,
      "ì®Ĺ": 8487,
      "ì®ĺ": 8488,
      "ì®Ļ": 8489,
      "ì®ļ": 8490,
      "ì®Ľ": 8491,
      "ì®ľ": 8492,
      "ì®Ŀ": 8493,
      "ì®ŀ": 8494,
      "ì®Ł": 8495,
      "ì®ł": 8496,
      "ì®¡": 8497,
      "ì®¢": 8498,
      "ì®£": 8499,
      "ì®¤": 8500,
      "ì®¥": 8501,
      "ì®¦": 8502,
      "ì®§": 8503,
      "ì®¨": 8504,
      "ì®©": 8505,
      "ì®ª": 8506,
      "ì®«": 8507,
      "ì®¬": 8508,
      "ì®Ń": 8509,
      "ì®®": 8510,
      "ì®¯": 8511,
      "ì®°": 8512,
      "ì®±": 8513,
      "ì®²": 8514,
      "ì®³": 8515,
      "ì®´": 8516,
      "ì®µ": 8517,
      "ì®¶": 8518,
      "ì®·": 8519,
      "ì®¸": 8520,
      "ì®¹": 8521,
      "ì®º": 8522,
      "ì®»": 8523,
      "ì®¼": 8524,
      "ì®½": 8525,
      "ì®¾": 8526,
      "ì®¿": 8527,
      "ì¯": 8528,
      "ì¯Ģ": 8529,
      "ì¯ģ": 8530,
      "ì¯Ĥ": 8531,
      "ì¯ĥ": 8532,
      "ì¯Ħ": 8533,
      "ì¯ħ": 8534,
      "ì¯Ĩ": 8535,
      "ì¯ĩ": 8536,
      "ì¯Ī": 8537,
      "ì¯ī": 8538,
      "ì¯Ĭ": 8539,
      "ì¯ĭ": 8540,
      "ì¯Į": 8541,
      "ì¯į": 8542,
      "ì¯İ": 8543,
      "ì¯ı": 8544,
      "ì¯Ĳ": 8545,
      "ì¯ĳ": 8546,
      "ì¯Ĵ": 8547,
      "ì¯ĵ": 8548,
      "ì¯Ķ": 8549,
      "ì¯ķ": 8550,
      "ì¯ĸ": 8551,
      "ì¯Ĺ": 8552,
      "ì¯ĺ": 8553,
      "ì¯Ļ": 8554,
      "ì¯ļ": 8555,
      "ì¯Ľ": 8556,
      "ì¯ľ": 8557,
      "ì¯Ŀ": 8558,
      "ì¯ŀ": 8559,
      "ì¯Ł": 8560,
      "ì¯ł": 8561,
      "ì¯¡": 8562,
      "ì¯¢": 8563,
      "ì¯£": 8564,
      "ì¯¤": 8565,
      "ì¯¥": 8566,
      "ì¯¦": 8567,
      "ì¯§": 8568,
      "ì¯¨": 8569,
      "ì¯©": 8570,
      "ì¯ª": 8571,
      "ì¯«": 8572,
      "ì¯¬": 8573,
      "ì¯Ń": 8574,
      "ì¯®": 8575,
      "ì¯¯": 8576,
      "ì¯°": 8577,
      "ì¯±": 8578,
      "ì¯²": 8579,
      "ì¯³": 8580,
      "ì¯´": 8581,
      "ì¯µ": 8582,
      "ì¯¶": 8583,
      "ì¯·": 8584,
      "ì¯¸": 8585,
      "ì¯¹": 8586,
      "ì¯º": 8587,
      "ì¯»": 8588,
      "ì¯¼": 8589,
      "ì¯½": 8590,
      "ì¯¾": 8591,
      "ì¯¿": 8592,
      "ì°": 8593,
      "ì°Ģ": 8594,
      "ì°ģ": 8595,
      "ì°Ĥ": 8596,
      "ì°ĥ": 8597,
      "ì°Ħ": 8598,
      "ì°ħ": 8599,
      "ì°Ĩ": 8600,
      "ì°ĩ": 8601,
      "ì°Ī": 8602,
      "ì°ī": 8603,
      "ì°Ĭ": 8604,
      "ì°ĭ": 8605,
      "ì°Į": 8606,
      "ì°į": 8607,
      "ì°İ": 8608,
      "ì°ı": 8609,
      "ì°Ĳ": 8610,
      "ì°ĳ": 8611,
      "ì°Ĵ": 8612,
      "ì°ĵ": 8613,
      "ì°Ķ": 8614,
      "ì°ķ": 8615,
      "ì°ĸ": 8616,
      "ì°Ĺ": 8617,
      "ì°ĺ": 8618,
      "ì°Ļ": 8619,
      "ì°ļ": 8620,
      "ì°Ľ": 8621,
      "ì°ľ": 8622,
      "ì°Ŀ": 8623,
      "ì°ŀ": 8624,
      "ì°Ł": 8625,
      "ì°ł": 8626,
      "ì°¡": 8627,
      "ì°¢": 8628,
      "ì°£": 8629,
      "ì°¤": 8630,
      "ì°¥": 8631,
      "ì°¦": 8632,
      "ì°§": 8633,
      "ì°¨": 8634,
      "ì°©": 8635,
      "ì°ª": 8636,
      "ì°«": 8637,
      "ì°¬": 8638,
      "ì°Ń": 8639,
      "ì°®": 8640,
      "ì°¯": 8641,
      "ì°°": 8642,
      "ì°±": 8643,
      "ì°²": 8644,
      "ì°³": 8645,
      "ì°´": 8646,
      "ì°µ": 8647,
      "ì°¶": 8648,
      "ì°·": 8649,
      "ì°¸": 8650,
      "ì°¹": 8651,
      "ì°º": 8652,
      "ì°»": 8653,
      "ì°¼": 8654,
      "ì°½": 8655,
      "ì°¾": 8656,
      "ì°¿": 8657,
      "ì±": 8658,
      "ì±Ģ": 8659,
      "ì±ģ": 8660,
      "ì±Ĥ": 8661,
      "ì±ĥ": 8662,
      "ì±Ħ": 8663,
      "ì±ħ": 8664,
      "ì±Ĩ": 8665,
      "ì±ĩ": 8666,
      "ì±Ī": 8667,
      "ì±ī": 8668,
      "ì±Ĭ": 8669,
      "ì±ĭ": 8670,
      "ì±Į": 8671,
      "ì±į": 8672,
      "ì±İ": 8673,
      "ì±ı": 8674,
      "ì±Ĳ": 8675,
      "ì±ĳ": 8676,
      "ì±Ĵ": 8677,
      "ì±ĵ": 8678,
      "ì±Ķ": 8679,
      "ì±ķ": 8680,
      "ì±ĸ": 8681,
      "ì±Ĺ": 8682,
      "ì±ĺ": 8683,
      "ì±Ļ": 8684,
      "ì±ļ": 8685,
      "ì±Ľ": 8686,
      "ì±ľ": 8687,
      "ì±Ŀ": 8688,
      "ì±ŀ": 8689,
      "ì±Ł": 8690,
      "ì±ł": 8691,
      "ì±¡": 8692,
      "ì±¢": 8693,
      "ì±£": 8694,
      "ì±¤": 8695,
      "ì±¥": 8696,
      "ì±¦": 8697,
      "ì±§": 8698,
      "ì±¨": 8699,
      "ì±©": 8700,
      "ì±ª": 8701,
      "ì±«": 8702,
      "ì±¬": 8703,
      "ì±Ń": 8704,
      "ì±®": 8705,
      "ì±¯": 8706,
      "ì±°": 8707,
      "ì±±": 8708,
      "ì±²": 8709,
      "ì±³": 8710,
      "ì±´": 8711,
      "ì±µ": 8712,
      "ì±¶": 8713,
      "ì±·": 8714,
      "ì±¸": 8715,
      "ì±¹": 8716,
      "ì±º": 8717,
      "ì±»": 8718,
      "ì±¼": 8719,
      "ì±½": 8720,
      "ì±¾": 8721,
      "ì±¿": 8722,
      "ì²": 8723,
      "ì²Ģ": 8724,
      "ì²ģ": 8725,
      "ì²Ĥ": 8726,
      "ì²ĥ": 8727,
      "ì²Ħ": 8728,
      "ì²ħ": 8729,
      "ì²Ĩ": 8730,
      "ì²ĩ": 8731,
      "ì²Ī": 8732,
      "ì²ī": 8733,
      "ì²Ĭ": 8734,
      "ì²ĭ": 8735,
      "ì²Į": 8736,
      "ì²į": 8737,
      "ì²İ": 8738,
      "ì²ı": 8739,
      "ì²Ĳ": 8740,
      "ì²ĳ": 8741,
      "ì²Ĵ": 8742,
      "ì²ĵ": 8743,
      "ì²Ķ": 8744,
      "ì²ķ": 8745,
      "ì²ĸ": 8746,
      "ì²Ĺ": 8747,
      "ì²ĺ": 8748,
      "ì²Ļ": 8749,
      "ì²ļ": 8750,
      "ì²Ľ": 8751,
      "ì²ľ": 8752,
      "ì²Ŀ": 8753,
      "ì²ŀ": 8754,
      "ì²Ł": 8755,
      "ì²ł": 8756,
      "ì²¡": 8757,
      "ì²¢": 8758,
      "ì²£": 8759,
      "ì²¤": 8760,
      "ì²¥": 8761,
      "ì²¦": 8762,
      "ì²§": 8763,
      "ì²¨": 8764,
      "ì²©": 8765,
      "ì²ª": 8766,
      "ì²«": 8767,
      "ì²¬": 8768,
      "ì²Ń": 8769,
      "ì²®": 8770,
      "ì²¯": 8771,
      "ì²°": 8772,
      "ì²±": 8773,
      "ì²²": 8774,
      "ì²³": 8775,
      "ì²´": 8776,
      "ì²µ": 8777,
      "ì²¶": 8778,
      "ì²·": 8779,
      "ì²¸": 8780,
      "ì²¹": 8781,
      "ì²º": 8782,
      "ì²»": 8783,
      "ì²¼": 8784,
      "ì²½": 8785,
      "ì²¾": 8786,
      "ì²¿": 8787,
      "ì³": 8788,
      "ì³Ģ": 8789,
      "ì³ģ": 8790,
      "ì³Ĥ": 8791,
      "ì³ĥ": 8792,
      "ì³Ħ": 8793,
      "ì³ħ": 8794,
      "ì³Ĩ": 8795,
      "ì³ĩ": 8796,
      "ì³Ī": 8797,
      "ì³ī": 8798,
      "ì³Ĭ": 8799,
      "ì³ĭ": 8800,
      "ì³Į": 8801,
      "ì³į": 8802,
      "ì³İ": 8803,
      "ì³ı": 8804,
      "ì³Ĳ": 8805,
      "ì³ĳ": 8806,
      "ì³Ĵ": 8807,
      "ì³ĵ": 8808,
      "ì³Ķ": 8809,
      "ì³ķ": 8810,
      "ì³ĸ": 8811,
      "ì³Ĺ": 8812,
      "ì³ĺ": 8813,
      "ì³Ļ": 8814,
      "ì³ļ": 8815,
      "ì³Ľ": 8816,
      "ì³ľ": 8817,
      "ì³Ŀ": 8818,
      "ì³ŀ": 8819,
      "ì³Ł": 8820,
      "ì³ł": 8821,
      "ì³¡": 8822,
      "ì³¢": 8823,
      "ì³£": 8824,
      "ì³¤": 8825,
      "ì³¥": 8826,
      "ì³¦": 8827,
      "ì³§": 8828,
      "ì³¨": 8829,
      "ì³©": 8830,
      "ì³ª": 8831,
      "ì³«": 8832,
      "ì³¬": 8833,
      "ì³Ń": 8834,
      "ì³®": 8835,
      "ì³¯": 8836,
      "ì³°": 8837,
      "ì³±": 8838,
      "ì³²": 8839,
      "ì³³": 8840,
      "ì³´": 8841,
      "ì³µ": 8842,
      "ì³¶": 8843,
      "ì³·": 8844,
      "ì³¸": 8845,
      "ì³¹": 8846,
      "ì³º": 8847,
      "ì³»": 8848,
      "ì³¼": 8849,
      "ì³½": 8850,
      "ì³¾": 8851,
      "ì³¿": 8852,
      "ì´": 8853,
      "ì´Ģ": 8854,
      "ì´ģ": 8855,
      "ì´Ĥ": 8856,
      "ì´ĥ": 8857,
      "ì´Ħ": 8858,
      "ì´ħ": 8859,
      "ì´Ĩ": 8860,
      "ì´ĩ": 8861,
      "ì´Ī": 8862,
      "ì´ī": 8863,
      "ì´Ĭ": 8864,
      "ì´ĭ": 8865,
      "ì´Į": 8866,
      "ì´į": 8867,
      "ì´İ": 8868,
      "ì´ı": 8869,
      "ì´Ĳ": 8870,
      "ì´ĳ": 8871,
      "ì´Ĵ": 8872,
      "ì´ĵ": 8873,
      "ì´Ķ": 8874,
      "ì´ķ": 8875,
      "ì´ĸ": 8876,
      "ì´Ĺ": 8877,
      "ì´ĺ": 8878,
      "ì´Ļ": 8879,
      "ì´ļ": 8880,
      "ì´Ľ": 8881,
      "ì´ľ": 8882,
      "ì´Ŀ": 8883,
      "ì´ŀ": 8884,
      "ì´Ł": 8885,
      "ì´ł": 8886,
      "ì´¡": 8887,
      "ì´¢": 8888,
      "ì´£": 8889,
      "ì´¤": 8890,
      "ì´¥": 8891,
      "ì´¦": 8892,
      "ì´§": 8893,
      "ì´¨": 8894,
      "ì´©": 8895,
      "ì´ª": 8896,
      "ì´«": 8897,
      "ì´¬": 8898,
      "ì´Ń": 8899,
      "ì´®": 8900,
      "ì´¯": 8901,
      "ì´°": 8902,
      "ì´±": 8903,
      "ì´²": 8904,
      "ì´³": 8905,
      "ì´´": 8906,
      "ì´µ": 8907,
      "ì´¶": 8908,
      "ì´·": 8909,
      "ì´¸": 8910,
      "ì´¹": 8911,
      "ì´º": 8912,
      "ì´»": 8913,
      "ì´¼": 8914,
      "ì´½": 8915,
      "ì´¾": 8916,
      "ì´¿": 8917,
      "ìµ": 8918,
      "ìµĢ": 8919,
      "ìµģ": 8920,
      "ìµĤ": 8921,
      "ìµĥ": 8922,
      "ìµĦ": 8923,
      "ìµħ": 8924,
      "ìµĨ": 8925,
      "ìµĩ": 8926,
      "ìµĪ": 8927,
      "ìµī": 8928,
      "ìµĬ": 8929,
      "ìµĭ": 8930,
      "ìµĮ": 8931,
      "ìµį": 8932,
      "ìµİ": 8933,
      "ìµı": 8934,
      "ìµĲ": 8935,
      "ìµĳ": 8936,
      "ìµĴ": 8937,
      "ìµĵ": 8938,
      "ìµĶ": 8939,
      "ìµķ": 8940,
      "ìµĸ": 8941,
      "ìµĹ": 8942,
      "ìµĺ": 8943,
      "ìµĻ": 8944,
      "ìµļ": 8945,
      "ìµĽ": 8946,
      "ìµľ": 8947,
      "ìµĿ": 8948,
      "ìµŀ": 8949,
      "ìµŁ": 8950,
      "ìµł": 8951,
      "ìµ¡": 8952,
      "ìµ¢": 8953,
      "ìµ£": 8954,
      "ìµ¤": 8955,
      "ìµ¥": 8956,
      "ìµ¦": 8957,
      "ìµ§": 8958,
      "ìµ¨": 8959,
      "ìµ©": 8960,
      "ìµª": 8961,
      "ìµ«": 8962,
      "ìµ¬": 8963,
      "ìµŃ": 8964,
      "ìµ®": 8965,
      "ìµ¯": 8966,
      "ìµ°": 8967,
      "ìµ±": 8968,
      "ìµ²": 8969,
      "ìµ³": 8970,
      "ìµ´": 8971,
      "ìµµ": 8972,
      "ìµ¶": 8973,
      "ìµ·": 8974,
      "ìµ¸": 8975,
      "ìµ¹": 8976,
      "ìµº": 8977,
      "ìµ»": 8978,
      "ìµ¼": 8979,
      "ìµ½": 8980,
      "ìµ¾": 8981,
      "ìµ¿": 8982,
      "ì¶": 8983,
      "ì¶Ģ": 8984,
      "ì¶ģ": 8985,
      "ì¶Ĥ": 8986,
      "ì¶ĥ": 8987,
      "ì¶Ħ": 8988,
      "ì¶ħ": 8989,
      "ì¶Ĩ": 8990,
      "ì¶ĩ": 8991,
      "ì¶Ī": 8992,
      "ì¶ī": 8993,
      "ì¶Ĭ": 8994,
      "ì¶ĭ": 8995,
      "ì¶Į": 8996,
      "ì¶į": 8997,
      "ì¶İ": 8998,
      "ì¶ı": 8999,
      "ì¶Ĳ": 9000,
      "ì¶ĳ": 9001,
      "ì¶Ĵ": 9002,
      "ì¶ĵ": 9003,
      "ì¶Ķ": 9004,
      "ì¶ķ": 9005,
      "ì¶ĸ": 9006,
      "ì¶Ĺ": 9007,
      "ì¶ĺ": 9008,
      "ì¶Ļ": 9009,
      "ì¶ļ": 9010,
      "ì¶Ľ": 9011,
      "ì¶ľ": 9012,
      "ì¶Ŀ": 9013,
      "ì¶ŀ": 9014,
      "ì¶Ł": 9015,
      "ì¶ł": 9016,
      "ì¶¡": 9017,
      "ì¶¢": 9018,
      "ì¶£": 9019,
      "ì¶¤": 9020,
      "ì¶¥": 9021,
      "ì¶¦": 9022,
      "ì¶§": 9023,
      "ì¶¨": 9024,
      "ì¶©": 9025,
      "ì¶ª": 9026,
      "ì¶«": 9027,
      "ì¶¬": 9028,
      "ì¶Ń": 9029,
      "ì¶®": 9030,
      "ì¶¯": 9031,
      "ì¶°": 9032,
      "ì¶±": 9033,
      "ì¶²": 9034,
      "ì¶³": 9035,
      "ì¶´": 9036,
      "ì¶µ": 9037,
      "ì¶¶": 9038,
      "ì¶·": 9039,
      "ì¶¸": 9040,
      "ì¶¹": 9041,
      "ì¶º": 9042,
      "ì¶»": 9043,
      "ì¶¼": 9044,
      "ì¶½": 9045,
      "ì¶¾": 9046,
      "ì¶¿": 9047,
      "ì·": 9048,
      "ì·Ģ": 9049,
      "ì·ģ": 9050,
      "ì·Ĥ": 9051,
      "ì·ĥ": 9052,
      "ì·Ħ": 9053,
      "ì·ħ": 9054,
      "ì·Ĩ": 9055,
      "ì·ĩ": 9056,
      "ì·Ī": 9057,
      "ì·ī": 9058,
      "ì·Ĭ": 9059,
      "ì·ĭ": 9060,
      "ì·Į": 9061,
      "ì·į": 9062,
      "ì·İ": 9063,
      "ì·ı": 9064,
      "ì·Ĳ": 9065,
      "ì·ĳ": 9066,
      "ì·Ĵ": 9067,
      "ì·ĵ": 9068,
      "ì·Ķ": 9069,
      "ì·ķ": 9070,
      "ì·ĸ": 9071,
      "ì·Ĺ": 9072,
      "ì·ĺ": 9073,
      "ì·Ļ": 9074,
      "ì·ļ": 9075,
      "ì·Ľ": 9076,
      "ì·ľ": 9077,
      "ì·Ŀ": 9078,
      "ì·ŀ": 9079,
      "ì·Ł": 9080,
      "ì·ł": 9081,
      "ì·¡": 9082,
      "ì·¢": 9083,
      "ì·£": 9084,
      "ì·¤": 9085,
      "ì·¥": 9086,
      "ì·¦": 9087,
      "ì·§": 9088,
      "ì·¨": 9089,
      "ì·©": 9090,
      "ì·ª": 9091,
      "ì·«": 9092,
      "ì·¬": 9093,
      "ì·Ń": 9094,
      "ì·®": 9095,
      "ì·¯": 9096,
      "ì·°": 9097,
      "ì·±": 9098,
      "ì·²": 9099,
      "ì·³": 9100,
      "ì·´": 9101,
      "ì·µ": 9102,
      "ì·¶": 9103,
      "ì··": 9104,
      "ì·¸": 9105,
      "ì·¹": 9106,
      "ì·º": 9107,
      "ì·»": 9108,
      "ì·¼": 9109,
      "ì·½": 9110,
      "ì·¾": 9111,
      "ì·¿": 9112,
      "ì¸": 9113,
      "ì¸Ģ": 9114,
      "ì¸ģ": 9115,
      "ì¸Ĥ": 9116,
      "ì¸ĥ": 9117,
      "ì¸Ħ": 9118,
      "ì¸ħ": 9119,
      "ì¸Ĩ": 9120,
      "ì¸ĩ": 9121,
      "ì¸Ī": 9122,
      "ì¸ī": 9123,
      "ì¸Ĭ": 9124,
      "ì¸ĭ": 9125,
      "ì¸Į": 9126,
      "ì¸į": 9127,
      "ì¸İ": 9128,
      "ì¸ı": 9129,
      "ì¸Ĳ": 9130,
      "ì¸ĳ": 9131,
      "ì¸Ĵ": 9132,
      "ì¸ĵ": 9133,
      "ì¸Ķ": 9134,
      "ì¸ķ": 9135,
      "ì¸ĸ": 9136,
      "ì¸Ĺ": 9137,
      "ì¸ĺ": 9138,
      "ì¸Ļ": 9139,
      "ì¸ļ": 9140,
      "ì¸Ľ": 9141,
      "ì¸ľ": 9142,
      "ì¸Ŀ": 9143,
      "ì¸ŀ": 9144,
      "ì¸Ł": 9145,
      "ì¸ł": 9146,
      "ì¸¡": 9147,
      "ì¸¢": 9148,
      "ì¸£": 9149,
      "ì¸¤": 9150,
      "ì¸¥": 9151,
      "ì¸¦": 9152,
      "ì¸§": 9153,
      "ì¸¨": 9154,
      "ì¸©": 9155,
      "ì¸ª": 9156,
      "ì¸«": 9157,
      "ì¸¬": 9158,
      "ì¸Ń": 9159,
      "ì¸®": 9160,
      "ì¸¯": 9161,
      "ì¸°": 9162,
      "ì¸±": 9163,
      "ì¸²": 9164,
      "ì¸³": 9165,
      "ì¸´": 9166,
      "ì¸µ": 9167,
      "ì¸¶": 9168,
      "ì¸·": 9169,
      "ì¸¸": 9170,
      "ì¸¹": 9171,
      "ì¸º": 9172,
      "ì¸»": 9173,
      "ì¸¼": 9174,
      "ì¸½": 9175,
      "ì¸¾": 9176,
      "ì¸¿": 9177,
      "ì¹": 9178,
      "ì¹Ģ": 9179,
      "ì¹ģ": 9180,
      "ì¹Ĥ": 9181,
      "ì¹ĥ": 9182,
      "ì¹Ħ": 9183,
      "ì¹ħ": 9184,
      "ì¹Ĩ": 9185,
      "ì¹ĩ": 9186,
      "ì¹Ī": 9187,
      "ì¹ī": 9188,
      "ì¹Ĭ": 9189,
      "ì¹ĭ": 9190,
      "ì¹Į": 9191,
      "ì¹į": 9192,
      "ì¹İ": 9193,
      "ì¹ı": 9194,
      "ì¹Ĳ": 9195,
      "ì¹ĳ": 9196,
      "ì¹Ĵ": 9197,
      "ì¹ĵ": 9198,
      "ì¹Ķ": 9199,
      "ì¹ķ": 9200,
      "ì¹ĸ": 9201,
      "ì¹Ĺ": 9202,
      "ì¹ĺ": 9203,
      "ì¹Ļ": 9204,
      "ì¹ļ": 9205,
      "ì¹Ľ": 9206,
      "ì¹ľ": 9207,
      "ì¹Ŀ": 9208,
      "ì¹ŀ": 9209,
      "ì¹Ł": 9210,
      "ì¹ł": 9211,
      "ì¹¡": 9212,
      "ì¹¢": 9213,
      "ì¹£": 9214,
      "ì¹¤": 9215,
      "ì¹¥": 9216,
      "ì¹¦": 9217,
      "ì¹§": 9218,
      "ì¹¨": 9219,
      "ì¹©": 9220,
      "ì¹ª": 9221,
      "ì¹«": 9222,
      "ì¹¬": 9223,
      "ì¹Ń": 9224,
      "ì¹®": 9225,
      "ì¹¯": 9226,
      "ì¹°": 9227,
      "ì¹±": 9228,
      "ì¹²": 9229,
      "ì¹³": 9230,
      "ì¹´": 9231,
      "ì¹µ": 9232,
      "ì¹¶": 9233,
      "ì¹·": 9234,
      "ì¹¸": 9235,
      "ì¹¹": 9236,
      "ì¹º": 9237,
      "ì¹»": 9238,
      "ì¹¼": 9239,
      "ì¹½": 9240,
      "ì¹¾": 9241,
      "ì¹¿": 9242,
      "ìº": 9243,
      "ìºĢ": 9244,
      "ìºģ": 9245,
      "ìºĤ": 9246,
      "ìºĥ": 9247,
      "ìºĦ": 9248,
      "ìºħ": 9249,
      "ìºĨ": 9250,
      "ìºĩ": 9251,
      "ìºĪ": 9252,
      "ìºī": 9253,
      "ìºĬ": 9254,
      "ìºĭ": 9255,
      "ìºĮ": 9256,
      "ìºį": 9257,
      "ìºİ": 9258,
      "ìºı": 9259,
      "ìºĲ": 9260,
      "ìºĳ": 9261,
      "ìºĴ": 9262,
      "ìºĵ": 9263,
      "ìºĶ": 9264,
      "ìºķ": 9265,
      "ìºĸ": 9266,
      "ìºĹ": 9267,
      "ìºĺ": 9268,
      "ìºĻ": 9269,
      "ìºļ": 9270,
      "ìºĽ": 9271,
      "ìºľ": 9272,
      "ìºĿ": 9273,
      "ìºŀ": 9274,
      "ìºŁ": 9275,
      "ìºł": 9276,
      "ìº¡": 9277,
      "ìº¢": 9278,
      "ìº£": 9279,
      "ìº¤": 9280,
      "ìº¥": 9281,
      "ìº¦": 9282,
      "ìº§": 9283,
      "ìº¨": 9284,
      "ìº©": 9285,
      "ìºª": 9286,
      "ìº«": 9287,
      "ìº¬": 9288,
      "ìºŃ": 9289,
      "ìº®": 9290,
      "ìº¯": 9291,
      "ìº°": 9292,
      "ìº±": 9293,
      "ìº²": 9294,
      "ìº³": 9295,
      "ìº´": 9296,
      "ìºµ": 9297,
      "ìº¶": 9298,
      "ìº·": 9299,
      "ìº¸": 9300,
      "ìº¹": 9301,
      "ìºº": 9302,
      "ìº»": 9303,
      "ìº¼": 9304,
      "ìº½": 9305,
      "ìº¾": 9306,
      "ìº¿": 9307,
      "ì»": 9308,
      "ì»Ģ": 9309,
      "ì»ģ": 9310,
      "ì»Ĥ": 9311,
      "ì»ĥ": 9312,
      "ì»Ħ": 9313,
      "ì»ħ": 9314,
      "ì»Ĩ": 9315,
      "ì»ĩ": 9316,
      "ì»Ī": 9317,
      "ì»ī": 9318,
      "ì»Ĭ": 9319,
      "ì»ĭ": 9320,
      "ì»Į": 9321,
      "ì»į": 9322,
      "ì»İ": 9323,
      "ì»ı": 9324,
      "ì»Ĳ": 9325,
      "ì»ĳ": 9326,
      "ì»Ĵ": 9327,
      "ì»ĵ": 9328,
      "ì»Ķ": 9329,
      "ì»ķ": 9330,
      "ì»ĸ": 9331,
      "ì»Ĺ": 9332,
      "ì»ĺ": 9333,
      "ì»Ļ": 9334,
      "ì»ļ": 9335,
      "ì»Ľ": 9336,
      "ì»ľ": 9337,
      "ì»Ŀ": 9338,
      "ì»ŀ": 9339,
      "ì»Ł": 9340,
      "ì»ł": 9341,
      "ì»¡": 9342,
      "ì»¢": 9343,
      "ì»£": 9344,
      "ì»¤": 9345,
      "ì»¥": 9346,
      "ì»¦": 9347,
      "ì»§": 9348,
      "ì»¨": 9349,
      "ì»©": 9350,
      "ì»ª": 9351,
      "ì»«": 9352,
      "ì»¬": 9353,
      "ì»Ń": 9354,
      "ì»®": 9355,
      "ì»¯": 9356,
      "ì»°": 9357,
      "ì»±": 9358,
      "ì»²": 9359,
      "ì»³": 9360,
      "ì»´": 9361,
      "ì»µ": 9362,
      "ì»¶": 9363,
      "ì»·": 9364,
      "ì»¸": 9365,
      "ì»¹": 9366,
      "ì»º": 9367,
      "ì»»": 9368,
      "ì»¼": 9369,
      "ì»½": 9370,
      "ì»¾": 9371,
      "ì»¿": 9372,
      "ì¼": 9373,
      "ì¼Ģ": 9374,
      "ì¼ģ": 9375,
      "ì¼Ĥ": 9376,
      "ì¼ĥ": 9377,
      "ì¼Ħ": 9378,
      "ì¼ħ": 9379,
      "ì¼Ĩ": 9380,
      "ì¼ĩ": 9381,
      "ì¼Ī": 9382,
      "ì¼ī": 9383,
      "ì¼Ĭ": 9384,
      "ì¼ĭ": 9385,
      "ì¼Į": 9386,
      "ì¼į": 9387,
      "ì¼İ": 9388,
      "ì¼ı": 9389,
      "ì¼Ĳ": 9390,
      "ì¼ĳ": 9391,
      "ì¼Ĵ": 9392,
      "ì¼ĵ": 9393,
      "ì¼Ķ": 9394,
      "ì¼ķ": 9395,
      "ì¼ĸ": 9396,
      "ì¼Ĺ": 9397,
      "ì¼ĺ": 9398,
      "ì¼Ļ": 9399,
      "ì¼ļ": 9400,
      "ì¼Ľ": 9401,
      "ì¼ľ": 9402,
      "ì¼Ŀ": 9403,
      "ì¼ŀ": 9404,
      "ì¼Ł": 9405,
      "ì¼ł": 9406,
      "ì¼¡": 9407,
      "ì¼¢": 9408,
      "ì¼£": 9409,
      "ì¼¤": 9410,
      "ì¼¥": 9411,
      "ì¼¦": 9412,
      "ì¼§": 9413,
      "ì¼¨": 9414,
      "ì¼©": 9415,
      "ì¼ª": 9416,
      "ì¼«": 9417,
      "ì¼¬": 9418,
      "ì¼Ń": 9419,
      "ì¼®": 9420,
      "ì¼¯": 9421,
      "ì¼°": 9422,
      "ì¼±": 9423,
      "ì¼²": 9424,
      "ì¼³": 9425,
      "ì¼´": 9426,
      "ì¼µ": 9427,
      "ì¼¶": 9428,
      "ì¼·": 9429,
      "ì¼¸": 9430,
      "ì¼¹": 9431,
      "ì¼º": 9432,
      "ì¼»": 9433,
      "ì¼¼": 9434,
      "ì¼½": 9435,
      "ì¼¾": 9436,
      "ì¼¿": 9437,
      "ì½": 9438,
      "ì½Ģ": 9439,
      "ì½ģ": 9440,
      "ì½Ĥ": 9441,
      "ì½ĥ": 9442,
      "ì½Ħ": 9443,
      "ì½ħ": 9444,
      "ì½Ĩ": 9445,
      "ì½ĩ": 9446,
      "ì½Ī": 9447,
      "ì½ī": 9448,
      "ì½Ĭ": 9449,
      "ì½ĭ": 9450,
      "ì½Į": 9451,
      "ì½į": 9452,
      "ì½İ": 9453,
      "ì½ı": 9454,
      "ì½Ĳ": 9455,
      "ì½ĳ": 9456,
      "ì½Ĵ": 9457,
      "ì½ĵ": 9458,
      "ì½Ķ": 9459,
      "ì½ķ": 9460,
      "ì½ĸ": 9461,
      "ì½Ĺ": 9462,
      "ì½ĺ": 9463,
      "ì½Ļ": 9464,
      "ì½ļ": 9465,
      "ì½Ľ": 9466,
      "ì½ľ": 9467,
      "ì½Ŀ": 9468,
      "ì½ŀ": 9469,
      "ì½Ł": 9470,
      "ì½ł": 9471,
      "ì½¡": 9472,
      "ì½¢": 9473,
      "ì½£": 9474,
      "ì½¤": 9475,
      "ì½¥": 9476,
      "ì½¦": 9477,
      "ì½§": 9478,
      "ì½¨": 9479,
      "ì½©": 9480,
      "ì½ª": 9481,
      "ì½«": 9482,
      "ì½¬": 9483,
      "ì½Ń": 9484,
      "ì½®": 9485,
      "ì½¯": 9486,
      "ì½°": 9487,
      "ì½±": 9488,
      "ì½²": 9489,
      "ì½³": 9490,
      "ì½´": 9491,
      "ì½µ": 9492,
      "ì½¶": 9493,
      "ì½·": 9494,
      "ì½¸": 9495,
      "ì½¹": 9496,
      "ì½º": 9497,
      "ì½»": 9498,
      "ì½¼": 9499,
      "ì½½": 9500,
      "ì½¾": 9501,
      "ì½¿": 9502,
      "ì¾": 9503,
      "ì¾Ģ": 9504,
      "ì¾ģ": 9505,
      "ì¾Ĥ": 9506,
      "ì¾ĥ": 9507,
      "ì¾Ħ": 9508,
      "ì¾ħ": 9509,
      "ì¾Ĩ": 9510,
      "ì¾ĩ": 9511,
      "ì¾Ī": 9512,
      "ì¾ī": 9513,
      "ì¾Ĭ": 9514,
      "ì¾ĭ": 9515,
      "ì¾Į": 9516,
      "ì¾į": 9517,
      "ì¾İ": 9518,
      "ì¾ı": 9519,
      "ì¾Ĳ": 9520,
      "ì¾ĳ": 9521,
      "ì¾Ĵ": 9522,
      "ì¾ĵ": 9523,
      "ì¾Ķ": 9524,
      "ì¾ķ": 9525,
      "ì¾ĸ": 9526,
      "ì¾Ĺ": 9527,
      "ì¾ĺ": 9528,
      "ì¾Ļ": 9529,
      "ì¾ļ": 9530,
      "ì¾Ľ": 9531,
      "ì¾ľ": 9532,
      "ì¾Ŀ": 9533,
      "ì¾ŀ": 9534,
      "ì¾Ł": 9535,
      "ì¾ł": 9536,
      "ì¾¡": 9537,
      "ì¾¢": 9538,
      "ì¾£": 9539,
      "ì¾¤": 9540,
      "ì¾¥": 9541,
      "ì¾¦": 9542,
      "ì¾§": 9543,
      "ì¾¨": 9544,
      "ì¾©": 9545,
      "ì¾ª": 9546,
      "ì¾«": 9547,
      "ì¾¬": 9548,
      "ì¾Ń": 9549,
      "ì¾®": 9550,
      "ì¾¯": 9551,
      "ì¾°": 9552,
      "ì¾±": 9553,
      "ì¾²": 9554,
      "ì¾³": 9555,
      "ì¾´": 9556,
      "ì¾µ": 9557,
      "ì¾¶": 9558,
      "ì¾·": 9559,
      "ì¾¸": 9560,
      "ì¾¹": 9561,
      "ì¾º": 9562,
      "ì¾»": 9563,
      "ì¾¼": 9564,
      "ì¾½": 9565,
      "ì¾¾": 9566,
      "ì¾¿": 9567,
      "ì¿": 9568,
      "ì¿Ģ": 9569,
      "ì¿ģ": 9570,
      "ì¿Ĥ": 9571,
      "ì¿ĥ": 9572,
      "ì¿Ħ": 9573,
      "ì¿ħ": 9574,
      "ì¿Ĩ": 9575,
      "ì¿ĩ": 9576,
      "ì¿Ī": 9577,
      "ì¿ī": 9578,
      "ì¿Ĭ": 9579,
      "ì¿ĭ": 9580,
      "ì¿Į": 9581,
      "ì¿į": 9582,
      "ì¿İ": 9583,
      "ì¿ı": 9584,
      "ì¿Ĳ": 9585,
      "ì¿ĳ": 9586,
      "ì¿Ĵ": 9587,
      "ì¿ĵ": 9588,
      "ì¿Ķ": 9589,
      "ì¿ķ": 9590,
      "ì¿ĸ": 9591,
      "ì¿Ĺ": 9592,
      "ì¿ĺ": 9593,
      "ì¿Ļ": 9594,
      "ì¿ļ": 9595,
      "ì¿Ľ": 9596,
      "ì¿ľ": 9597,
      "ì¿Ŀ": 9598,
      "ì¿ŀ": 9599,
      "ì¿Ł": 9600,
      "ì¿ł": 9601,
      "ì¿¡": 9602,
      "ì¿¢": 9603,
      "ì¿£": 9604,
      "ì¿¤": 9605,
      "ì¿¥": 9606,
      "ì¿¦": 9607,
      "ì¿§": 9608,
      "ì¿¨": 9609,
      "ì¿©": 9610,
      "ì¿ª": 9611,
      "ì¿«": 9612,
      "ì¿¬": 9613,
      "ì¿Ń": 9614,
      "ì¿®": 9615,
      "ì¿¯": 9616,
      "ì¿°": 9617,
      "ì¿±": 9618,
      "ì¿²": 9619,
      "ì¿³": 9620,
      "ì¿´": 9621,
      "ì¿µ": 9622,
      "ì¿¶": 9623,
      "ì¿·": 9624,
      "ì¿¸": 9625,
      "ì¿¹": 9626,
      "ì¿º": 9627,
      "ì¿»": 9628,
      "ì¿¼": 9629,
      "ì¿½": 9630,
      "ì¿¾": 9631,
      "ì¿¿": 9632,
      "íĢ": 9633,
      "íĢĢ": 9634,
      "íĢģ": 9635,
      "íĢĤ": 9636,
      "íĢĥ": 9637,
      "íĢĦ": 9638,
      "íĢħ": 9639,
      "íĢĨ": 9640,
      "íĢĩ": 9641,
      "íĢĪ": 9642,
      "íĢī": 9643,
      "íĢĬ": 9644,
      "íĢĭ": 9645,
      "íĢĮ": 9646,
      "íĢį": 9647,
      "íĢİ": 9648,
      "íĢı": 9649,
      "íĢĲ": 9650,
      "íĢĳ": 9651,
      "íĢĴ": 9652,
      "íĢĵ": 9653,
      "íĢĶ": 9654,
      "íĢķ": 9655,
      "íĢĸ": 9656,
      "íĢĹ": 9657,
      "íĢĺ": 9658,
      "íĢĻ": 9659,
      "íĢļ": 9660,
      "íĢĽ": 9661,
      "íĢľ": 9662,
      "íĢĿ": 9663,
      "íĢŀ": 9664,
      "íĢŁ": 9665,
      "íĢł": 9666,
      "íĢ¡": 9667,
      "íĢ¢": 9668,
      "íĢ£": 9669,
      "íĢ¤": 9670,
      "íĢ¥": 9671,
      "íĢ¦": 9672,
      "íĢ§": 9673,
      "íĢ¨": 9674,
      "íĢ©": 9675,
      "íĢª": 9676,
      "íĢ«": 9677,
      "íĢ¬": 9678,
      "íĢŃ": 9679,
      "íĢ®": 9680,
      "íĢ¯": 9681,
      "íĢ°": 9682,
      "íĢ±": 9683,
      "íĢ²": 9684,
      "íĢ³": 9685,
      "íĢ´": 9686,
      "íĢµ": 9687,
      "íĢ¶": 9688,
      "íĢ·": 9689,
      "íĢ¸": 9690,
      "íĢ¹": 9691,
      "íĢº": 9692,
      "íĢ»": 9693,
      "íĢ¼": 9694,
      "íĢ½": 9695,
      "íĢ¾": 9696,
      "íĢ¿": 9697,
      "íģ": 9698,
      "íģĢ": 9699,
      "íģģ": 9700,
      "íģĤ": 9701,
      "íģĥ": 9702,
      "íģĦ": 9703,
      "íģħ": 9704,
      "íģĨ": 9705,
      "íģĩ": 9706,
      "íģĪ": 9707,
      "íģī": 9708,
      "íģĬ": 9709,
      "íģĭ": 9710,
      "íģĮ": 9711,
      "íģį": 9712,
      "íģİ": 9713,
      "íģı": 9714,
      "íģĲ": 9715,
      "íģĳ": 9716,
      "íģĴ": 9717,
      "íģĵ": 9718,
      "íģĶ": 9719,
      "íģķ": 9720,
      "íģĸ": 9721,
      "íģĹ": 9722,
      "íģĺ": 9723,
      "íģĻ": 9724,
      "íģļ": 9725,
      "íģĽ": 9726,
      "íģľ": 9727,
      "íģĿ": 9728,
      "íģŀ": 9729,
      "íģŁ": 9730,
      "íģł": 9731,
      "íģ¡": 9732,
      "íģ¢": 9733,
      "íģ£": 9734,
      "íģ¤": 9735,
      "íģ¥": 9736,
      "íģ¦": 9737,
      "íģ§": 9738,
      "íģ¨": 9739,
      "íģ©": 9740,
      "íģª": 9741,
      "íģ«": 9742,
      "íģ¬": 9743,
      "íģŃ": 9744,
      "íģ®": 9745,
      "íģ¯": 9746,
      "íģ°": 9747,
      "íģ±": 9748,
      "íģ²": 9749,
      "íģ³": 9750,
      "íģ´": 9751,
      "íģµ": 9752,
      "íģ¶": 9753,
      "íģ·": 9754,
      "íģ¸": 9755,
      "íģ¹": 9756,
      "íģº": 9757,
      "íģ»": 9758,
      "íģ¼": 9759,
      "íģ½": 9760,
      "íģ¾": 9761,
      "íģ¿": 9762,
      "íĤ": 9763,
      "íĤĢ": 9764,
      "íĤģ": 9765,
      "íĤĤ": 9766,
      "íĤĥ": 9767,
      "íĤĦ": 9768,
      "íĤħ": 9769,
      "íĤĨ": 9770,
      "íĤĩ": 9771,
      "íĤĪ": 9772,
      "íĤī": 9773,
      "íĤĬ": 9774,
      "íĤĭ": 9775,
      "íĤĮ": 9776,
      "íĤį": 9777,
      "íĤİ": 9778,
      "íĤı": 9779,
      "íĤĲ": 9780,
      "íĤĳ": 9781,
      "íĤĴ": 9782,
      "íĤĵ": 9783,
      "íĤĶ": 9784,
      "íĤķ": 9785,
      "íĤĸ": 9786,
      "íĤĹ": 9787,
      "íĤĺ": 9788,
      "íĤĻ": 9789,
      "íĤļ": 9790,
      "íĤĽ": 9791,
      "íĤľ": 9792,
      "íĤĿ": 9793,
      "íĤŀ": 9794,
      "íĤŁ": 9795,
      "íĤł": 9796,
      "íĤ¡": 9797,
      "íĤ¢": 9798,
      "íĤ£": 9799,
      "íĤ¤": 9800,
      "íĤ¥": 9801,
      "íĤ¦": 9802,
      "íĤ§": 9803,
      "íĤ¨": 9804,
      "íĤ©": 9805,
      "íĤª": 9806,
      "íĤ«": 9807,
      "íĤ¬": 9808,
      "íĤŃ": 9809,
      "íĤ®": 9810,
      "íĤ¯": 9811,
      "íĤ°": 9812,
      "íĤ±": 9813,
      "íĤ²": 9814,
      "íĤ³": 9815,
      "íĤ´": 9816,
      "íĤµ": 9817,
      "íĤ¶": 9818,
      "íĤ·": 9819,
      "íĤ¸": 9820,
      "íĤ¹": 9821,
      "íĤº": 9822,
      "íĤ»": 9823,
      "íĤ¼": 9824,
      "íĤ½": 9825,
      "íĤ¾": 9826,
      "íĤ¿": 9827,
      "íĥ": 9828,
      "íĥĢ": 9829,
      "íĥģ": 9830,
      "íĥĤ": 9831,
      "íĥĥ": 9832,
      "íĥĦ": 9833,
      "íĥħ": 9834,
      "íĥĨ": 9835,
      "íĥĩ": 9836,
      "íĥĪ": 9837,
      "íĥī": 9838,
      "íĥĬ": 9839,
      "íĥĭ": 9840,
      "íĥĮ": 9841,
      "íĥį": 9842,
      "íĥİ": 9843,
      "íĥı": 9844,
      "íĥĲ": 9845,
      "íĥĳ": 9846,
      "íĥĴ": 9847,
      "íĥĵ": 9848,
      "íĥĶ": 9849,
      "íĥķ": 9850,
      "íĥĸ": 9851,
      "íĥĹ": 9852,
      "íĥĺ": 9853,
      "íĥĻ": 9854,
      "íĥļ": 9855,
      "íĥĽ": 9856,
      "íĥľ": 9857,
      "íĥĿ": 9858,
      "íĥŀ": 9859,
      "íĥŁ": 9860,
      "íĥł": 9861,
      "íĥ¡": 9862,
      "íĥ¢": 9863,
      "íĥ£": 9864,
      "íĥ¤": 9865,
      "íĥ¥": 9866,
      "íĥ¦": 9867,
      "íĥ§": 9868,
      "íĥ¨": 9869,
      "íĥ©": 9870,
      "íĥª": 9871,
      "íĥ«": 9872,
      "íĥ¬": 9873,
      "íĥŃ": 9874,
      "íĥ®": 9875,
      "íĥ¯": 9876,
      "íĥ°": 9877,
      "íĥ±": 9878,
      "íĥ²": 9879,
      "íĥ³": 9880,
      "íĥ´": 9881,
      "íĥµ": 9882,
      "íĥ¶": 9883,
      "íĥ·": 9884,
      "íĥ¸": 9885,
      "íĥ¹": 9886,
      "íĥº": 9887,
      "íĥ»": 9888,
      "íĥ¼": 9889,
      "íĥ½": 9890,
      "íĥ¾": 9891,
      "íĥ¿": 9892,
      "íĦ": 9893,
      "íĦĢ": 9894,
      "íĦģ": 9895,
      "íĦĤ": 9896,
      "íĦĥ": 9897,
      "íĦĦ": 9898,
      "íĦħ": 9899,
      "íĦĨ": 9900,
      "íĦĩ": 9901,
      "íĦĪ": 9902,
      "íĦī": 9903,
      "íĦĬ": 9904,
      "íĦĭ": 9905,
      "íĦĮ": 9906,
      "íĦį": 9907,
      "íĦİ": 9908,
      "íĦı": 9909,
      "íĦĲ": 9910,
      "íĦĳ": 9911,
      "íĦĴ": 9912,
      "íĦĵ": 9913,
      "íĦĶ": 9914,
      "íĦķ": 9915,
      "íĦĸ": 9916,
      "íĦĹ": 9917,
      "íĦĺ": 9918,
      "íĦĻ": 9919,
      "íĦļ": 9920,
      "íĦĽ": 9921,
      "íĦľ": 9922,
      "íĦĿ": 9923,
      "íĦŀ": 9924,
      "íĦŁ": 9925,
      "íĦł": 9926,
      "íĦ¡": 9927,
      "íĦ¢": 9928,
      "íĦ£": 9929,
      "íĦ¤": 9930,
      "íĦ¥": 9931,
      "íĦ¦": 9932,
      "íĦ§": 9933,
      "íĦ¨": 9934,
      "íĦ©": 9935,
      "íĦª": 9936,
      "íĦ«": 9937,
      "íĦ¬": 9938,
      "íĦŃ": 9939,
      "íĦ®": 9940,
      "íĦ¯": 9941,
      "íĦ°": 9942,
      "íĦ±": 9943,
      "íĦ²": 9944,
      "íĦ³": 9945,
      "íĦ´": 9946,
      "íĦµ": 9947,
      "íĦ¶": 9948,
      "íĦ·": 9949,
      "íĦ¸": 9950,
      "íĦ¹": 9951,
      "íĦº": 9952,
      "íĦ»": 9953,
      "íĦ¼": 9954,
      "íĦ½": 9955,
      "íĦ¾": 9956,
      "íĦ¿": 9957,
      "íħ": 9958,
      "íħĢ": 9959,
      "íħģ": 9960,
      "íħĤ": 9961,
      "íħĥ": 9962,
      "íħĦ": 9963,
      "íħħ": 9964,
      "íħĨ": 9965,
      "íħĩ": 9966,
      "íħĪ": 9967,
      "íħī": 9968,
      "íħĬ": 9969,
      "íħĭ": 9970,
      "íħĮ": 9971,
      "íħį": 9972,
      "íħİ": 9973,
      "íħı": 9974,
      "íħĲ": 9975,
      "íħĳ": 9976,
      "íħĴ": 9977,
      "íħĵ": 9978,
      "íħĶ": 9979,
      "íħķ": 9980,
      "íħĸ": 9981,
      "íħĹ": 9982,
      "íħĺ": 9983,
      "íħĻ": 9984,
      "íħļ": 9985,
      "íħĽ": 9986,
      "íħľ": 9987,
      "íħĿ": 9988,
      "íħŀ": 9989,
      "íħŁ": 9990,
      "íħł": 9991,
      "íħ¡": 9992,
      "íħ¢": 9993,
      "íħ£": 9994,
      "íħ¤": 9995,
      "íħ¥": 9996,
      "íħ¦": 9997,
      "íħ§": 9998,
      "íħ¨": 9999,
      "íħ©": 10000,
      "íħª": 10001,
      "íħ«": 10002,
      "íħ¬": 10003,
      "íħŃ": 10004,
      "íħ®": 10005,
      "íħ¯": 10006,
      "íħ°": 10007,
      "íħ±": 10008,
      "íħ²": 10009,
      "íħ³": 10010,
      "íħ´": 10011,
      "íħµ": 10012,
      "íħ¶": 10013,
      "íħ·": 10014,
      "íħ¸": 10015,
      "íħ¹": 10016,
      "íħº": 10017,
      "íħ»": 10018,
      "íħ¼": 10019,
      "íħ½": 10020,
      "íħ¾": 10021,
      "íħ¿": 10022,
      "íĨ": 10023,
      "íĨĢ": 10024,
      "íĨģ": 10025,
      "íĨĤ": 10026,
      "íĨĥ": 10027,
      "íĨĦ": 10028,
      "íĨħ": 10029,
      "íĨĨ": 10030,
      "íĨĩ": 10031,
      "íĨĪ": 10032,
      "íĨī": 10033,
      "íĨĬ": 10034,
      "íĨĭ": 10035,
      "íĨĮ": 10036,
      "íĨį": 10037,
      "íĨİ": 10038,
      "íĨı": 10039,
      "íĨĲ": 10040,
      "íĨĳ": 10041,
      "íĨĴ": 10042,
      "íĨĵ": 10043,
      "íĨĶ": 10044,
      "íĨķ": 10045,
      "íĨĸ": 10046,
      "íĨĹ": 10047,
      "íĨĺ": 10048,
      "íĨĻ": 10049,
      "íĨļ": 10050,
      "íĨĽ": 10051,
      "íĨľ": 10052,
      "íĨĿ": 10053,
      "íĨŀ": 10054,
      "íĨŁ": 10055,
      "íĨł": 10056,
      "íĨ¡": 10057,
      "íĨ¢": 10058,
      "íĨ£": 10059,
      "íĨ¤": 10060,
      "íĨ¥": 10061,
      "íĨ¦": 10062,
      "íĨ§": 10063,
      "íĨ¨": 10064,
      "íĨ©": 10065,
      "íĨª": 10066,
      "íĨ«": 10067,
      "íĨ¬": 10068,
      "íĨŃ": 10069,
      "íĨ®": 10070,
      "íĨ¯": 10071,
      "íĨ°": 10072,
      "íĨ±": 10073,
      "íĨ²": 10074,
      "íĨ³": 10075,
      "íĨ´": 10076,
      "íĨµ": 10077,
      "íĨ¶": 10078,
      "íĨ·": 10079,
      "íĨ¸": 10080,
      "íĨ¹": 10081,
      "íĨº": 10082,
      "íĨ»": 10083,
      "íĨ¼": 10084,
      "íĨ½": 10085,
      "íĨ¾": 10086,
      "íĨ¿": 10087,
      "íĩ": 10088,
      "íĩĢ": 10089,
      "íĩģ": 10090,
      "íĩĤ": 10091,
      "íĩĥ": 10092,
      "íĩĦ": 10093,
      "íĩħ": 10094,
      "íĩĨ": 10095,
      "íĩĩ": 10096,
      "íĩĪ": 10097,
      "íĩī": 10098,
      "íĩĬ": 10099,
      "íĩĭ": 10100,
      "íĩĮ": 10101,
      "íĩį": 10102,
      "íĩİ": 10103,
      "íĩı": 10104,
      "íĩĲ": 10105,
      "íĩĳ": 10106,
      "íĩĴ": 10107,
      "íĩĵ": 10108,
      "íĩĶ": 10109,
      "íĩķ": 10110,
      "íĩĸ": 10111,
      "íĩĹ": 10112,
      "íĩĺ": 10113,
      "íĩĻ": 10114,
      "íĩļ": 10115,
      "íĩĽ": 10116,
      "íĩľ": 10117,
      "íĩĿ": 10118,
      "íĩŀ": 10119,
      "íĩŁ": 10120,
      "íĩł": 10121,
      "íĩ¡": 10122,
      "íĩ¢": 10123,
      "íĩ£": 10124,
      "íĩ¤": 10125,
      "íĩ¥": 10126,
      "íĩ¦": 10127,
      "íĩ§": 10128,
      "íĩ¨": 10129,
      "íĩ©": 10130,
      "íĩª": 10131,
      "íĩ«": 10132,
      "íĩ¬": 10133,
      "íĩŃ": 10134,
      "íĩ®": 10135,
      "íĩ¯": 10136,
      "íĩ°": 10137,
      "íĩ±": 10138,
      "íĩ²": 10139,
      "íĩ³": 10140,
      "íĩ´": 10141,
      "íĩµ": 10142,
      "íĩ¶": 10143,
      "íĩ·": 10144,
      "íĩ¸": 10145,
      "íĩ¹": 10146,
      "íĩº": 10147,
      "íĩ»": 10148,
      "íĩ¼": 10149,
      "íĩ½": 10150,
      "íĩ¾": 10151,
      "íĩ¿": 10152,
      "íĪ": 10153,
      "íĪĢ": 10154,
      "íĪģ": 10155,
      "íĪĤ": 10156,
      "íĪĥ": 10157,
      "íĪĦ": 10158,
      "íĪħ": 10159,
      "íĪĨ": 10160,
      "íĪĩ": 10161,
      "íĪĪ": 10162,
      "íĪī": 10163,
      "íĪĬ": 10164,
      "íĪĭ": 10165,
      "íĪĮ": 10166,
      "íĪį": 10167,
      "íĪİ": 10168,
      "íĪı": 10169,
      "íĪĲ": 10170,
      "íĪĳ": 10171,
      "íĪĴ": 10172,
      "íĪĵ": 10173,
      "íĪĶ": 10174,
      "íĪķ": 10175,
      "íĪĸ": 10176,
      "íĪĹ": 10177,
      "íĪĺ": 10178,
      "íĪĻ": 10179,
      "íĪļ": 10180,
      "íĪĽ": 10181,
      "íĪľ": 10182,
      "íĪĿ": 10183,
      "íĪŀ": 10184,
      "íĪŁ": 10185,
      "íĪł": 10186,
      "íĪ¡": 10187,
      "íĪ¢": 10188,
      "íĪ£": 10189,
      "íĪ¤": 10190,
      "íĪ¥": 10191,
      "íĪ¦": 10192,
      "íĪ§": 10193,
      "íĪ¨": 10194,
      "íĪ©": 10195,
      "íĪª": 10196,
      "íĪ«": 10197,
      "íĪ¬": 10198,
      "íĪŃ": 10199,
      "íĪ®": 10200,
      "íĪ¯": 10201,
      "íĪ°": 10202,
      "íĪ±": 10203,
      "íĪ²": 10204,
      "íĪ³": 10205,
      "íĪ´": 10206,
      "íĪµ": 10207,
      "íĪ¶": 10208,
      "íĪ·": 10209,
      "íĪ¸": 10210,
      "íĪ¹": 10211,
      "íĪº": 10212,
      "íĪ»": 10213,
      "íĪ¼": 10214,
      "íĪ½": 10215,
      "íĪ¾": 10216,
      "íĪ¿": 10217,
      "íī": 10218,
      "íīĢ": 10219,
      "íīģ": 10220,
      "íīĤ": 10221,
      "íīĥ": 10222,
      "íīĦ": 10223,
      "íīħ": 10224,
      "íīĨ": 10225,
      "íīĩ": 10226,
      "íīĪ": 10227,
      "íīī": 10228,
      "íīĬ": 10229,
      "íīĭ": 10230,
      "íīĮ": 10231,
      "íīį": 10232,
      "íīİ": 10233,
      "íīı": 10234,
      "íīĲ": 10235,
      "íīĳ": 10236,
      "íīĴ": 10237,
      "íīĵ": 10238,
      "íīĶ": 10239,
      "íīķ": 10240,
      "íīĸ": 10241,
      "íīĹ": 10242,
      "íīĺ": 10243,
      "íīĻ": 10244,
      "íīļ": 10245,
      "íīĽ": 10246,
      "íīľ": 10247,
      "íīĿ": 10248,
      "íīŀ": 10249,
      "íīŁ": 10250,
      "íīł": 10251,
      "íī¡": 10252,
      "íī¢": 10253,
      "íī£": 10254,
      "íī¤": 10255,
      "íī¥": 10256,
      "íī¦": 10257,
      "íī§": 10258,
      "íī¨": 10259,
      "íī©": 10260,
      "íīª": 10261,
      "íī«": 10262,
      "íī¬": 10263,
      "íīŃ": 10264,
      "íī®": 10265,
      "íī¯": 10266,
      "íī°": 10267,
      "íī±": 10268,
      "íī²": 10269,
      "íī³": 10270,
      "íī´": 10271,
      "íīµ": 10272,
      "íī¶": 10273,
      "íī·": 10274,
      "íī¸": 10275,
      "íī¹": 10276,
      "íīº": 10277,
      "íī»": 10278,
      "íī¼": 10279,
      "íī½": 10280,
      "íī¾": 10281,
      "íī¿": 10282,
      "íĬ": 10283,
      "íĬĢ": 10284,
      "íĬģ": 10285,
      "íĬĤ": 10286,
      "íĬĥ": 10287,
      "íĬĦ": 10288,
      "íĬħ": 10289,
      "íĬĨ": 10290,
      "íĬĩ": 10291,
      "íĬĪ": 10292,
      "íĬī": 10293,
      "íĬĬ": 10294,
      "íĬĭ": 10295,
      "íĬĮ": 10296,
      "íĬį": 10297,
      "íĬİ": 10298,
      "íĬı": 10299,
      "íĬĲ": 10300,
      "íĬĳ": 10301,
      "íĬĴ": 10302,
      "íĬĵ": 10303,
      "íĬĶ": 10304,
      "íĬķ": 10305,
      "íĬĸ": 10306,
      "íĬĹ": 10307,
      "íĬĺ": 10308,
      "íĬĻ": 10309,
      "íĬļ": 10310,
      "íĬĽ": 10311,
      "íĬľ": 10312,
      "íĬĿ": 10313,
      "íĬŀ": 10314,
      "íĬŁ": 10315,
      "íĬł": 10316,
      "íĬ¡": 10317,
      "íĬ¢": 10318,
      "íĬ£": 10319,
      "íĬ¤": 10320,
      "íĬ¥": 10321,
      "íĬ¦": 10322,
      "íĬ§": 10323,
      "íĬ¨": 10324,
      "íĬ©": 10325,
      "íĬª": 10326,
      "íĬ«": 10327,
      "íĬ¬": 10328,
      "íĬŃ": 10329,
      "íĬ®": 10330,
      "íĬ¯": 10331,
      "íĬ°": 10332,
      "íĬ±": 10333,
      "íĬ²": 10334,
      "íĬ³": 10335,
      "íĬ´": 10336,
      "íĬµ": 10337,
      "íĬ¶": 10338,
      "íĬ·": 10339,
      "íĬ¸": 10340,
      "íĬ¹": 10341,
      "íĬº": 10342,
      "íĬ»": 10343,
      "íĬ¼": 10344,
      "íĬ½": 10345,
      "íĬ¾": 10346,
      "íĬ¿": 10347,
      "íĭ": 10348,
      "íĭĢ": 10349,
      "íĭģ": 10350,
      "íĭĤ": 10351,
      "íĭĥ": 10352,
      "íĭĦ": 10353,
      "íĭħ": 10354,
      "íĭĨ": 10355,
      "íĭĩ": 10356,
      "íĭĪ": 10357,
      "íĭī": 10358,
      "íĭĬ": 10359,
      "íĭĭ": 10360,
      "íĭĮ": 10361,
      "íĭį": 10362,
      "íĭİ": 10363,
      "íĭı": 10364,
      "íĭĲ": 10365,
      "íĭĳ": 10366,
      "íĭĴ": 10367,
      "íĭĵ": 10368,
      "íĭĶ": 10369,
      "íĭķ": 10370,
      "íĭĸ": 10371,
      "íĭĹ": 10372,
      "íĭĺ": 10373,
      "íĭĻ": 10374,
      "íĭļ": 10375,
      "íĭĽ": 10376,
      "íĭľ": 10377,
      "íĭĿ": 10378,
      "íĭŀ": 10379,
      "íĭŁ": 10380,
      "íĭł": 10381,
      "íĭ¡": 10382,
      "íĭ¢": 10383,
      "íĭ£": 10384,
      "íĭ¤": 10385,
      "íĭ¥": 10386,
      "íĭ¦": 10387,
      "íĭ§": 10388,
      "íĭ¨": 10389,
      "íĭ©": 10390,
      "íĭª": 10391,
      "íĭ«": 10392,
      "íĭ¬": 10393,
      "íĭŃ": 10394,
      "íĭ®": 10395,
      "íĭ¯": 10396,
      "íĭ°": 10397,
      "íĭ±": 10398,
      "íĭ²": 10399,
      "íĭ³": 10400,
      "íĭ´": 10401,
      "íĭµ": 10402,
      "íĭ¶": 10403,
      "íĭ·": 10404,
      "íĭ¸": 10405,
      "íĭ¹": 10406,
      "íĭº": 10407,
      "íĭ»": 10408,
      "íĭ¼": 10409,
      "íĭ½": 10410,
      "íĭ¾": 10411,
      "íĭ¿": 10412,
      "íĮ": 10413,
      "íĮĢ": 10414,
      "íĮģ": 10415,
      "íĮĤ": 10416,
      "íĮĥ": 10417,
      "íĮĦ": 10418,
      "íĮħ": 10419,
      "íĮĨ": 10420,
      "íĮĩ": 10421,
      "íĮĪ": 10422,
      "íĮī": 10423,
      "íĮĬ": 10424,
      "íĮĭ": 10425,
      "íĮĮ": 10426,
      "íĮį": 10427,
      "íĮİ": 10428,
      "íĮı": 10429,
      "íĮĲ": 10430,
      "íĮĳ": 10431,
      "íĮĴ": 10432,
      "íĮĵ": 10433,
      "íĮĶ": 10434,
      "íĮķ": 10435,
      "íĮĸ": 10436,
      "íĮĹ": 10437,
      "íĮĺ": 10438,
      "íĮĻ": 10439,
      "íĮļ": 10440,
      "íĮĽ": 10441,
      "íĮľ": 10442,
      "íĮĿ": 10443,
      "íĮŀ": 10444,
      "íĮŁ": 10445,
      "íĮł": 10446,
      "íĮ¡": 10447,
      "íĮ¢": 10448,
      "íĮ£": 10449,
      "íĮ¤": 10450,
      "íĮ¥": 10451,
      "íĮ¦": 10452,
      "íĮ§": 10453,
      "íĮ¨": 10454,
      "íĮ©": 10455,
      "íĮª": 10456,
      "íĮ«": 10457,
      "íĮ¬": 10458,
      "íĮŃ": 10459,
      "íĮ®": 10460,
      "íĮ¯": 10461,
      "íĮ°": 10462,
      "íĮ±": 10463,
      "íĮ²": 10464,
      "íĮ³": 10465,
      "íĮ´": 10466,
      "íĮµ": 10467,
      "íĮ¶": 10468,
      "íĮ·": 10469,
      "íĮ¸": 10470,
      "íĮ¹": 10471,
      "íĮº": 10472,
      "íĮ»": 10473,
      "íĮ¼": 10474,
      "íĮ½": 10475,
      "íĮ¾": 10476,
      "íĮ¿": 10477,
      "íį": 10478,
      "íįĢ": 10479,
      "íįģ": 10480,
      "íįĤ": 10481,
      "íįĥ": 10482,
      "íįĦ": 10483,
      "íįħ": 10484,
      "íįĨ": 10485,
      "íįĩ": 10486,
      "íįĪ": 10487,
      "íįī": 10488,
      "íįĬ": 10489,
      "íįĭ": 10490,
[...]
